node {
  name: "LSTM1/Variable"
  op: "Const"
  attr {
    key: "dtype"
    value {
      type: DT_FLOAT
    }
  }
  attr {
    key: "value"
    value {
      tensor {
        dtype: DT_FLOAT
        tensor_shape {
          dim {
            size: 1
          }
          dim {
            size: 50
          }
        }
        tensor_content: "\377z{4Y\031\341-!\031A?\370\207\027?\036\342B\277\235w\304.\254\367B\277\214\004G\271\350\201O=\177O\034<\340\337\026\27772\r?\350\302:?[:\330\257\231\206\305=\020\357\313<\310\306B\277\221\312\302\266\250\322\010\263\022,,3\212\":?\315cD\252\373\366B\277\313\014\221,\375\254\t\266\330\321x= \037@?H\356\3758\254\261\0237\261\334R<b\270\021*\240\250B\277\007l[\260\021%\347\274V\33008*d(\257\316H\022-\215\273\320\260\336\002F5\021U\342\263\303l\2058\235P\2533\356\206\2171\326\2126\265\273k\3627X\362B?c\216\r:\351\252\3267\255\367\316\265\250\005\3314"
      }
    }
  }
}
node {
  name: "LSTM1/Variable_1"
  op: "Const"
  attr {
    key: "dtype"
    value {
      type: DT_FLOAT
    }
  }
  attr {
    key: "value"
    value {
      tensor {
        dtype: DT_FLOAT
        tensor_shape {
          dim {
            size: 1
          }
          dim {
            size: 50
          }
        }
        tensor_content: "\260/~?\300\205\233/\000\233{?\272<.?\252\322\177\277\240w\304.\236\377\177\277/\270G\271\232\323\253=?~\034<ly_\277\000\000\200?\000\000\200?\000\000\200\277X)\306=\270\370\177?\\\213\177\277v\374\177\277x;\205\271\371\374\3057\222*l?Q\304\002\271\006\376\177\277\251\331\2433\357\030\025\266w\324\371=\311Zy?\013\312\0039-;\2237\277\351R<\242\020\3303\265T\177\277c\226~\277\350\275}\277\372cv?\2173\273\275\336H\022-\271\364\364\2604\347}?\022\000\343\263\254m\2058\233E\027?\220\276\177?\001\002l\265\334\325\177?\361\362\177?\364\377\177?\024\004\2038j/|\277\213\235\310<"
      }
    }
  }
}
node {
  name: "LSTM1/kernel"
  op: "Const"
  attr {
    key: "dtype"
    value {
      type: DT_FLOAT
    }
  }
  attr {
    key: "value"
    value {
      tensor {
        dtype: DT_FLOAT
        tensor_shape {
          dim {
            size: 37
          }
          dim {
            size: 200
          }
        }
        tensor_content: "\000~\262\273\276\376\336=\220s\375\275\363\347\277\275W:\030>\374\316|=\306\222[\275\226x\314\275[\274\254\275a\221 \276\356\300h\275\256\205\361\275\006\031\036\276q\224\010>\206\272I\275z\355\271=7m\022>R\030F\275(N\305\274\202\232\330=j\220\230=\270\223!\276B{\225\275_O\022>\031\333\234\275\223\311\035>\316L\314=Tr\013=@\035#=JJ\242\275D\t\002=\332k\'\275\364y\266=\306\244\206\275k\'\304\275\221\272\014>`\212\366\273}k\037>^F\361=,)\347\275j\026\234\275\010\337\263=\252\224\016\276\242{\337=\003j\361\275\340\250\327\274\320D\330\274\370W7\275\252\357L\275\361\277\014\276\240L\320\273`\335\350;Mn\014> =\013\274\306\213\364\275`\265\035\275\222\260\243=FK\251\275\372m\321\2754\201~=Q\337!>\314x\354\275\200\367A;P!n\274\374[\022\276p\377\213=h\0009=t\264\032\276PHQ\274$a\177=\250Cg=\376U\367=\231I\027>zx\311=\3528\303=\016k\270\275\302\036\315\275\324 \010\275h\237|=\302\301\364=8\201\332<\030G\266<\252\274\317=\233\222\277\275\370\230i=\212\361\303=<\261\254=\324\343\240\275\000\202\025\276\001\365\030>\010D{\275Z\022\337\275\333\\\243\275\021\211 \276v\020%\275`\257:<\236\230\227\275\226}\022\276@\214\231<\200{\313\275\320\327N\274b\227\031\275\227\n\227\275r\303\350=\020D\351\275\316T\363=\356\260\025\276\306\r\304=\230[\323<LU\013\2760\335\353\275\034\350\177=\327\006\253\275Q\332\016>\344\003\227=\"=\342=\362\306\337\275B\017\365=\204\374l=xl\031=\000\277\307\275\234\374\314\275|\216v=\264\227\266\275\\u\004\275\254.\010\276\354\020\376\275\210e\257\275f\316\354=\270\337X=\361Q\033>@\363\240<\253x\017>\300{\371<\306\356\340\275\2471\021>T\000#\275w\333\032>8\316\331\274P\226\323\275\010\005\031\276\000\232p=\006\314\316=xf\000\276\000\200\241<\350\000\363\274,\336`=.\374\321=\356\244\323\275\014f\265=\234\262\225=\000\007\340\274\270L\017\276\376\311\253=\007\002\020>\276\247\304=R\223\234=<\367\017\276 !\321;\307\005\260\275}\270\021>@\025.\275\376}/\275\230\312&=\214M\257\275\023\330\232\275U7\267\275T\037\275\275|W\325\275\335\332\r>J[-\275\3165\363\275<\034)\275u\362\034>\360\225\010\275\316U!\276\304\227\004\276\320d\216\275\344\225\225=\010\314\314\2744\031\006\276\331\003\025\276\010\276\334\274X\246<==\250\222\275\3551\022>\346\034\306=\366\356\374=tb\357\275\200\206\301\273u\336\025\276\230\247\353\274\256\t\333=\016#\377\275\030\025\252<\300\304b\274\321!\036>\000\375\253\273X\207\333\274\306\020\260\275\3055\030\276\366\273\344\275\360/\365\275\240\241\017=\364\nU=\221?\"\276\222#\030\276\262\360\310\275V\260&\275\254\304\001\276\026\205\004\276\205T!>\200#\340:\000\254\366\272\300\257#\274\346g\026\2758\262\341<\232\307\222\275\374\3412=\336\363\032\276\004\362A\275\240\035n\275\007h\020>\030j\352<~3\236=\356AB\275\324\357\024\276\332(\255=\250\341\224=\304,\370\275\270\333\374\274VA\340=\340f\344;\362W\025\276\013H\030>\267\244\017>\tP\014>A\000\027>\200\243M=\346\014\004\276\362\302\333=\205\235\020>\002\215\327\275\022\000\027\276\314\246\270=8\243\235\275T\020\026\276\226\002\036\275\327$\n>\024=\020=zKt\275\020\245\212<\345\327\026>\334Z\221=@\243\203<N,\305=46\021\275\031\037\007\276(\'\005=O\021\027>\202Y\030\276\240\0347=P\253o<\352\376\354=\204\013V\275\210B\353\2758\337\365\275\361V\342\275p\271\223\2748\033\340\274\000L\034:\016\242\000\276\354+\030\276(\243\223=\230\'\266\274\032\214o\275\226\327\272=hV\022\276\346D\"\276\251D\004>\034\3426=\006\225\315=\356\357\204\275\246\304\217=\203^\226\275rR\351=\340G\247\273\214\325?=1\352\001\276 \314\310\273\000\233\212\272\327\351\010>\244\341\320\275\312\312A\275\232\217`\275 \244\036\276\210Z\006\275\010\2516=\360\312\003< y^<n\321\356=\220\261\272\275\010r\331\274\206\225\251= (\036<\000HN\271\000`\320\273\212\336\320=\202\356\374=\315\211\">\235\014\037>@\215\275<\270)\236<\345\001\017\276Z\226\375=\220\"\024\276\024o\222=h\267\235\274 \023\263<\342Ad\275\270eQ=\000\363\372\275P\272\301\274l\030\236=\360\352\004\275\233\276\031\276\344\016\024=\334\243\202=\374lW\275\003\341\023\276@\241N<(\274\223<W\330\022\276\300\232\243\274\0070\212\2750\237\307<*P>\275\323\306\333\275\220\244|\274\367y\016\276F\303\203=\200\207\';D^\034\276\212x\327=\200\314\353\272G0\024>\232\271\356=L*`=F\256\305\275@$\024=y\370\034\276=\305\020>(\312\327<\361p\210\275&bB\275\360\030\376\275@\021\332\275\212^K\275\271f\017>\032\372\025\276\364k\370\275\201\270\010>\370%\340<\031O\024>\\d1=\260\234L\275(\246\033=\344{7\275\300\223\313<\350\3031\275}K\020>H\253\036=l\032\354\275 )\202\273,$Q=ss\300\275<<\231\275\032=\n\276\322\032\212=\342\327\233\275\263\366\253\275+u\273\275\026\377\374=\201\250 >m\346\013>h\253\315<}\324\020>\216\332\306=\rC\022>(K/=\260\206A\274.5\243=\221\037\355\275(\221\022\276>\017\246=\374\2146=bS\373=\017u\210\275\213I\002>\260B\025\276\006m\316=\214\237\236=\371\377\001>\3351\324\275\3345\357\275\246\220\257\275m\n\007>\350\227\212\275\326\001I\275\014\003i=\030\246\365\274P\226\010<\014\315\016\275|M@=V}\025\276\366/8\275\366\270\337=\260sd=\002/\266\275\251\263\022>\240\361\000=@\263\304\273@\314\n\275\273\023\347\275\312I\034\276\016\262\367=\346\002\325=\320k\023=\342\2248\275\025|\">\340\031\267;F\323\212=-7\361\275fE;\275`=4\274\226\022p\275\204$z=8iT=\360\031w<\202\271\303=TO.\275\270\330\223=\306m\342\275\002u\242=\267\242\002>@\033\333\273\254q\344\275\030\207\223\274\014\266\271\275 \273#=\241\271\024>\nw\361\275l\341\205\275\272\307\026\275\024*\276\275\310\271\254\274\200\233{\273pU\267<\336\262\343=\251\004\305\275\227G\020>\340LS=\006Y\322\275\274\224\275\275\322\356\274=\276\316\212=,s\010=\000!\337\274Wc\010\276,\345\266=D\304A=C\263\267\2750\262\211<E\341\252\275_3\026>\224\227\355\275\211\320\035\276c\372\017>\330\\\242\275\272\272M\275\376 \322=\210W\360\274\342q\312=\336\356\271=J[\305=Hd\037\276\300z\001<\300Fm=\200oM=\0069\347=\220\373\273<\345q\036\276|\333\035=\262\177\333=\000\027\222:\261w\020>h\204\333\274\200\020\304\272\344]\251=.\362!\276\265\255\374\275\007j\006>\353\312\032>?\035\022>\270bO\275Po2\274g\030\201\275\314\177\225=\324\274\205\275\370~\376\274\340\247\275;vZ\363\275\345\204\014>h.$\275\255\\ \276[\306\r>\216\217\327\275\244)\036\276J&\347=\242\325\371=$\210$=\360+(\275F|\017\275\000\027h=\366\212\370=\000\'-\274Rd~\275\270\272W=\240)\263<vQ\230=Pq\305\275h\252\027\276\316g\363=x\335K=X\001\270=T\362P=\206,\340=\234\363\027=\274\336\205=\020\345J=\014\313\312\275\240>\340<\220\030?<0x\312\275\223\326\027>\216\201\372\275`\310\321\275\002\023\354\275\340\3610\275\344\323\364\275\020\271\212=j&\311=\225\361\233\275\300\312v=\302>\336\275\2000\026<\020\265\241\274\026*\373=\2230\367\275J\010\366=To\227=\320\341\001\274\010\257\223=`-L<\232\357\001\276\310\212\206\274l\t\003\275\365D\036\276\2128\t\276\332\365\301\275\305\377\024>\027\216\205\275P;g=[E >9\\\251\275\370xk\275- \025>\323\017\032>\346\233\371=d]\214=\2746\036\276\020\375\241\274`\245\263=\2023\310\275\255/\027>\230\326\304\274\250\240\017\276`\346\257\274\373P\010>\200*\252\274\376d\274=\270\241\004\276\234\r\007\275F`6\275\311\324\034>\333\007\024>\r\245\006>\212\016\374=\317\025\233\275`\207e\274\027\314\006>zV\372=\230\017-=\324\274\261=^\340|\275\200U!;$\245\246=0*\360<b\027\345=\200\341\024\273\206\305\025\275\334?l=r\334\300\2753%\026\276u/\240\2752t\324=(a\330< \214\215<Bt\277=B5\243=\266\t\252\275\247\226\214\275lc\212=\312)\207\275\2302z=\323\225\003>i\025\264\275e\235\237\275\030\350D=?\266\363\275s\014\257\275.\231\226=\274\345e=j\202\347=du\217=\354\'\006=<Qs\275w@\023>r\020\201=(w\230\274+\322\035>S\247\027>\276\216\261\275\"\036\316\275\340\3218\274l\201|=\254\274\373\275v\364\225=\251~\013>\300\264\331<p.\255=\256\307\016\276\364!\211=\027\264\222\275\240\254\321\275\300\020\017=07\327\275\272\215\275=\320\263\302<\374\322v=\262kp\275`S\027\276@\364\033\2758\221@=\342h\202=\262%\374=\366\037\340=\250,\221=\260\230\271=\340\237v<\300\014\203=\006\266\331=\217\307\t>\200\231\031;\310\234\317<\300wS<\240p\306<\240\217\311\275AP\013>Q\367\261\275f{\331=3Q\005>\350\202\333\274H\001\350<\252\311\200\275\024b;=\250\027\236<<5\270=\347\' >)\353\037> y\n\275^`\324=\304\240\267=I\035\033\276\356]\020\276\010\215a=\360\335\356<\243\204\000>\260-\332\2758\020G\275\366\231\376\275g\210\r\276\277g\024>0\3524\274\250\221\267\274&\342\"\276\377\366\023>g\303\247\275\006t\325\275\240\256\373\273!\340!> \327\251;\"Y\202=\036\330\310=\000\367\241\272\327\367\246\275\312\177\326=\362\352\360=\300\240\r<6\356\312\275\n\361\244=\010\367\223\274\025\221 \276\200\274#\2746.\301=^\362\007\276D\0029=\252\025\325=\020\305\272\274\306\024\354\275\240r\254=\270B\000\276|\204O=\212\242=\275\377<\304\275\256\355\354=\257\354!>L\001\250\275\336\214\206\275\211\277\017\276\200K\231<\000(\365\272\206\010\262=\200\374-;\010\\e=(r\031=<\314:=\367\020\030\276\000E\365:&6\366=P\337}<]\264\010>\276w\204=\t\235\235\275\223r!>\022\335\303=\313B\252\275\370\000\252\274\275\266\024>P?E\274\017\210\255\275@\"\275\273\347\025\035>\300q6<\002\270\341\275\260u\217\275\315B\216\275\362>\370=0\364\025<_!\004>\234,m=Z6\372=:\226\217=\304\024\201=8=\314\274\310I\212\275\227D\010\276f\242\020\276#\300\005>@\250\004\274z\320\367=J\201\312=\216\237X\275\356m\326\275\332\302\242=[F\260\275Ot\034>9\223\017\276 \200\220\274P=\227\274h\243\203=`8!\274\220B^<cn\021>AX\021\276.\027(\275\204\223J\275\022\343\310=\300\003\315\275\366\255\345=>\321\350\275\304\313\332\275\220\277\250<|H\014=j[\363\275\"\257\007\276\266Q\346=\234!\025\276\357q\204\275$X\007\276(\220\203<\220\324\200\275\300\350\317\275\256\2459\275\"]\251=\267\024\032\276\362\006\352=\250\0211=@\024E\275\322w\262\275\037\'\032\276\000l\266\274\n|d\275op\351\2750\3062\274\210\365\232=\320/\223\274\310\022\303\275\360\006\370<\202e\"\276\254\260V=\3643\213\275\216w\232=.v\035\276\3462\242=\300(\004\273\001\346\375\275\310\316\301\274(I\207\274\240\257&<\257\267\025>@\301%\274{E\377\275\250P\356\274\226E\220\275 0k=K\302\001>\370;q=Z\357\375=\232!\362=|\266;=\312F\025\275\342\311\003\276\350\277\244\274\352\200\366\275E\031\">\220XN\275Z\340\n\276\354P\224=\013\350\226\275U\031\007>\004pT=\324\264~\275\230SR\275\343\247\021>pK\030\276(\264\200\274\000\000\2767\212\264\277=F\324\312\275\366\014\235=\224\031T\275P\252\223=5.\010>\344-,\275H\337>=\326$\035\276$\351\027=\020M\334<k\301\034> 8\334<\316\271\267=\000\325\251:\214zG\275\226al\275:\315B\275\224\235\306\275`\272\251\275\302\245g\275\230\211\250=\213\021\000\276lH$=X\007\211\275\312\206\370=\260\353\230\274:\371\372\275\036\277\034\275Ii\327\275|\262\211=\330\313V=bv\330\275\032\024\243=\234\3424=\346\302\367\275\312\344\273=\347+\027>6\332<\275\352\355\"\275c\"\017>.\363\300=\362\334\366=H>\346\2752\326\001\276\334\276\r\276\017>\021>\302\352\315\275l\223\227=\0175\023>\312E\331=\260\031\021=0\330n\2756\307\037\276R\026\307\275t\220\314\275M\201\007\276\330\362\373<\307Q\n\276\350An=\272,\346=ke\n\276\270e\375\275\226\032\237=\322>\036\276\2603S\274@Y\323;W\274\004>*\214\264=\340YW\274\214G\t\275?\200\010\276l\223\250=\360_\365\274w\232\303\275l\356j=\262\375\362=X/{\275+\354\373\275\220Ma\274a\221\">\260\002t<f!\340=x@\324\274\005\321\217\275\036B\211=\340\306\212<X%\352<\3541\242=\014\204 =\200-\177;\256\\\026\275\215\031\243\275H\234\206\274hE\206=\325\355\351\275\202\271\317=\216\326\270=\022#\207=JF\263=\304E\007=\230\242\315<\250\263:=Ps\256<(\3004=\320\363#=V\222\352\275\244wK\275\245\336\200\275\324R6\275\350s\216=\340\355s=\356[L\275\252\317\375=\000\340/=-\300\266\275\026\317\232=n\256s\275\257:\031>\322*\357=\376/\374=.>\200=JC,\275P\257I\275\030\'\006\276\320\347\355< \334\201\273L\231n=&\231\250\275\375\257\006>\216d\263=(\255\244\275ZZ\255\275Lj\233\2750\323\316\274\332\211\316=\302\025\277=t\\\225=\320\276T=nod\275uE\020>\334 I=`-\373;\210\205\225\274N`X\275\020\033\323\275T+\202\275\321v\226\275 \222\234\275\340\013\242=<_\010\275\000\233\037<\260\000\247<\355\002\017>\201\250\016>N\265\265=B\262\354=\274\320\003\276c\270\306\275\270&p=.\264q\275\0020\255\275Z\241\241\275\374j\320\275\270\306\212\274\037k\261\275\001\013\013>S\217\r\276@\023\227;4\035{\275\350 \262=@\306\257=\360\357\355\274\340\203\233\275\016G\210\275p\345\016=\2541\266\275P\032y=\023\r\013>\262@\337==\377\357\275\000\320\2419 \000\324\274\212\342\234=N,\212=n\n\326=\037&\t\276\rw\016>\200Z\354\274\303\220\377\275\\\340\027=\003\255\023>\340\220\332\275M:\336\275\322\307\353=-\\\035>*\251\030\276\"\335\256\275\031\207\n>$E==\3163]\275\220 `<\207-\n>q\327\016>(> \276\030\306\250\274`\356\255<\224\255\031=\036\260 \276d\241Q=P\303\355\275P\355n=\226Y\334\275v[\004\276\330B\t\275r\313\002\276\202w\230=\310\357D=p\002\226\274GL\357\275\200>W\274n\005\255=\350!\245=\210\330N\275\226\273\354\275\322\267\314=\364\226\"=\306\\\225=:\"B\275\254\255\203\275@ra;(U\313<\340\003\340\273N\373?\275\240+}=\274#\323\275\216\214J\275\326t\367\275\240\237\352;\310E\027=\250I\220<W\035\021>\222\226\260=\337\254\372\275\007d\025>9\350\003\276@\022$<\360a\275\275K\240\027>\310\003\273\275\"\010\205=T \r=\360\376l\274z\344\212\275\350\353\240\275\222\253\033\276<Y3=\201\234\022>\205V\273\275\262\206\332\275\036j\256=\340\355\334\275db\271\275[\322\270\275\232tM\275<\005\240\275\240\337|<r3\274\275\006\036\262=T6\262=\276^\264=\204\003t=\020.n<\314x\243\275\240\234\"<\336\035\360=\260\344\340\275\260\252\353\275\004\331\307\275Py\262=F\027\236=\ts\022\2762\220\302=\030\365\t\276H2\036=\200\206\331:u\371\023>\244gN\275b\371\344={T\033>\251\n\026>4b\264\275\000\207\021<\353@\201\275\254B\004=\023\022\364\275\240Bu\274\330\340R\275\217f\210\275\270\361?=([\t=d\n\227\275\245)\027>\276\252\021\276r\202\206=\345$\205\275h\032^=\206F\304\275\216\223\272=lhg=[\330\033>\261_\010>Z\375\250\275\000\225u=Xt<\275\254\320%=\330\303t\275f\372\341=\210O\023\276p\302\"=\n\235\222\275\200x\217\274\220\007I\275`\364\306\275\222j\343=@W\250<\366\034\344=x\201\226<\200\027\201;|q\006\275\200\260\375\275\214TR=\372\351\334\2754@X\275T\370~\275/q\r>\200\016\350\274\300\367s\273\300\375h\275di\234\275(\312\347<\360\'\350\274t!\016=\370\323\360\275\310\366\327<\274+\314\2756\024\334=(\005\237<\316)k\275\306|\027\2769_\"\276\320\354\t\276H\244\211\274R9\234=\264\003\324\2750\365\255=W\335\t>,_\025=f3\325=b\255\367=\337\014\035>\251\310\267\275\335\233\327\275\220\355\037=^\355Y\275He\261\274\327\275\004\276b\023\352=\212P\355=\304$\001\2760\013i<\304\225w=H\330\353<\000Q\033\27422\321=\200\201\277<u\371\026\276\307k\025\2762\035\345\275Gq\260\275+)\025\276\23098=R\233\254\275pH\001\274.\031\355=\372%\r\275\016\312,\275\300\n\237;\270\252\266\275\252:\356=\025\250\030\276\310O\005\275\343\322\034>\200HE<b\341P\275X\304\231\274rD\351=0W8\274x\317K=\214 h\275`\312\205\273\3075\003>\346\357\263\275~\261\304=d\232\020\275p8\362\274@\243O;\242\221I\275\311\200\"\276\337\344\004>\270\263A=O1\006>\375\237\"\276\206\311\302=P\367\315\274\272\312\376\275*S\272=\004zp\275d\025j=J{\014\275\000\364C<\330\314\325\274\332K!\275 <\366;\200\2579<\000T\031<P\213 \276\212\326\327=@\264\314\275\311l\n>\330\205\200\275\300pD\274\200E\200<UH\214\275\302\252\371=\206\220\030\276\347V\342\275Z2\343=r\256\226\275FT\275=\344<\241\275\022\231\252=S\362\013>tJK=\212\221\035\276\215\212\022>\360\377p=\240s\361;\275y\014>Fe\372=\277\227\014>\246~_\275l\026\367\275g\363\032>\230`\361\274\271\207\">~\030\363=\215`\032>\366\361!\275N\005\014\276\361\331\026>\220h,\275\230\031h=\260\240\217=0\321\r\276\006-\376=\231\262\r>\002\366\353=\020\231\336\274x\351\200<\340x\225=\030\352.=z\252\035\275x\272\021=\014\365\004\2750D\252=P.\241\275\240\032\354<\0146\033\276<j\027\2760\274\366\275\325\013\253\275`+\304;PD\365\274\002\006\347\275X\277\312\274X\332\246=B\326\376=\366_\360=X2\310<\0220\022\276\033 \246\275\002Y\250=\335\247\240\275\025 \201\275\320\263\220\275\3341\010\275\372\262]\275\212\326\220\275\250\220\254<\036\372\333=\214\335?\275\366W\264=k\366\021>\372>\344\275\000j_\272[7\334\275u\323\031><\374\032\275\203)\205\275\345\034\214\275\250\272\253=\"\020\341=8X\274\275\234\030\223=zY\241=\266\006\024\276f\313x\2754\204\326\275|P\001\275\014\314R=/)\010>\207J\032>\252+\252=\234\020\267=\225\212\025>h%{=\234\317\231=\034\006\035=_Q!>\024V\023\276S\345\221\275f-\206\275\364\014\001=\016.\005\276\360\223\352<\260\366\232<\260t;=\340\351\'<\026\201\244=yl\003>\327\301\203\275y>\034>\250q\212=\244I\n\276\360\360\211\275\206\316\347=\207\016\262\2758\031\320<\000K\024\276\254\253\t=X%\224<zA\322=\360\252\345<\224\010\t=\024B\254=\225\343\"> d\264<c\000\262\275\300/\220=\272\236\306=\250\021\336<\204-\032\276x\010\247=T\246\000\275}:\304\275\260\261\003\2768\272?=\024V)\275I2\365\275\332`\241\275\245l\036\276\260\346\211\274JZ\317=\257\357\r>H\341\335\274\2424\314=\001\357\022>t\3779\275\022\007\031\276\346l\352=j\266\343=nC\305\275\022r\313=\220\275|<\301\274\311\275\200F\365\273\376E\267=d\237\211=\241\365\027>:\262\201=A\327\023\276DV\227\275\371}\022>\013\312\010>LA\236\275+\\\007>@x\211=\262w\275\275h\177\023\276\240\235\021=9O\211\275\321\261\006>0\000\336\275\226\262\373=Z\376\334=\000\013\263\275k\326\007>\000\355r\274\203\317\033\276R`\300=\300\250\357;\0258\333\275\014\2545=]^\237\275V\260\347=@Z\333<\367V\036>W\035\023>\363\025\035>\344\305\237=\230Q\226<c\340\234\275\242$\017\276\200\304\367;\223d\247\275\217u\036>,\323\026=\000\311\371\273^\201\327=\224\r\210\275T\0366=\327\261\001>b\262\271=x\016\206=8\025e\275\000V\353:\200w#;\236^\375\275\234\014@=1\326\014>~@\321=\263\263\002>\367\317\013>\330g7=\312W\303=\370\264N=\321!\252\275\267}\026>xS7=\022\366\372=\370H\232=\350)\222=p\r\036<z\331\200=\334\234\212=\"\351\206= _\020=<m\336\275P.j\274\312\356\370=e.\212\275$c\302\275 |\016\274Pl\207\274{\374\032\2760T\347\275\312^k\275\300\315b\273\270\211h=|-\'\275B\376\324=\224\2120=~\034\036\276\255\357\276\275q~\016>\177\002\237\2750\305\023\275\241\207\n>\333\235\370\275\375\020\016>\373z\336\275~\217\210=c\353\000>\nT\035\275\246m\305=g4\007>\305\365\r>z\304\224=`\017\026\274\222\365\277=\320H\005\274\317\233\263\275\300\322\177\275\367\002\351\275 \3163<\320\200\023<\200i,<\346\227\324=\001\020\241\275\236\201\271\275b\233\317\275\317\316\037\276\321\336\353\275*\216\205=\2262\313\275\030\277\240\275\322\026O\275TS5= \242\030\276\335\265\263\275\000\224K;\214\013\241=\357\366\356\275\230\013\356\274\267)\026>\320\336q=\200\254\363\275\024i\022\276\320\035\211<V \306=\345\302\242\275\007\007\223\275\000\212F=\200\343\362;\000\307N;\010l\006=|\004j=@\276\225\274\346c\304=@\0025;\306\035\351\275\226\347\320\275\322\275=\275fJ\276=\000\034\330\271\000\337\272<\3405\245=\260\254\270\275\354\032r\275\363\013\302\275\323\026\005>\002\031\215=\310\222\003\276\007M\023\276\n\324\375=\240\007\215=\244\017\344\275\340$B\274\250\006B\275\3539\003>\030{\215=Q\'\021>\2002\314;\314W\221\275\024;\311\275`\3273\274\270\026\217=\352\241\226=\361z\223\275H\245\363\275\306l\305=\020\200u<\305\235\037>[j\030\276-\302\007>~\371\336=\250\247b=j\277\271=\265\330\017>``\341\273\300\2620\274\330\334H\275\216s\273=\352g\325=\000!Z\275\r\234\037\276LN\243\275\2405=\275\322\252\'\275H\375\315< X\217\274m\262\034>\"\307\311=pZ}\2742\235\377==\367\265\275\227\246\205\275@\221D\2741\372\231\275.\001,\2750\300\230=&4\267\275\334\0232\275q\344\020\276\010U\202\274Cd\203\275h\373\266\275\310_\243=\326\371\366=\020\027z=\330\242\251=\310\346\310\274\224\356u=,\305\243=\005\374\027>\370\225\347\274\222\277\035\276^\270\306\275\256\372\353=[\321\021>n\211\304\275\205j\006>vri\275\324\242a\275G\252\014>\000\324\346\274\240\235C<P\202v\274JwH\275\213\366\001\276\212\271/\275!\253\016\276\226K\367=+\242\302\275\365\326\027\276\371\347\021\276\020\302s<(Gf=D\234\230=\207\273\026>cv\022\276\214\346\362\275R\340\316=s\330\026\276\376T$\275\340UD=lP\231\275\0002\326;\210\255/=\232\352\235\275,\304m=\232N\232\275\360\252s=\316\033\365=\240\007\353;\261s\226\275\240\220\025=\310\347)\275\364\'N=\222\207\256\275\332r\331=\240\364R<\006\307\374=\330\314\270=`Y\265\2745\333\005\276\350\255\311<\375\027\322\275\310g\316\2755[!>\320D\000<\316\005\314=\270\263\271<x\023\212=E\274 \276\305\031\t>\330B\230=Jz\374=\364L+=\336\217\302=\302\000\203\275pp1<z\201\343=\023V\220\275\306\027\031\275x\372\351<x\376\364\274{\215\035\276\324\217\210=@<\306;Xl\023\276M`\002>p\225f\275&_\203= \315g\274x\264D\275\364G\212\275\013\r\017>@\375\350\274p\231~<\267\234\260\275\300\217\036<\350\340\363\275d\255D\275\016\350\337=\326\344O\275\223\207\024>\036,\355\275jJ\235\275\323d\030>\360\343\006\274h_\323\274\307\325\001\276\000\335;\274\330\203\323\274r\026\227\275K\370\035>\360\305*<zr\355=BL\340=\331\302\214\275i\004\364\275\205\350\232\275\352\252\237=\210\022\222<\024_\177=U\334\006>@\222\206\274Uc\025>\364\271\"\276 &\311<q\226\242\275\325\026\201\275B\346\244\275\230Z\257=.\313@\275\300*w\273`\237\024=\323\217\014>p\030Q\274\374*?=Hge\275\200Q\013\276,r\004=\334\3460\275S7\005>\205D\007\2768\314\330<F4\350=\360\251\271\274\200\0010=\310\217(\275\232|\230=&W\350=\376\003\355=\366\366\271=\352\334\276=\247\346\032>rz\270=\200\223\250\275#\004\347\275>\212\322=I\230\020>\006\262\353=\000\034\335\275\250\362\213<\004\263\302\275\347\201\340\275\206\316\315=\034\310?=\370\326\250=`\243\210\273D\330j=4\2143=\262\356\227= \325\220\275\036\273\215=\320\350=\274\200\251\274<\314\315\311\275\326w\275=6\265\375=%\310\034\276\314n7=\370W\212<\274`\274\275\210:\001= V\254=\262\200\370\275\000oY;\361\017\006>\210Z\216\275\360\230\246<\230\274\323\274\300\356c=\014$\003=P@~=\0003D\273B\014\307=\n\204\030\275\317\360\007\276`{\367\273\355\232\210\275\340&\202\273\300\320\"\273P\364|\274\301!\027>\2570\027>?\300\316\275pY\024\276\206>\245=\330\006*=6+ \276\311\231\n\276Q\016\021>\243\004 \276\010\250s=\213\333\266\275\340}7\275\200m\265:q\335\341\275w\310\036>\330\352\213<\206;\310=\232z\307\275\223\237\254\2758\n\031=n\303\373=\3018\032>R\\\356=\004\3079=\251\005\005>\266S\361=\300\346(;[O\026>\037\236\020>\314#\021\276l\312\033\276\272\350^\275:N\332=\370g\230\274\344,\236=p\361\330\275\361\213\357\275\226\203\203=\016\n\365=p \021=\306\266\233=\000\030\004\275\270\226\226<LOJ\275`\210\271<<\256\244=\344G\037\275\364\021|=\002\031\377=\337\310\017>8\376\215\274Nw\323\275H/\373\275\345O\036>\353\377\020>\334\177F\275\256\200\331=\232\000d\275\200\313#\273h\203\355<\340|\256\274QR\000>\345\220\037>\376\307\027\276(\310y=\024\225\272\275\352\'\361=\360s\007<z\024\214=8\350T=\037O\"\276 \371\232=@\304p\274\370/X=>\361\371=\262\032\357\275&\361\302\275\023\251\031\276\360\307O\274\234z\016\276\200\353\263\272\253E\337\275\236:\324=\366o\325=L\277\007=\234\3758=\003,\255\275\036\376\352=\000\236f\273\330<\222<\201\332\013\276\0045\007\276\302X\374=\022\022\307=\354\335\037\276\347;\027>\001\"\007\276^\225\332=\010V\200\275\330\334\251\274\3033\266\275\265\276\036>\273&\371\275\200\224Y;\032:\375= \321\335\274\025)\231\275\000\363\370\275f\'\347=\242\352\215=\302\023\330=\010\222\017\275\322Q[\275\256\023\264=Xp\350\274\276K\t\276-W\033>\002\266\256=\000J\'=.4\325=\220\223#\274H`\225\274\333\327\322\275\020b\211<\257\177\n>\354\364:=\240y><\257\031\373\275\242Ao\275\275\013\006\276\\\205\357\275A\024\223\275P\321\024\2744\035\223=~Z\316=\302D\333=\347\377\231\275w\374 >m2\026>\333\270\262\275n[\234=\002\300\326=L\264G=\340y\251\274\375\355\230\275\254\255o\275\0025\347=\222o\311=xS\330\274\035\212\022>\217\267\275\275\026\374\204=0(\023<\330=\322<Q\307\024>Z\326\315\275.T\037\2753\006\003>\026@\353=\200\206\200=t~\033\276_Y\024>\377\275\261\275z\020Q\275 \224W=\265/\n\276\275T\025>\306\023\374=Fs\243=-\202\324\275\220uG\274 D\374\273R\273\344=H\002\010\275f\222\300=^\255\272=\010\264\032=P\n\026<\000m\347<\200bK\274\234Be\275j\t\014\276\354\334\245=z\322 \276~\312\316\275\034m\271=\020\205\022<_l\024\276\356\301\374=0\371\371\274\214P\366\275\204\307\004\276\327B\033>\220\017\324\274\n\315\273\275L=\007=\270\305\262<B\033\301=*\353\333\275@\375(\273\200SR<P\217\324<\000\322\345\273\300\211\310\275\3207\200<\340{\263\273\204#\360\275\266K\224=6\213\237=\344\213\016\275\216\007\232=\006J\353=\357\331\266\275H\321\217\274\240\226\023<LjU=\310\331\333\274\370Q\r\276\300\235\232\274_e\027\276\352\016\374=\323\244\275\275\373\006\027>38\020>`\371\206<\261(\001>Z\376\002\276\377\337\014> ?\010\274\2348\215=\300o[<:\272\242=\325R\035>L\314\333\275P\256\373\275\270\322\331\275\325\277\271\275\224\016p=<\342p=\320\230\021<\220_T<l\360s\275+\020\032\276V\003\t\276d\227P=\360\345m=>\374\342=\344G\243\275\365B\031\276N\357\351\275\362\372\321=\314\013C=\232RC\275\376\030\342=x\r\"\276\364\035\261\275\305\211\025\276,+\000\275\257\215\016>\210)\341<U\370\002>\320b\347<\320\265\333<\367\215\220\275\337u\034\276Nb\200=_\211\004>\200\346\r\273H)-=X\005\313\274\000t.\275\266\212\343=.\231\257=\232d\207=pT\362<\220\023u=:H\200=\273\363\036>\345$\035\276\276\000\344\275\240E_<\000f\215\274\000\212?:\352\004\211=\007\362\023\276\272:F\275\340\324\326\274Zx\361=\312\314\220=\030C\217=\300\017\335;p<p=\246\331\211=\326;\235\275\326\326\n\276p\257E\274\'\211\022\276\\\0148\275\321\273\305\275\030~\255\275\330d\210<\352\n\t\276\036V\364=\002w\001\276\200a\333\274\347;\t>\304L\003=P\255\036\276_\266\033\276\323`\007>/]\">cE\004>`\315C\274`r\250;\330\007\"=n\357\361=\270Vv=\2607\272\274\324N\264\275\217\003\310\275\260\367\215\274\326\316\034\276\200J\251;\023\340 >>= \275\210\022\025=\r}\315\275W\311\">\210\374Z=\220\216\230=3\272\345\275 hp<\244\275\030\275\243\271\274\275\014\345\213\275\220p^=\320\tP<\237\272\r\2760>\374<\177\341\r\276\270\221A=\344\221\221\275*q\243=V\016\014\276\033\225\017>P\361\371<\030\352P\275u*\241\275\263\036\003\276\006\304\374\275\002\210\\\275\020\371^\274\353\257\037>$\203\006=:)\377=\006@\246=-\257\035>\252\001\266=\276Q\230\275`\025\257;\306\325\024\276\320Q\031\276\225\362\220\275F\377\226=\270\266\322\275\035e\034>$^?==\177\025>h\366\203\275\260\223\235\274\252\013\233=\206T\220\275N\374\220=.\212\243=\326\000\353=\326\260\316=\016\351\310\275\250Y\262\274\242\023\215=D$}\275JJ\265=\200C+;,\305_\275P3\230\275V\344\352=b\251\317\275\350t\\=\216H\366=\300\317\226<\240T\264;h\251\371\274Q\312\020>\260\245\265\274\013\237\034>\220\rk=\344\263I=C]\205\275\260\031\337<t\345\t\276\340\315\241<\354\351,\275@y\037=\340\372\230=\254Ty=\000EP;\226\003\322=*/\262=\314\tp=\326q\352\275F\r\325=\026\021\372= \350u<\342l\006\276,\032\\=\217N\020>\321P\004>8c\247=0.\036=\017\212\022>Bi\246\275\300\3534<5\037\004\276\360\004h\274\002`\322=\346\034\226\275:\032U\275\010\260\325<\322\"\257=\320\335\036\276\010\374\251\274\000C\330\272\242K\323=~\2726\275\313\310\r\276\000\221\025\272\330J\373<\234\326Q=%\365\014>\336\007\344=0\251\220<\2374\n\276|>W=\025\344\020>\300\nb\274\210\350}\275\3261\322=\232\372\320=r\210\\\275\204@_=\341n\017>\257$\035>\277\325\006> \007&=\340\222\216\273\200\202x\274x\351\363\274J\325\374=\272\221\222=\212\350\251\275\000~\3039~4\277\275\363\345\">+\227\037\276Z\201\241\275\322)\345=p\003D\274B\320\005\276\264Q\372\275\266\310\202=\350\021\341<\023\032\030\276\250%<=\360\346\202\274\217\337\032>\230z\337\274rZ\212=t\347\244=\000P.9`\267\304;r\301\350=\020\3017=\353\276\024>\330]{=(\223\345\275\314\\1\275C\017\014>\034\001D=Yb\026>p\327h\274\020\013\221=\220\036t\275,V\243=7\263\335\275\320\356W<N\000\316=\366@!\276p3\013=\300;\361\275-g\274\2756[\316=<J\223=\364\210\374\275=\017\033>:\013E\275P\334i\275\027\342\003\276\026F\330=VY\251=\200\227\361\275\230\1777=\350\274\032\275\220\"M<\236\343h\27597\034\276\236\032\343=\"\322\342=\335B\021\276\220U\313<p)\266\275\035u\016>\321\221\262\275P\216\373\275<@u=\2021\310=\355\214\204\275tN\260=\330\202#=\004y\243=\326\316\275=\234\022S=\225\253\001\276<VK=iD\356\275\321\004\006\2765z\004>Lm\017\276\370\373\005=Zr\235=\346\222\255\275\370q\334\274`^\304\274\214\374L\275\333\202\217\275-\021\200\275\327\240\002>\316\036i\275\302\t\325\275\236\334\332=(\356A\275@\3661<!\345\032>\252\003\346=\020\206D\274\331\244\016>\324\226@=\014\353\372\275\226\361\220=.\336\244= \340\230=\340\032j=\000\300B\273\222+>\275S\206\t\276\264\022\032=\362\253\272=&x\316=\345Z\201\275\035\360\033>\243f\004>IE\037\276\010-\272<\014^\274\275\243\227\017>\364\2143\275\220\0252\274\020\234R=\210\264C=\303\210\017\276b\031\250=\265\315 >\202&\313=\336\363\360=\000\325\241=0_\240=&3\214=\2057\025>\232D\242=\371\274\004>P\326\231<T\330+=Ne\212=T=\270=\024dg=\005E!>\236A\242=\377\364\017>\371\346!\276\302\031\211\275}(!\276w\255\017>N\253\310=\242,\351\275\002\256\363=\256\223\252\275\365\005\022> \344\224\275\320\014\253\274\340\305 \275\2302\340<]\237\036>\260sa=\014\205S=\017\235\006>\034\306\370\275P\331\315<h\377!\275\260\324O=\000\277\372\273`I\207=\002\033\330=`\030\272=`\315\025\274&X\201\275\310\356\003=\225\327\250\275\022\332\375=\362YX\275\203\206\032>\362I\277=P\365\036\276\036\244\274=\207\330\016\276\224\307Y\275\270j\273<\034\204I=\030;\374<\360\n\024\274\200\362\010;\274\313\245=\"\"\355\275p\213}<-\323\022>\200dO<\3457\221\275\313h\033>\363M\301\275\243f\033\276\220\277\375<\274*:=\000\210$<\335\355\202\275\275B\035\276\300\3115\275\342v\377=\032\345\215=!\265\036\276n;\207\275\006\017\223\275\300\375s\275\006\315\331=\236}\372\275\254\335b=\250,\352<\032u\351=\300\201\031=Jt\327=|L\227=\314\345\236=\375O\300\275 \025\357\275\000\3439\273\352\213\310\275\322\245K\275!u\t\276x(7=\351&\001>\220\223\354<\032\255\363=\022\006\336\275`F\003=@T\243;\232\264`\275\"T\324=\372U\276=\216\315\347=\300\311\017\276\306\304\241\275\232\'\341=\277\363\013>\000P+\272:\177\230=\0005+\274/\006\014>(S\267=\347\271\232\275\322\303\"\276\374\201z=\320m9\274\222\0066\275\252\314\311\275u\374\034>(V\346<%L\004>@\203V=\\\341\343\275\003\256\001> gt=\276\374\340=\000\306\230<\264\200a=\350Ar\275<<U=\244\"D=\220\341;=\247\277\017>\256\027\372=@\016\035;X\242\233=\006\r\360=jN\305=\250\245\316\275\270 \273\274-\336!>\334\247\255=h\323\371<\236\250\265=Z4\355\275\200\256];\366\273\266\275\022\251\014\276\'e\220\275\321u >\200\033\256\272\300^\201\273\342\362\325=\342\225\306=\300\t\244\275\202\264\313=\274\367\006\275\010v\377\275Xa\230\274\210\004[=Z\375\217\275\260\356m\2754\271%\275\266W\201\275\254\030Q\275T\255\251=\330\335\017=\001q\025>\347\\\004>\326\352\025\275\034l(=\321(\250\275\336\032\224= \330\266\274\362\265\327=\314\276\r=\2201\350<z\004\002\276vH\223=\347s\020>\216\016\275=88\276\274~)\271=\375\341\022>WW\033>\324\233\251=\213\364\264\275J\221\261\275\223\366\231\275\226>a\275\215\267\020>\'\334 \276]\"\216\275\332\021\340=\336\273\337=\336\370\021\276q\307\222\275\367*\334\2754\024\261=\342\371g\275X\374\t\276\226\333\177\275\254\266\323\275\200\024\363;\377\276\004>\230\026\331<\276%\"\276\320\301\331\274\"a\364\275\316,\366\275\264p\327\275J\263\233=\\\\\251=\376\305\357=\345\026\213\275I\010\317\275\212\355\244\275\034\3031\275\326\351\344=]M\251\275\320R\222\274\"6)\275\000+@\272 +\026=\2408\301\273\310\216\310\275\206\316\025\276\350\312\263\275Z\006\305\275\260Z\025=\350,[\275\027\177\034>\244\013\213=r\357!\276\240\246\341\2730\367c\274\005V\022>Rv\263=\345\257\247\275B\207\006\276\347\244\213\275f\342\374=uC\302\275\314\305/\275&\345\260\275\335_\006>XY\253\274 \265\257\273\016\211\030\276\260\315\322< *-\275O\307\r>H\313\247\275\303\314\215\275\360-\023\274\334\013\213\275\2478\313\275\010 \262=\370\353\303\275\003\254\010>\360\301\024=(t\317\274\026\354\341=(\250/=\324fX\2750\317\204<8\010\250\2750P\017\276+R\032>h\200L=\240\256\024\274\350\020\256<\331\356\024>\250\360\350<\256F\305=\024\316\022=t\267O=\003l\021>\334\003\013=%\304\031\276)\232\242\275\254\223\376\275\217[\346\275\342H\366=Bc>\275\nMG\275\334\023\260=7\345\013\276\030\032*=@sM\274R\022\311=\226\255\272= \030\201;\230b\313\274/Z\340\2758>\366\274\252N\344=\025z!\276\302K\351=$m\025\275\232\265\247\275~\206\016\276T\207k\275\030\365\363\275\350\317f=L\014\246=\240\310\256=\377\314\023>\270\361\202=\246\241\227=@\265:\274\274G\302\275 \376\242=\351!\026\276E\252\263\275\344\251\261\275\r\022\036\276\261\233\031\276\265\035\034>1\251\030>\254.!\276P\260\021\276\332<\356\275\310;\220\275zK7\275\222<\364=?\232\225\275\350\320\362\275\230\253W=\3729\376=\300\276\211<\204Y\251=\232\313\316\275\004\344:=\230\235\364\275\3712\030>\326\333\275\275\266\313\320=l\327\227=L\310\276\275\177\314\033>hs\374<,\376@\275\013f\010\276&\272\360=\200\337\231\275bL\\\275\340\341\201;B\323-\275\262\025\370\275\242V\312\275\354]w\275\232\224\233=\272h\377\275\200]\341;\213I\021>\300S%\273\270O\214\274\030\327R=\312\313\\\275\336\250I\275i\327\004>bR\007\276\242 \343= j\221\274\000\310\200:\200T\010=T{\016\276MD\006>\305\243!\276:\334\016\276\340\025.<\002\331\232=\001;\005\276J\364U\275xr\221<\244\374M=\307\257\257\275\204\333\330\275\034\254\260=\021\275\035\276>Vs\275\356>\342=\270\226\216<\377/\n>\222S\347\275\376\034v\275\250N\202\2740\017\003<\364V\347\275z\346&\275j\312\377=N\332\350=8Q\264=\016K\247=\212\225\300=\322\332\304=<nl=Z\\C\275\234@\260\275\227B\r>\252\200\312=\355\370\220\275\267\262\010\276\3404K\274v\227\202=\032%\356=\024\277\213=\343\210\t>\226\\\351\275\026\326\332=\344a\314\275t\024\202=\356\371\227=p\2263\274\300\267}; 9\327;\320\365h<\274\360k\275NQ\224\275\217\312\227\275\362{\017\276\342\337\365=e\324\000>\300\276_;\017\022\224\275d\323\350\275\300\375z\273 \364\032\276i\215\026>\016I\236=d\000!=\330\345\027=\020\rF\275\\\016\236=\324\327W=\2026\276=\320P\221<\316z\241=,D\331\275\270\027I=\2401\035\276}\262\363\275B\033\333=\230\230\223\275\343\347\t\276x3\003=\246\220/\275\364^\036=\262@\022\276`*\360\275\020\222\330\274\323\'\020>\036]\372\275\251\216\033>\323h\204\275\270\305!\276\310H\035\275\352s\324=\330mN=\255-\030\276\211\300\003\276 \023\020<\330\010\214=\177F\002\276\360z\177<\r\265\232\275t&K\275\220\023b=\222\373\243=8W\021\276~x\221\275\3200\235<\236\3622\275\363?\301\275\026\346\270\275\221\022\315\275PN=<@\261\010<\230Bo\275\353\206 >\360lS=\"B \275f\237\340\275\350Y\376<F\215\370=\206d\350=\024\312\007=(JM=\224oH=\300\244\301<\236\313\202=\235\312\n>\\\366\020=|\316)=\300\374\311\274\377}\347\275\006Z\316=\260\263^<\325 \364\275-\004\020>Zt\320=\'2\202\275\377\355\006>x\315\276\274$\034+\275\336\241\363=\221\201\315\275.;\033\276S\020\030>\240\336q=x\250\266=\200\273\261\272oY\017>F\206\273\275\036z\271=J\350\363=?\027\016\276\304x\003\275\020\376u<\251R\000>!\276\033>\244O\371\275\367\261\022>\346\213\326=R\302\252\275d:8=\355I\343\275\201?\265\275q\001\313\275\326\006\202=\300j\220<48W=\262\275\t\276\313\263\032>\016=\344=\220q\226\275.\357\372\275\t\205\026\276r\020\'\275\370\226\210\274\3663.\275l\273\n\275\260\272\020\274yH\035>\262D\351=\234G\217=\370\026\005\275\300\005q\275u\355\246\275\000\031\353\272\316\304\361=$@\370\275EQ\007>=F\032>0\021\341<|\317\242\2752\222\200\275@j1=?\031\250\275\200\257\371:\302\252\340=\324c\330\275\352\353\313=\316r\307\275\200`\233:\210\211x\275W\233\342\275\260\035\377<\324\372\033\2769\332\032>\201\002\310\275\032s\361=\221\362\353\275\322Q\333=\271\360\032>\356q\351=h\272\027\275k\376\036>\032G\265\275\002x\300=\203\332\036>\313q\000>[\247\026>\336\250\301=\200i\233\272\203\356\326\275\310\342d= `\034<\372\327\213\275\t\217\241\275\304\026Q\275\362<\363\275\336Q\310=\034\033\236\275jt\t\276\373\341\035>o\222\007>\360l(\275\364\020\031\276\363\227\304\275\315\223\014>r\342\323=*}\275\275*T\017\276\367K\025\276U-\252\275FV\247=h25=h\030\364<0^\327<\260}}=\267\336\026\276\340\230\246\274D\262V\275\344\273>=\034\237[=\200\247\267\273 \236r<\270\314\243\274\373%\004>\022$\237=\220u\t<Xd\321\274 m\004\275\310X\203<\020x\234<\323q\031>\340\332\335\275*}\273=\272K\371=(\005\251<l\252t\275\252\364\266=\342\376\371\275\337\232\022>\030\333\230=XG\266\274\020\213\242<\254\035L\275\310\356\343\274\030\227\352<\324^\304\275~\341\350=\366O\334\275\\\036\225=\240\304s<`\270\257<\260W\302\274\375O\017\276\306\014E\275\010cS=\374\316e=\232\334\266=\010al=\346\003\335=r[\341=\344\376\222=\372\304\222\275\300\261\367\273\302\347\342=T\250n=\330\271\330\275`\373u=\366C\003\276\017\306\211\275\222\004\017\276i\271\n>P=\266<(\316\031\275\250\027C=\3029\234=\245\314\033>\221u\324\275,j\357\275(\221\344\274Pc\024\2768P\351\274\312{\304=Fe\334=\205\341\024> \371\266\274\030\231\352\274W\r\016> K\205=\312\261\035\276X\367\332\275\220GT\274\r\303\226\275lF\210=\026\246\n\276Y\200\017>\240\004\344\273v\t\327=P]M\274\360zu\275\316\203\267\275\326\352\322=\274\275\016\276\351\353\036>_\210\325\275.\001\345=8\231G=\302\360\377=\276\320\r\275\\\336g=\035\201\220\275\231\275\023>\324\342#\275\000\311t\273\243*\007>\024\376\021\276pi}=0\3377<^~K\275\n\231\310=\231C\006>\330\366V=\330\250\263<\206\372\357=\010l\271<\200\360^\274\025\210\016>\210\262\013\275\016E\307=\342\256\276=\004\201\251=\376\243\350\275H\205\216\274\210j\010=L\371A=,\025\026\276\252\204\303=\2101\305<\r\016!>\020=\264\274\200 x;B\201\362=\272\013\231=\340\324\377\273\032\323\007\276l\017\260\275N\022\352=\000\351O:\200R\301\274-\271\032\276\316z\315\275\200N0\274\331\222\033>\366\372\t\276@g\326<u\032\026>L`\036=\302\230\036\276\266\256\375\275 \r\260\274\205\323\207\275\016g\026\276\300\014\r=\000R\305\271\364\255A\275\200\0231;[/\027>\340\245\020<\216\021\214=\260\235M\275\314%\004=\316C\347=(\245L=\000\323\256\272\310\321\317\274S\324\023>\034\336\264=\336t\203\275\240\242V<oE\032>\273\007\013>\340\326\304\273`:\n<2\243\373=+Z\233\275\235F\373\275\274\0225\275\253\001\n>\375\274\361\275$/\205=\340\311\240\275\321\314\351\275\032\013\317=\016<\204=\020\216U\274\000JH<\030\327\024\275\340.\372\273t\n\256=\351I\275\275\267p\244\275\325L\265\275!X\026>\33092\2756G\323=\223\350\003>v\376\032\275?K\001>\372[\227\275\205M\031>\320cM=gg\021>\375\325\277\275\014\375\002\276\250\\\270=\'\230\n\276\306\255C\275Z\330\253=\200\372F=~M\221\275`\327\301<\010\303\256<rq\230\275=`\017>\226\342\327\275\220n\240<S\361\005>\240\261\313\273s\326\016>\202\362\263=\314\"\362\275\036\276\236=\332W\314=6\303\374=d\241\020=\356n\371=\220\317\241\274|\243\031=\240\241T\274p\306\312<\360X4=:\364\305=Nr\211\275\3705\003\276VV\026\276\250\033\177=\257\372\016\276\324G0\275\2148\030=2B\330\275)\265\210\275B\026\201\275\023\r\030>\270\341\224\274z\272\245=\201\032\013>H\223\224<\373\324\036\276\ts\002>[\364\001>\220\035\276<\210;\363\275N\256\376\275\260\370\241\27451\t\276\"\353\347=@p\340\274\344\252\000\275B\232\360=\340V\035<\210\335\354<\000\311!\272\02076\275>W.\275DqU=\033\324\227\275\320\023#<\026\334\274\275\"\366\273=\250O\244=\306j\273=g\257\007\276\221\267\032\276\236\t\010\276\220\270<=l\200\261=8M\227<\265\223\">{\016\t>\306\250<\275H\223\273\274\212\210\361\275\340\307\236<\274\263F=v\237@\275\262/\265=l\321\352\275\226\304\361\275{\303\266\275\242\001\372=\240\006\275;@\231\r\276\270$\240\275c\364\014>?\n\005\276\202\351>\275\202\032\216\275\360B4=k\336\022>\205\304\226\275\214\277\025\276\322\301\332\275dY\\=\257\032\235\275;\353\213\275Z.2\275@\033\335;\354\004\033\276\220\0220\275\032\277\001\276b\323\223=\211A\205\275\262\000\341=\000\217w==/\036>\235V\020>L\030\247=\332\321\310=4\362j=\270\242\371\274\251\247\247\275**g\275@(\237=$/\000=\274\003\002=\030oW\275\200\257\330\272@\336D\274:\252\331=\020]\030\275\006\357\253=`\212\361<b@\252=\022U\344=\000\206)=\200\350\323<,\370\\=\330\224\375<\226\377\325=\217W\252\275\020\332\003=\006?\376=&K\311=\n\266\372=ljt\275\026\327\023\276\032!\242=\037\334\346\275\330\'\375<\302Y\272=/\300\017\276zj\346= +\300\274\262\241\234=@\343@;%\202\002\276\031J\016>\211\301\026>\200\006\366\275\267\277\020>\326\320\n\276\346_\202=\370\020x=\032\240\372\275\230\244\270\274\340&\357\273\244L\006\275\241v\237\2750\236\202\2754ed=\370\267\343\275Q\226\276\275i\352\005>Tl\354\275\210\341\355\274\"Ul\275\020(\353\274\2407\313<Ia\344\275&[\216=\350y\302\274\3308\213=\332Y\276\275j\201\370\275\253\366\021\276|X?=\177\204\020>@p\346<P\337\023\274\0009\360\272d,<=\030\0031=\252\247\373=J\331\242=\000\320a9\356\321\302=\347\241\022>bqp\275*\352\031\275U\004\022\276>_x\275\t\320\t>\324\355\331\275F\266\315\275\316\217\217= \314\n<`\326\021<\260\334\270\274\377 \351\275p\2718\275\264\217(=\373\275\004\276\241\024\023>Yw\014>%\205\252\275\021\t\220\275\000\013\362<\033Z\377\275hs\246\274$PG\275\000\340\010\274(\327\215< qh<\340?\360\275\234c\022\276\200\367\005;\000hP<\230i\205\2744\202\013\275h!n=\035\227\002>j\251\000\2760\354 <\231\256\276\275\024\232\201=\025S\021>\036\r\030\276h\342\201\274\200)\350\275^\212\277=\300\214&\274\204\261\256=V4\322=\345\032\363\275\240@\205\274^\264\253=AK\220\275\234\261\207=\033{\323\275\276i\212=\212@\376\275\021\331\030\276\250yt=\3454\317\275\316\311\t\276\372\023\352=\020\004}<[\026\031\276@\315[\275\210\263\265\274X\033\250<`\374\014\276Qw\205\275\362\215\341=\246\231\250=\214\274{=#]\023\276\315g\037\276\367e\021>\020\036g\274d\340\036= x_\275\317,\037>\311\366\022>\210\324\035=\240\225\300\274@Wj<\360\\\332<Vp\312=C\"\007>\030M\262\274\300c\233;x\204\336\275(\302\326\275\370T&\275 r\\\275j\367\331\275\365/\301\275\030\014\243<\206~\321=\005y\021> kH=\220\244^<r+\221\275\276\352\352=\344\231\202\275\330b\r\276\035N\227\275\371\237\r\276A\227\034>E\306\247\275H\340\362\275@IZ=\340IY=`N\322<\000\200\3628\315\327\t>f\362\004\276\327\367\215\275N\246\300\275\330H\004\275=\013!\276\0207\235\275D\327\260\275\006\022\363=$\261\\=\300\023\230\275\312\277\205=\000&\336<N\347\243=\200\315\001\274j_\363=\030\254\001=\246~\312=\340\014\344\275,M\027=\014 j=\341\"\360\275\334\241\242\275\211.\364\275\260*{\274\024\313&=\230\265\334\274\310A\342\275\021\200\002\276\256\326\033\276\235R\003>4[\233=\267\313\266\275O\020\265\275`z{\274z\026\332\275\351\326\037>\276\313\203=\030\272\206=\200:\177<\250w\347<\350\3727=N\243\024\276:\216\240=X\346\342\275\212O\357=\321\256\010\276Z)V\275~Z\275=\257\352\220\275\362\034\340\275\340\213\350<\204i\031=P\261\260<\002\220\317\275J\241\324=A\374\035>\032~\332\275\"\0346\275\264.\007\276\272\336E\275\\9\031\276:\300\034\276\364\003i=@0\037;\310\2613=\221,\364\275\276\344\353=\004\235\006\276:v\221=\030\3310=\205\025\003\276lpI=\353\332\036\276\250\311\230<\340\213\275;\355#\030>\334\247\370\275\330\370\276\275\212n\300\275\264)\216\275\000\005P<\020P\333\274J\350\334=@\022\202\275\272\225\267=\244\355\266=\240Yc=\223\312\223\275\3003\337\275hG\027\275\364\205>=\367\002\026>\370+!\276\350\334\234=\350T\274\274\276\016\007\2765\024\020>\035\372\003\276d\374\035\276F\230\211\275\202D\235=;\026\276\275\226\345\225=\207\301\014>\301s\033\276r\022\320=\353\255\262\275p^\013\275\0007\346\275$\014\250=\334\342\221=\343\027\006>:j\236=h*T\275\033\214\r>l\330\233=\304\225M=\034a\274\275\200\342\013\276\200\'\274\2730j\351\275\000\376\226\275\230C\211<\200\025\327:\212K\236\2750Q\030\276P\323U=\340\221\257<\222\221\232=\212{\002\276\257\326\002>\350a\'\275#\223\263\275\"N\336=\314j\243\275\355n\026>0\030\317\274\270\006\253\275z\027\260=h0\226\275\355\'\264\275\360\312\002\275\200)q<\206\016\365\275\177C\"\276\270\243\360\275\327w\025\276\221Y\301\275xN\n\275L7\250\275NL\177\275>\253\357=\370\202\037\276O&\002>LlZ=_]\006>\331\233\376\275\266\205\'\275\273\200\020>\312\257\214=\250(\260<\270\3011=>\201\223=\355\230\205\275\350E\237<\274\300\241=\0300\314\274\033\320\035>\323)\025\276\300\335\341\274\300/c\273\343\223\276\275\010Ko=\035\217\033>6\352\263\275\253\340\004>\234\333O=\306{\013\276!#\">\320\340\376\274H<\261=\233\366\005\276\233,\024>L9\251\275\264\224\027=zM\361=\316\234\234=\\\317\310\275t6n=mv\342\275\264\034 \276b\0375\275Q\244\t\276\322\246\212=\204\332\331\2750\374d\274\330\363\341<\210\352\302<\270\205\306\274\030\374\007\276 \322\212\273\206\252\370\275(\023G=P&:=\341D\034>\000\314\236\273\336m\207\275\270V\320\274\226%\020\276\005\305\027>\366\356\335=@\315\321\274\215\237\030>\344=0=4\0134=\244\223\303\275\372\t\376=\034|\240=g{\034>G6\031\276\342y\271\275\034\206\312\275\230\343\212\274\360pM=\260\223\026=e^!>\256\254\203=?\355\031\276\250u\327<:I<\275\210\213\364<@no\273-m\013\276\264\267\307\2758?\345\2744\006\364\275\322a\375=Z-\271=hD\034=Fg\364=.\355y\275\264\3550\275\330\272\354<@A\037\275\300a1\273\360\235\203=hb\211\274\024\3507=\t\366\021>\260\265\005\275\2414\014\276L\220\006\276\320u\240<\010\325\355\275vi\272=q:\031>h\313C\275\236\365\274=\"A\251\275`\242\317<\201d\221\275\000\030\314\274\320\016Q=\250\205\347<@ge\274$=\007\276\322\027\202=\242}\243\275\3029\000\276\235g\233\275\270\230U=\300u\215;\320[V<\236\022\333=X\301\204\274V\261\352=\336E\321=\313y\001>L,\031=\022\257\371=~\003\247=\343\002\"\276\254)\267=\2266\233=\242\313\276=E\032\n>j,\234\275\000cZ<\336\030\375=\323\331\014>\204[\215=-\032\244\275\270\254T\275h\371\312\275\026j\000\276((\345\275\344\036q\275\267_\035>f\370\354=\244\333b\275\257\031\221\275 \'\354\274(E\274\274\020\266z<\346o\r\276\240\n\256<\204\353\325\2752J\356\275\032\320\373=\247\200 >\004\217\300\275\275\026\007>\306\326\005\276\335\233\">@N\362<X\323\355\275\200[\243:\272F\026\275B\000\234=\002\215\t\276r\254\033\276\362\357\260=\342\310\256=\340_\024<@\360\002\276\256\303\306=6m\322\275\3625\305=F0\034\275<\030\321\275U\036\034\276\376}>\275LS\267\275!\262\246\275i\344\215\275\000\002l\275\265`\020> \247k\274\264(#\275 \004\t=\010E\376\275\"\206\275\275\323\367\034>\213b\014>p\210\306\2750\007\223=\274\025\253\275\306\335\332=\177\225\037\276\267/\025>5\213\021>\216\245\314=\232\266\036\276\020\000\335\274\272s\354\275\036\003\245=\364\3111=\224\364\001=*\261\241=d\234$\275\303\262\316\275v\257\345=\346\200\365=G_\031\276\326G\360=\232p\275=X\327\213=@\334\330\273\340c\211\273*U\240=k\340\231\275m6\002>\335\211\362\275\263q\364\275\356d\376=\240\346p<\324N\221=\030_\010\276\227{\035>\301\353\233\275\266Q\215=\n\264T\275h$\362<\002\251\034\276\340o\223<\322\234\337=\250\2612\275n.Q\275\3700g=`M\305\275<5\037\275\240\007\231=vp\231=8\037\243\275\314yz=Bf\260\275|\254*=\200J\305\274k\371\025>\200?V\274\014u\024\275\3068\270=v\202\327=7\302\257\275\240o\337<5-\003>\010\017\375\274r\201Q\275\324\352F=\223\014\022>\316\004\306=\020<\307<\030\216\300\274\255*\034>\207\243\236\275\225\337\034>\244\262\335\275\212\217\363=\350Q\005\276V&\034\2761\266\026>\2309\223\274\242\345\345=\n\000\234=\276\213\303=\tw\021>\"=\344=\032\332\267=\"\226\305=@5\373\275W+\320\275\014\252j=\246\227\016\276)\327\033>\363\034\024>\266\220\312\275*\276\375=L\240\204\275\363\330\010>\220\216\263=\036\244\320=\\\3379=\2007\375\275`\337t<\311\256\026>\230\327\211\274\374\353,=\016\035\'\275\272\232\004\276\232\014\251=\201\240\036\276\314j\235=\343\027\t>\r\203\355\275\030\244\266\274\020\306\363<p\255\340\275\372j\356\275\266$D\275\334L.=f\307\363=\260\000\324\274\300y\231\273*y\362=iV\010>\240i\346\274\370]\247=.\341\330=4\017*\275/\365\005\276\0256\215\275\022%r\275\203\274\242\275f\371\210\275\342p\247\275\3140S\275\276\372\013\276\266<\231\275<\266\270\275\200R\240;\325\266\031>24A\275b\210u\275\230\320\262\274\210#\267\2742\366\327=\034\231\334\275\346^\274=f\007\230\275r u\275\204\270$=\340\357\253<D\'.=T\351W=`\235\341\274\367%\024\276XN\273\275l\355\006\275\350\367\350<q?\t>\214\352\251=5v\003>C\355\025> \261\235\273\020<\245=H\202+=`\311\277;\204\003]\275P\333\364<\242\200\344\275\"\222\366=\360\330M\274\306&\307=\017\334\002>\310\223k=x\265\357\274\312\236\261=\320O\264<\030\343k=\222\337\203=@E\022\276\370\254:\275\376K\232=r\221x\275\356l\300=\024|\000\276\276J\343=r\017\331\275\245\001\r>G\272\003>P\313\240\2740<\213\275\274\345h=\314\317\203=\260\304\333\274X(\330<\004\025l=\230Q\201<$\322\255=\202I\001\276\036 \361=\275\325\003>\300\256\010=\344/\255=p\244r=\242\354\325\275T\345\262=\014x[=v4\366=:\203\345=D}\324\275\200\224\344\275\256q)\275`\035\244\274Z\323\264\275{9\"\276\330\036\267<\302x\325=\200\361\276\272\230\243\332\275\320\226\365\274\036\226\360=#\320\002>4\006c\275@\221$=AU\262\275\353\260\221\275lv`=\376\221\200=\200E\265\273\014\007\223=\350\205\302<0]\352<,\304f=\0008\242<`O\306\274\274\327e\275d\340\367\275\316uq\275\r\345\036>\2769\347=\224\"\004=\240\277><aW\">`\000\277<\000Y\023:\302\315\321=\004\275\350\275\200\021\306:\320\002\334\275_\367\354\275\037\241\035>*\304\335=\261\340\021>\334\231\003=\270}\240=\342\275\320\275\321U\037>\200\312\332<@\273\371;.t}\275\344A\024\275\360\363U=\000d{\274\007\232\014>`\354}<\200Z\027=\0256\010\276\3102\223=\032{\342=\363\346\347\275\002\213\r\276\002\013\231\275\231\177\026>\ne\207\275Z\002\332\275E\254\037\276\350\272\361\274\252\357\355=\000\237\276<\014\265i\275}\016\025>\002\272\225\275\236\213\276=\016n\204=\022\330\361=z\025\276=\312nQ\275*\327\340\275\332\306\363=V\302\246=\234\304\017\276h#\367\275\200\233\311\275TK\002=\273z\251\275\305\\\n>\260`\302\274\026YC\275`t\243;\246[\362=\306\335\350\275\360>Q\274\377\363\376\275\313\243\022>\353\366\224\275r\344\361=\220j\343\275<\020\003\275\246\340\242\275\354P\204=8\314\341\275.\310\306\275\336;\303=\213\353\022\276\000Fx;\213\365\016>@q\240=@\250p\274\340k\326\274\341\355\252\275*P\315\275\272\260\333\275\256\\\214=\025\301\010>\377\227\021\276\340#c=\320L\236\275p\263C<\275\301\003\276\270\024c=P\330\"<\340\363\275\274h\304\277\275\356\327\253=`\260m<&\257\217=V\013\353\275\013>\001\276n\230\340=\372\010$\275\350\017\367<\210tZ=\212w\356=`\372\362\275|\214\r=\304/D\275\004gc=Hz\353\275\032u-\275z\357\364=\364\360\341\275\306\342\022\275\010\330~=\350\230\033\276\320m^=oV\017>\356\257\336=8r\220=d\301\204\275\300\014\007\2760\216\004<\312\033\234=\212\2308\275z\236\343=0qm=\350\212\260\274\226\266\273=\272\263\262=\337\325\021\276\007\265\345\275U\201\210\275Ax\006>Z\243\211\275\234I7\275\363\031\020>`V\333\273\330\375|\275r\315O\275\300|b\273\264\025\252\275\260\262\377\274\300\215\356<\334\"d=\321\352\027>,\374y=f*\t\276*\013\356=\374\025^=\346\006\230=U\266\270\275\377\354\003\276Z0\261=\207\250\021>\250r\271<\260\332\211\274\3767\353=\340G\251\275J7_\275\207\363\373\275\351\337\005>V\037\231\275\242#\323\275p\334\n=6,\301=\037\026\016>\324\024\242\275<\220\n=\325\324\t>\260Wi\275\342\300\316\275 \313b<\371\357\274\275\330\351\303<\274.o=\274}\036=k\026\301\275\221-\034\276Z\336\313=\034\275\262=\002\251\336=\000J\376\272\312\253\031\276y\367\245\275\000[X\274\340\306\t<p\026e\274J \026\2764\026g=8Y\370\275\252\265\232=\000\333\242=\244\367i=\002\304\006\276\2270\t>\026ck\275(\363\327\275f\203\315\275\324\037M\275,\250\206\275\366\n\344=\230\333\357\275\311C\014>N\221\360\275\017[\017>\000-\372\274\202\230\267=\026[\354\2759\333\030>\206\n\342=H5\374\274\267\335!\276*\356\310=8\301\363\274fZ\211=\000\256A\274H8\372<\360\306\227=\030\336]\275?\376\221\275/\010\017>h\307\267\275\212F\037\276\222\031\036\276\036n\354=\3402\006\274~\271\326=\3560\353=$<r\275 \205\263;\324\360#=\200PI\274\240 \344\273\340\021\344<\300\367\021;<O\016\276\344U\313\275\250Y)\2754\325\366\275\363?\371\275H\361\021\275D\310}=\315\014\266\275\311\323\033>PP\240\275\032\345\343=\376\327\312=L\246\225=I\241\023>\367>\370\275`\254\367;\004[\017\276|o\202=\224\244?=\300Q\213;6C\276=\200\'\324\274G\362\005>\377\216\251\275\356\322\347=l\006\025\276k\027\264\275p\001I=\241\274\001>N\304\360=\344\014\330\275\300\340\035;\\\324\260=\330\307\327\274\014\034\013\276\240e\021=\270\327*=r\251\004\276@\027\315;\032\033\372=x\034\373\275X\332\003\275*^\023\275\030\320\236\274\255\311\005>J\265\203\275\325\255\004\2766X\037\276\003\034\313\275Mg\224\275\364D\r=I\036\245\275\t\275\024>&\323\353=\210V\247<\272N\330\275\274\323W\2751\262\260\275\344{\211=Xt\322<\004Aa\275\003<\307\275\271\017\231\275\272\200\256=\234J\250=h\r\266<\232\303#\275\266\315\034\276T=\006\276@\325\254<\240\251\014\274xoe=H\361\356<[P\363\275\037\230\033>k\'\016>\350mH=(\230\305\274\243\034\306\275\340r\270\2743\000\t>\360\0107=\037\267\022>\000\232\003\276}\030\036>\300b\341\2740QJ<p\351y<L`!\275\204lP=\334\246\272\275f\371\377\275W\340\013\276\304\331V=\3065\264=\024a\025=\361\322\034\276\246\375\016\276\277\276\272\275f\r\316=0\203\177<\212\223\315=\252!\350=\250>\003=\342\306\312=\247\343!>\010\345\335<\350jC\275`\016\004\275M)\235\275\372\r\311=P\204_\274V3\306=\366\014\335\275K\366\373\275\356\025\307=\364\215N=\343t\034>\337\347\010>D\023\235=\336\324\014\275\320\0008<\200\362f<\306i\334=a\017\014>\371\326\017>\n3\371\275\350\277\350\274\2308C=\014\034\"\275`\341\265;z35\275\346R~\275`)x\274\232\254\221\275\301\272\022>\336X\355=\000\245\246:R\221\277=\236,;\275\232\230\216=\222\321\303=5\244\r\276\010\030\177\275\2065\242=nn\275=\342Z\266=h.\362<^j\366=@\010\036;\000Cw;\n\020\364=\331\305\n\276\006\302\367\275\010\351\244<\204>\"\276H\222\034\275|\332}=z\030Y\275$\353U=CE\027\276HN\232\274Y\014\r>\320\016\377<#\251\001\276\223-\346\275\366m\020\275\227\\\t>\016=\321=\330\347u=q\001\024>\37451=\324\333\n\276\300T~<-w\207\275\260\240D\274:\373n\275\304\204\020\2764\346\231=\310_~\275b\222\224=\372\344\374=|\263{=\272-\277=\300\006\t\275\241\350\034>\n\271j\275&V\307\275\202\236\200=\340<\346\273\274M\014=Mz\005>\\\356\204\275\"\330\002\276\227L\022\276\2300\375\274G\n\014\276\004\r\007=\304\253L=\300\035\367<\362\343\025\276\226[\275=i\331\010\276W}\024>hi\262<\300|X<0\020\373<\240\253\352\2747+\253\275d}\000\275\360\016\006<`\245\232=\202u\376=V\262\014\275(\"\r\276\342-\230\275<\367J\275\365\215\266\275d\316\326\275>D\271=\240Cg\275Ad\010>0#\301\275\350\227-=\002\225\274=\000\323\016:\000\207\327<\"[\\\275r \361\275\340\210k\275h\346\272\275\020\225\024=\200=\363\275(\362\202=\240Xw<\374\004B=\354\257f=\364<\'=\374qq\275@\032\024\276h\246\230<\240\365\244<@J\010\276\340\024[<\016h\313=W\325\241\275\2605!=\370\321\t=\201$\013>\336>\024\275t\271\250=r\273\204\275\236\357\315=\004Y@=\310\254(\275\344\323L=\245,\014>\3126\325=V\276\257\275\332\310\362=\220\247\024=\367P\t>\234b\372\275ld\215=@\215h\273\360m,=RH\"\275\336\225\377=\344\2141=rY\014\276\323\311\002>Y:\r>\312<Q\275P\024\177\274\206\322\366=Z\356\335=\206\223y\275{w\003>j\250)\275\371w\t\276\000\371\327;\254\n\002\276\323\206\224\275,_\213\275\210h\003=\236B\254=\344+\001\275\330\346\210\275\022\375\340=T\222\021\2759\303\013\276\366W\377=\212y\316=~\340q\275\264%0=\206\007E\275\204\246d=\247\211\"\2762]\263=p#\217\274p\305\357\2753\354\014>\nz\326\275\231R\024\2760\001O\275\006\376k\275`\014\020\276F\241\220\275\223\274\026>\350.\372<\177\366\033>\202\245\t\276\322l\331=Ib\241\275\212K=\275K\031\022>\342j\306=^\232\264=\250W\371\275\233B\027>\330\020\250\274\"\226I\275\371}\306\275P\016%\275^\n\310=\202\266\250\275@^\375\274P\344u=\022\005\265\275X8\316\275T\031S\275B\361\r\2760L\356\275\361|\226\275\'\325\010\276\351\204\210\275\026\300\361=\3001\355\273\350\\\232<\312\367\206=8\310\267<\210\243\373\274J\001Y\275T\332\225\275\327S\035>x\030\374<\264\016\326\275\350\360\\=\216\326\037\276j\027\326=ga\n>\300\255\322\273\233\256\203\275E\023\024\276J\254\371=\217\n\226\275`\243c\274\211K\001>p5\202\274\326\357\214\275t\335\032\276\214\004d\275\256 \277=_\240\024\276:Z\032\276$`@=\210\347\223=|\3556=7\\\027\276FE\240\275\003\377\302\275v\205I\275S\263\244\275\226\330\360\275\273\234\030>\324\204\231\275\024\r[=\340\277\276<\302\223\240\275\211\327\032>\021\337\r>\200\233\001\276@gw\274+v\027\276\376\252b\275pk\001\274\326\313\300\275\240-H\275\250\217m\275\036\024\237=k\005\024\276\000e\265\273\356C\000\276\220\353P<T\3570=\270\244A=5o\027>\004R\017\276b\366\330=M\020\210\275\355\004\000>2\021\311=L\377\005\276\274\351D=\300\020<\274\332n\356=\335\273\014>\300{L=\034\276#\275\336\312_\275\334\"B=\013\375\020>()\332\275\366E\367=|V\016\276\341o\213\275\017\304\037>(\225\306\274!\340\027>0\004~<\"\331R\275D\351\233=\244\336A\275\261\254\214\275\234\241n\275\310g\266\274\237\033\222\275\243\034\025>\202\372\345= \364\027=vp\317\275\200\320\337:\360\\K<{\341\261\275D\202\016=\324\360]=J0g\275\336m\355=\370\203\310<dUf=\212\306\340\275P+i<\320I\200<t\236F=-\033\223\275(Y\217\274\320\200$<z\362\323\275f\245c\275|\325\003\2750\211!=>\366\277=\025\305\000>\2758\017\276P\027\033=C\340\216\2758r\224\275\010)\336\274\341\237\204\275\340J\023\274\225\347\304\275\3006x<(Xd\275\010\001\262<r\370\313=4F\007=\200<==\200#\031\274/r\267\275\260\t\266<\230\237\252<n\030\324=\377z\036>\236@\333\275l\021<=\306\303$\275\226\357\240\275\324\244\264=\302\325\335=\340\340\\=@\274\006\273\346\377\371=h\307-=\354\247y=yn\023>\003}\315\275Rn\255=\034*\021\276d\262\031=hY\366\274>e\332\275W9\010>\207\317\252\275@\307\302;fXU\275>\207\366\275\000\261\366<\013\255 >\362\302\241\275\340\223\301\273\0070\214\275\244\247\r\276\335\320\231\275\220\277g=@X\021\275J)\316\275W\267\007\276x\212\324\274\220\260u=A2\034>T\364Y\275\236\276\275=\211\240\r>\027\243\022>\340\200z\275kj\202\275\274,\242=\240\002\310\274\320t,\274\360\334B\274:\364\315\275\246e\314=\215O\007>@\200i<\340\3040\274\321\345\035\276\230]@\275\343\317\021>\240d\277\274]\315\264\275\216ZN\275#P\244\275\344\351\304\275r<\371=\020\301\027\276PJ\034<2\322\231=\223\325\025>\264P\352\275L\221\221\275\022\0222\275\020\335\020\276@\r\237\273\330\312\314\275v\351\277=`\264\330\275\225\340\032>Z\312\232=\326\214\203\275Ki\230\275\370\027\333\274\356\026\001\276\236\347\317=q\365\027>\020\031\204<\370\312\313<+u\003\276v5\201\275\232n\205=\020\345$\274x\031\344\275f}\312\275\272J\332=\246\245p\275\212\370\177\275\260d(<\352t\360=\264j>=iv\032>c\276!>\302\347h\275\370\366\021\276\" \314=~*\264=\n7\342=\354\325\214=\335\022\020>0\230\333\275\320Pt\274\362D6\275w\'\">\320\244\"\276\361\366\025>\3442\010\276\366\315\200\275\216\"\021\2769\240\370\275\202\320\210=\240m\233<\236\217\027\276\350\265`=\210\343!\276\016;\r\275P7\345\275\344\326\350\275\352a\257=\271S\013>f\022\302=\030\023w=\244\210\023\275\344\265\375\275_|\016\276\000\204\372:\026U&\275\000\265j\273 \310!\276\026\026\266=\006V\363=\232-\020\275\342;B\275\312\356\207=`\216\270\275\202U\363\275SX\000>\376>\361=)\016\004>\202\221\236\275<\260\306\275`\022\222\275\377\304\030>\366\363A\275V\333\027\276/\017\225\275\3205C= \033<=\213R\363\275\340 \255;*t\247=VY\372=>\372\345=Xh\227<\266W\342=\316}\346\275\336#\371\275r\317\363=\017\003\255\275\360\340\016=\020\230\362\274(X\007\275\300\023\254<6\360\311=66\333=\352?j\275\220\017\211\274\030\2256=\205\234\276\275:R\223=\016\305_\275\242P\353=\030K\336< X\007\274\016\\Q\275\036\023Z\275\260}v<v\337\323=!\353\035>\030O\321<\200\206\346\275\272\001\344=\316\\\301=\220\372f\274\334\010,\275\270\3143\275Oy\n>P\265\252\275\254\014i=&{<\275\327k\203\2755\225\267\275\372i*\275\2200\255<\217*\366\2754\231^=\321\245\035\276G\'\013>\346]m\275\342\272\273=\340\233^=\334\232\207\275R\222\372\275\030\016\234\274\020\317/\275\2565\025\276\005L\025>\331\212\004>\004Sk\275R\347>\275:\014\323\275\305N\031\276\320y\021<\305\314\002>\207}\022>\213\274\016\276\3553\">\342\371\351\2758}\250<\034B\263=B\214\207=\340\202b\274D\014\327\275\217\345\025>\315[\270\275\342\014\220\275\300#\275<NU\236\275Hk\227<\006+\r\275\032\254m\275Z\221\036\275\240R\266\274\200\323\252:\032\316\311=P\233\271=X\346\006\276\\\034\222=\021\277\r\276V\025\243=\n\246\373\275@)Y<\300\204\366\273\244\226g=\246\340\350=\250\266\216\2754!\021=\034A!\275\240\345\021\276\250\322\362\275p\347~<\232(\200=|\346\003\276x!\257\274\330HX=d\022\017=\311\302\006>toH=\320Gh=\025\030\001>\n~\375=\302\013R\275\375~\372\275\270\007\267\275PD\230<X|\317<\326U\022\276\232\027\333=\004\334\271=P\227\252<@\341\206\274\027 \026\276\265^\n>$K\036\276\316\360\372=\027\320 \276\203\312\036\276\256\030e\275\342\357\307=\023\001\030>P\263\270=\330\223\227=\242\033\215=/d\205\275?\'\023>S\037\037>\307\321\006>\000?\375:\262(\014\276\037w\305\275\025\315\031>\024\342\355\2758\336\342\274\312I\003\276\202<d\275\252\334\214=C\377\017>P\360=\274\324g\177=\374\320\025=\310\000\355<F8\231=^\323\256=\000\007\224\2750E\020\276\301\321\">\273\366\005> \333\344\275\037f\032>\300\264\t<@ZI\274pJ\366\2758\023\333\2742\211\232\275\335+\031\276\0309\354\275\266\206\355= [\202;\302!\221=8}5\275Iq\024\276h.\342\274s\327 >\000\205\014\276\3365\322=\370M\275\275\333\343\227\275f*z\275\250*\224<\010~3=2\337\236=,\266\317\275\240\0202\274\010\331\347\274\026-\024\275bP\374=\336\200V\275\254\010\007\276\302\005\206=\304}\025\275\363\036\030>\344z\021\2763+\023>\253\"\003>\034\013\010=\220E\255<\244\315$=\300\334P<tK\013\276\344\2038=&)R\275\000<\264\271\200\376\327\274\204Q/=R\230\274=@\025\331\274\357\252\016>\222>\261\275`\226\001=\322\274\373=\313g\">\377\251\301\275\216\'\220=\033\264\r>f\344\314=\000a\246=Z\274g\275\2470\"\276\260\023r\274?\n\273\275 \253\232<P\033\304<I\367\030>fK\261\2754\022,\275\232\261\276=8E\023\276\200\265\363\273&\352]\275\200ud\273\270W\355\274\372\356\237=\032\215\344\275\356%\364=\210W\233<\201\204\244\275]\365\325\275\tt\013\276`\372\373;\336dW\2758w\220<w\252\025\276\377@\263\275@=\212\274\353x\270\275\301\336\021\276@R\252=\275O\213\275\275w\027\276dB\013=\322\251\342=\214\264\025=6\231\377=h\n\240=\034T\023\276c\212\003>\336\211\274=\250\331\340<\272\323\221=\200f\237\275hl\352\275J$\214= \204\242\275\210\233`=\220y\317<o\312\020>\371N\037>\224u\006=\324c\231=\220x\342\274Nj\224\275,k\231=\334S6=\203\315\003>\300\276*\274P\252\031=\361\225\312\275\300\036]\273\220\340\353<\227R\000\276\177[\027>O\216\236\275\266\356\246=\267\377\017>\304%\226\275FD\362\275d\343\205=P-\276\274\232f\370=\241M\277\275\236c\264=\372\205\207=\366\236\313=\023M\363\275\314\230\027=m\005\023>\346\017\363=\036\377\365= \232\363;\3727\002\276\020\252E\274\360\365S<\203?\305\275:\237\237=\340x\366;\250L\353\275\357\370!>\244\336\215=:\240\t\276\177\n\276\275vW\031\276\206N\257=\360\232\036\275\017r\302\275\214\313\326\275\000:\331<\332&\021\275\273/\251\275Y\270\016>\220\236:=z:\372=\030\225{=o\205\030>eX\005>[J\321\275\311\234 \276\020n\003=\230\003h\275\030.\265<\037\203\037\276S\323\332\275\310\333\200\275@u\250=\301\346\267\275\204\351\261\275:\337\010\276\364\303l=\200\211\366\273\336>\322=\324YI\275\302\313\350=\226\277\273=lw\033\276\316?\030\276\351\231\034\276\316\245\274=\006W\326=\024@\r\276nB\312\275\021#\030><\200\350\275\246u\223\275\214\022\027\275\3265\230=\314\014\227\275\200\332\364\272\024\003x=\355\305\001>\362\342\004\276\"\235\323\275\304\n?=H\252\273\274\360\374\000\276\2547m\275`\314\311\274\234U\027\276\270\271!\275Zq\315=\236\031o\275\210\357\251<[8\264\275\000;\306\274\237\304\203\275\2547\322\2752\320\031\276T\002u=X\307\030=\300\220\352\274`O\325;\020BO=@\253\010=\360v\317\274\n~\021\275\352O\276=\204\276\314\275\356\270\301=(\n\334<\320\034\204<U\237\">~\271\371=\220\352\324<\260\007\216<\000R\351\275\036)\342\275\200*\222\273\351G\032\276\n\256\327\275\200\004\020\276X\236\361<\034_\"=\264f\253\275\300\024\001\275\250\203\310\274\202\245\010\276\360\037n=\241\031\321\275d\2773\275\200\275G<\367w\243\275\234\241\352\275\224W\021\275\000\310\221\274\355\323\030>T\373\t\2762\220~\275\330\003\245<;+\005>\300\022Q\275R\034\314=*\352\004\276\302Z\371\275\366-\031\2761<\030\276\000\241\025<\224\356\313\275$g\372\275t\240$=Y\037\240\275\312\323\033\275\312\352\320\275B\001\311=\245\234\314\275}|\000>\316\252\370=pL\374\274\224p\346\275\204\303X\275S\305\017\276\272\273\216\275\022@\317=\350{\314\274za?\275\300\320\362\273\275D >\200\275\243\274H\227\000\275\240\223\205\2734ob\275\222\306\310=P\307\014\276\320nS\275\230\250N=T\376}=\334e8=@\270\261\274X\363\r\275w\206\006>\310\277\326\274\222\033\311=\010\2004=\361H\003>\";\030\275\240\004\370\274\237\352\003>\275>\223\275\010\256\342<\377\200\366\275\254\207\n\275:C\034\276\354\326\353\275\326d\355=\335?\265\275\223\013\016>\000\215H:\200e\306<\023\032\003>\224r\005=P\252\240\274\240\353\251<\335z\024>*\272\217\275\314\315f=\366\003\315=<\264z\275\256O\303\275\342\217\312=\203\361\004\276\310L\266=P\333[<p\340\033\275\272\215\255\275\326\010\225=s\031\t>d\214\220\275\360\246\352\274\254~\026\276\240\302\016<\013[\003>y\261\021>,\300c=I=\024>\3071\">-\'\020><\343\361\275x\314\337\274A\370\021>`\365\255<\3076\005>\334\361\202\275\217\367\234\275\331\t\203\275<\007\331\275s\330\031>\342\277_\275D)]=V\r\354\275\240\025\256=D\357\267\275F\035\302=\346.=\2756\364\362=F\0344\275e\032\211\275\315z\031>\370\037\227\275\207G\023\276\200\357\007\273\224\235B=\342\251\352=A5\003>\240\360\r<\267\334\021\276\004\235\024=+\244\016>\320\246\003\2744\303t\275(\026\342\274)b\037>\002\026\272\275\210 \201\274\227\225\r>gx\016>\316k\033\275\323\007\375\275\220\372\325<\340\024]<P\000U\274\276\\\226=\000\2457\274\213\271\022>vb\231\275Z\357\375=\230\351V=\372_\334=\003\200\023\276\316/\356\275\370\364\303<D\312\025=\005\367\026>D#\244\275\007;\032>ey\033>\000\326\366\275\207\\\002>\3469\002\276\265\367\035>\032<\347\275+b\013>\255\277\254\275\020\3661<\342E\306=\346\357\036\275\374\205!\276\006\021~\275r*\213\275V^\244\275\306\301>\275Ye\021>\352\314\330=\265\235\025>\026[\351=n>\272=l\267\277\275^J\002\276p\3212=7\341\004\276\365\177\002\276\340\206r=\250^\364<\366J\273=\257\027\251\275\300\022v\273\\c\210=P\323v\274,\035\024=pE\t\276\327y\023>{m\033\276\330m\315\274\260\263\221<-\323\335\275\360\203\324<\0167\006\276\360x\232<x\033\352\274 \344\361<\260\351\007<\220\370\334<|M\025\276\260\261\324\274\334]R=P\0275=\347\233!\276\020\232\265=f@\351=\177\357\n\276\214f\222=p\374\235=\212,\231=\344\313f\275(\372\202=_K!\276\244\376\353\275\200\336Z=\000\177?\273iI\t>\000\\r=\214 \013=\300\374\367<\030\212\005\275\220\024\006=\310\201\214<\242\220\336=*U\240=\224\210q=\224\244\021\276\241\206\005\276\244\213]=Vpk\275\010\314I=\210R\210= \330><\017#\243\275\246\0002\275\242\221\254\275T-\355\275V\253\274=\270eX\275P\2115\275\020\335\003<\211\002\000>\014\225g\275|\351\266=\027c\213\275bX\344=\254M3=\000,\010=\020\3054<k\261\344\275\2145\227=\376\202\\\275\343\013\t\276`-\337;\220^\037\276\240v\177<8\275\256\274\te\036>Ah\000>~\353\340=P\365D<a\001\221\275\320\001\267\274\270d\360<\340\254.=w\360\021\276\202\0025\275Ns\342\275\220\225Y\274HA\373\274R\316\347=D4\220=\302j\306=Xlm=\034\204\017=\362\217\336=\250\371\000=\227\313\020>\202\226\307=\300 \274\275\361 \030>\200\251\207\274f\017T\275\203\201!>\200@\210\274\340\202]<P\372?=\324\207\256\275\360\217o\274\177#\327\275\000\336\033\273\306M\340=%\274\276\275\332\342\025\276\216\023\367=|\252\222\275n,\321=(\037I=b\n\362=:n\034\276w\347\034>\204q\002=\335\320\003\2768\265\032\276\240\360w=\303\341\031>\275e\221\275\340\016\316\273=\314\034\276,*g=4\271O=\312\001P\275\343\352\003>x\013\001=>\306\317\275|\255\033=\265\337\014>\227\252\035>4)\235=\370i\307\274{\241\265\275\244\346&=\307\355\t>\344\335:=}&!>8q\332<t?\204=\014R\021\276\202\201\025\275\322\033\023\276c4\002\276\212<\261\275\230\334^\275\027u!\276\n\364\035\276\257\213\003>\2006\222\274\234\253\000\275\2701\245=\346\027\360\275\215)\005>\3365\221=\202\017\014\276PZ`\274P3\243<\200\r\216;@\333\202<\316\221\312\275\022\257Q\275@\327\031\273\025\'\026> 7\353\273\243\211\036>\236Q\352=\274\371t=\2763\033\276N-\251\275\254[\021=r\350u\275+\206\014>\3404\021<8\274n\275(x\311\275\000\313\211\274\220\202#=\200\r\260<\367\352\017>\254\021\346\275\37462=%\326\316\275_\274\036>\266\270\215=\213o\021\276\337~\002\276\210\331\005\275\234j2=\246@\177\275\177y\004>\025\217\351\275o\240\034\276\264\365\017\276\316\275\361=\320\017\277<<\356\324\275f\177\266=J\222\314=2\377;\275\004@\014\275\010W\211\274\320\233\324<\312\374\203\275\232\020\300\275\363`\023>>I!\276\200\301\304<\000hM9\346\321\233\275\027S\001>%\r\005>&P\013\276\010\255\330\274\271\240\025>P\001L\275\240Z\224;\330\026 \276~\205\226=\326\252\031\275\370\224\226\274\001\207\261\2754|\010=(\322\324\274@h=\273\000\243\200\273\366>!\276\327c\220\275\320_L\274\000\223x;\325\235\241\275Gy\006>\024\221\250=\320\263\261=\361\315\010\276^\301\223=v}\207=\236sC\275\2103\202\274\022\\\254=\326\026\023\275\231\340\002>n\234\347=\230e\232\274\000\374\233\272y\205\031\276\352I\017\276\361M\n>\366!\037\276\200\2058<\230\005\016\276W\372\027\276%\311\r>P!\376\275x\3523=\240\234\334\274\260sI\274fQ>\275\370\314\026=l\251\334\275\\\325q=Naw\275\222\207\235=\336\324\216=\026\270\302=X\323\277\275\374\034\264=JKG\2750\'\206\274\023\233\002>\221\260\035>2A\354=\332`\327=\300\237\267=S\244\016>(\305\212=\236\245\242\275\002_\325=\366\247\024\276P\030\315<N\005\320=\010W\222\275\360\245\t=\316X\303=nU\375=\257b\022>\234_\207=\336\320\247=\203\304\233\275\004@\323\275\n=\030\275\000w<;\346\313\245=q@\004\276\000q\275\272.\356\350=e(\000>\310\010\265\274\364}\005\275\312\032/\275^\245\360=\320?\222\274`\213v=\350d\350\275`Zs=T\246\014\275\276|\320=\310,\036\276~X\262=\020\334\245=\203)\036>lu\245=\217\263\005>[a\034>\322\346\375\275\270\006\246\274~D-\275\006+\332\275=\263\314\275\200u\366<`V|=\331\031 >n\367\256=\300\263\007<85\320\274\260\025\023\276\247.\243\275\202\320\311=\330j \276\310\345\021\276\363\323\237\275L\252\221=\321\253\030>\300P\375\273\200\376^<@0c\273\200H\203;\2552\023>$\326t=p\353\243\275\261Q\260\275\260\000B=}=\233\2758\037z=\336\355\313=@\274\233\274:\034\375=\350\200\332\275\302\335\226=\260G\205<\262\207\251=R\006\247\275`X\347<z\236\232=\000(O=\316{\325=\374\215\304\275\342Y\271=\365[\036>\300\212\023\275\276:\344=\376\004\201=\302\351\346=?\376\026>WE\034>j\n\007\276\220M\257=\254\365\007\276\320D\310\275\004\272:\275\373\215 \276\003\241\264\2750\334\277<\300\203\251;x|\352<|z\023=\026\343\351=\214|\035\276n\317\356=\245F\032>\\\001\027\276\210\377c\275\306\343\314=\200\013\231:,\332[=\224\005\336\275\222\313\225=\266\247\330= \013@=\300e\003<\235\311\032\276\000i\363\272Qk\013>\3264\311=<-\233=\336\017\324= \247\346<f\370\242=pP\025\276\363\352\">,\014A=\026\235\213\275\216\022\324=`\3620<0{\017<\204\321\221=\310\326\260\274VX\327=\252~!\276\n0\254\275\360=.=@\\\305\275\246 O\275\210\211\270\274t\340\252\275*\257\261=\256\231|\275\260\247q=\236Z\242=\260e\233<\270B\276\274.\031g\275gq\">\000\204\263=\220? \274\224q3=g\t\300\2751<\032>@\257\021<\224b]=wl\036>\213\314\277\275N\026\032\276\321\031\201\275\300b\327\273xj\341<\372\347\227=\360c\340<\220,\234\274\354\226w\275\214\010\204=V\301\374\275c\320\206\275\'\024\215\275\230W\214\274\264p\235=\223_\020>(\013\321\274b\207\353=\323\255\276\275n\250\377=$\301 =Cr\031>\006\217\347=\277(\">\274\003\003\275@\314\354;\024RJ\275\240\272\302;Ht\236<So\016\276\304\202]=\210uC=\332\210J\275\236\357\251=\201\220\005>\220\230Y\275\200[{\275p\226\223<\340\300\\\274\366\005\007\276\226\333\335=B-\365=E\311\327\275\006\251\350=\232\252W\275P\306\034\276\341\317\035>\200y\021\276\302\244\026\275\374\227\237=\250\255^\275\212\304\310\275\307\371\034\276\347\022\025\276\033\233\025>`\016\'=l9\351\275\274\232\030\276\265\353\013\276\330m\034\275\334\333\033\2753\325\262\275P5a=\337}\007>&\025\371\275P\216\367\275P\374\230=\267\223\003>\366\336\272=x\311\303\274\371\007\022\276\030\216T=\006.\234\275>2\334=\214\200m\275\314\314 \275E\332\256\275:\022\356=\006r\265\275x\204h\275|7\333\275\\\326\251\275i\341\026>T4^=\202\024\307=\371!\033>\0367\020\2766W\326=g\350\001\276N\002\361=\250\007\345\275Z\373\354=\000\206\305;>\237\371=z\241\366=U%\261\275\300\332g\274\274l(\275\230\014m=\210\004\327<\200B8<\035\315\003>\336\305\204\275\336o\343=2(N\275\302j\333\275\364AI=Xt\226<\003\261\027\276\034\352\024=\330\307\260<^\272\223=T\307\\=\000\342V;\240\031(\274\320\004h\274\224%\035=\016\307\345=F1\233=n\235\262=]\321\004>Z\n`\275R\300\245=b\306\237\275\303\326\007\276\020K\226=n\365\230\275\311\023\247\275\000\205\326\275L\265j=x\302\362<b\351\375\275\005\264\021>\301l!> Q\224\273\370\255x\275\026\376\301=\264\232\013=~|\315\275\01450=01M<J\211\306=\316Q\304=\307\274\204\275@\275\r\276P\021\237<Mn\017>\212\321,\275J9\331=\350\366\020\276W\031\001\276@\274\244<\220e\225\275\245\257\013\276\250\313_=\220\201\323<\225\317\003>\374\301f\275O\314\002>nK\362=\220=\262=\033\016\252\275\244\025X\275_\305\360\275W\352\025\276\025e\020\276(\330\003\275<\371j=h\240\n\276\240\r\004\274\310\\\235< \223A<\026\0002\2758\246\371\275@\233\025\276\320\004\264<\330\201\023\276\250\244\216\275|\310z=~y\036\276\370\363\316\274\353p\305\275r\351\256\275!\236\002\276H\r\226=@WV;\226\037~\275\000\366\242\272\335\273\010\276NWf\275z\323\317=\310\226\351\275\321R\263\275j\376\035\275\346{\346\275#z\023>\240\331&\274\320\023\234=@\177\217<E\"\263\275\310\370\223=\022\"\030\276\200:\217=\030\211\337\275\310\326\267\275>#\316=\272\240\324=\312}\210=\216\354\345=>\364\365=U\274\016>\330\330\336<4\321\037=\360\r\023\274\n\341|\275\302\273A\275\353`\">\203\216\036>\211\211\211\275fx\325\275\370=\346<\200&\024\273\343$\003>\270v\320\275@\322`\274V\206\017\276\036i\250=@\230\202\274S\257\036>\210\356\321\274x\215/\275\246\027\027\276\203\337\034>\346\205\316=\332\357\237=\"\277\335=\200w\375;DN\t=\344\364C=/\217\244\2754\032v=\340\240,<\316\325\341\275\246\353\252=v=\205=\270W\023\276\004\246+=\210\017\205=@\353\007\276\230\246\212<\330\010\376\274\243S\033>\327\022\305\275\232\014%\275\201F\310\275%\034\007\276\"\322\213=\000\351\304\273\\\021\022\276A\363\000>\247E\351\275\010\257\262=>\234n\275\330q\317\274(\364c\275\024v\024=\340\266\200<g\267\025>\334\367A\275\252e\231=\216`\335\275\340K\375<`:*<\0166\335=~R\270\275\200\330f\275[\260\201\275,2\020=\240\335\225\273\304bW=\240\\+<&\202\255=N@\244\275\323\262\004\276\330\025\343<f\216\344=,B\024\275\302=\275\275\376\312\223=\211\326\033>-\010\036\276\'$\010>\240\237\313<\312\303\347\275\204ez=\340\001\370\273\342\320\307=7\202\026>\200;\262=\356\244\241\275\204\354\007\275\300^\023<\222\307\t\276\007j\021>\211B\030>\340\327s\274\340\006\352<\220i_<p\355/\274\\\225\014\276\245W\210\275\250v\265=\347\343\016\276@\357 \275\321r\255\275\360\030u<28\225=\2008\270:\220\326\230=\226f\310=C\212\r\276\000<s9\375\267\364\2757[\037>>h\344=(\026\255=$+\000\276\370(\032=\366\350\326=\207\312\032\276\274\330\006=p\017T=\311L\214\275(\003\251\275\3224\302\275\255\021\245\275\000\260Y\274\200\333\374\272\0049F\275v\177\214=@\212\220\274\'\321\006>\333&\036>\340\274U=`t\241\274^y\320=\300k\352<b\220\001\276\302\206\235=\322\306\321\275\000\200\31268\211J=\321\n\025\276m\264\247\2759\343\037\276\006\222\376\275\214M\005\275\n\177b\275\274E\275\275\320\354\354<\030`j\275!\231\330\275Yi\026>\3506\321\274.H(\275\210\224\327<\270d\316\275\200\237\377:\332<\035\275`\200\220<\034\330z\275`\354s<\323\343\372\275\353h\326\275\340\013\244=A\352\034>\000\270`<\014\376^=\362)\355=\356{m\275a\002\266\275]\027\014>\274?\026\276`\005\245;/\266\234\275\374q\230\275L6\253=$x\010\276\"\331\023\276O\010\010>|N\006\276\3154\022\276g\317\032\276\350\033\315<\224\3367\2756\356\236=@\226\334\273\3348V=z8\243=Q\366\274\275\314{\030\276r&\351\275o\345\017>\325e\026>\237u\306\275`\2048\274nq\307= \354\254=\n\332\312=\020\241\032\276|\265\005\275\302\021\343=\032m\212=\021\020\245\2752C\270=\236l\361\275\024\272-\275\220G_=\024\274\225=Z\020\301=X\203r\275\260\377\302\275\315\253\027\276\232\252z\275\217\352\000\276\322\024\253=Hv\344\274\300+e\274\240q\302\274(\216\271<\232\264\344=\020\207\353<xg\315\274\256\344H\275\007\355\036\276#e\203\275\200\rU\274\302:\013\276\027\021\301\275\306\t\221\275X\364\254\275\274E\217=\206!\200\275Bb\252=Z\346\232\275z\241\301=p\031\'<Y\273!\2767s\006>J\244\377=0\034\\<|\216\351\27523\032\276\325\332\020>\346Y\337=\310P\231=P\355^\274\312\022\210=>\205\275= \321\257<\224\204W=X\035\232<\375\277\006>Y\275\244\275\000\273Q\272\274\306\277\275\232b\035\276T\006\201=\266\250\307=[\302\007\276R<\216=\037\274\010\276\203\232\010\276\240`\002<\210\353\305\274\211\231\037>\240R\000<\314\255\023\276p\232\323<[\377\006>\026\230\315=:\366\000\276\"\nf\275D\005\022\276\2407\224\275\356\024\362=\010]\356\275\240\2378=,:\001=\000\2224:\330\305\300<T\327p\275\010c\210\274W\236\002>y1\026\276\014\256\343\2756\323\327=\021\326\037\276X\267A=\351<\025>\007\346\002\276\004|<=\234\374\355\275\375\226\024>,\327\331\275<\272\010\276\020Z9\274\374\017\272=\357\211\017>B\240\321\275\201\375\263\2757{\032>@\230s\274\322\302\352=\002\335\032\275\304m\257\275\340\021@\274\332X\272=\374\013U\275Ur\030>Hc\237=\037%\001>\235i\005\276Y|\016>\3200\036=\227O\010>@\277\003=\021\211\010\276\276\000\276=`r#=\340\254L\275\360\313\237<p\006\232<\000{\013\275\260\302\253=LLg\275\376A\371=\213@\n\276u\335\362\275\245\022\344\275\024\314\'\275\326<F\275\356\227\'\275\332\204\366=\244h\211\2758\364\215=\240?V\275\337\216\032>\210\274\316<r\233\303=0\345\221\274\344\356\035=\216\234\000\276p\234\371<Wg\222\275\034e\"\276\340I\226\274\304\245\321\275b+\330\275\354F\226\275\r\266\022\276\265\311\274\275\270\354\314<RH\301\275\200se;\370\220\274\274D8N=P\214\005=\246\336l\275\n\230\365\275`9\023\276Y\320\001>\000\014\303;\032\233\360=\367\235\016>\342\330\345=\300\342\030;\304\217\017=C\247\027>\214\314\200\275\244\307\021\276\303\241\252\275\220\313\373<\277\030\215\275P\221Z\274\320\277H=\206\250\373=\000\016\2469\256\217\003\276\0328\222\275\024\250\005\275\254\364\032=\3341\222=\3018\002>\375\016\036\276\260\206\002\274G\014\334\275\256n\351=k\243\035\276T\001:=jv\270=\302\231\374\275L\210\374\275;y\023\276\246\013\266=\026\275\366=P\013\000=t\230m\275\336\230\004\276\001\302\014>=\313\013>\000\340d\271\365\343\036>\016\337\342=\244\234\243=\234\247\r\276\000\212\323\272z\245\002\276*\005\235=\240\214\231=&+\256=\226\270\362=\303( >bs\221\275\000\230\343\2720[\010=\312\331\250=\032\234\352=&f\357=\210\273\204<ZX\303=\256\222\023\276\340\226\371\274n8\354=xE/=G\200\300\275\367\006\217\275p\314\201<\264y\201=\361\356\n>P\023\250<\314\340\200=p\210\346<>\017\332=\270\024~=\032<\276=p\311\367\274\237\013\007>\272\241O\275\340\361\247;Hzl=\010=\'=\037\232\322\275 \230\213\274\365q\034>\361\020\021>\020V\232=\364\027\021\276\364\331\036\276B~\365\275\325\345\n>\000\356\216<f\n\324=\354H\204=\234+\237=@\3132\274\000\335\204:\246\233\274=\334R-=\237`\t>_\224\203\275\024p\031=\304l\014\275\207{\026>y3\032>v\373\313=\357c \276,\337F\275\027\257\225\275^\004\352\275F\345\243=\252\226\340\275\320Zw=\220\205\r\275\272T\276=\303\215!>@U\305<\022\305\346\275\334\322%\275\337\321\301\275\256\225_\275\310\034Y=8\223 \276\341\301\267\275t\010a=0\037h\274\013\275\023>`\340\n=\320\336\026\276\300\0136\273:\006\313=|v\034=\034\2164=1\317\002>(\n#=\337A\345\275\257\275\t>\000\273\004\272\032@J\275\242H\372\275\270j\265\274 \242\325\273s\255\025>\352\336\364=pc\210=\375b\005\276\020\016\023<\210k\024=\330\356\367\274\014/O\275\3627\325=\n\227\252=\306\314\r\276\314\207r\275_\234!>\210\373\306<\010\035\213< \266\205\275A\277\355\275\024M@=\350\260\010=4\311\007\275\260\024\271<4\005\241\275\274A}=@\236\304\273\337\"\030>\244 \021=\316A\352=,\335\032=\022=\365=\206\361O\275@\337U\275\245Z\264\2756\265\221=Qx\311\275\222\331\367=\360\354\303<xI-\275\240\326m=}\310\023>@m3\275\320\242\\=\341]\000>\232\305,\275\310\352\232\274\3537\033>x5\340\274Mp\262\275\300\256\272;\014\034\026=\234\275\264=\362\374\327=\016\221\320= \333\222\273\234\336\\=\006\\\261=\267u\r>@*\\;\260\341\270<\340*,=\214\031{=5=\033>~\366\270=\237h\037>xi\220\275\265/\241\275\304\354T= \371\370;{\373\022>\016\2425\275\252\236\372=\276\017\231=\351\203\022\276\231\323\000\276\271\251\002\276\355\337\020>\020\241\246=\"\305\374=\252\325\251\2758\303\257<\374\237\226\275q\353!>RSK\275\372a\337=E\016\005>\240\242I\274\266\\\311\275\031l\035>\\\365==\023\321\"\276\r\022\031>\266`6\275\232\000\273=\000\366B\273\300\300\305\273\020?\260\274\324\3100=d\355H=\200\005\023<\007\367\t>\240\241\377\273\343\377\037>h}\017\276J\216\372=O\252\203\27511\027>\022ip\275\220\240\230\275b\376\326\275\250(9=\310G\201\275\001\350\027>\266r\344=\333\232\032>\341\177\247\275pRu=\250\232\023=\000\331E=\314\"\025=\340=\033\274\36400\275!\013\352\275\000\274}\272\300\370q;\000\034\265\271\370\267\220=u|\027>\220\005J<\000\200D8\000C\n\274&\206\325=\020K\261=N\363\313=N\353\304=&\333\374=\000\242\017\273\374\2375=F\327\026\275 \r\320\274\272\033\207=\236\265\375=\370\364\370<@\177\240\275\3307}=\210\0346\275\313K\024\276\030\332[\275\372\245\205\275\260\325\010\274Z\244\307\275\332F\256\275y\215\205\275\210_\334\275\310\252x=!\210!>\350\021\360<\270g\305<\321\241\002>\220\t\364\275n\004\372=\177a\267\275\316\036\255\275\226\225\226=l\350\207=~\001\374=LDk=\353\324\027\276\244\215\200=w\204 >\004\343\213=\372\250\374=\250\317\220=\354\036+=\352V\323=\326\327\032\276\200\245I<\320\301Z\274n\270\275= \'0=\340f\204\274\316\210\350=\240\222\"<@\257\t\275x\363\200=\232\236\276=8\327\005\276\000,E;&u\355=\010\322\270\274\"G\372=A\214\025\276\220D\246=v\251X\275\256\271\312\275\2423!\276\032\247\344=\004\210\206=`f\232<\274\370\007=\230\244\316<\3350\306\275\330_\033\276\270>\006=F\213\210\275g\306\024>\210\267\216\275\260\033\n\274/\220\225\275\037@\030>\244-\r\276\200\301\234\275N\302G\275\236\036\000\2765x\031>O\021\254\275r\325\337\275H\236\257\274\200\260\007;\005\254\000\276n\006\324=\000\311\034<\321\t\000\276,\355\004=\362\341\262=\000\357B;PU\221=\350\313\301<\340\363\255=\032<-\275\222S\024\276\336\340\305=.\034\226=\217\016\314\275\236\037\321=?;\372\275G\205\r>\320d:\275\240q\034\276SY\034>p\331\350<\0165\037\276@q\037;f\242\213\275\030I\202<\350\341w=\002\036\024\275\216=\024\275\330\027\306\275p\223 \275\207\"\023>\230\322{=@Z\243=\014\364\225=\260\364\216\275\351\245\306\275p\352/<\311W\366\275L\331\344\275\266\313\300=\006\334\260=[\240\030>`a\372\275PJ\013\274\364U\335\275\200h\342\273\306\301\206=p\376\303<\302\\<\275\000\353Q\273\264Yk=@\350\r;\246\017\245=8f\317\274\320\034\263\274\351d\021>\032\337\227=,\036\033\276\220\220\332\274\206x<\275=F\200\275\320ff=h\264\315<p\325\260\274\026\002\024\276\244}\t\276<O\376\275DB\007\275\210\002\212\274!\343\023\276v\325\033\275\016\370\374\275\034\353a=\n\252\206=q\025\034>\203L\201\275v\020\362=\210L\261<\204VD\275\236\325\200=c\263\023>\3770\032\276\000mL;\303|\265\275\274j\352\275\342\374>\275\330\230\004=\240\014\237;\016\"\377=\375H\304\2754\200@=\370\266\243=\302\211I\275\000\277\342\275mT\230\275d\366p=JZ\016\275\261\022\216\275\314y\n\275/$\252\275\000\004d\272\330\243\325<\022\326\277\275@\315\372\275\250P\213=]\360\025>Nki\275\234Fo=\000\217\215\272f\215\317=\212T\333=x\377\342<\200\311[<\336\027\355=\002\345\023\275fv\376\275m\377\212\275H\240\270<\365z\361\275\214p\356\275\221\353\001>\200\340\374\272\207\317\023\276\306o\347\275\232\273\306=Z\007[\275U\373\006>\026j\026\275`\230`<\327>\034\276\237.\263\275\202W\302\275\244G\316\275\322\001<\275\250I\316\274\312t\267\275\374\363R=PIk\275Nz(\275\224Dw=\225\375\035>n\314\317\275L\242\267=Sa\025>\023\363\r>\250\246\313\275`\376L\275[\321\003>\313\032\006>\250F\224\2746\243\277\275 \237u<pbQ\274X\312\342<N\322\255=3\234\033\276\022\203\244\275\000\030\326:\326\336\337=\252\252\024\276;i\031>\320e\227<\036n\365=\320\016(\2746\270\355=\014\3757\275h\376\023\276\3758\307\275~\346N\275\372\r\315=\260\2644<\\\024\210= 1\347\275\254\206\365\275~B\336\275\334\315\264\275h-\230=\240\372\244\274\332\272\304\275\352z=\275@\023\342\273\251\227\373\275\000\242\005=\201\020\255\275\323\205\200\275\310\017\314\274\362Lp\275\371&\237\275\030\225\365\275\004>\236=\240\006Z= \n2<\326\022\244=\302\373\217\275\206\334\t\276\360\001<=\267\035\347\275\020\022M=\350\202\205\274\213X\261\275lXH=HG\356\274\026y\332\275\370\332S\275\260F\246\274$#/=\230\275\232<z\214\244=\366\032\344=k\303\034>\200\233\265<\362\036\357=\000,\010\275\000\246\257<\346i\027\276\240\211\214\275W\375\251\275\026\271\316\275X/\370\274W\254\324\275\0203\r=@7\016;\223\302\232\275\177j\233\275$c\212\275\215\205\000>\300\346\313\2746\320\350=\\?\036\276 y<<PLQ<\030\266\237\275N0\364=\304\020\023\276\330J\345\274(\323\212=z\243\304=(\321\213\274\322>\037\275\371\342\271\275\207y\020>q\255\266\275\274\220\365\275\364|\223=Hi\260=],\r>\336\352\335=\370\350\270\275\320A\262<\022T\263=%\241\215\275\355\321\304\275\030\312\342<\307\246\031>\355\004\237\275\372j\340=Dj\024\275\016\354\352=qL\036>x\034\313\275N4D\275L\302\035\276\335\250\001>\264y,=@\242\306\275\370\016\204\2748\217a\275\330/\323<\201\213\236\275\206/\321=\324\212*\275P}\021<\354\217\301\275\364\321=\275`eW<\200I\025=h\210l=`\033\211\2732\025\372=\344\276\r\276?\004\202\275]B\006>\317\n\313\275\270\331\364\275x\377\325\275[\270\014>\316\202\360=\020\345\"\274\277\023\253\275Pn\354<i{\003\276o\n\237\275\"6\351=\200\201\211\273\300B\032;\004\r\231\275\352B\334\275\231\006\007>d\246==\275\343\237\275\330\227\\=\270C2=\2503R=\334n\230\275\036\n\316=\037W\034>P%l\274\346\374\371=\370\240\352\274\002\356\326=p\254Q<D#\263=\"\221\367\275\230\251\375<\000\243\377\275Z\314\331=\257\272\301\275\t\233\240\275@\320\255<\230\360\206<3\017\361\275\272\027\306=\3447\003\276\342<m\275\030\0277\275\316\n\316=\026\357\034\275V\373\230\275\236L\345=\034\246f=\362\251\325\275O_\353\275\236S\273\275\366\304\367=4\234\366\275\266p\355=\260\254N\274\322\330\262\2750\272f\275\236U\230=\203C\031\276 \240\240<j\220\353\275B\212\336=\300\013\201\274\224\001\025=\353\031\032>p\2205<\274\213%=`\307H\274@xq\274\240\256\264;\354l6\275\314p\022\2760Wx<a8\247\275\356\'\245\275+\215\017\276Hx\036\276\3304\233<=\351\034\276\340N\334<\251\247\255\275o\211\033>\213\251\">]\306\037>\331\364\243\275@\224\265\274\301\200\007>\214\267\202\275\325\033\026>O\232\n>U\250\026>@\216\203=\364\"i=1\262\030>\320\344B=2\030\367=\000\230\254\275\207\033\265\275\346\211O\275\320\373D<\330\300\270<\263\035\014>\342\207L\275\304\301h=\2606\004\276\260\346S<\000\304\021;pb\352<`y\231\273V!P\275`xD\274HB\262\274 \275?=\270^\265<\345\302\240\275P\216\022\276\260\220\211\274.\265\325=\210A\250\274\233\342\237\275&wY\275\372\017\213\275w\234\226\275PV<\275\030/\304\275;|\035>\230\030\224<W\212\036\276<\004\230\275\220\222\016<p\026\\=\220-\374\274@g\214\273\0310\016\276\206\323\215=\320\212\316<\310\037\201= \261v\275\315\371\016\276$\035\005\276\260\017@\274\234\366G\275\204\237\307\275\201\333\010>n\013\336==\303\225\275\010\252\267\275\326H\351\275Wq\020>d\034\005\275\320[s\275\237M\220\275\356\347\351=\330\r\321\274\024\016\006\275\310\313\234\27541\316\275Qd\027>"
      }
    }
  }
}
node {
  name: "LSTM1/recurrent_kernel"
  op: "Const"
  attr {
    key: "dtype"
    value {
      type: DT_FLOAT
    }
  }
  attr {
    key: "value"
    value {
      tensor {
        dtype: DT_FLOAT
        tensor_shape {
          dim {
            size: 50
          }
          dim {
            size: 200
          }
        }
