node {
  name: "LSTM1/kernel"
  op: "Const"
  attr {
    key: "dtype"
    value {
      type: DT_FLOAT
    }
  }
  attr {
    key: "value"
    value {
      tensor {
        dtype: DT_FLOAT
        tensor_shape {
          dim {
            size: 37
          }
          dim {
            size: 200
          }
        }
        tensor_content: "\000\364\3779\t\354\001>@0\375\273\213\344\030\276\304\3539=\016\311\310\275\246\316w\275\332\025\333=\000H\244;\003}\033\276\370\217!\276k\267!>\300\315\017<\r\231\020\276\342\373\361=\215\356\213\275\262\002G\275\2672\376\275(\254\355\274\026\266\252=Bp\352=\236\253\257=\226\210n\275)\231\010>\002\024\337=\302\022\203=\270\003\201=B\210\310=\017\304\013\276\353\246\022>\010\210\300\274$.r=\3505\200=\300\245_\275R\375\276=\344\337\006\276P\322W\274\320I\355\274\206\231N\275z\255\357=\341\035\014\276\336\000\212=v\303\352=Xx\210=\323\364\002\2766:\335=\000\245\007=F\245\253=,\213K\275\017\016\020\276f\005\303=A\274\016> \252\016=`).=\352\271\323\275\252\233\303=\302\'\316=z\317\013\276\242|6\275\002$\361=\360A\016<v\325\262=+\216\">r_\345=\002\353\037\276A\235\026>qC\263\275\372\027\311=\236\0221\275\000:\3669H\016\325< ^\326\273_\277\t>U\t\037>\2307q\275Pjk\274\350\347\324\275\303z\307\275\233\210\000>\230(\205=\315\254\014>\235G\241\275\225\343\t\276\242\245\273=\337G\276\275\341\322\226\275\000\\\336;l\246~=F:\265=\302\255\200=B\234\325=\030\202\021=\312\200\324=\222\365\370=\356\377\356=\326\364`\275Z\331\326=\347\026\033\276\221\315\210\275\n\212\006\276[\234\264\275\004\002\227\275!\315\r\276\362$\276=\340o\235;\362C\310=\340\344D\275\372\255\032\276\220\216\203=\320\364m\275\340[-\274\324\334\t\276#\206\024>\241\023\000>H\373\211=\221:\237\275ID\023\276@@\342\275\206I\274=\276\254\301=@@\004\273\320\330\002\275A\007\364\275\360\250\246<4H\254=\210G\256=6~\337\275\265\341\030>\236\323\016\275^\323\022\2766\235\313=\034\255)\275PRa=\'H\020\276\246\030\375\275\260\251\365<\245l\003\276hVl\275\r\301 >\200\364\253<\005\266\017\276\272k\352=\001\235\232\275*\235\275=\314v\265\275\330CN=\211\211\007>\265\210\006>\366\234\275=\037L\305\275j\357\237=\"O\345=\310\247\360<\000c2;\267\373\203\275\010\031\356\275\244\020\241=\314\037\243\275H\246\013\275^o}\275\3720\266\275G\205\">\342B\014\276\362\302\274=\254\264)=P\323Y\274\000J\303\271\257\253\211\275.\305-\275\205\266\376\275\020\252a=\004\2124\275\3705\324\274\035\331\221\275\274\332[\275\350!\t=`^\310\273\254s\351\2755[\300\275V\323\351=\300h\200;8\376<=\260\335!<\340\240f\274\244x0=i\320\037>`B\035\274\026\351\213=\023\241!\276\200\tV\274(\212\324\274\222m\376=F;*\275\364\203w=\000\305 \275\206\372\353\275f\250\320\275\006\337\317\275~\321\347\275\210`\321\275\2317\264\275\030\257\220\274L\202\211\275,}\233=\210\220(=\370\230\r\275\205\224\026>\372_\350\275\340\376\313;h\273\027=\233\342\003\276\347\026\002\276\307\314\031>\230^\327<\002\270\230=p)\337\274ZO\022\276R\304\224\275\265\036\003>Q.\216\275\023\027\037>\221\254 >\376e\316=\352\331\231=\004\2030\275\217h\007\276\352+\275=t\241\214\275\203K\270\275\r}\024>y+\022>\224c\033\275T)9\275\337\366\035>\215?\021\276\260\257\317\275\350\001\355\274lH\024\276\223l\320\275\202\231\315=:E\274={0\004\276\320\214\240=f\"}\275w8\033>p\230f\274\000t)9L+a\275J\035\314=x\265\261<\"\206\335=@\r\246<Y\036\251\275*Z\334\275\010\275\246=\377\240\335\275\376Q\206=\026v\225=g\206\356\275\r\'\023>l\242\177=\244e*\275\036_\260=\326\350\370=\317\237\230\275\220\277\031=\360\311\362\274P\216$\275\235B\024>\025`\343\275\320O\232=8\314S=@>#\273\350\260\033=@4_\274\357[\336\2755E\005>H5J\275\370\350\270=\237N\002\276\345\275\362\275\375\312\033\276\200\027\303<\200\2078;\2262\233\2754\221\212\275\235\370\035\276\034\210\313\275\270\177\363\274`\224\233\274XV\240=8\325`\275h,!\276\337\267\023\276\242\204\356=@\237w<\200\326J\274\212\351\370=p\025e\274 \200\034<p\320Z\2744y\201=\330\371\026=TU=\2758\013.=\000?I; \322\025\276\330\000A\275\320\276\266<X)\276<v\242\300=\357\031\000\276\316\257\316=\032F\352=\266\256\377\275\340\263\265=B\217\350=:\271$\275~\300\217\275`\316\277\273&\035\306=\200\215\035<\234\2356=\322\013\223=LI\301\275\n\1774\275\324\273z=\237t\036\276`\0270\275\217\331\016\276\210\251\220=\233\035 \276\366\367\252\275\360H\254=xl\241=\365\'\032\276\314\265e=\210w9\275\337\211\004\276\036ut\275\272\364\237=H<\021\276\270O6=\222\322,\275\366\216\271=0\255\251=\263\\\">-\021\206\275R^\353=j\203\307=\200E\025<#\320\226\275\232s\323=\242\002\215=\320c\306<l\246\010\276\302\026\317=P\323\377\274\261\271\036>ZF\361=\014\267\336\275\320P\316<0A\025<\331\340\r\276\272\373 \276\260W\226=\031\002\026\276X\307\020\275\222\035\222\275\004\214v=\336\364j\275\360\331\027\274\\c\331\275|\005\002=|=\260\275\030\177\324\275\021\021\004\276\016\017\023\276-\242\351\275\306m\215=h\227\247=\257I\022>H\367\t=.\n\327=\320z&\274\214}o=\326`\224=\031V\201\275\006~\320=\030;\201<\306X\202=\276g1\275\200\2133\273\206\300\255=\240\240\370<L,\221=\235\351\230\275\316\307k\275\240v\321<\032M\010\276\312_\342=\000\355\002\274\272+h\275O\374\030\276\317\260\370\275:KE\275\240\354g<M\001\001>u]\025>\007\"\372\275J}\022\276\000\234\2159\200\013\304\272\370\002e=iX\r>\236\220\375=loA=\352\301\023\276:\377\272\275\220Y\337<\210E\236=\375\262\262\2752\362\020\276\260\204\'\274\251o\326\275\346\211\221=\201d\244\275\000\227\013\274\375O\245\275\010\2364\275\006\274<\275\227G\037>\200%9;\332\212\254\275\365\037\304\275\000)#:0h\017\275\260_\357\275\240J\201=\355\216\250\275\360#\222=~\245\026\276\312\261\275=\263\333\217\275\3403\226\273\006\312\204\275\345\017\211\275\356H\353=\300\217B<E,\257\275eh\023>,vf=\034\345\223\275\264\010\035\276)[\031\276\360\004\037=\373\253\000\276\300\230\025;\336\371\013\276*\302\215=\300\253\021\274\210\364x\275n\022\214=\350$\337\274 \322R\275\n\327\312\275 \300\207\273\310Q\367<\255+\234\275\352\364\205=\270\371_=L6\007=\324\274L=\345\201\004>\312{9\275\300\276s<\273Y\204\275\002\206c\275p\0007\274 1\n\275\033\301\t>\310\321\002=\260:b\274\340\226\034<\010j\r\275v]^\275\322\003\035\276h\034\000=K\203\305\2759\242\254\275p^A\2749\227\013>\034e\n\276\260w\225<\200X\236;\022E\314=!\221\265\275\000\317r;\220T\223<\\\035\022=\307c!>\244\345\271\275S\260\007>\362\343\331=.\267\357\275</\224=\260\347\322\2740\260!<\246r\307=\312\007\345=\300^\205\273\356.\325\275\354\336\246=\224L\"\275\354\235\203=@B\305<p?\315\275\213@\032>V\013\341=\020A*<\001>\266\275\026A\315\275\351r\"\276\3367\030\275X\224\306<3I\200\275\302I\361=\324\357I\275\330K\236\274$Ft=\032\331\016\275x\016\n\275u\372\025>\020\337\'\274Hx\366<\334\343\237\275L/v=+\256\037>\315z\021\276l\363\213=VY\212\275\277(\362\275\240\356\005\274^\342O\275\204UH=\000n\255\271@Ce=\254\372f=\002\373\355=\310\002\233\274\337r\003\276\212\014\023\275`y\202;\313c!>\312\264\022\275\302\332\277=\240\004\031\276\354\267\377\2756\016\223=X?\245=\021d\215\275\204\302.=\260T:\274|\252\302\275\314\374\221=\320\212@=\362\323\300=\002\341G\275\337#\030>\212\220\307\275r\353\213=0)8<\341\262\013>f\004\035\276NU\001\276\221@\014>\027\300\000>+\221\026\276zd\301=p\233(\275!N >\234?\256=\030\314\303<\244\022\017\276RA\021\276\375\020\355\275\342W\331\275\300N\204=w\325\030>|\344\036\276\351\364\032>\366\237\'\275\022\024\335=\272P\343=}\033\003>\3500]=\037<\033>LmZ=\330\205\224<K\n\005\276\036x4\2758\004\331\274\3027\315=rV\233=4\234@\275B\346$\275@\0210<v\225\324=\227\310\027\276~\204\241\275Z\025\317\275\310\2174=\261{!\276\246q\375=\220%\347\274\024\231h=\321\352\262\275>\367\302=\253\253\014>\333\t\034>W\017\023>\322\374\262=\300$p\273\206\001\272\275\363\327\331\275p\031\265\275\\\261\t=\322\355\025\276\201\006\037>\360%,\275\365\\\255\275\340\372\342\273IF\304\2754\020M\275\260\264/\275\302i(\275m\273\037>\246.n\275\277o\034>\336\337\022\276\016!\027\276\275\030\020>\217\226\023>3\250\034>6\013\216=<4o=\363\372\031>tAJ\275\315\211\021>\360\367\000\274nB\271=\000\033\352<m\341\010>\376\310\307=\355\307\014>\000\230}\272\264\354\006=P\350\214<\304\353*=T=\035\275\240\n\016\276`\321^\275}\341\342\275\'\016\031>\350\213\334\274\203\220\030\276\204l\236\275\214t\230=t}\237\275\376@\352=\000\210B<\230\220\314\275\346b\357=\000\321)\273\320\344\205</\321\t>\031\023\246\275\032\234\241\275Z\325\002\276\246\344\336\275\320\202\006\276\351\322\013>\250\341\310\275j\355\276=\200\270};\334\241\252=\300\233x=\216\344j\275\341J\031>\323\022\235\275zc\000\276\002n\347\275\240\307\203\275\360\020u=\224\314\222=\016\362\215\275\367)\025>\000\3128\272y\341\212\275\225\203\024\276\275\377\017\276\221\221\005>\326\035\333=<\317\035=\010\366\305\274z`\306=n\371\r\275 \260\223=\010\247\177=P\245\013\276D\035\002= O|\274\300\\F<\344\354\220=\260\372M\275\250\373f=h\237\307\274\260!R\274\340\375e=\266\0351\275\342 \307\275\201\004\256\275\240\022\256\273<\251 =\010\253Z\275\352\271\266\275zc\214=\006\354\330\275\031l\320\275c\245\001>\300\273\257;\372 \376=\200\002\246\274\034\355\356\275\230\014\272<\254z\002=@\307\246=+\227\233\275,F\240\275\346!\225=~\303\006\276\034\223`\275PG\313<o\351\021\276\303\013\227\275\317\331\305\275\321U\335\275\240\372\341<0(\272\274\2540/=\246t\322=\332g\350\2751\264\304\275\000\356Q=\016>\263\275\260\355\256\274\376\017\234\275\205\263\355\275\366\312\214=p\354A=\270y\203=/\265\023\276\"\331\312=\217\020\"\276\206af\275\257\312\025>pmo=`\020\246\273\000[\355\272\223a\263\275\031\363\023>\366\230\020\276$V\240\275A\014\213\275\224\020j\275\260\202\257<$1\214=C+\357\275\014T\026\275\254\207\313\275\252\270\350=\343\351\005>\026\344\234\275\202\321\376\275l\016$=\260\355\024=\000|\001\271\227<\022\276\014\263\023\275S\256\031\276\240r\240\274\000Q\357\274\2007\202\273\nt\373\275\270\310E=\030\350S=}\017\251\275\310\361\274\275\304\312h=H9\251\274\240\225\251<\364\216?=hu\257\274\336\300\244=\242\033\213=UD\003>zD\303=\022\360!\276\004\334\221=\250\234\317\275\215\260\020\276qM\212\275\373+\013>\370\352\230\275v\215\364=\344\002\307\275\022\325\334=\350\n\204<&\020\332=\210\205\266\274\000J\t\274r\276\002\276\301\267\032\276\300\242t<X\345\034=r\261\216\275E\307\034\276\362\033\316=f\030\354=\022\334\025\276B\371\335=?U!>$\240\261=h:\233=/\003\007>fv\320=!w\024>\240_\330\274\240\207\200<T\331\030=\020F\\\274?\026\035>\340\035\225\274f\'\272=J\"o\275\250d\267=7\272\251\275\265g\023\276\005t\371\275\200\240\345\272\264\032Y=P\025r\275F0\307=\317Y\346\275\002+\324= \235\023\274\246,\356=&\271\232=\010\344|=V\364\006\276:\256\236\275TQ?=\300\350\344<\373A >\332H\020\275p\237\350\275\037\322\327\275\260#\220<\240@,=\330\260\375<\360\257\237\274ew\271\275\320>(\274\300\254\243;\020\253\220=\314\331\360\275\240\217\304<\264\2640=\266\300\217=\323>\004>\020\0315\275\003(\022\276\200\254\304<\356\201\314=\320\252d=\300F\327;\313l\006>\017\230\036>`f4\275t\363\004\275\240\346\017\274\276\240\314\275\222\210\304=\"8\316=_8\013>.\3141\275\200W:\274DAK\275\212\313\325\275\355m\257\275B9t\275|6\346\275\334\223w=\"\273\272=P\\\340\275\203\360\362\275\310y\346<\220\251(=\001\326\016>\'7\030\276\2073\276\275\240\215\024=\371\205\034\276D\365\360\275\304\036\257\275\300(i<v@\265=\301\254\374\2759\215\030>!N\n\276\'|\213\275\220j\220\275\231\226\002>\323\232\027\276\034Hc=80s=\200\035\336:\357n\">\034\021\023=|\225\"\275\200f\321\272\220\252\010<\271 \301\275pt\240<\211\004\037>\200\366^<\300\213\364\274>a\342\2758\001\254<\260\005\001\276\261\316!>\000\323\021\276\240\251\340<n\374\357=\211l\006\276\177\253\t>\332\221V\275\352I\027\275\322\035\363=\223F\025>\317n\225\275\037\005\036\276\205\'\230\275\220W\362\275:\\\347\275\374\352x=n\310\260=mz\033>Z\010\356=\344\312N\275\366\001\315=r\210\363\275(S\312\274@\207a;l\376h=p?6\274\364\207\037\276\226\216\310=\334uL=\320\214\300<V\214\355\275\307\223\236\275\342j\310=u\217\036>\"\314\300\275\0360\217\275\205N\024>X\271N=\032T\360\275\370\306c\275\230\206\365\274\366\243v\275|\313\020=\2203\200\275\330W\021\276\304\240\014\276\330\247\346\274X\363\010\276\000\230\347\270\350\222\252=\302G\032\275\326\272\337\275\020\2318=K\r\022>Rw\363\275J\210\375\275A\305\021>\346\347\264=P\373\002\275\200\343\374\272\005\373\030>\345\242!\276\016B\326=x<\351\274\203\370\376\275 \264\311\273\220\346:<\237\331\257\275\030\253\010\275\000\017z<\"\375\360=\252\200\330\275\254\026-=\206?\020\276d\026\013\276:\237[\275\332\240\233\275~\352\341=\200\242\207\274\\\336H=\024\363\245=\337\242\026>j\246\373=w{\020>.\204\253=\010\350\245\274$\346\014\276\242\270\303=\264\0311=\304\227p=p\366\n<`\'\362;\274\310\245\275\212\360\004\276Sb\005>\006p\300=dX{= \021Q\274XL\346\275g$\223\275,\307h= \313\347\275\340\361\371\274\306\372\020\275j\226\344=\356\353A\275\242Y\037\275v\376\331=\226q\351\275|\t\016\276J\006\r\276E\261\345\275\355\245\266\275\0019\242\275\252\023\300=\300:\271\273Z\365\265=\3462\t\276\341W\000\276\200\2664;\254\223\212=f\332\376=zz\357=r\177\312\275;\243\324\275na\016\276\217\305\010>&@\215\2752\237\311=8\353\344\274`\344\275<\300\335\323\274\260\333\372\275\362\325\234\275\270:\r\276\324\301\n=XJ9=\250\217\344<\350\217\270\275\216\232\312\275|\335\232=\007\300\030>G\203\031>p{\202=\246\222\346=\240\321\374\275V\277\330\275\305\264 >\264:\344\275%\307\022\276\350\307Z\275\033l\020>J\224\216=\352\333\006\276\371\277\024>6,\347\275\256\222\310\275o~\032\276zq\264=\350\364\264<\306\304\374=\357\214\033>\340\n\017<h\035\023\275Q\242\n\276\032<\257\275y\217\021>\217\203\006\276\005D\224\275\004\366\027\276\"\t(\275\"\023\324\275P@(=\301\233\036>@\223W=}\266\017>\000\341\302\274\3701\252\275\020:6\274\320,C<\236\301\277=\254#K\275&\027\337\275 \341y=hP\250\274\251&\026>\236B\346\275\274i6=_\005!\276\026\222\307=\017\\\210\275\000\374\224;\304\262\265=F+\270=\343\206\236\275^\356\275=\323?\003\276\200!\310\274\031k\016\276\320\206!\274\364@<=\306\265\233=\"]h\275\020v~=\302#\022\276\376+\360=\214\247\217=\n\037:\275\340\001\207\273\210Y\215<\356\201\337\275:\005\370\275\304\344\013\276\030\304\247<~g\360=\372\001\223= \300\337;\260\371\276\274\2232\026>\000+O<Be\007\276\243\305\232\275\034\025\266=`\210|=]\313\034>(\311\274<\r\376\256\275a9\347\275\352\037\260=\000\260\314\272\300y;\274]\310\010>\224\315p=v\221\325\275<\023\322\275\340b\331\273\336g\363\275\004,\025=nq3\275\3602\201\275jz\374=\372y\333=V\206\344\275\266\274\271=\326\213\310\275\t\252\007>\030\307\221=\200\240\200<{\370\231\275\265-\275\275\027\206\032>\004\266!\276eL!>\2474\022\276\346g\261\275P\363\233\275\320`<=4d*\275\240\033\275\273V\202\201=\360L\020<\366\241\361=h\276\312<p\247\030=\031\373\347\2755\344\">\264@\332\275\301?\000\276\0207k<[(\322\275\002\231u\275\234\r==O\227\327\275\234\254:\275D\003&=\337\304\237\275\330!\026=\273\030 >j\271\202=\010\275\305\275\211\222\356\275\250\020\352\274\340\351;=m\223\223\275\272\323\223=\2000o\273\233P >r\270\306=\320\033b<\240\324F=o\355\027\276\376\314\243=0\302\021<\242p\275=\200\321\t=Tm\265=\214\251t\275 \"\325\273\356\320\300=`A\223; \265\253;\020Q\376<86&\275`\031\023<|\267\317\275A\264\261\275\224\362+=\242R\354\275@\037\007\276p7A<~O\360=\370\327\260<`\272\001=\263\002\n>\212;\325\2754*\026\275\344\230i\275\340S\235;0\306>=o\372\004\276p\367\205<\227B\033>\264\372\016\276\342O\307=\340V\212\274\305\336\014\276d\326K=rm\335\275$\304\216\275d\177\207\275\326\270,\275\310X5=\035\022\022>`:\030=fd\312=R\260\371=0\371N=?\217\020\276\240\035\246\274\346b\031\276\250\231\002\275\220H\n\274\370\260-\275/T\362\275\016y\317\275\354\320\017\275\240\353t<n\364\323\275\376\376J\275\022\341\365\275\354)\327\275\236\020\317=h\377\t\276hh\244<\316\357\314=\254\276\263=\374\316\027\276@n;;\200\010\024<\274:B=&\037\230= \234\346\2734\222B=\032\366\306\275A\014\211\275X\270\204<\032x\005\2761!\t>\210\305\302\275\344\010|\275\177\211 \276\013\221\016>\317\210\360\275^\220\243\275\002\037\304=\254\316\244=4\370\202=\256\037\251\275\335*\271\275h\207\230=QL\n\276\340\333\310\274`ql\275\225\207\024\276\266\213\301=2\366\363=\014\277\224=\276\315\212=\004\202\t=\240\247\275\2730\217\377\275b\025\003\276\220[c=\300\236\311;@\363*\273\220\235\032=\306\033\365=\340\373f\274*\025\032\275S\321\243\275`\237\025<\200\327\023;\3319\001\276\362\205\367=\334\314\246\275\335\r!\276\366\240\347=\376\006\214=r\224\274\275\374\227,=\327\267\225\27520\320=>\272\033\276[l\004\276\306\356\315\275\247\222\037\276\243\210\020>\302n\312\275\313\362\000\276-\331\311\2758E\032=\320\201\345<h<\370\274\3209M\274\014)\302\275\372$;\275Z\003\373\275p\224U<\362\330\310\275\300\336H\274\036\361\324=\220h\340\275\274\004\201=(\321\004\275\210F\260=\230J\235\275V,\005\276ue\211\275X\225\001\275\010\371\322\274\220r\022=\266\335f\275h3#\275\325\340\303\275\006\335\024\276.\302\242\275\033s\006>t\320|\275\223\343\021\276)\361\024\276\315\"\016\276\216|\325\275/\232\242\275\207\201\270\275V\207h\275h\201\304<\314\'R\275\200!\246;j\370\234=\207\256\006\276 @7\274\350\211\331\275=\342\t\276\025\375\r\276\014x\257=\313\306\003>6}0\275\036\303\325=&\320\366=\211_\023>\340>\234\274\354E@\275\237|\261\275O\263\227\275\270\212\204=\337\356\006>C;\005>\224\245\250=\n\211\273=\370\341\021=\212^\231=\010\211\370\275_b\013>\204\215u\275\377\325\317\275|\r\314\275A\372\006>k\210\001\276\210a\262<\000\365\026\272\336 \356\275J\323j\275\\\244\"=\006%4\275\310\267\000\276\272K\333=\243$\032>2\261\227=\026\374\346=\303\001\037\276\236)#\275\220\261\271<\r)\002\276|y==\300\3270;xD\201\274\234\240\332\275\241\232\031> \377\324\273\265\265\007\276\370\254\224<\220\315\251<>^\231\275\352\001\017\275p*[\275hz\355\274\214\216\213=\037\352\036>\026\274\014\275.\257v\275\001\263\r>\3223\003\276\200\274q\274\020Y\323\274=>\r\276\252\342\031\276\200\032\202;\324\230\361\275\222L\255\275\227\n\262\275\275x\245\275\n\226\341\275\226\265\271=\340:\032\274\252\013\250=\300\354\245=\"\013\257=\250\231z\275\200l\205;4\001\001\276\343F\034>\216\227\302=\025\252\243\275\315\213\242\275Z\003\231\275\220\025\252\274|\320\000\275K,\010>0\245\243=\263\207\370\275\262R\020\276\332\256\375\275\374\243\201\275D\277\020=\034!\007\276\032\205\017\275\262V\332=\244.J\275 6\372;\2169\310=\366\361\354=8s\361\275&\003\307\275\210\025{=\240)\226\273\206L\303=l\342Q=\274\036\221\275\306\202\310=\200\373\317;\2257\360\275\030\021\210=\337!\002>\200\360`<\034\261\267=\252\332\225=\000S\267=\000\370\242\271Hf\315<cV\024>::@\275\030\231\273\274\230\372\311\2740\322k=\310(\262=9\220\024>\375Y\n>l\321(=\306K\352=\272=\350\275\346F\307=\250~\"\275\r\205\033>\210.\344\2754\322\220=@\"\313\274\256H\373=v\357\357=(Pw\275\260\360\265<a\332\031\276\371j\007>E \350\275.\365\377\275\242\206\252=\310\205\021\276\265d\006>&\326\256=\"M\311=\200\370\342\275\276\235\370=\210\216X=\024V\230=\n\372\344=v\373\334=\273?\252\275\274n\037\276\277\304\363\275\004\3779=\360\340\234<\027\205!\276W\253\017>\337\227\312\275I\302\264\275\024\3466=N\243a\275\0004\327\2731\224\023>\3568\246={\276\t>\223Y\037>(\225\231=\036\002I\275\366\244\230=\344\217\"\276\260\376s\274n\203*\275\300\254\313\274\240A\202\2739X\021\276\320\371\322\274\245\000\022\276`\030\212=(\245\016=\233\005\016>\262\345\335\275\314{\177\275K\213\031>\322\307\257=\312\265\273=\032\244B\275GB\001>`\2463<\326\266\257=\216}\017\276\335\332\303\275?\255\274\275X\356)\275\230\"3=\2167\363=\320\022\226=\303\334\302\275\373\346\204\275\206\221\317=\3304\'\275V\326\331=\014\232Z\275\266Se\275\362M?\275\347\006\031\276\210A\344<\305\n\235\275\371\230\t>*\310\275\275\320t{\274wK\334\275\200\027\370\274\353\254\013\276\242\307\260=\275Z\021\276\260\024\032\275\020\240%=P%\240\275\200\213H;\374\350l=\037x\202\275Y,\027>Yv\032\276\200\272\273\275\000\226(;\000\237K:\255\036\001>\2238\233\275\274q\031\276\020\374\215<PY\004=\211\276\010>\000;\321;\330gu\2753\233\022>\014\010\235\275k\"\262\275\216\305\351\275\332z\326=\322\003\036\276\010k\351<\264\353\r=\214\210j=+l\005>\217-\t>\032\262\364=\310\350\202<\240tH\275\267M\200\275+\340\026\276\000\003\324\274z\307\354=\300\310c\274\010s\206\275pQ\307<\232_\247=\307=\234\275\0309\247=r\206\016\275Gl\003>n\337\255=p<J\275\340D\226\275\004\025i=\354\311\350\275H\344\322\274\204\252\n\275d1\005\275\035!\003>@\225~=@E\265< \225\316\275\326A\353\2758\257T=*\346\364=\362\372\250\275u\021\n\276\340\377-<\250KA=\351F\016>\365\315\027\276%\362\335\275\362\202\361=`n\255<\030f\215\274z\343\017\276\237k\234\275\377\363\022>\372\226\257=C\347\362\275\034E\n\276DN\347\275\327\370\225\275?@\303\275\r\257\032\276O\310\016>\374\030s\2755\215\366\275\340\"\303\274\010\255\357\274`\337\201\274\276_5\275P\2729<2\303\244\275\261N\262\275\240b\n<\220T!<o\340\023\276\301\336\263\275Z\353\343=\204!}=\202\177\374\275x]\031=v\004M\275\340U\362\274X\025\267\275\001\246\036>\001\324\001>j\227F\275\320QN<\340\256y<_\273\001>0!\367\274P_\211\275d\304\004=\224\333!\276\255\236\000>\265q\034\276*\001{\275Z\357\335=*\342u\275\0007\343<\263M\270\275\236\274\033\276\036\022\365=$\032\016\276\000\320\231;\030\254\000\275c\233\243\275F\334\320\275\340k\337<D\211\003\276\024l\032=\253Y\313\275\224\276A\275\324n\003\275f\245\355=\200\356\233\275:\224#\275nQ\215\275\310\265\017\276\336O\014\276M\373\361\275\340q\203;\222*\275=P\0061<\332L\201\275\260*{<\310\0343=2\250\371=\013\354\322\275\022W\020\276\034^\341\275(\325\367\275\340\t,\274\350\226\355\274\370|\241<\322l\334\275 \024@\274\250\037\356<,G\202\275\025\366\025\276\310\361\273\274\020%\376<*\347\020\276lH\001\275\2708\240\274\342\212i\275\242\232e\275\350\t\013\275k\267\353\275\004\363\220=w\037\037>.\"\300=\217\177\013>\234\256\357\275>\231\277=\314\205\371\275\304\371\234=\331\224\002>0\350\r<\300D\207\273\355x >\'j >2\320\330=\3561\037\275\027\252\026>\020\274h<\261\341\036\276x\t\270<\264\"M=Q+\345\275\"\335\322=\0072\023\2766,\321=\264N\203\275x\353\267=\3650\033\276\026f\257=\302\365\243=\270\370$\275\336\177\031\276f\264\275=\032\3055\275\027\000\033\276X+\221\274\250\342\202<\014A\013\275p\273\253\274\024\006\247=S-\025>\230e\261<f\342\332=N\310\326=\212\321\200=\304\270\306\275X\271\305<\000\340\2519.v\351\275=\017\035>\033\312\002>\314|\000\275\206\275u\275\330L\362\2757\346\232\275,\366\005=\220%\272\275\346^(\275\222[\201=\026\323\316=6y\313=\200\216\006\274iw\027>\363\334\355\275\367\312\035>\326\231\375=\344\353\027=\350n\330\274\350\306\027\276\200\254w\274\344\247G=\020\372i\275%\032\035>l\030k=L\233\236=\360\334\024\274\232\351\240=$\033\220=\242\333\316\275\000O\001\272g\313\022\276?\263\031>t\212\342\275\302\211\340=\002\265\372=@\274\316\275\016:\025\276\206\225-\275\223\307\031>\370\016N=\306k\354=P\211\265\275*p\356=\276j\352=\325\\\272\275\213\007\r>\334V\275\275\340U\t<\320+\277<\370\246\230<\t\361!>\000\304\234;\020\356l<\004\247}=L\245;\275n\261/\275\016\021b\275\244\335\003\275\235\250\037>\326\342\375=VU\307=\322\020z\275>\210\211\275\rA\033>\346\247\337=\314Z;\275\340P\225=\273\363\035\276%<\320\275\231]\024>\210B\332\275\216\370\236=\204^!\276U\304\r>^\335\307=\320\357\272\275\240\340\224=\010\205\027=\2267\251\275f\316\025\275k\373\005\276\275\301\036\276\340.\225;x\t==\022s\376=\'\352\257\275z\265\233\275\0006\375:\320@M<\030J,=\266m\"\276=\365\001>f\014\362=OM\031\276\360\251>=P\225\367\275\030jg=\300[&\274nX=\275\300\265\215\273h\332\277\275 A\233\273\210uO\275Z\025\365=g1\374\275\207\302\005>\220\340l\274\2101\216<J\200\301\275\362\306\024\275\022y\274=\3341e=P\254\007\275\300,\014\274\360\264H<hz\243=@3\355\273\246\020$\275X&\310\274\251\236\022\276\300^\004\274J\373]\275l]\221=\244\323R=\206$\315\275D\232#=\273\342\022\276|M\036=ao\265\275\260\341z\274z\250\017\276\230\326\254\274r-\306\275\300\021\264\273/u\003>r\233\202=\350\354\254=6L\265=\000\370\242\273|\212Q=\237\200\003\276\210Ci=\2703\262=\232{\360=`\225\007\274\367%\306\275\371\325\022>\246\017\353=\344H\034\275~w\032\275\000\017\323\2747J\024>\263\232\">.,\233=\220rs\275v\206\270\275>\003\036\276<2L=|\006@=\230\300\346<\204\030\027\275\354\304\232=,\200E=\344\231\256=\213\215\010>\223\r\227\275a\\\013\276\333\034\025>k\224\254\275\302\300\343=\204\2258=v\254\332\275\370\372\333\274\310<\375<\030\246\244=\004\n@=2\342\321=\000\300\354\275Q\303\373\275\254\355\310\275\257l\030\276+\037\002>Jz\210\275\373\352\035>\226h\364=\356K\362=\330\202\364\275\333=\320\2753\\\036>$\304\013\276\260\361\013<\252i\370=\252R\342\275!7\224\275\246\034s\275Va\301=\226\244y\275\244\033\014\276>\263\006\276\300\256\303\275 o\260<\230\340U=\360\200\326<.\271p\275D\0067=\340\033=<\260t^<\370\355\235\274\225?\253\275\247\006\026>\320\204\206<\340\022\342\273\177Z\205\275\250\373\333<\275\020\356\275\264\215l=\316\341\223=xz\241=\240\277\'\275\031\360\374\275P\331d\274\310\351\262=\254[+=\254C\025\276$e\006=\260r\364\274L\302J\275=3\250\275\030\277\213\274\200.7;\272\317w\275\250\341\246<\036#\222=\366\034\336=\nX\235\275 \243\303<?b\245\275\246\004\312=P\344V=yA\030>\252\020\343\275\253\315\255\275\220\337\262<q\355\223\275\000\n\230<\334\304g\275\302\253\377=v\322%\275\200^\t<`\364\316\275\360\317>=\210*2=0Zp=\216\327\275=\3206r=Ys\n>hi\n\276Y\245\231\275pz\022<B\016\274=\300\264\315;\036\334\361\275d\327\021=\342\221\376=\021\226\"\276\"\245\333\275\030HJ\275\210J\201<\020\243Q=&^\342=\316E\364=\302\270\344=\237\300\251\275\242\023\367=\242[0\275\257i\t>\220z=\274\000#\215\272x\243\r=\030\375\323<D\247\003\275\340\211\013=\230 \276\274\340\357\225\274@\033\250= O\226\274l\222\"\275\244\267\307\275\304\037\265=`\202\240\274\343\242\025>\000\342u=\250\254\223\274\372Wf\275\"\367\340=\300a\\\274\002${\275o\006\007>\302u\324=\006\342\213\275`,\204;\032J\212\275T\0069\275\350D\327\275\204H\007=|\241\223\275D\312\026\275T\326c=2\256\177\275\234;\236=\027\336\352\275\302\207\214=\200T\005\273\240\361n<\260\337\275<\325L\037>8\372:=\204\272\027\276\026!\034\276D\200\361\275\222\220\222=\374\200\001\275\200\362\255=\360i\270=\214z~=\246O\036\276\342I\'\275\004n\030\276\276\r\331=\000\237\306\272\302\302\351=\004@F=\020\274F\274<$%\275\202\316\344=\r\240\r>\224:\227=\204\000\251=,:B\275\3068\275=\330\211\326\274t\365,\275\303<\000>\342\320I\275\362B\376=\0061\255=4\010d=U\341\031>\326H\037\276\230v>\275\320\033\023\275\240\360\217;\276\254\332\275\\YR=v\321\337=\005\265\023>g\272!>!?\353\275V\017\036\276\242:\263=\253\027\013>`N\177\275\342V\177\275\000\322K:;\320\033>\000\323V=\033r >\310\333.\275\330\331x=\325$\024>\270@\004\276HM\233=\244\r\314\275\314\031;\275\340H\355\2756\'\375=\300?S=\367+\026>\273d\210\2750w\356\275nrn\275\021q\376\275\330\253\233\274\000\253\243=\350c\002\275(j\206<\036\005\031\275\243\226\230\275Q\243\021>\002Q\342=\241\242\025>&\016\307=\365+\r>Z2\370=(V\203\274\362\376\321\275T\374\263=\230\033\230<(8\031\276\330\315-=\350)\364<*,\032\276\340A\267\275%{\210\2758m\t\275w\233\274\275w\276\373\275z\004\240\275X\030_\275\252j\357=.,\020\276$.5=5]\373\275Nx\255=f\353\321=Z\"\211\275W\267\205\275@`\000\273\020\n\246<\234g\221\275:\014\212\275\244\264U\275>\233\025\276\306V]\275Ra^\275\036\316\346\275\273\335\231\275\312\234\301\275-=\025\276\010E\354\274\0322 \2769\353\304\275nk\233=\220\316J<\376\324\307=\001\337\003\276\220\247\023\276\301\336\014>\\i0=\263\244\003>P\367\364\274\350a\020\275\244\321h=\220F\017\274\242\221\313\275\220*R<\260\331N=\364xj=\016\313\277=\220R\007<x\340\363<<\313h=@SS\275\327\260\020>\200\017\337\274n\367\264\275\272Z\016\276\334=\324\275!3\n>Q\377\016>b\"\372=6\252\273\275\230\360:= \202\007\276\304\274J\275`K%\274h\346\243<x\335\211<\310@N=\300~3\2748\332\340<n\320\274=\324\245\335\275>\034\306\275FL\025\276H\203\302\275@,\337\275]\n\203\275D\332\r\276\246\027\324\275\231n\216\275D\216a=\020\264\260=\324\202\016=\216\\\307=\320g\006\276Sa\023\276\0242\007=\250\001\364\274\312SY\275@\3227\275.p\367=.U\216=Bp\346=\366\351\311=r\023\312=2\260\257=\202]\262=\276P\346=.\\\t\276\225\034\031>$\264\252=Dt\n=\032\354\267\2758X\031\276\255\032\244\275z\225\016\275\242\261\256=\000P\r\270\242\020\305=U\213 >\274\271\037=\260)\031\276\300\n\370<\276\016\373=\000\271\306;\002\271\347\275\346\324\023\2754\006\222\275 \034\326\275(2\247=\232\320\320=(\310\242\274(6l= v\367\275\010\370\277<jx\301\275\346\331\313=0\004`=\250\362\315\275\t\304\231\275j\247\325=\010>\230<\020SX=\227\237\003\276\250}\246<\"M\350=\224\235\351\275\352E\272=O\234\002>\340\346\224<:\261e\275:1\320\275(\242\205=\230\274\004=\004k]=\361j\020>\300\253\243;(F\250=\031@\251\275\354n\025=,J\332\275\324#\021\275\024\"\023\276\203\202\031>b\373y\275 Xw<\336\306\203=h\006\240=\326\234\277=!\335\">\330\206\020\276\254\232\t\275\275\"\212\275\210I\322\275 5\337\274\000\210\314\270;\344\023>p\'a=\033\034\324\275\260\2603\274*\'\271=\002!\343=\010<k=\304\355\335\275R\373\223=\314\326\232=\274M\025\276\262m\001\276\246\016:\275\0325\025\276\002\274t\275\210\373\246<\374\376B=^\016*\275\3065\376=\030j\252\275x\275\201\274`\005\216\274z\022\345\275\274\222\266=\331\371\037\276\376\371\277=lm\356\275\264\214\000\275fS\332\275\232(\260\275\206\225\356=\000\340h=P\"T<F\214\370=@\312\350\273\230\226\267<\017\245\n>d\035\206=\200\3573;\316\247\"\276B\"\352=\362\324\333=\010\316\n\276\235\342\032\276\024\312{\275 r\342\274?\013\315\275\r\006\014\276\260\353w=\345R\027\276\\o\004\276-\002\033>x\224B\275\360\261N<0[\016\274\236\004\322=\222B\213=!\311\001>\031\255 >\344u\266=\2174\033>\000\333\364\274+O\033\276\230\t\355<.c\n\276J0\265\275O\362\034\276\340x\033\276\310\231\301\274,\306o=\326Y\000\276\320\002\266=\205\201\t\276\210~\247=X\0375\275:\205\037\275\244\332\244=\253\267\013>\222\225\320=\\&\033=\234\003b=JV\243=\010\253\025\276$\'\002\276P\241\n\274\240\334\357\274\362\000 \276Zd\315= \313\334;\372=\311=8\007+\275\365Q\007>\237\264\032>/\216\306\275\360Eo\274\245\357\037>\200\306\026\273\346\202\317=\276\000\225\275\367/\032>\262\276\000\276\360g;<\363$\013>\031\317\r\276&\010\220=\240\335\222\274I\230\013>\343\202\026>\210\206\357\275*7\274\275 F[=\251]\004>\005\334\024>\220\312\274\275\223J\202\275p\334\033\276\205\341\005>\360\021T=>\201\215\275\320\\j\274\250\245 =\036\007H\275\032\362\020\275\340C\214\274t\312 \275\326\357F\275\373m\251\275\326^\363=p\006\271\274 q%=V\005\340=eM\221\275@\212\371;\016\002\344=]p\034\276\243\301\032>P\351J\275\263\005\030>PV\251<\3206\375<rk\211=\313\350\270\275\336\271\277=\224W\250\275\362\366\275=\320\315\230=\240\265\221<\202x\242=\014\360j\275C\371\t>:\277\245=\300B\305;Sb\005>|\247\267=\224+\203\275b\360\023\2766\364\274=\256\220\217=`y&\274%\247\005>\362>\331\275#$\230\275\324\233\224=#\303\026>Z\303&\275(\257\375<\235\376\037>a\263\004\276m4\232\275p\261j\275o\034\036\2762q\375\275=b\030>\016\273\203\275|\312\325\275v\237\333=\242\024\363=\000\357\330\273p\277\361<\356\006\250=\243\016\030\276\200\275\252\274>\223\013\276\002\375\311=\320v\214\275\222\266\321=\306v\376=hs\235=\000\217K\273P\315\251=IO\013>\027\222\334\275xM\003\276<\317\377\275\307\217\316\275\336\275.\275`\375\221;\302\315\357=\334p#=n9\321=\332\213\303=\235\374\034>\"v\362=\207\322\275\275\313\301\013>\025\362\276\275\030\206\254<\334U\261\275\276\213\336=\252\000j\275\254\263[\275`\301\021\2741\325\030>@J\234<\2001\277;T\366\322\275`\032\t<\224\214L=\331q\n>,\376b\275\367\255\025\276&\321\304\275P\010\234=0Zc<\367O\010>\357\000\261\275\216X\276=\340\006\243\273j\034\210\275\200q\227:z\r\206=\230\270\t=\272\216\017\275\260\t \2769`\033\2760\231T<:\263\342\275\000_c\272\022\211n\275f\024\227=x\'\357\274h\323\030=\303\\\002\276\010\342\000\275\310O\307\275\230\332Q=@\264e\274\300\264\212<\266b\005\276\256\225\237=\364> \275h\216\001\276\023\204\235\2758\345 =\312\343\030\275,\216\215\275b\214\231=@\255\000=\272y\362=\230\275\014\275\221+\202\275\210\007\246<\220\371~\274\024\\\321\275\013\371!\276]W\031>V\363\370\275\226\t\226=\260K\003<\2724\002\276\370{F=\300G$;\362\036\347\275\254?\031\275\314\0345=\016\324\277=\324\260x\275\201\254\002>\314+s=2\240\276=x\250\307\275\371\306\211\275\2368\300\275n\004\243=\260\365:<^\222\344=\230J\377\275\363v\017>\014\214[=\010\\\221=\232\232\334\275@\277\216=\256VA\275\340\373j<^\371\365=PD\001<\351\373\000>\t\316\017\276\020}\032\274\310\302\031\276y\235\026>x\t\301\274\001\024\t>\036\267\345=\316\317\346=Jn\371\275\340\236\016=J\372*\275\010\023\216=\336\365\232\275\274\200\214=\270\354\265<\336!\326=\260\037\372<\366\t\014\275\306\270\301\275\264\225\232\275q\031\013>8Q\247=\220\260\n=\235\210\300\275\200\214\342\273\314/C=\000\340>:S&\022>\3500\374\274`t\254=P\2205=\323i!>\2209#\274\324C\033=n>\214=\256(,\275\262W\r\276 \2764=p\301\007\275\3608#=\220W\324\2748\260\246\275\263\221 \276 \3403=\310R\257\274\260\"\r<\302<\306==U\243\275\034\035\031\275xd\230<@=S=\272\303\343\275.\241\300=\352\031\320=\220>[\275\230\020\375\275\200\327\367\275\013\322\016>\364\357\251=\000i\266;\300t\330\273\300\3445<\373\373\025\276\360LX=\004\375\254=\210\256\335<\300k\333\273\374y\034=\346 !\276p@n=\332\026\372=\350\347\340<\314\313\253=D\023\331\275$\336\001=\320Z!=u\331\037\276j\005\273\275m\003\246\275,\010u=\370\000\204=\304m\257=\276\354 \275X\033\034=\\A`=\004w\203\275\002`\267=\316\204\246=0\242#=\222V\336=\362\333\251=>5\322\275\300+\216=5\202\016\276\212\357\366=!D\025>lPn\275\342\335\201=)\212\352\275\016\320\243=[\227\005\276\016P\340=\000_\003;z\311\374=\312\251\025\276PH@\274\330/-=\320\034\264=\242n\237\275~\303\207\275qK\207\275\230\022\275\274\323u\005>\n\247\272=\374\327\245=\214\365\253=\177$\031\276>^\346\275\364\353\002=\266E\205=\266\337\267\275\241;\273\275\341R\201\275R\316\312=+\322\031>\002\216\306=j\030\262=\305X\023>\370L\353\274\230\014\302\274p\2621=f\037\352=\010\304\262\274\224\265\325\275\250h\207=\214;k=\320\365g\274S\337\005\276xV@\275\367.\260\275\3566\026\275\003\221\003\276\312x\335=9\231\024\276\030l\t=\250\323<=Tw\003\275\357|\003>\346\235\203=\225s\311\275\372b\333=\255\237\023>\340R\233;\014\023@\275\"\023\312\275\261\207\225\275\\\267\001\2759E\001>\030\000/=\000\205Z\272:\360\336=\360\266Q<d\177V=?\343\t>V\245\376\275\201\356\370\275\340:\275\275\222k\327=\257\021\236\275\230\016\016\276Z_k\275\235\362\342\275\370\n\231=\254#\264\275@k\202;\376\027E\275\235\235\000>\r\327\037\276~\223\212=(\337\243\274X\\?=(\317r\275H\345\242<B\225\344\275+\232\035>\240\237]<\300L6\273J\n\303=0x\020=\360\356&<\">=\275\246\267\362=A\217\">6\026\251\275J\376\324=\212R\232=L\377v=>~\344=1x\n\276\200\317\234\273@6n\2750)\305<\r\317\030>4\257J\275\226s\210\275\303\325\021>4*\036=\013*\030>R\036\366=\035\341\200\275>\307\372=\366}\310=Ho7\275@_2<&]\206=\372\221\362=\266&\027\2768g\274\274\210\311p\275w\345\024\276\260\236\363<\214\214e=o\\\377\275:&\032\275\251\213\032>p\262\220=_V\206\275\346}\373=^\367\357=\264\246\216\275x\305\005\276\333\364\326\275\206;J\275\220\361}\275@\024\037; \220\351\273\000$\226:\234XC\275\000\326S:\200\324\332\275R\217\343\275Z\266\330=`](<\240w\177=\346]\273\275\304\031!=\306\001\201=\274\316\262=X\2156=\212 \351\275\215\354\025>\212\200\300=o\220\001\276D/+=qA\n>\277\330\022>\010/\271\274\360Y\002\274\222*\215=\364b?\2759e\037>\020\027\007<\250t\313\274\237T\">\3537\032>h\371[=MO\013>\350U\211\274\310\270\004\276\323\367\373\275\234\311m=\324\250\266=\332\224\207=\350\265\236\275\334\004\000\275\310$\233=\266\206\232=\200Q\300\273$J!=4\004\233=\346\316\212\275\223\225\350\275\352\306\246\2750\246\251<\277\236\037>2\210\326=\304\352\026\2767\376\010>/:\023\276\2459\303\275j\235\245\275\360\001\013\274\010\307R=\023\300\023>\360}/<\3216\007\276\345\021\004>F\025\321=\210\260\007=\\W\254\275\016\311\276=*\241\324=4\241\242\275\272,e\275(Bo\275\230Em\275\314\177\006\275(\305\254\274\010I\222=\0246]=z\264\330=u\014\025>b\241\305=\2447\021=-\010\273\275\322\343\312=\006R\355\275\266\321\347=\257x\374\275\\\3735\275\022\210\001\276\264\364O\275\204\305\021=\200\374\300\272\026E\375=\251~\225\275\255a\001>\315\370\034>@9\237\274\220\374\020\275\200\323\016=,\325\013\276\276\003\345=\3449\037\275\200\003\311\273\345\234\033\276\230\023\206<@z\272\275?\376\367\2750\027)\275\212\266\376\275\336\014\255\275@r>;\256\207\030\276\230w\267\275b<\357=\326Z\246=\240\030\t\274\265\325\007>\247\016\216\275\000\256O\274%)\n\276\347\313\037\276\314\007\347\275@PO\274\321\010\022>\230\236\036=`*\345\274\360\2621\274\020\240t<\036\264\"\275B\237\322=\336-\310=\1776\031\276\200n\233\274\000\023\260<\251\272\357\275\340\224^=\324\321\261=\354\250Z=\216\t\363=db\r=\364\237\363\275)\260\014\276[\270\020\276\305\224\316\275\247T\037>\377\212\034>\333\313\247\275\332\007\212=`\213\272\273\247\247\007>\026V\252=\227-\025>\240\002c=D\342E\275>\351\252\275:H\311=\314]\230\275\026\353\220=K\362\215\275(1K\275\340\326\317\274t\306*=`l8\274\001v\007>NN\372=\3768y\275\362\315|\275\000\003\251\272\036\034\364=\252U\334=0\270\272<x\374\003\275\300\210\243\275\203\334\014>$\006\023=\360\272b=\2212\025>\200L\252;>_\014\275\3746M\275\344\344.\275\030J\214\274\340\351\t\275=\220\271\275\350\242a=\341\364\007>\352\222\315=\224\000\'=B\333\246=\0009P=\214\377l=\274\004A=\260\244\331\274\006\254\201=\350\301\245\274X\223\217=F\361\353\275>R\361=[\256\035>\241\232\241\275>U\027\276v\032\353=~.\227=\216\344\231=\024\260G=\260\2420\274\033\260\202\275\311o\000\276\0104d=\320\021-=\325\300\375\275\2001\216\275\004\000]=\246\013\016\276\352\223\232\275f\211\321=H\206\356\274&\321\026\275\377\221!>\220mM=\032\306\177\275\320\n\032= \234\035<\251\312\017>q\356\272\275\362\017\304=\317\372\266\275\000\320\270:0\324\225\274\270\032@=\200\317\263\274g\010\231\275\337I!>\371\277\020>\004\316\032=\n\226\314=FV\351=\232o\217\275z\033\332=\000\315\223=\241o\245\2756\010\310=\230\007\333\2756\375R\275\330\274\260\274\014\335d=\277\326\023>P\241\247\274\004=\374\275\320ZV<\267\374\010>\274\367\341\275\247:\026\276\030\332\207\274\036\342a\275nt\330=\260\205S=\315\004\002>\241v\200\275%\205\031>\214\335q=\032\363\027\2767N\035>\353F\010>0\346H=\310\023\266\274\224\327\213=\000\210\312\275\000.\312\274 \305\211\274\3143s=\212\321\352\275\036\271\005\276\326D\336=\326\177\377\275\260Q\r=\034\334\027\276\206\006\275=\334\031`=L\311\263\275\364\017P=\300\001\371\273\221\327\264\275\177\274 >:D\377\275\037W\026\276P\237\003\276N\034\242\275\242\034\356\275\227\343\261\275\203w\261\275@\252X=\240\024\332\274\362\316\347=\3040r\275\330f\255=\001t\031>\300\271,=\201\203\032>\036\367\321=1=\016>\343-\273\275\214.\202=\034\t\271\275k\325\032\276\244\340\370\275\240Z\360\273\226\'\331=\365\034\024\276\373\'\037>\000\216\355\274\t\316\020\276\200\357\035\273\222\004\362\275\306\212\350=}\235\020>\360Tt=\320\003\231\274\025\317\035>\210\221\224\274h\347\306\274\272\251\337=n\245\214=<\347\\\275\257{\n>\020T\177\275\276\241\343=\212\225/\275\270\334\377\275\000D\355\274b\244\236\275Pd\336\274@d\264\273\200\033\037=\007\367\223\275 R\030=\221\212\037>@\006{\275\326i\260\275\212\366\016\276\301c\035\276\240\217r=h\024\235\274x\035\016\275nI\026\276\232\306\262=\256d\313=\000\233\345\273\333w\n>\264\230\366\275HT\255\274\326\202\264=F|\323=\205\243\360\275\2704\353\274 \220\333<\334\332\004\276:\256g\275%\363\265\275\364\200\231=CC\026\276\312@\354\275\217\366\007>bo\377=<\016n\275\244\001\344\275\316/\266=\246\232\323\275O\237\035>j\346\234=\324z\235=\005\213\023>\200\334\317\275\360\270y<\274Z\257=~\257K\275D\260.\275a\010\027>\260`\322<`\211\260<\307t\000\276b(\021\276\352t\377\275)\257\r>HT<=\t%\027>ea\006>\340\231\350;/\000\022>FB\372=\322\375\214=\000\2173\274bA\025\276\340\361\266;\024\036\023\275X\200\245\274\240\253\214<d\014\320\275\272\371\366=Fj\367=>\215\334=\303\023\235\275P\356\201=4\326\201=(\357\361\274\200\024\r\276\362\362\322=2\274I\2756\361\300=0\366\264\274@\336\233;e\250\245\275F`\354=\355O\007\276m\307\036>\321\304\r\276t+\222=J\363{\275\260v9\274*\344\324=\230\016\263<b\025m\275\344vG=\222!\333\275]\301\017>Y5\025>J=\360\275\"g\260\275h\340;\275\365\310\032\276x\252\306\274\334\277\027\275X\017D=\022S\006\276\242\204\310=n\307\366=b\364\350=NC9\275.\335\354=\"\031\371=\300\026E\274\2374\t>\306\017\275=t[\265=\200ff=\200\200\264:`\242\272<`\256\315\273\361\205\350\275P\264\334<\nr\022\276Z\231\365\275\016\360\212=\314\016\n\275RU\310\275\333\262\023>PD\364<\004\247\221=E\312\030\276\3536\246\275\270\363\026\276\030\206\361\275\325\331\000>\000\221\227\275Z^\016\2754\342\002\275\\+!\276@uT\274\212\351A\275ke\037>\310\324\216\274HU\345\275`K\366\275\260\004\177<\020K\026<r7\035\275\235\242\030>\371j\315\275\317\341\346\275(\200\330\274J\t\300=`\245\023\274q\017\026\2760v\223\275\204@H\275\000Jw\274\2131\033\276%\232\305\2750\234?=\236+\257=\320\336\014=\ro\023>\370\313\023\276%\243\014>Bv\314\275\304\370k=\242\'\321\275\014\350\006\276\000\203\254\273_\337\024\276E\363\023>b\360\312=,A\014\275\036\t\334\275\221\260\033>0\276=\274\350\017\212<\226\251\347=nl\377=\200\322\270<\200\332s;\034\213T\275\255]\001>\340\337\340\275\240\010\343\274\340;\004\276(\346\243<$\331\n\275|\260[=\024L7\275L!{=\010\273\337\275\340}l=\340T\021\275\316?\224= \327\242=\000\317\017:d\'\264\275\234\214\341\275\205w\024\276p\370(=\177\373\014>1V\354\275\310\343>\275\220\274\327\275\226\204\022\276\231\354\023\276\311,\026> \335r=<g\177=\000b^=)H\005> \312\214=*\353\224=\201m\216\2750\264P=\222V>\275\027\365\r>\354\273\323\275\"\343\207=\335m\032>\000\275Q=P\017\237<\213\236\036>\036:\265=\n\353\206=\264({\275P\257]=Wm\321\275\206\362\360=~\225\317=\330\027\304\275\276\363\350=\020p\266\274t\204\016=\247N\032\2762e\341\275Q4\024>\366 \325=\020Q\271<@4\323;Q\333\030>h\356\364\274\346\207\352=\032\323\316\275\022\324\352=\350\324\330<\004\221\005\275\250\252E\275\270\001\307\275\320[\251\274:s\331=::\006\276d\334|=`\3023\274\230:P=*\271\351=1 \235\275\226\364\350\275\016\006.\275V\351\376\275\336\332\000\276\000\220\240\272\356\001\307=\022|\373=0\333\262<3\375 \276\300Z1\274\216(\271\275\006\217\371=\200 z=\372\353\372\275\306m\354=\240\330O\274\340\025\257=\374~\033\275\247\212\021>\250J\007\276\244q\003\275\275\006\014>\251\320\252\275\000@E:\316l\344=`T\306\274\300\332\201\2748=9\275\263\n\006>*s\352=\020\331l\274\000\020\2759\264wh\275\020\'_\274ns\341=\240E\342<\257\201\254\275\231\265\323\275P\260\376\2753\031\036>\237\310\025>\270\250\265=h\337\262<\000\350\030=$\241\374\275(\177\244<\326\355\310=\272\211\222=\271\233\266\275@\255\357;\356\243\353=4\351K=D\233\'= K\000\274\370\017\312\275\240\371x=\036\312o\2754\007\242\275 l\003\276\262\264\301\275\200\345\036\274H\211\262\275\253\301\313\275Ul\024\276j\013\347\275\\\332\255\275\264\200y=\302\242\305=Lq\373\275\373\343\004>\220\372T<RO\037\276\310\027\267\274\270\361\377\275\255\261\260\275\320c\207\274\000R\336<\206\207\026\2752\270\t\276|k\013\275`\330\257<\275\262\022\276eD\021\276\021-\000>\330\326\333\274\355\271\022>\252\333\356=\266+\257=\210d\000=\212n_\275iX!>\310\220\354\275\222\324\370\275\330\367\021\275O\265\033>\260\235\340<s\243\016>3W\013>V*\316=\360\266\004\274\304Q^= }\370\273\\\275;=pb\351<\222\003\346=\205\034\314\275\372*\222=\226\244\344=$\323\201\275\240FH\274\370Y\365<\257\263\030>,\274\205=\344\221\227=`J\300<\224%\252\275{6\035>\361\237\004>\254\3413=\002\223\252=\271)!>0\252\255\275\023\000\025>\254\023\244=j|\000\276@\300+\273\334 s\275\341\337\030\276\200\'\320\275P\240\004=\240\217,\275\2714\001>\243\211\t>:0\020\275\017E\217\275\315\030\024>X\325\267\274\3226\327=\205\315\030>\025\244\r>\234\334\005\276\266G\360=\232E\270=\036\277Z\275\301\226\370\275\210\336\323\275\350\240:=d\340\234=F.\377=\251\022\252\275V\343\334=\370\207\251\274N\016\t\276\240x\225\274\271}\021>\312q\021\276\314t==0\177=\274\215(\024\276\275\351 \276\301^\357\275\276\022\200=\226\347\201=\232\360\275=\330\004n\275\262\n~\275\332|\264\275\020$\277\275\036\t\254\275@\271l=\312\372\025\276\224\024\036\276l\r\374\275\0333\001\276\354n\234\275\200\304\247\272\3567P\275\240\310\204;\2052\t\276\230\247\334<#\274\035>\\\005G=\234\214\031=\360\343\330<\3261\270=\202D\330=j\007\220\275\241\345\002\276\216\211\301=\363\372\005>N\375\314=\263\361 >\275\263\013>`\266Y\274\271\221\033>Z\020\353=\000+\276\272\370wD\275\0378!\276>\033\302\275\234c\004=D\307#=\r\357\010>0\353x<\000\366\3169\300\\\227\273\000\312O\274\211\037\206\275\334G\021=\370/1\275\240S\205;df\263=\374\222\023\276\306\300\334= \352O\275F\023\234\275 \242H\274\320\200\177<pg\004=\037\252\317\275\250X,=\270M\266=%\354\007\276\306\'\370\2752\356\336\275d\214\300\275\303L\227\275\315<\003>\347\370\n>|\312+=\360\014\017=G(\017>\243\250\312\2758\350\347\274\256\256\341=\340\363\337\275\310A\213<P\264o\275\2201\240=d\330\263\275bWr\275<\262,=\300\333h=!P\022\276\220\241\315<U\013\216\275\367\357\211\275V\352{\275\340\350\254\274`\005\301\273m\303\302\275\2228\340\275\021W!\276R\272\345\275\242E$\275\023N\031>`}G<\0007\303\272\242Q\217=\260\2266\275\346\005\007\276\213\031\017>\357\341\222\275\003\224\006>\364\322!\276`F\037=XL\003\276+\226\371\275x,\216\275V6\030\276\025D\244\275\2029\003\276\357\023\215\275t\275\037\276r)\347=\\?\010\276hD}=2\335\266=Z\264\331=\260\3064<\377a\205\275\374y\231=\034\300\005\276\212Xv\275(\270\016\276\004\\*=\340\017\027<\310\207>=\230\'a=&\356\023\276\356\203\274=NL\235\275\364\021>=\002\000\300=\3522\370\275\340\322\344<\331\334\031>\340w\356\274\226#\021\276\316\302\367=x\300\360\274\004\t =\372\003\376\275(\207\233=(\300\225\2740\332\013=\200\265\313\274\356\3722\275~\370\371=L\352\215\275\311\231\t>\240xe=~m\350=Z\035\376=\360=\226<\200Ky;6\310\354=D\304\345\275\240\320L\274\371\254\345\275\333f\231\275I\262\203\275\337\034\000>\254\014\267\275\364\273\205\275\254\326\262\275\t\306\002\276 V\306<?<\203\275:\252\346=\000\272\346\272\270\027\332\274\354\243\013\275\000\005::\332\\\212=l\236\r\275`T\374\273\360U\010=\240\315\336<H\274\255<\204\331\325\275\276~\200\275\314 V\275\3179\231\275\304\356N=Ec\005>\371\273\003\276\300a~\273\237\242\035>\250w\317<\200\004\213\275\270c\304<\267<\022>\376\2275\275`2\371<\260\272\264\275\200\211\375\275\250\021\026\275\3363\272=\006\0264\275\n%\344\2758-\246\274J6\010\276,;\242\275\377*\251\275\026\n\306=\340O\350\274\242\265\305=\240z\302\273g\352\032>\336\310j\275\370`\231\275\010\034\022\276$\352\022\276\036\006\333=\3476\027>\027\347\036\2762<\365=\214\252e=a\200\030>\302\240\364=M\204\265\275cJ\357\275z:\271\275\306He\275\322\2218\275\321\371 \276\026\002\370\275\033\255\036>bJg\275N\241\363=\271\322\000>t6\036=K\236\253\275\204?\027\276\324\322\027=\362Nu\275`\210\312\273\257\223\375\275\200V<;C\370\225\275\264\2305=\320\360\341\275\344\245\020=\362A\321\275e\010\271\2756\034\323=xb\227<\235s\027\276B\002\264\275\302\016\026\275w\332\037>@x\264\274\024\373\263\275\200\205\'\274e\360\257\275\251u\020\276\"\177\371=\366-\020\275\214\320~=\300Y\232\273\332\376j\275\"\341\340=\362\035\367=6\000\033\2766p\203=6\366m\275\306\266\372=\226-c\275\231\202\026\276\346\352\311=MW\027>\377;\030>\260\027\341\275\317\203\035>\n\036\307\2750\232\301<\000R\3419\222\214\016\275\030\2245=\326\357\222\275\230\200K=R+\036\275\362\353\005\276\n\2448\275\213\020\n>H\311\r\276\226\321\350=r\261%\275\000/\033\272\340\212\242\273\221^\024>\000\357\264\274\006W\225\275\226\326\217=P\"\271=x\206N\275\344\330\001=\2224\306=LF\200=*\311\322=\370!\202\274\310\240\024\276\006\r\263=\030\034Y=`\221\361<\206&\033\2768^8=\320N;<o~\021>\010\314\304<0\n\303\275/z\027>\266\370\326=\362\t\347=\004K\212=\244\007\326\275X\301\226<\000\314[<\322\375\031\276FC\275=\370\267\007\275H\"H=\330C\322\275J\337\251\275\036\363\016\276\004\354\243=K\376\020>p\327\'<\320>8\274\230s\214<@G\037\273T\241\025=\303{\002>\300\305\325\274\200\212n=\020\370\302<5\036\021>\270\312I=\\\200\241=@8\\\275\356\243\334=P.Q\275\351>\207\275\245n\267\275\357\330\013\276[\261\014>\310\310\203\275rGk\275\256Jt\275\336\035\241=|4\010=\240\030\304;\230\274\344\274\260Pg<\234\023\224\275\270\312\237\275\003B\023>\340\363D\2750\323\027=\002\203\362=b\025\357=\222\236\023\276}\205\035>\330\230\213\274\2278\223\275\005r\220\275zb\351=\312\253\375=\276\312\"\276\3555\340\275XqQ=9m\210\275x\353\330\275\210UI\275a\225\r>\010\3211=p\237\233\274\330\206\013\275\020\276\322\275\021=\022\276\200\375\262;\204\\\013\276M\260\213\275(\333\316<\rF\201\275\000\330\360\273FD\220=\324\000\214=\252y\201=+\030\006\276`a\317\274(\373\261=\340\210\275\274FC\357=r\345\336=\324\027s=a7\031\276\257\207\037\2762\263\r\276\237|\024\276\356$B\275(\3749=\314\317!=\236\221\202=\3219\035>M\261\202\275b\026\346\275\270\366\020=\022.\325=\020\324b<:\313\353\275\330\351\001\276\372\215\366=Y\313\007\276\313X\007>\372\341\201=\270Lb\275\351\267\216\275-\223\017>\257\314\371\275T=\235\275\246\374\363=y\362\305\275\323O\">\010\247\036\2750\372\211=\240\'d\275\246\346\337\275\034\t%=\320A?= \375\231<\372\244\226\275U\225\215\275\300X2\275\251\272 >\000\353a;H\'\002\276|\355\231\275NN\n\276\215\352\034>s=\035\276\254>^=e\263\247\275\320h6\274\340\261\016=h\217\313\275\020\323[=\216\251\343=|w\007\276b\324\353=\312\222\311=\203\354\243\275(\247\264=\245?\022>t\306~=\000v\031\273\254J\262\275xb\316\275`\203%=\310\253\272\274\376\364\026\275\014\2050\275_\254\024>Z1\227=\\~;\275\234.\252=0\333\006\274\013\306\005>=\235\220\275@z\360\275\330\316\317<\247\273\240\275\360\245\007<p\r1\274\202\320\347=\024\355~\275\020\266\256\274pG\034<\0210\016\276\316\020\232\275:\013\346=\372x\014\2751\273\304\275Rc\321=\225\026\264\275\265\t\024>\324\214\243\275\023\230!>\242\213\305= \325\223\274\370\206\335<\3126F\275\232J\317=\274\276L\275#\213\003>c\241\375\275@^\\<\265I\343\275\362\373\035\276\246#\377\275\314\\\226=|\311\200=\223\375\030>\206\332\375=\302f\323\275R\360\037\276\304\374\025\276\241p\341\275\301|\264\275j\032\001\276,\300\277\275\377\216\037>\004\301h\275\275>\034>\300Q\363<\244V*\275\266\306\265=\203\213\032\276Y\022\027>\366e\373\275E\373\210\2757\"\252\275)\002\237\275,\231\006\275@\265\354;\200\361\034\273\024\205\357\275Pw\327\274\200\331\'<\372\020\302=\027\372\033>\364\036T=\246@\025\276@\361\240\273R\372\320=\235C\013>y\035\r>06\023\275\372+\373=\350\253\016\276j\'j\275\375; >\376+\030\276\261\266\n>\341E\200\275\374\231\215=\346k\324=G\351\031>\310F\337\275&\324\345=I;\304\275\2309\343\275_\255\234\275\346\023\026\276\364mt=+a\321\275\314\266/\275\200\310\331\272\305o\331\275f\373\330\275\340\247\234<V\206\352=\250y\247=0\360\263<}\342\014\276\000o\336:\260\326y<\244\017\014=R\357\265=\344\014\177=\376\312.\275\227~\025>\000$\302;\200%\210=0\036\251\275\300\274\323<Y\027\004>\000\234\212\274D\342\315\275\200\360\274\272\224&\210=\274\014`\275T\305\266=\260E\032\274\322i\325\275\340Z\350\2730\241\305\275\247d\017\276t%\207=\252d\252=\260x\005\276\240!\000=\020\301\345<\350\362\215=^\353H\275\222\337\363=@\3075\275\356\255N\275\252W!\2764&\331\275P\273\017\274\266\"\242\275\325\306\013>\260\273\300\275\230\267y=\273\022\007>\366\342Z\275v\363\341=QT\025>\220\272\347\274k\001\213\275/2\014\2764\304\022\276\230yC=\346:\022\276<GO=*X\247=\330\321\030\275 \352\260<\220\316\374\275\000\317\035\273\365{\003\276^\263\003\276\376\225\344\275\362\227\377=\016Q\256=\030\356F=\200\303\014\273\300\032h<\2430\016>\340\017\305;\302\n\337\275\252)\341=@;;\273\346\355$\275(\354\241=\0101\243<c\307\037>\014\261H\275\250\315\211\275\244\335\341\275\177^!\276~R\366=X\270l\275\336w\360=+Z\016>\352\364\370=\240\254\326<\304\270\000\276\200\037\024;^\275\340=\3446\253=3\246\026\276*\365\336=\375\243\037>\332\030\254=8\253U\275:m\304\275\023\213\036>\370\346\224\275B)\023\276b\254\371\275\220\346\202\275\2366\005\276\014\353\022=\354\\\"=X;\003\275\363\245\333\275H\327\236=\210\211\221\274\274\237\313\2758\027G=p\235o=u\217\304\275\300\267\265;\340\037\231=\340\222v\274\262\273m\275F\215\201=\334\210\215\2755\336\254\275\010\341\000\275J\006\240\275zF\313\275\030\273e\275q<\343\275AX\215\275\255}\026>\2421\323\275\360\n\216\274#\372\021>\327E\007>t\003\035\275\024\373o\275\242kv\275\014\2629\275\212\243\300=\226\251Y\275og\001\276\330\307\347<ZP\230=\366\332\252=\267\323\255\275\350\275\024\2760\230\023<yG\033>\352\263\353=\370v\314\274\372C\330=I:\315\275\206\006\364=*\231\300=XL\220<\3726w\275@\347O<2K\327=\304\243&=\227\246\036>\336+\010\276 \203\310\275\020\034]\275V\356\355=p\006z=0\252\024\2740c\240\274\\\010*=\324\313d\275l|\362\275\244\352[=@\2365<\325\177\022>82\273<w\333\352\275,6!=\306t\r\276\342\273\341=\3402\372\274N\317\205\275XL\220\274$\316\212=\220\236\271<\300P\270\2747|\030>\332\221\277= f\333\275h\250(=\224\372\306\275\304\032\370\275t+\020=\244x@\275\016\356\373=/\242\030\276A\234\033>\014\351@=\220/\010<kq\264\275tI\030=\324\256\326\275\220\257><\330\002\014=`fN<\340\224?\275.\255\252=:\225\265=^-\326\275\226\353\330=\020\357\201=\352\254\356=\3760\246\275\020g\n=\"D\035\275Ja\314=d\t\016=\374q\355\275b\t\241=\276y\205=:\324\366=\240\306?<\260\201&=\244k\234\275\030R\201<\320\226\372\275\201(\t>\230q\374<\000\206\217;\370\"\265=0\337B\274\234,\222=\364^\"=&v\272=U\031\014\276\200\300|\2750\035\021<~\336\331\275x|\010\276\200e&<\220\342\013\274<\275\035\276\377x\005>0\3173=t\343g=\246\010a\275\000=\320\273\2221\223\275\203\334\326\275\313D\032>Hz!\276 Y\255<\t`\024>$\274\n\275\226<\322=\017\200\002>\000n\22096\256\337=\252\251\"\276\277k\032>\000\034F<\341\025\001\2768\214%=h\010\276\274&[\247=M5\374\275\233\271\036\276 \333y\275\035\303\007\276\317\260\016\276\277\356\020>\016\242\302=\313\340\002>\241\001\341\275\217\250\n>\000\227\351\272N\237[\275N\032\032\276JS\321=\n\376\201=\n\204\376=\301y \276 j\326<)m\036>\260\374\274\274\362\346\020\276xX\300\274\002\n\363=\373\255\272\275\020\203\352\274\342 \330=\360\330\022<32\265\275\276\261\376=\022\345\371=L\213\245\275\367\207!\2764M\245= q\003=\336\352\332=\000\262\362\272\202\301\350\275\000\343\366\272\231\265\013>\"\341\336=\201p\"\276\n\346\267=\036\364\371=\240:#<p\010{\275\022\020\263\275\240\021\225<\224\004=\275\201F\004>\020_y=\326\274\342=:\252\226=\000\361\303<\0168\033\275\330\000\225\275`\234\'\274l\275\013=\020\250\304\274\202tc\275N\3077\275\'\366\n>\220\305Z\275\001T\r>\300\334\033\273b\211\237\275\026\024L\2754\335\021\276\232\231\316=x\201\341<\230s\260<\300\240\000\275\204\275\210\275\300\330N<H\2011=\300\256+<\316\224\377=\340;\244;\031\351\017>\360\016v\274\306\344\340=,\324\253=\354tU\275\013\235\002>\010\344\377\274\240\271\322<(\014\020\276\272\353\032\275Z\2548\275\002[[\275^v\275=\260\017\306\275\300J\247\273\201p\003\276*Oo\275p\262\311<(\256\376<)\224\231\275\333.\033>VF\317=z\370i\275uK\016>@\271\010\273\214\210y=\364\\\350\275>\350\027\276t\230K=OD\033\276\310\250!\276\217\366\020\276c\033\351\275PH\035=[\262\n>\331\324\372\275\006\244\232\275$\212\235=\020\374\027\276\250\230\352\275\220\007\017\276g\271\032>Z\222\252=\323\315\014\276F\030\225=\240\306|=rn\246=\372v\026\275E\212\001>\246d\331=h:\222\274\273\313\030>\274da\275\2666\320=\034\264b=\030^\201=h\231\303<\264#f=p-\235\275 \377b=\237\350\025>Zt\242\275\224\265z=)u\013>\'V\212\275\256\031\301=\030\372\265<Ts\035\276\225\372\027>\220\232Q<\020\034N<^\344\312=\246\031\266\275zL$\275\3623\374=\300a\017\273ID\256\275\277\240\013>D\260\377\275\035@\270\275h\345s\275\316>\335\275/\004\021>\316\244\313=\310\312\221<\260#\017\276\000\201%=\344\027(=\200*\312\274\240\350A\275l/k=\000\016\2029X\223\321<6O\364=\2406\004\275\002\216\320=\312\374\311=T\203,=\224\334\200\275\332\031\354=\255\217\376\275\340\321\026\276\005\264\365\275\376v\362\275\354\232\301\275\362\261\216=p\350\241=\220\226\177=\331\311\023>\'\302\302\275\230j\227\275\260\337Y\275\216\023\306=\202\204A\275\200]\003\274\224\272\267\275\000\322\026\273`\231\"\2762\322\023\276\274\246b=\267+\010>\000\374\373<\343T\035>\232c\356=\360\265\203\274^)\376\275\340a\214;f\212 \276@\231\025\275\346\323\246=R\353\214=\372\273\312=P\266v\274\272\002(\275\220\377J<&\331c\275y\256\227\275\036\035~\275]E\033>\340\346\014<\230\304\272<\200\250\220;\374\360:=\215r\036\276\313r\241\275\373\022\023>\310\267\036=\211\002\026>\2264\316\275\220\326\007\276`q\301\274\246\037\311=\260\254\003<|\314\361\275@\014s;z\202\361=\346\327\275\275 y\305<z\376\020\276\340\355\201\2734\000*\2750\246A\274\266u\346\275\n{\375\275\312\254\300\275\243\251\005>&\220\212\275\276\021\367=\013\201\213\275\234`\307\275\240o\203<:\340\362= \365N=\340\375o\274\032\330\023\276\306\214\234=\022\251\245\2750\272\200=P\005\337\2748\230\333<\264\236\346\275\022\346\333\275\366@\271\275\376\344\237=\223*\210\275\200O\323:D\t\022\275\\\2362=H\257\034\275\332\267\026\276\340>\235\274\224n\214\275N\240\000\276\024N\266=)\223\034\276\000\277\030=\'d!\276\314\222x\275P\021\353<\260\340\201=\262Q\233=\304\276\346\275|\361\025=\266\301\356=\213\220\000\276\260\034\354\274\370Y\037\276\261\320\026>\001\024\276\275\364\242\250=p\316O=T% =G\226\032>-\273\316\275J\370\370\275\037\373\215\275X\335|\275I\227!>V\003\210=\0003\334;=\305\005><?\035=<\376|=\326\305\312\275\210\305n\275\260\273\322\274\000\014\2359\277\017\016\276P\312q\274dEF\275\277\330\016\276\r\203\324\275t2\253=~x\277\275\360\243\236\2745\255\034>\022c\374=47\350\275\222J\225=\200\301\264\274\036O\343\275p\365\025\274\370\246\263=l\273\021\276\350\204\245<\360\376\304<\322\205\252\275bU\257=@\033g\273\002\213\303\275\340\266}\274\372\004\016\276\234\023\"=\224\325\031\276\3061\341=\360\251\212<h\254\271<T0&=\210r#=\364O\265=|\220\037\276h\351\026\276\300\206\344\273\356I\332=6\223\276=s\316\n\276\266\031Y\275\300\231_<B\203\375\275e\320\343\275\264\356\243=\017h\025>0p\235=\340\004\001\276\266\356\013\2768\002\213\274x\260\033=\000#\247\273\210\014\256\274@\323\026<w\001!>\236\220\n\276r\266(\275E\003\020>\n\251\377=\200d\225<U9\274\275F(\345\275j\221\330=\264\343>=\340\201\343\274\313\016\212\275\000*\3539\212\361\020\276(\t\205<\024\215f\275\340\246Q=\206\027\310=!{\033>\340\363t\274\366Q\220=\0244\013=,\222\t\275\020\325\367\274\200!\333\272\000\211*;\344\311]=\344#\272\275\341\276\003>\350\346\333\275Fc\317=\340\262\034<]h\254\275ba\367\275|\373\256\275C\022\363\275\025\224\001>\002\262\377=\362\261\276=\000 \3307\216P\312=\256B:\275\363\206\"\276\242LF\275\310\371#\275\225\273\022>\340\337\301\274\326\037\"\276\020\204\242=\000i\226\272\262\375\345=]\220\262\275\305J\223\275\000$\313<ND\016\276,e>=\272Y\246=lr\203\275\331\215\006>\272\3653\275\232\002\245=\276\331\341\275\000\3523\274\316Z\327\275\216/\314=\324\000)=\234\302\226=\220\253\210<i\255\017>\330\317\336\275+\260\264\275\322\376\023\275j\252\377=\002k\371\275\372i\301=3X\000>\206\301\275\275M\252\014>\376z\261=F^\314\275\230_\236<\007\357\001>>\"\233=\347l\027\276\002\371\353=L`z\2752\205\353\275V\022\031\276\246\214\306=\340\256\360\275\000+\261=\360g\354\274\036\230\\\275\000\270\346<\210r\241\275$\241\036=\206l\274=\212\276\252=~\224\320=\234@\037=\342\236\375\275\352;\371=\266Z\364\275p@\016\275x\274-=b\016\322\275\"\235\007\276V#\356=\370\025\371<H\264d=\007\265\345\275\245\327\023>\264i\016\276\317X\213\275\366`\364=fa7\275`\344\250\274 \2746=\247_\371\275dVy=\004p\037\276h\017\365<|2\032=\247\027\026>\222C\225=Mv\242\275t\355\010\275N:\262=\216\035H\275\226\321\337\275\004|b=.\230\260\275\362\356\303=\240\257\023\275~\331\311\275\224<\251\275\022\361\304=\316e\204=\024K\214=\270Q\233<\234\"!\276xOc=\330Y\340\275b\276d\275\204vF\275\2179\003\276\224G\033=|\224@=|-\224\275NL\341=u\344\034>\356\215\242\275H\371\304\274zf\264=\266\331\316=\260\272\230\274\200\022\257\273\n\304\372=\222\336\006\276vV\006\276?g\013>\245\223\006>\312\267\337\275\312[\324=\334\350\310\275\273%\034\276\330\016\333\274\002R\324=I;\021>\354\240?=`\216\376;x\323\302\274\320\354k\274P\323\331\275RX\377=t\343\t\276\002(\327\275\240\367\344\275\216$\352=L+m=\264I\003\275\262\344\262=\255\265\235\275\2224\375=\340\036\366\274-\270\252\275\264{\204=~\351!\275,\244\262\275\221\353\">\300\315\345\275\377(\301\275~W\246=\201\030\003>@o=\274\214\210\202\275E>\022\2760:\321\275T\356\216=\000\365n:%\'\326\275P\317\037\276G\317\362\275Z\222\324=Hh7\2753\355\301\275\262\347\354\275\002\213\341=B\321\363\275\036&\336=\247m\020\276x\2067\275\312h\366\275\345,\021>n\365\275=L\204\251=\022\320\031\275\336\336\341=\000\206R=^h\256=J\237\376\275YO\035\276&4\351= \351Z\274nJ\252=\254g\007\276\276\'X\275\246p\025\276\\\272-=\2305\327\275\342~\037\276\213o\256\275@1\260;@\375\215\274W*!>\217\362!\276\334HC=\000\337\303\275\032\235F\2754\251(\275\326\235\376=\245\243\020>\000\246\353<\233\322\275\275\344\250\360\275fT}\275\244\352\235\275\315\366\032>\236\271\245=,f\205\275\322\206>\275T\225E=\201\305\024\276J)\365=\212\262+\275\\\226\314\275\346\217\336=4\3064=dZM=\000+-;\036\341\020\276\321\243\032>B!\334\275\000\032Q\274\351\217\004>.\033\204\275\316\276\335=\000\322\270\275\320a\371\274g9\361\275\3106\226<\224e\246=\034\340 \276\240\027\375<\316\367\223=4#\013=\264r\005\275\374\'\033\275A*\030\276\232\206\354=\\K(=\216\312\363\275I\220\026>\000\\X\271]\036\032>\240\340o=\036\354\241=\224Fh\275\036\332\261=\311\314\022>\000\257\037=\020\226\362<Z\206\032\276\200\237{\274h\244\274\274\021\335\351\275\353\204\035>\332\217J\275.\303\361=H\006\006=\330h\266=\321W\017\276T`(=lC[=@\021O<\321\362\010>\262\245\203=\320\307\255<\034\316\261\275\320\247\206=\000\203\013\272\230\373\207=\310\000!=\370\354\363\274\320z\026<\376\325\303=\370\352\354<@\254*=+\345\311\275\244\340\020\276\342\371\374\275\030\272\\=\230Y\312<:C\366=\360M\026\274\241\240\r>:s\377\2758T\210\274\270eP=\270\360x=\222\014\331=:\231\302=\216\321\r\276\340\255\200<\373S\350\275\036.\212\275*\363\240=\270\237\276<\265\375 >\3541\347\275\274d\t=6\350\332\275\340\243\374\274i\330\036>\376\022t\275\306\035\203\275\200\261\264=<*\346\275\237\250\007>j\346\300=\204\370,=4<\251=\326\350\243=\"\312\000\276EO\235\275\276\312v\275T\372\373\275xu\271=\3648\264=\204D\010=\302\352\033\276\260l\301\274\322f\353=`f\017<\216\356\301=\006\204\357=nU\213={\273\030>@\310\002\274@\014&=H>\235=\200\237\324:\301\274\227\275`\301\250\274@\364\212\275\206\376\236=\330\034\215\275\007\214\030\276\325l\263\275@\013\336\273\220=H\274\3005\344\275\220\021\307\274\314w\250\275\370\350\362\274\200\236S=\236\265\245=\316\272\020\276\324\326\017\276\305\030\023>\010|\003=\304\200\017=\200\007Y=fQ\327\275\000R\327\271p\352\347<*\326\232=\270\203\240\274X\334\354\274`>\003=\356\"\361=~\322\322=\320\356\033\274\250=\212<p&\357<F\200\270\275\230\312h=\030{}=J6\313=2W\236=:\207\305=Zs\310=\322\336\250=R\306\321=\340`c<\204tM=iY\t>\t\220\003\276\315\330\030>]\366\232\275\002Q\001\276`\332\242\274\231\234\007>2=\255\275d\227g=-\037\035\276\343\304\334\275\310\005{=\242\221\231=\240.\224<\242`\204\275B\005\017\276\202(\274=\204Ym=8\243\027\276\000\371`::Z\313\2752\322\340\275\016J\361=\220f\224\274Pmw=\324d\t\276\322\342\365\275|\334\333\275\340\233\371<$\244\021\276(\341\214=\335\366\201\275u\336\226\275>n\341\275\272R8\275r(\231=\240G\215\275n$\337=\320S\254\274v\026\313=XT\301<$<\310\275\326\352\350=\303\335\023>~\207\357=\000\242o:\352N\364=\322\353\333=+\346\237\275\002\236\304=\203f\020>\256Y\003\276P@\245\274\320k0\274\220\240\371<x]\233=\276\312<\275=\036\227\275X\330\314<\322\235\365=^T\312\275>\004\373\275P\261\240=\260hO\275b\272\205=\260\337\230<\230\263\266\274R\273\361\275\2740\336\275\264\024x=\000E\302\272\244\224\005\276\320*i<\314\235\220=\026\241\223\275\300mP=\363\005\017>Zg\266=\t\236\306\275\255c\014>\230\016\353\274\334bQ=\336\177\205\275\250.\333<\350\022\236<\246\347\003\276@d\264=\023\226\005>\256\352\330=h\215\230=\256;p\275\210\365Z=,\253I= \325{\274\302\251\254\275\250\257\222=\270\340\353<t\t\252\275\233\276\260\275@:\232;\256!\326=\342\332\211\275\363S\230\275\276\203\022\275Xn\375<\330\317\210\274fq\233=\024\257\327\275\001\213\031\276He\256\275\004\200B=@\031\346\275h\237\220\275\272\373\266\275\342$\276=\014F_=@\367\364\273\0271\240\275\306?\317\275\'\227\025>\020\226\032\274\001\227\n>3\224\021>\344\266\016\275\2100\"=B\241\255=\322\230\356\275s\310\264\275@\177\213\273\373\220\032>\242\n\276\275\200\316+\275\360V\375\274\000\220k;\025\177\001>\237\361\001\276\236\273\316=\310{\250\274PU!=\324\177Z\275\226\021\250\275k\342 >\304\372\\=P\267\302<?\222\005\276\242\";\275\276Z\233=*\237\006\276\214\204\377\275U\006\311\275\300Q\363<\272\376\304=\330\035\035\276\216>\373=\270\363\236<v\237!\276H\247\253=p\313{=V|j\275\277\336\004>\226T\234=\023E\035\276H\332x\275\360\2612=\336\247\014\276\361#\034\276\264$V=\004Y\004\276V\227\340=+\263\223\275L\341\022=\260\021W=hI\247\274\317e\220\275\\\203J=\261\217\035>\004E%=\240_U\2740\'I=\222:\341\275\200\014\352\272\215\353\250\275\320\353g\274\203\332\034\276\360\016\267=(\363\206<x\374z\275\232\324\371=:!\342=\0207A=D\345\221=\250\026\315\274\337h\n>\261\r\200\275b\374\264=\000\330~\274>\004\344\275O\267\031>\344\312\320\275 \235\331<\224\322\202=\350\311\300<\315k\"> A\214;\342\243\261\275 \377\343\273N\377\004\276\005\271\004> \035)<\360\374<\275d4==\000d\317\274Kb\016>`\327J\275\221p\362\275h\211\247\275\036 \014\275V\225.\275;\346\023\276j\356\374=g\260\022\276BG\327=+A\007>\266,\316\275\020\260\211=A\033\010>\347I\037>`\357\265\273E\213\035>\034\373\210=$\363#=\310p\372\274\341G\035>\217C\247\275\307h\324\275Q\215\217\275\357\276\351\275\006f\270\275@\023\367\274\320V\020=`\200\004\276\255\277\371\275\361\024\031>\230\204\276\275\324\000c=H\250\005\276\032\233\332=\200\024\n<>\236\227=\220V\003=\013<\024>T\266\005=\362\003\244= /,<\215\001\006>\362\355\247\275\200\250(<7\244\027>\317\326\002>6U\373\275\322\361\313\275d\257A=\371\016\022\276N\3627\275\360)I=\220:h<\r\246\024\276\326\343\274=\340b\373;\3326\356=\321n >\360\256\237=`\321\271=\272\004\243\275V\005\363\275\364\032\244\275\360&\255<\201\341\022>\267\207 \276\362+\350=\321\321\313\275\202 \327=r\033\352=\247)\006>H-\n\276\321x\006>\347\310\t>\036<\333\275H\225\310\275\030\027\343\2740\232V\274\240\"(=\221\362\232\275\342\334z\275\3101\001\276T\250\t=\240\035O\275P`\257<\3100\223<\310RI=\276\2319\275\225S\001\276\260\263\202\275\271z\223\275D\243\372\275P\266a=\000\375\265\2727\035\024\276\207\037\020>\004PV=2+v\275\351\001\000\276\254\253\356\275\366T\313=\355\200\021\276\002\261\362=\252\027\022\276\026\246\333\275\252*\351=\002D\227=JS\362\275\240x\032<\263X\r\276\252\376\316=\300\212\250\275!U\034>\257z\227\275\256\337l\275>\252\354=\257\002\035>\370\035\224=88\207<\204q0=*P\305=\200\020\r;0\204\223=\341g\030>\345\027\375\275\315\375\232\275\010\3046=\265O\t>\222\224k\275\367\371\322\275\376\255\322\275\320\021\356\274\206~\342\275\356L\341\275\235\334\020>\265\265\003\276`>{=:>\377=\276G\347=#\351\027>P\341\244<Aa\253\275\210\331\311\275\240\322\320\273\367\242\013\276h_\236=\270\355s\275\330\034\260=\270^\354<\203\306\010>\300\035\212;\016\014\351\275\200\345\r\275 \001\223<M?\302\275\023k\210\275\030\2172=R~\217=\"]p\275\266l\304\275\2558\032>\225Y\037>\010\014\263<\006\232\334=\000\205m\275lw\\=\320\332z<\020\235\204<ju\332=\277w\003>\201\336\301\275\306\230\321=\214\310C=\214P\210=K\247\022\276\030\305W=P\005\355<W\020\035>\001\325\002>\000m%\273_\375\026>%{\n>\367\232\010>\322\273\354\275`!\226\274L\002<\2754\374\227=\362\217\277=\337\363\033>\340\245\306\273\240\344\333\273\200&\210:\354\227\037\275\253n\026>\331d\037\276\227\037\000>\306J%\275r\236\237\275j\017\372=2\255\355\275\330\250$\275VI\246=r\247\327=\004\030)=YE\366\275\r\253\223\275\240\220\310<f7\346=\220\3263\274\242$\234=P:s=`\344\216\274\214\300q=\346\374\272\275c` >\340\374\217=\372\360\305=\204\364\236=<\231+=l@ =(R =\334\364O\275\345B\305\275\236D\360=\026\277W\275X\'\247<:\007\021\276\214X\232\2754\034\205\275p~,\275lk\036\276\200\265z\275\220\252\337<l\377\001\276\033\253\031>\314O\002\276b~\225\275l\351\240=X\361\030=\t\261\217\275\202U\316=\274P\025=%\226\246\275eo\337\275\364f\023=\330\356\263\274\225\230\243\275\037\265\002>\310W\016=X\243\263\274\336\"\370=\3407\017\276$\243\\=\000\210\350\272\027\004\354\2759\306\004>\212\245\271=q\204\033\276\340\363\312;\250\271\276\275\342\330a\275@\326*=~\2712\275\372\n-\275}W\025>\234\237\007\276\344S\203={\213\006>\270\335\216\275s\346\r>\374D\340\275\262\001\217=n\262\014\2767V\024>\322\217\355=\030R\356\275N\027\347=\340\221\256=\364\255\234=\2609{=\314\374\223=\260\362\362<\224\200\'\275\000am;\250\347\221=\250\205h=C\251\017\276&\356P\275\255U\272\275\270q\264=\273\277\234\275n;\351=f\212\243=\034u\267=\3407\231;\247s\024\276B\013\337=\275Z\005>\000\257\374\274e\236\004>\3606g=\226.\367=Tt?= \372@=\314\232\001\276BT\303=O\335\014\276<\356o\275\020R\324\275\016z\315=:\222\347=`\001\342\274\204\002\206=-\n\003\276B\021\306=\206\214\336\275\312\362\n\276HwC\275\207!\302\275r\237\310=\000\211`=\022\024\"\276\321\323\031\276h\007\014=F\317r\275\032\211?\275br\370=\252W\243\275\253\260\020>\334\312y=\023\346\343\275\030?&=\241\334\353\275\260\200\'\274\344[\n\276\313\037\270\275P\354r=\302?\007\276^\300\226=\200\254\034\275PCy\274U\233\000\276\"xg\275\361\364\377\275\300P\270<\000dR\274\330\375V=\025\354\203\275w\207\025>\2161\272\275\260\305\251\274\212\263\t\276\362rC\275\356\005\375=\250\365\n=\362\030\207=\0249S=\370\262\207<\330\026\200\2759]\244\275?\317\020>\337\360\r\276!\375\033>\335.\027>h\243\212<\017\325\305\275\237\001\027>\234\232W\275\233\243\263\275\275\007\005\276\253S\t>0\211\256\274\366\026\336=\000C\356\275H8\212=\000\220\261\270\314\365\007\275n\376\000\276`\332\206\273w\272\020\276\237y\201\275\266\306\263\275\023\017\314\275\340~\336<,\005\003=\304\253\275\275\320\237\237\274 H\214;p\213/\275\316\321\024\275\210s\322<\036\177\332\275\340J\250\273\262@Y\275\301\023\017>?\234\232\275\226\303\345=\230\310\010\276\352B\377\275\347\267\027\276\204\211\"=\277\345\027>f_\227=\010\354\250<\366\240\263=t\t\334\275\321x\t>*\034\207=\353\326\343\275\374\355\"\276l\235\224=x]\231\274@\201\275<\314\234\274\275\360\266\332\274\272\3009\275L\373\201\275U\277\022>\014\276\002=`\033\365\275\252z\233\275d\304\013\275H\343j=T\010\204=\300\246\307\273fP\377\275\326\022|\275\370\306\212<n+\360\275\340\r[\275\266\272\327=\352c\364=\200\203\214=R\313/\275 \320\347\273>\'\351=\300\331o=\300T\277\275\353G\022>\370\340\365<\311r\021>HM\237=\240\262\217\273\034XH=\021\242\233\275\014:\177=\272\306\r\276\344)\371\275x<k=\330\201\032\276#:\016>H\365\020=\300(y\274\200\224\220;\254_o\275\366\322\356=\334\340\016\275\357g\035>q^\223\275\300\007f=\000\030\251\271|Mn=\327\002\030>\251\010\033>\331n\021\276\n\033\354=\214b\230\275\314@\016=\324V\352\275\034i\023\2766=\245\275\236\310\310=\275e\305\275\3125\231=\342\2303\275\346#\325=\026\356\355=\336z\352=\344\351\333\275\310\275\265\275+\366\031>\357\007\030\276\240\206\025\276>\006\335\275\237\365\327\275\014VY=B\275\245=\300,\262;h\260\225=6+\365=\340\253\265\274\316\036\243=\305\217\010>PO\325\275T\247\230=`/\005\276\266\354\274\275:d\363=\020ST=P\375\360<z<a\275\340\223n<\347\375\005\276,W\t=`A\352; r\003\275\000\213\313<\362d\270=je\213=\340\235\224\275)\372\220\275R\003\322=\330\376\324\274\370e\326\274\356\361\003\276\220j\201=d\326q=\241m\236\275\204\275\020\276\370\272\000=\224\325\010=\344\254\r\276`\310\250\274\376+\276=\342\231\275=vA\336\275p\246\033\274\366\201\211=\\A\\\275\010\236\035\2758\233\027=\214\016\254\275 CG<\2446\305\275\002c \276\364/\014=>\354\342=OZ\245\275\262\337\371=\371\247!>*\300P\275\250`8=\375O\010>|\005\341\275p\013\246=\323\302\006>\223+\021\276\260\\$<\250\273\034\275K\355\030>H\030\262<\270\362\250\274\000\322\3079\\\036\317\275\260M}<\000z\305\271\242\252\217=\014\027\241=\020\306G\274XI0=V\352\334\275Pf.\275\224\360\322\275Z\002\301=\220\350\352\274\375\341\000\276\216\360\357=\300\002;\273\200\360C<<\344G\275C\245\004>BD\345=C]\267\275\020\020\n\276\332\336\364=_\364\366\2750\376A\275a9\024\276>\312\374=X\347\220\275@\265\036\274d\r^\275;\301\027\276\2506\267=e\332\010>\276\007\274=\024O\035\276\275\204\003\276\340\277,=\252\212\337\275\327\373\246\275uS\020>h\314\255\274ac\t\276\332=\017\2762\034\n\276\212@\030\275\201!\001>\303H\031>\026\361}\275\360Q\016\275w\"\022>\270s*\275\217N\370\275\360\301\277<\032\022\242\275\370a\266\274*5$\275!\340\035\276\310\036\311\274\240\273\226\274K\331\032>\226=\243=P\214w\274)K\267\275F\347\"\276\366\326\357\275\360\232e\274\202\362\344=\253\203\236\275\274\356\031\275\252\363\244=\207\177\236\275Y\334\261\275J\026\331\275\010\356\007\276\254\240\200\275\200\033\226<IP\006\276\320:\245<:\016\360=8\254\257\2742\242\273\275f\241R\275\307\025\232\275\333c\">\210\001\370<P!\316\2740\343\317<\020s\037\274l\217\322\275\250t\302<\317E\026\276\346K\261=\261\314\">\024\365\373\275~\335\364=*\307\212=\340\231\271\273P\0348=Z\007\210\2756\340\215=\010\226\t=\372\322\307=x\007\232\2742\350\004\276\016N\300=mu\"\276\026\371\374=\3330\231\275\000\343\242;\332\253\312= \316!\275\372n\352=\t\272\006>\016\273\032\276\200\333x\273N\202\327=\"\210U\275P\351<\274\370\303K=^b\302\275*L\311=o\370\010>#1\036>(\374\240=\231L\021>\200\237\354\275\220\324i\274\250\002\305\274\240^\005<\000\233\320:\303f\021\27608Z<\246~_\275B\240\005\276r\270\331\275\312\333\357=p\201\321<\350\"\267\275D\274\201=\0227\312=\355\003\034> \277c=\031\345\310\275n.\231\275d\177\205=\350J\245<&\014\333=\\\364==\357\344\007\276\220\327\353\274J\325\263=\374\255%= \247\346\274`N\214\275\314{\010\275\000e\354:\347\231\013>PD\017\274@\340[\274\253\002\357\275\311\302\030>3e\246\275Qd\253\275bH\375=T\356\306\275\254B\324\275\010\276\343<\276\302\025\275&\365\022\276\341\315\030\276\204&\212=*\275V\275\247\372\354\275U/\030>\343\301\002\276\214Z*=@\217\030\276`]&\274\240N\034=\264\031\177=5\324\036\276~d\251=\253\021\254\275\321\351\211\275\320\255\017\274\"\350\275=\000%s\273tKL=r\020\020\276\200\247\353:0I\376<\300w\204;\3101\266\274\350@;=\360\244\233<\340c0=\030\217{=\306f$\275\240\n\323;N\346\027\2765(\030>|+\003=\366\032\341=\336\344\273=0u\310\274\274\036\344\275\200?/=\365\377\225\275\200\007*<3\243\n>\334\271\310\275\252\003\217\275J0\333=z\0341\275\005?\002\276\200\226\234=\325\005\363\275\336\032\255\275@\'\264=U\321\230\275\226\205\005\276\022\240\277\275\264y\215=\264h5=H@\350\274B\245\312=By\340=\273y\317\275k\034\372\275\274\337\020\276\236^\275=g\377\037>\000\247\273:\246r\260=@\276\247;\316>\014\276wA\200\275\347=\375\275\306\014\315=$\350\002=\n\336_\275p\376\320\275.*\013\276\200\231\246:4\252\255=2B\217\275\210\300\213\274P\272\242\274\200\r\316\274C\256\n\276\217|\243\275h\202\024\275\217v\034\276\204\273T=\245W\241\275\200\016\343\272\340E\340\275\010\021\010\275u[\025>\230;\000=\220\244M<PP\024\274\363 !>\300\021\320\274\336P\265\275@\032*\273\036II\275\372\323\230\2756\031%\275@\\\303\273\307L!>\322\355\325=\360\367\373<\326D\274=;\211\216\275\221\253\021>\356\013\341\275_\211\035>\240\313\244=\332\215\357\275\334\355u\275Yn\007>p\241\255=XSB=\313w\005>\235\021\003\276\255\233\254\275\240\315\016\276\022\t\271=\020\205\013\275z!\357=g\036\266\275\342S!\276cI\222\275\262\2218\2750,4\274\277\367\006>\262\3331\275\247j\026>\013\340!\276\260\361\203\274\320\301[\274\302\355\240=*N\302=\364\3451=\235\035\000\276\273\262\036>\312Q\027\275ab\256\275\177o\004>-z\001>\322\353|\275\372\326\306=,\257\373\2754o\211=UY\317\275\000\017\217<\256\022\326\275\220\305\n\276\366|\314\275\330\321\220<\006n1\275\223\323\r\276\020J\251<\312\375\311=p\342v\274\333\375\241\275\240ni<\262\327\257\275\026\240\333=lo\303\275~@\325\275\340b`\274@\3028\274\000\214t9C2\034\276\204\337\336\275\310\270\250<\000\320y<\266\227\306\275\000\300\2217~s\364\275\343_!\276\023d >\0060U\275\310\307\340\274p\205\263\274@\341V\273tNw=\270\\\237\274L\302!\276\342\304\342=\024\237o=0/\'=\340\"\254;\220\315@=8\237\236<\254\032C=T\014@\275w\277\276\275PH\013\275\3640\221\275\221K\022\2760Px< \"\251\275\264T\370\275`\357\225=>\252\333=\261h\024\276\001\314\205\275\036\203\254=\360\325\007<pX{\275\036\272\325=N\225x\275\220)+\274k\313\"\276\320D\002\274\344\311u=\302\203\251=(\361\371<\316\232\337=\'\020\036\276\227>\030\276\224\244Y=\300\274\330\275\336Z\327=\210\260\253\275R\202\354=\005F\004>\240\266\007\274\202\343\230=*h\021\275\000\357\205\274x\236\266=\270\246T=\324\207\r\275\234<K=\365\336\201\275\320;c<\220\000&\275\006\320\377=\276\340\275=\370\372\210<^`\324=l\367\252=\210\031\301\2744Pp\275\241\250\001\276\267N\005>\202\212\353=\214\023\'\275\225l\342\275R\276\363=\204\236\263=\235<\354\275\301\032\033>\330q\270\274n\177\257=\n\211\246\275\t\231\024>T\300\263=r8X\275\374\266\177=\212F\204=@r6=\200\366\245<\n\245\373=\017\266\220\275\320w\003=\006F\274\275\254\023J\275\006\366\024\276h\347\033\276\316\317\336\275\200\304\355:\000\225\017<W\225\243\275\277u\363\275\370D\010\276\301\260!\276*W\225=\n\232\306\275\302(\305=,\n\202\275nJ\217=t86=\202\343\374=\300\322B\274\210\'\000\276x\353\240\275l\364\371\2752\227\203=\307\267\002>\366C\316=\3362\325\275\340\033q=\270\207\270\274U0\000>\016\232\273=\240\333\335<\250z\202<\214\001\024\276\306\203\217=\220\021\220<\302K\305=\204\347\315\275\272\226\225\275s\273\302\275l\251.= \334\307\274\234\255\023\276\220\202\360\275\200.j<x\342\212=x\366\301\275B\357\272=@\025\235;\270\021\214=P\257\247< \254\377;\rW\014> a/<\371\316\027>\210\177\320\275\234\032\257\275\340\356\317\275\261\330\273\275\\\0019=kx\n>5\223\007>\200\234\361:\241\031\003>iH\302\275\220mt=\311\214\024>j\321^\275\220\220==N\260\231\275\320c\220\274\234\303>=\350\304\367\275\231\303\036\276\260\2434<@\277o=;\325\004\276\332\327\312=:\267\327=\337O\302\275\242c\202=\024@\343\275\333\223\034\276\320\177\014\276\240-\357\273\000eT\272\267\362\000>:\227\264\275N\223\313\275x0y=\344\261\244\275\266\372\352= \253\322\273\340\'\223;\200\323\316\273\000V\310\275\364\370\205=*\271\302=\354)\206=\354O*=\344\3044\275p\016\256\274\335\234\316\275\260\222\247<aq\002>\374v\375\275\246\332\306=\260|\007\274\023K!>\2471\004>*\360;\275\n\211\234= \330\227<\220\336\324\274@y\017\273\206\373\276=\360\304\025<\020\322<=\022{\255=\023\225\371\275\312\221\307=\240?\200<O\332\340\275\237\017\003>e\330\244\275\226\275\351=\260\224\360<*O\350=\342$\340=H\355\314<\320$\024=\204\316\373\275\310\324\335\274N\210\020\276\020`D\275\256\257\320\275$)\342\275:\321\333\275\314[\032\276\270\204\257\275\350\361B\275\342\006\203=&y\254=\310\251\"=\273\377\004>\314ll=\300\256h\273\370~\347\275\000\216\366<\000\366\266\271\260\226U\275\375\202\036\276`T\272\273c\251\010\276p\367J\275\246\3764\275^.\371=\322^\327=\330\274\r=[R\036>R#\267=\3533\033>\370\323\372\274\035\362\221\275\211^\207\275\260*\244==\017\361\275X\236\362<\"\221\355=\252\271|\275\030L\220=\000+%\273\3405\341\274\353\215\033>U\003\007>\246}\356=No\350=\336\264\230\275\312\306\203=~|\024\276f\300\212\275\320p:<2\301\210=\346~\227=\340\264\026<:A\333=2\023\"\276\0009Z<I\213\006>\010\243\357\275\"@\323\275\'5\010>@\010\032\273\260\177\230\275\336\023\347=\261\301\"\276\226\334\273=\0244\007=\316\305\323\275Y\014\021>\342\207\003\276\274\026\376\275\202\256\234\275`\3363=\260JV=\200\2102;tPq=g\254\016>J\337\210=M\277!>\030}\313\274H3\023=a\206\003>\000lM\272n\037\r\276\2560\311=\3719\014>TD\227=\370\376\204=+!\010>U\301\323\275\031\264!>\366\255\377=\223\243\003>\257\360\014>\256\354\240=\200e\344\275p\3004=\\\360\320\275:1\330\275\252\200\324=\200\332\362<0\316\374<l5k\275\200\243\243;\t]\274\2754\221\214\275l\232P\275:5\304=\024Ws\275\310}\217\275\376cS\275yS\033\276X\333\311\2756\303\000\276\244\217\002\276JW\261=>\353W\275H\304\252<>\332\234\2759\312\003\276\002\352\373=j\324\310\275\200K\234\273\374\214\241\275\366\027\321=\340~;=H\242\377\275\216\375\272\275f\305\255=VqI\275\344}f=8Z\035\276\357\251\035\276\200\363\244\273\353\331\022>\006\371\241\275m\363\020>,\277\267\275`\257z\274\336\311\302\275\362\377\302\275\3064\317\275%\365\037>\224J\n\275F\004\376\275\372\017\307\275W\254\027>`j\242<\326\263\331=\251\026\025>\022V\206\275D\023\243\275Tt\000\276\0241\241=s\351\323\275\223\002\035>\204\262\005\276`\231\217\273@\362$\273\200|m<\200\026\202<H\005\246\274\360R\027\276\245h\031>)\035\205\275\213\316\335\275@b!<@\"\235;\025\376\207\275\230\222\204\275\222@\037\276\n\020\264\275\000Of\273\200\223\266:\244.\034\275\254\343\351\275\322\236\350=PTT<\000{\262\274\020\316Z<\354\361\222=4,Q\275ne\343\275\313j\034>\216\244[\275pB\024\276\naN\275\230\343\223=4\253k\275\270\373E\275\004\307\246=\310p\276<\200\340\035=6p\026\275\340\356\321\275\222#\202=\376\353,\275\007\356\253\275W>\035>\201e\006>u\t\030\276\010W\377\274\346\357\303=\360\310\375<\374\342\212=\340q\362\273\370n\232\274\207\237\026>{\347\035>\036~\361=LE==\373\221\020>\342%\014\275\246t\340=\225\300\030>d\"\277\275\253\333\014\276\271\344\024>\\@\016=\200=\252\274\337h\023\276j\032\307=\007 \025>\200\261\351<\216\273\234\275\260\200b<,\250\t\275\244\221\010\276\217x\202\275HW\361\274b<\376\275\302\350\316\275\217\244\002>\360\221\034\276\000\027\204<\222:\302\275tA\314\275\246d\200=\\K\267=O\243\005>\365\252\n>\000\220?9\030\317\007\275?\324\016>\354\301o=\324\344j= \t\246<hEn=\200\247\241=\324*^=\236\252\272=bw\225=\240V0\275\372\351\317=\326\270C\275p\315\r=\020(.\275\233&\234\275\360\317X<\020}P\275\251\351\365\275\360\336\371\274sL\022\2762\301\362=\371d\024\276y\021\031\276\377\312\030>\332\265\371=\014\2403=n\246\255=\032\236\374=\302\031\234=\230a\201<\020_\333\275\200\342\234\272p\365}<x E\275T\333\006\275R\356\333=\272\232\366= \366F\275T\275Z\275\324\254b=\262sq\275 xd<b\207\353\275F%\353\275\200\354\201:\344@\331\275\244\026\202=\304N\227=\374\372\373\275Mm\n>h\"\216=\006\231\360=\250o\236\274\214D\235=\003I\002\276\211c\003>_!\024\276\021~\031\276\202\347\037\276\222v\251=\034\271?=\020\356\035\275g\217\001>\200R\030\273\000\0001\267\320\376\346\274`\005\337\273\037\245\036>\224\230\036\276\323\002\036\276T\255Y=\204\253\272\275 \247\242\273|A&=P+\003=\335\374\212\275\306\254N\275Z^\024\276\006\306\303={\032\221\275\260\370\355<\010\275\266=\206f\333=,\335M\275\000\017\313<~z\306\275\276\247\265=\"\211\332=Ix\247\275\200\242Q=\034\273\002=R\010\307=\333\\\216\275l5\257= \n\361\275Q\303\023>\314i\223=\230=\214<l=\017=-\270\363\275\371|\025>0|s=@\213\360\274\305\017\022>\372\233\021\276\354\310k\275\276\312\251\2751\363\035\276\222\274\207=P\344\320<\344\373\226=\026\002\306\275\266\325\372=?\360\252\275\000\037x\275\224\301+=\230u\264=\372\021\324=\212\320\252=\200\363\315\273`\255\301;\030\211\033\276\365#\222\275|\3729=\330\304\267\275\214\314\177\275\033\330\037\2760@\031=^\233\337\275\262f\000\276\032\247\311=\026\217\217\275x\'\023\276\220\336&\2751\310\266\275\200\202\342\275\340\245\210\273\312\227L\275\200-6<\331\t\t>\210j\256=\353\220\013>\242\365\357\275H->\275$:\363\275\252\213\246=\240)B<6\016\300=z\337\217=p)S\275`\230\220\273\024g\013\276H\022\247<\260\330\t<\312}\005\276\332\317\323=|\261\372\275b\366\026\275\350=\341<\262\274\331=\250\2342\275\237\030\004>\002\261<\275n\352\374=\000`\02583\021\022>\302]\"\275\336s\216\275\226\225\306=#>\016>,\341S\275(B\215\275\\M4=\007\304\016>\032\374!\275l_\013\2767\036\032>@\361\274\273\000\367\345<X\375\315\274\362\004\036\276\352;\202\275AB\035>\030xh=\r&\326\275\030\3768=\324\004\216\275z\014\361\275\330\326s=L;(\275\2160\373=\347\373\001>\020U\214\274\\\200\222=\226\007\266=.\303\202\275[\010\240\275\375\206\034>*\032\000\276\n\225\231=\031\230\373\27509\227=\275\254!>\300\307\335;\365\301\025>%\037\032>\270\370\231\275h\244\211=\327\270\237\275\320Y|\274\203\220\222\275K#\030\276 \244B\274\243\322\325\275\304\'\024\276\341\376\027>\037n\216\275\326X\377\275\302\206\005\276\261Z\257\275\236HN\275\304\247\213=[s\236\275\213\321 \276\244\255:\275\306\227\030\275\024BE\275NO^\275\360\035\303<\230\034\247=\224\371\024=\240\345\324<\264e[=H>\310<\350\331\246\275k\021\302\275.>\225=:@\325=\312\236\251=\257\240\031>\014\320A=\030f^\275\034\257\200=\270\361\333<\204X\264=\332\034\t\276\304\255\210=\021\355\013>\006C\234=s\333\333\275\330E5=\376\251\311=`!\376\275\237\231\224\275\214\"\000\276\016T\273\275\340\035\260;\351\027\207\275\240Y\377;\220&\020\2760\330\217<x\237\236=^B\274=\000(\2119\300F\312\274\340{\342;\341\302\030>QJ\t>B\214\263\275\264\241\013\275\020V\345\274\030 <=\352\305\025\276)\027\001\276p\303\315\274qn\025>\250\214\221<\262S\244=\016A\224\275\250=_=\210\236\316\274fs\361\275\320d5\274\374\036L\275\222\034\241=\212\216\253=x\234\316\275,GI=2v\306=p\234\"\276\226j\265=\036\036\310=0Lw=\n=\353=\374\3440=8_8\275 \373\363<\010g\017\276\260>r\275\320\304}\275\366\300_\275\312_\244\275\177\304\035>`V\306\273uZ\031>\"@\315\275\220\304q\275h+*\275\"\'\334=\036 \370=\344\203\256\275\2464\371=\n*\274=\000\255i\272\370mV=p\246\026\276H\305\317\274\"\240\213=\260!\266\274\204\354~\275\001\325\022>8\033\344\275d\203\213=\2761\345\275(\366\224\274\234\371\217=&\001\323\275\301\257\016>\010\210\345<\243X\036\276\034\365\002\275\323\231\271\275\354\376(\275 H=<r\303a\275\311\004\032>\260\255p\274gs\024>\354T\255\275\350\027\247<|\017\214=\030\345\325\275\034r!=\000\364\027:\224\031\224=X:\241=xo\351\274\rW\027>.\024\366=\000V$<\322\021\323=&\001\366=  ?\2750uA<X\231T=?P\243\275\240Q\210;(6q=\370\304v=B.\304\275 \321\210=\"\263\323=\317j\r>\300\354X<\204vN=\326\201\004\276\315\005\241\275\300\202\177\273so\013>\352T\340=\206\010\300=\343k\030>z:\326\275\310b\266=\355|\301\275\242T\313=\270\016\272<C\362\t\276\020\006W<\366\r\261=\273\000\n>\206J\272=\200\374\220\274\202!\224=\322\306>\2752\2735\275\000z\210<\220\006\007=\357l\265\275\354V\377\275~\342\333\275@G\n\274\226\240\374=\220J\020=\3065\005\276pb?=\020\024g<H\204\240<\2362F\275\216\227\215=\365\232\001>\316\"\345\275\010g\312<\364\\\220=\204\336\320\275\271\023\325\275x\322\\=\364\r\022=\217t\227\275\262\212\330=\272\301\264\275\213\374\272\275\251W\313\275\360\0204\275m\343\016\276XU\343\275 \350\304\273*=\326\275\222\261\234=0\224\022<\"\005\032\275\027)\004>\323\334\022\276Q\'\220\275\225\207\027>\036\227\203=^\037R\275hp!\275T\021?\275\262\303\246=\252\307\347\275`\020\221\274\204\030\'\275p;6=\272\n\260=\232\317\273\275\370\021\327\274\000\212|=\200\351\213<\264Z\020=\332\006\344\275\200\356\001\273\224Tl=&\214\023\275\265t\025>\002\221\263=\260\307\376\274\016p\363=\362\331\353\275\020\356I<\000\rc<\244cD=\237.\t>t\340\223=\017\334\021>\215\306\265\275^\244\027\275\366!\302=\000y\037<k\035\">\230\261S=!\027\312\275p=;\275\313\364\n>\343\340\t\276\320V`\274\313\314\022>\310\005|=\340\312\265\273\366k\374=,:]=\226\274\357=\340\201Y<P\321a<@\261\313\273Pl\224\275`^\233\274\331<\342\275\345\226\230\275P\212\372<\252\322\036\275\244\346\256\275\014\017\010\276\200\350\373<\221\376\030>\250O\264\274\274\200B=\022\323\250=- !>~I\372=\360,0<Z\177\205\275L>l=X\302\326\274x\373\316\274\224\0149=\370\252\321\274\262\206\021\276a\365\006>\177\r\274\275[\325\254\275\346\032\275=@D\310\2732\370\316=\360\036.\274P\037\007<\204&\004\275\354\360\342\275\322\\\341=P\347\264<Qp\037\276\316l\216=\232\r\000\276\270\177v\275\\\201\230=\352A\324\275\000*\337:\222\361\026\276\366\024%\275Z\306\023\276o\330\r>\274\327\322\275\314\300[=\342h\002\276\306b\254\275\303\223\002>P\002\331<\010\251/\275\000iU\272\225\\\000>\006Z\225=h/\301\274m\336\000>\037\371\031>&\353\374=\000\233\002\273\260\236\221<\304\303\224\275\ny\026\275\2456\023>z\245\353\275,W;=\306e\320=Yq >\210\346\256<d\2559\275\210\366C=p\n\331\275\316\337\374=\366\306@\275pi\221=@^\034=\000\342Y;\'e\002>\003\246\025>\372y\201=\034}\'=Xw=="
      }
    }
  }
}
node {
  name: "LSTM1/recurrent_kernel"
  op: "Const"
  attr {
    key: "dtype"
    value {
      type: DT_FLOAT
    }
  }
  attr {
    key: "value"
    value {
      tensor {
        dtype: DT_FLOAT
        tensor_shape {
          dim {
            size: 50
          }
          dim {
            size: 200
          }
        }
