node {
  name: "LSTM1/kernel"
  op: "Const"
  attr {
    key: "dtype"
    value {
      type: DT_FLOAT
    }
  }
  attr {
    key: "value"
    value {
      tensor {
        dtype: DT_FLOAT
        tensor_shape {
          dim {
            size: 37
          }
          dim {
            size: 200
          }
        }
        tensor_content: "8)\022\276f\236\324\275\216\322\310=(n\'=\275\360\005\276A\256\020\276\231\313\021>\302\252\360=\376s\224=\340\240\252\274\023\206\326\275@5u\275w\223\037>\320\265r\274\3431\250\275\236\223\341=\0002\314:0\260\226<\305\260\026>\263\344\n>h\n\365<\200\022\317;\251\000\013\276\330\303\344\274\004\373N\275\226n&\275.\320\275=\302\331\020\276\200\263E\273\200\306\346\275\020\254\250\274D\004\032\276l1\230=\301\253\000>T\213\024\276\2702\\\2756\036m\275\324Z\220\275zH\203=\230\273\211=\030\242\236\274\200q6=4\252\266=\270\236\177=\364}\251=\347\362\023>\26490\275:+4\275`>\334;\370\233\026\275x\221\263=\311\335\017>\220r\341\274\334\347\220\275\343\207\252\275\310<\\=\025n\001>x\3270=R\251\375=\006\374\364=\331\336\007>@\025\223\274\030>\305\274#v\017>\036*\321\275\254\364H=@wD;G\241\016>\274\324\316\275\002\360\351=HO\013=\344o\007\275&\235\376=\033s\225\275\324\021\027=\000\257e\2751\321\t>\000]\336\273\346\316\364=\323\357 >l\205L=\266\363\010\276\254\231\004=\256\311s\275\316\353\364=I\267\025>\205\300\007>\300\356\023\274If\016\276\200\215\366\272\215I\273\2755\317\022>9\265\n\276v\321\264\275\021\260\313\275\240Z\002\274\242\014\361\275\215\324\027>\021\253\002>@x\032;<\274\027\275/\032\315\275K<\035\276D\035\262\275\200\362\022;tK\n=$\275~=\000\017\223;\n\333\377=62\225=_)\324\275\362\224p\275\270v\311\274\010\240.=\244E\005=\030\352\342\274\344(\263\275Tzw=\206\213\213=\200\367t;\002\246B\275\347\234\017>b\352d\275\351\346\003>\037+\035>\242\201\343\275\324\'\377\275\250\335\001=\222\307{\275\260!\337\2753\t\023>G\260\034\276j\033\331=\370W$=\010(\371<\350\260\210\274V\325\321=\037P\000>\354\251\037\276\220q8=\242\315\357=\030\334E\275?\016\365\275\217\344\212\275\316\203\310=\367w\013>\212\025\351\275DZ#=\265\036\376\275\376n\360=2[\217=\014!\243=\250\3377=V\350\304=\234\026;=\217q\245\275\234vK=a\001\022\276\366a\365=Fh\357=h\356\234=\220w\300<(\004\274<z}i\275\346\240\026\276\200\236\020\276T|\203=\324>\353\275(\264\267=f\365\033\275|\200=\275)\227\275\275yt\034>H\254\374<RK\300=@n5\274\220\341\240=j{\304=`\276\310\275\034\032m=\201n\265\275<[\265=n<.\275~\265\365\275\010,\310\275\025:\022\276r\314\362=\354|+=\367\336\235\2758\314\337\275p\340\347<G\255\334\275\200%\375\275h\215\335\275\271\303\013\276Yd\227\275`\316\256\275\227.\346\275\336s\"\276x\254\227=F\362\330\275P\307\217=\342\031\223=LWS=\210\346\263\275\200\216}\274\344\r\020=\277\265\230\275\024\351U=\302\234\214=`\201\310\273\374\216\005=\220\225\033<\333\313\034>\347\210\000>\200\017\214\273\000F8;}\247\r>p0^\274\242\213\307=\276n\374=\\\323/=\r+\210\275J\203\332=d\373!=\324Yl\275<[q=\264\177\251\275@\301\004<\030\267\351\274B\335\327\275\312\"\301\275\010\247\343\274\3003\320\275L\203\021=>:Q\275\370a\245\275\356\r\303=\200 \005\276\340\020*=E\314\007>P\305\t\274\230\r\201<\010\275\233\274\360U\251=\200;\211<\206\301\351=\276\312\013\276\366\\5\275)3\365\275 I\326;*\371\026\275\300\367:\274p\373\007\276\334\233\202=\364\340\375\275\316\277\276=\231,\301\275\302\036\335=d\322w=\236.\027\276\332\317\374=\2526\004\276\2421\341=\240(K\274\374.\033=\000\213\004=?x\001>\030Y\310<\275\362\212\275\364\265\014=\020D\335<\340(\351\275\000\032\366\274`\3143<\347\236\313\275x\361\370\274(\323\222=\376\347\375=\224\330\307\275@QO;\024\304\003\276\310\352\347\2744\344\255=\236v\300=8z\330\27581x=\"(\360=\3417\t>@\305\364;(3\252\274\360\305\r\276\332k\r\2762j\266=\316/\204\275\336\272\231\275\"\037\202=\326~\215=\230\220\345\275\r\257\017>\362\355\314=\036w\"\276@25\274\250e\273\275\314\265Y\275\364\017\226=1z\214\275\260\220\247=\200\036\263<*\330\210\275\006\r\r\276\020f\203<\304\031O\275\314\272W=\260!\344<C1\031>\307\354\">6\206\314=\213\362\304\275v\307>\275\000q\t:\304\362\242\275\2501\332<\3616\254\275\177\324\010>\263\020\354\275\202\006\334\275t\236B\275\324vE=x$\226<D\213\003=\266\276\322=\300\227D\275\344\377\251=\014s\340\275=n\n>T\355\235=RG\320=\320O\242<\002d\307\275\230\321\246\274fO\355\275\346-S\275\264\006\263\275\203\242\002>\364\032\332\275\234K(=\276\216\353\275\220|\241<0\205p= J\032\274h\330\010\276\264@}=L\270\250\275\220\220#\274ZC\256=\364\240\247=\264\201\035=5\345\373\275L0\014\276\323*\244\275pg\313\274\200sy\275tFk=\352\221\335=\210\362A=\344\275\003\276\315\306\">\266K\276=\305V\014\276;\352\036>\262\256\323=@\275\301\273\250Wf\275\3602<<BM\336=\202\226\202=eX\003>\3212\">\212{\325=\244\3742=\000PH\274\240\t\255=\354\334\327\275\360\333A=T\347>=\343\031\033><\034j\275\246\215\203=\002\261\362\275Gg\017\276\n\311\032\276\226,\311=\372}\376\275\376\342\322\275\337\361\033\276y\261\017>\3359\013>lb\000\276H\212p=s\026\364\275\321\342\213\275D\005\177=(\364\032\275h\272I\275G\032\246\275\200\360\271\275\370\365J\275\034D\352\275\016\022\245\275\016\274\240=\242\367\226=X/\030\276^\207\310=\250\300E=\262\337\213=\347M\022>\370\212\"\276[r\n>\264S\356\275\227\177\005>\307\337\022>\256\204\371=\200\253\020\275\027\346\010>\032\206\360\275\r\273!>\034\260\013\276^\251\340=\306\324\267\275\254GK\275\320\265\206<\266c\356=\316l\313=\364?(=\322\376\353=@]\214=\320c\036\274&v\335=\035+\"\276\263\240\017>\206\366\371=\272c\337=\364v\335\275V\264\211\275\230\372\376\274\342~\212=V\207\204= z4\274\374t\007=\024\t\204=\034\306e\275\340\231\231\273\024\003U=\035N\t>\254\351\255\275\254\024\371\275\246\215\002\276\360\216\366\275\221`\277\275Pyz=~s\014\275 \225\327;?\342\033\276X\205\013==\034\031>\356\'\270=\306\255\t\276\340/c\274_\207\027>\005\346\004> _\334\274\276\345\355=\300\355\226<\365\304\030>\322w\227=\306\021\004\276K\021 >``\220;!R\021>s\204\231\275\275\215\036>\250\374\336\274\221\223\001>\354#\007\275\036f\233=9J\372\275\340\333\236=\302\216%\275\266\223B\275B\\\220=\204\325\001\275*\221\255=\021\243\224\275\000`\266\274\0001\227\272\264&\220=L\265O=P\221\026=\332\204\247=b|\222=\000\020/;\313\247\t>\230t\217\274\250\216\264=\337\266\010\276:\036\331=\026vR\275\260\302A\274*\316\315=o$\337\275\203?\013>;\277\000\276\375G\260\275\344\226\210\275\210\266\031\276\371\254\032>\376Z\312\275\033\371\016>@q\246=rQ\035\276\235\323\025>`\214\343<\354\314\t\275\3273\262\275\320u\356\275\010\031\033\275\213\366\033>\230\n\377<!\336\227\275\312\306\030\276T5\303\275%\t\007>\237E\264\275\330F\216<\260\361\221<\300\"\365\275\036\365\013\275\344\345]=\2045/\275\034\375\236=\336\377p\275#a\030>`\314\242<\200\310\226:\' \017>\307_\210\275\230H\255<\220|\345\274\325S\036\276\241\320\005>\324{\232\275\000\341?=\260\222\225\275\362\324\253=\013\263\213\2752\3649\275Tj\026=\334?+\275\362\332\021\276\200\350\034\274\300\315J\275\356O\372\275;L\032>%\177\362\275 Y\374;\n\"\231\275Q~\002\276\240\023\324<\352\265\004\276P\347\246\275\243T\020>\344\240\336\275V\326\354=\372:(\275\212\250\310=F=\230=\200z\201=*\363\355=x\267\303<\370\322\005\275H\235\211=\253^\021\276\240\233\206=z\030h\275\010Y\260\275\206\303x\275\373\007\246\275\330x\203=~\313\311=\203p\024>Z\323\334=\200E\000\273\365\030\023\276\024\274\340\275\010s\235=\265\225\213\275<\"\252=\277\274\034\276\272\205v\275h\354\344\274 \226\360<\317\244\033\276\355h\030>\333\232\203\275(\351\344<\032\342\330=\2669\212\275x\320\002\275X\256\020\276Z\331\330\275\330\244.=\265\224\025>\353\200\374\275\250L\211\275\236\210\320\275\260\271e<\240\315\211\274\004\334l=\000+\276\272)U\010>(\334\253<\271\227\036>\354N\000\275\340\352.<\221\224\366\275\024\2735=\200\366\206\274D\025\330\275X\206\354\274\344g,=THa=\026\321\316=\305A\t>\214\232\010\275\024!?\275\340\276\357\275\224S\215=n0\222=\362\225\311=\242c\225\275\361\377\033>\273\037\303\275d\357\024\276\330\350\356\274\370\377==\000K!<\274Vi=0\033\374<\2713\n>\037\240\251\275\177}\024\276\274%\023\276oB\277\275\354GX\275\260\212\211\275v\266\367=\242\335\371=\240:\317\275l\355y=\360\310\t<\260v\212=\366\274:\275b1\365=\231\342\002>\371z\004>\020\304\r<t\330?=0\216\370\274\026\007\316=:3\214=\223[\017\276\200]\374::)/\275R\232\316\275\242\353\356=\002H\313=D\366\242=\032\222\026\275y\206\002>\022x\311=\261-\215\275\362i\212=\212\277\202=\230\003\225<@\211\337\275 \201\203;\340\323\234<\224mW\275\032\200e\275Z\240\027\276\240\276\255\273`\006o=\002\223\346=\336\035\251\275\364y\n\275\034\246s=\352\024\272\275P?\277\275 \226?\274\272\302\354\275f\210\027\276xO\r=d\336\212=b\322\321==\361\275\275p\266\023\274Q\241\013>^\273\366\275\017\263\257\275\302u\325=\014\327#=\352P\275=D\264\013\276\330\201\342\275\000\3343\274BJ\362=0CI=\\\270\260\275\n\213\251=GK\000>\256\274\245=\014\250a=\216Q\037\276F\177\017\276N$\023\276\\oe\275<\222X=d\224\031\276\2466<\275_\374\037\276\356\351\251\275\330\241\252=\366\350u\275U0\201\275\364\0209=\r\317\373\275\032\324\215=\350\010\002\275\260\226\373\275\224C\360\275@\343\253;\224_v=\215F\277\275\340i\373\273_C\373\2752\272\343=\370\366\035\275\200*\034\275\256Bd\275\270m\337<\221\336\033>\372\210J\275\212\004\215=\0263\321=-l\267\275~\036\310=\'\365\207\275\000\r\322<\355\251\024>\326\014\332=\"\303\344=\227\240\026>\246\301Q\275\034\213\177\275\"n\254\275\250y\370<\312\254\"\276)Z\037\276\302\261\304=`A\n\274\343\307\004>\370\370\372\275~\267\374\275\320\201X\274G1\"\276\370\357K=\340\375\225\274\222,\354=\272\024\244\275\226\341\252\275J\363\347=\366\025\337=\274\354\005=p\016z=\036\237\357\275\246\214 \276\024\373H=\240\005\216\273\277m\255\275\263\343\006\276NN?\275\"\377\016\275\204\320g=:\032\214=d\264)\275\260\026\224<-\347\307\275\320D\270<\227*\021\276\340Ta<r\317\201=\243#\024\276\306\211\234=&\345\350\275\250\261w=\226~\243=FB\371=\320\360\202\274\020\264\342\275\230\320P\2754b\241\275\034k\215=)o!\2760\307\250<p\231+\275D\357\036\276&\376\256=\343\220\366\275c\312\r>x\302\322<\206x\370=\370\206\000\275\016\n\364=\020kI<Z}\035\276\260\242\n=\022\224\025\276\337\010\035\276H!\006\275\200\351z=0\3552<\360U:=\010\031\246<\200Y\234;\217\252\321\275H\013\345<\"h\302\275\260\311\212=Uw\035>@\331\003<\232\242K\275gl\344\275.\330\324=J\267\370=_\r\021>\253\325\033>7\027\026>\320\023\213\275\332N\"\276=\350\027>.\004\366=m:\007\276\"\325\361\275 \r\022=x;\207=\030Ul\275y\017\230\2750\232u\274\270r!=\026?\306\275\214\317q\275D\177\016\276\206\022\264=2\226\272=\230x\326\274XW \276p\212,\274\244\3402=\344\267\024\276\007 \250\275\276\252\300\2758\314\272<\010p\330\274pX\316\274B6\300=`\250\344\2744zI\275\\p\200=(V\222<\256Y\371=N\225\354=`\001\022\274\031\037\001>\364j\006\276\000.\265=f\244\370\275\220\021\205=2s\255=\257n\030>\273J\025>\3367\261\275^bH\275\300\330\376;\261\225\023>l\322\306\275d\342\235=2(\312=\000\351\022\274\020\\\203<\027\037\215\275\312\3371\275\034+}=oj\024\276\266\214\315=PY#\275~\304\315=\026\374\335=`\234\352;\330{\306\274\220\360x\274\210\270[=\312\374\337=R*\014\276\370`;=\305;\006\276\034n\004\275J|\315=0\241W<\004\'\366\275r\337\341=pmf\274\350W\257\275\346\353\247\275\341\211\033\276f\256\035\276\206\316\327=\210g8=\272\244h\275\254?y\275\3100\241=\240\234 =\177\007\226\275Y\255\006>m\364\200\275p\n0<\324=\004\276.\362\235\275\242r\016\275@<\314<.\022-\275\025%\025>\210\351-=h\214\223={\177\003\276\340\313\014=\206N\017\275\367D\005>\266K\352=\037\324\026>R\245\366=\346\216\257=\200$\254\273,\267\235=\204c\206\275\323\315\210\275~\005\343=\343I\027>\32036<\000wB\272\355\030\013>\365\313\031>\036\032\376=bYL\275\233U\r>>v\211=\3266\375=`\343v<>i\307=84\303<\016\376!\275.\210\331=\320\307\354<\377\362\037\276D\035\235=\340\261y\275o\262\026>\310\235\216<\300\306\003\276h\020\337\275\225\211\002\276\234@\311\275\226\200\371\275]\270\241\275\360\345>=\366\217\353=zh\267\275\230\263T=\354\264\235=\371a\035\276\322Oq\275\322/\354=N\031\311\275I\224\013\276\026\360\375\275\311\356\033\276lh\342\275\2420\034\275\334\200\265\275\300\t\010\273\236\324\225=\316\252\335=J@\233=\224\364\240=\214S\333\275\004\236\226\275a?\007>\300\247\252=!\232\204\275\220(\026\2768C\272\275_\346\020>U\322\022\276\002j\325=\322\340\r\276\252\217^\275\004\250\210=v\325\216=\000?W\272\275\376\240\275\\\332\230\275\374\232\013\275Nd\340\275\241\"\205\275,\312\203\275\335\260\037>\256\237\033\275\200\237z\273\345@\025>\355=\">\306\370\017\275@<\271\273\010\016\245<\370OF=\000P\312\271\311J\r>`\1775=6|\314=+n\001> \266m\275}\222\014>pt\025\274J5\324=\000\377\024:\360\344\300\275 h\334\273 \365\271<\"Y\331=P\034X\274f\257\201=\275m\270\275\301Q\027>\340I=<\0005v\274lID=\204\207\016=i\256\036>\200f\364\272r\035\032\276^\240\351=\306\262\262=T\335\004=\355\002\034\276c\242!>\2146\210=\276\026O\275pO\021\274\"B\"\276\321\014\223\275\200$\375\273\224\tu=\306\'%\275\370?\010=m\332\217\275\233\205\030>r\021\301=W^\025\276\220\215\274\2756\216\350=\300v!\276\213\234\255\275\002\261\224=NX\333=\200K\323;\000\357Z\274\307\361\034>A\366\005>.\255\303=\200P\351\273$R<=*jr\275\2066\026\276XY\"\276W\264\020>\200\310\326\273\010\217\270=\220]\'\274\027\005\006>lO\213=\010J\003\275\352\342\242=h\351!=\360\317\346<(\204\177=\240|=<\036~\224=\020\207\220\274f\340\325\275\201\334\024>]\307\304\275e_\227\275\332l\273=B\223\345\275\244;\010\276P\235\204\275#K\r\276I\331\033\276w!\003>pF\245\274\322\205X\275\000\035\006;\212I\350\275\372\220\277\275\355\234\211\275\002Z\356=E-\240\275`\375\264\275\016n\335=a\320\007>\300\216\272\274\246\373\311=^Er\275|\t\030=0\202\020\276x\322\213\275`qM=`\024\014\274\370\323O\275\222\"\367=\366\261S\275\214\0222\275\326\363\306\275\307\314\004>J\344\342=0\372\016\2740\324\037=\367p\n>B\247)\275R,\357=\033\200\014> \340\001\275\212\334\350= \351\341<*\304\230\275\335i\304\275T\203\003\276\t\027\007>\360H^=\302\271\362\275Fk\346=0\362j\2741`\027\276Z\230\340=,&,\275\037X\006>\014\301\010\276t\232\253=\362\257\200=\260\021\302\274.\340\200\275\341z\r\276\023\246\205\275\217]\236\275\273\037\231\275\000*\372\275\203\264\000\276\000\001\353;\353>\033\276z\"f\275t?\\=\360\005\373<\336q\322\275\264\000\030\276\2347)=\212\252 \276\262\273\350=`\004\265\275\340\230]=\003l\004>\345\325\031\276\346\230\344=\203d\327\275\004\270\240=\354\236\026\276T\317s=\324\365o=\240\023\246\274i?!>\255\223\347\275C\230\033\2760\373\352\274K\330\230\275\250\033s=\307\321\037>\360{\t\275h7\353<0\334w\274t\026e\275.p\250\2752a\224=\010\237\312\275 \334\376<P\312\215=0\206\270<\232h\217=\300\316\215=\350\311\355<Qo\005>AK\245\275o\216\260\275\025U\t>\324\341\014=\362BP\275*\311\223\275\210&\031=\300\341==\306^\005\276\221\017\010>Pg.<\031(\030>\256,\270=\352\205\035\276<6\341\275\225\370\035\276\300\271J\273f\207\017\276\344\364?=\352FS\275\202f\345\275\300\217\237=\200\216\325:\200\272\257;\210\371\373<\010E\226\275\024GD=_\314\036\276za\345=`\014\031\274\220 |=8\304\216<\324w\005=\320U\r<\032\014`\275\332\327\361=P\021\010=\035$\364\275\000\277\327<\204\204F\2753\275\366\275ji\203=Kt\017>\nP\324=\346\264\305=\342\306\304=\222\\\331=*\257\347=\2665\377=\3057\024>\336\245\247\275>\032\200\275J\215\251=\006\000\n\276\202\265\203=\363\256\027>\250*:=\020\177\202\275\372\233w\275\222\313\024\276\002\244\275\275\022V\243=t\033\023\275\240\204\314;\320\005o\274\340\010\352<J[\234\275\210\256Z=\344\352\035\276(Y\257\274\310]?\275~\303\313=$\220\002\275v\333\325=\340B\000\274\360\246\323\275\3008\206;\364\262G=B\230\221=Hu\341\275p\024K=\3004\036\275\254\277\363\275lZ\260=\212\032\256\275X\331\356<\301\320\267\275\266\005\273\275\000q\026:\312_\301\275\200\236\253<\234\265\r\276\273\250\004\276\234\000\036\276\260\2373\275\200\2176\274\330\020\346<^\250\357=H\315!=\260\233H\275\226\362\201\275\350\357\037=\310\n\305<\200\n%\273`\340}\2750g\360<\221,\017>G\313\270\275\316\270\366\275\230\327-=\377\260\004>@\340\264;\237-\006>\201\354\005>PCA=d\031+=@Gf\274\217+!\276\215\022\006>\230\266\323\275\346\375\362=\036\300\260\275\360\243l\275\240\037U<\250\364m= A\036<\240C\241<P\264\324\274\240\014I= \341S\274\276n\267=\006u\366=$\216/\275\324Oz=\026\361\210=}g\">8\217e=m,\251\275\346RL\275\277\313\326\275\002\321\377=\026\010\210\275~\312\006\276R\370\252\275\"\245\366=\3201\310\274z\332\322=\222\270\361=\370\232\356<\220)\255<\246\335A\275\315\002\001>\332\211R\275\237\247\034>\026k\372=\032(\374=\223\214\030\276\2260\226=U*\000\2768\022\365\274l\257E=2v\253\2750\321T=\023; >\034o:\275y\256\030>\334\230[\275\363\363\354\275\270\261\250<\204\354\312\275]\"\304\275\360WG\275\204\241x=\376S\353=@\006\310\273v\220\327=i\036\010>n\231\217\275\345S\037>\271{\241\275<M\016\276,\345>=\314\336\242=d\326\001\275\036C\270=\242\376\304\275p;\001\276\370i\236\275df\351\275\260\261\n=\310\331o=\003n\225\275$\353\216\275\344U\000\276>K\336=\215\307\303\275\360\245R\275km\001>\002\034\361\2750\275X\275\\e\032=\364\356\252=[n\202\2750\214\027\275\313\337\n>p\303\000\276\354\251\202\275Y\010\220\275]\225\023\276c\030\003>\246/\245\275\212}\367=\024\022\026\276L`\247\275\350\266o=\202\301^\275\0046\006=\213F\251\275\266}\343=\360f\212\274$\234B\275W\374\344\275Q\037\001\276\372\270\210= \306\306\273\312\340\277\275\275\263\236\2750Iy\274\230\343\213\2753L\363\275u\016\027\276\324Ee\275\350(x=s\257\034\276\247\003\r>R\224\021\276\236\347\245=x\356_\275\320]h=\222a\016\276\332+\331=\230\367p=\020\025\021=f3\314=NU\347\275x\255\226<:\214\335=k\010\037>\000,r9t_\013\276&\336\336\275/\265\020>\220{F=2Z\265\2750}f\274\313\372\020>6^\222\275\264o&\275\330[\334<\205\313\300\275\336\355\372=\340\305\310\2750O\341\2741o\212\275ZN\360=\210\306\017=\330\310\275<\013#\033> \316\255\275\016o\327=\250`==*\242^\275\206n\301=nQ\321=@\375F=\236\312\025\276\300\035=;\347\375\234\275\340\036\027\276D\314*\275|]\340\275J\177\322\275\347\215\366\275[\034\006\276,_C=0P\036=\207\336\035\276E!\220\275N\246\311=\270\221\335\274`V\254;\342l\372=\244\232\001\275Q!\273\275\240>\331\275H\324\022\276|~[=\241=\n>\020\275y<\352\366\235=`\342\222=HA\217\274\001W\036>I>\030>\236\262\322=\361\320\006>\350\206\014=&h\235\275\020`R<\300\304\223\274\220 \340\275\362\275\262=l\253\203\275\232i\364=\374F\010\276v\266\224=\360:\220<\354\026\033\275\300\010\231\273\"\341\333=\202\0312\275&\177\303=\020V,\275\210\201\341<\275\031\033>\252yR\275\010\347\032=N\363\363\275nj\r\275\002\013\375\275T\360\375\275\266\245\360=PHm<\340\260\262;\216\307\324=.\230\235=h\3449=\240\364O\274\300\217A<\375\321\033\276X\354\031=0\361 =\321\325\006\276\314\343\025\275\226\352\257=\nL\361\275\030\024\367\275\220\224#\274L\261\013\275\353\363\n>\245[\021\276X\311\366<`\341o<\321x\200\275\036\350\212=x\241U\275\277\274\035\276p\323*<\024B\231=\276\220\313=\002\257\354=\206Z\031\275\000\n\3109\033\266\005>H!q\275~k\347=\200\333\241\273\314\244\374\275Z\270\305=\240\257\354<\234\364\020\275\253w\r>w\352\274\275H\264\017\275\314\215,\275\343\377 >\233\354\021>\274\333W=4\345*=\260:\257=\030\203\031=uH\322\275\313\372\216\275\203\267\226\275\317.\235\275\224\347\002\275`\255\375\273\300\310\224;S\333\200\275\340\376i\275\362\232\321=\240\331q<\351T\003>\360\023\245\2740\030x\2748\321\250<Z\352\356=\266\207\027\2760\320\230\274\260\275\216<8\366\243=\200\332\207<\373%\235\275K\026\017>\344^|\275%\014\272\275\370\'r=\313\231\002>f`\021\276x\331\257\274a\025\025>P\322p=c\207\213\275 \2051<>\237\000\276\276\r\337=\356\217\312=\377S\013\276\014\301\246\275\024\272\214=\016$\222\275\347\201\260\275\024:@=Dy\244\275\201\237\017>\234YC=\210\213\251<\342\340\261=h\323\231=*\232\213=\332gr\275k\t\024>\0046\024\276`\225\353\274\005\350\030>FQ\231=Z!\363=P\316V\275\022\313\244\275^\350\376=\362\353\n\276\234+\272\275\372\371\304=&\327\270=\300Y\272\273Vk\335\275 \314\240=`y\344\274\354\276\252\275\300\363\327\274@y?\273\320\313\037\276h\036\254<\212B\202\2750\270\271<\311\350\022\276\310\246\361\274\214\225t=\250HJ\275\216f\313\275D|\205=\370\261~\275\360[\250\274,\3022=\336\006\022\276h\201\017\275\310\276\373\2756\202\020\2762\'\302=\332\363\210=b\2669\275\000\315\006=\356\235\233\275\3206\202<\300\027*\273\030U\354\275\217M\352\275\020Q\222=$\002)\275@\342\235=\300\206\031\274\006\005\321=`:\000\276u\205\037>p@5=\352\363\026\275\360\352#=\036v\326=\010\333F=\316\364\370=\307*\366\275\214e)\275f\233\317=\300u\211\273i$\245\275\365;\033>g\364\026>\\%\270=\240f:\274\"\275^\275\252\204\246=%O\001>.A\324\275\020\323H=7\033\227\275\344\226!\276\362i\255\275\260\365\001=@\263x=\324\307\361\275P\0109\275\356\002\246=$\002v\275\256\217\232=|\227\036\276\\\250\226\275\000\005}\275\026>\343=\275\033\035>\346*\370\275\201\317\004>\\\021F=\3560\252=hc)=\252\030\201\275\365\362\003>\r\311\037\276\200(q<\355>\226\275\246$Q\275\005\220\037>\250\376\311<X6\260\275\276\262\373=\2657\263\275\025\271\370\275\000\270\206;\300\214U\273\272k\313= \014}=\202|9\275\177\315\007\276\235\013\230\275\311R\217\275/\211\025\276}u!>\320L\345\275\377{\031>j\004\261\275H\016\236<r\"\253\275/\021\026\276\272\360\204=\240\313\351\273\240\016\257\274\324\226\204=\220\360h<\202\263<\275\235t\242\275\000\337\302:\000\314X<\302\204\363=h\316\325<\246I\265\275\220\007\243\274@@\023\276H\334[\275pJ\335<\230\007\253\275 \004\025\275\300!\033\274@\227\322<*\326\205=\276\213=\275(\362y\275.\023\221\275\357^\r>f\271\331=\244O\017\276\033\217\330\2752@\336=%\026\002>\004x&=+:\300\275\213\367\023\276\320\376\260<p\273\356\274\206\263T\275\370e\210<\274\026\r\275rY\350=\254\242 \275\321\230\032>\230V\246<k\307 \276\360ZC<-\253\202\275\034\305\"=ST\014>r\031\330=3]\230\275v\362\255= a\307<V\023\"\276\212\021\376\275t\314z\275\260\240\375<\340\235\304<\330\333\n=\030\335\305\275\252o\365\275\270O\005\276\344\001;=0\217\t<c{\006>\360\253\350\274K\255\030\276bp\327=\"\225\330=\360mu<\370\023g\2752\035\026\275\270\307\356\275\264\177\025\276[\315\000>\226^\350=:I\013\276[\021\202\275\252\264\272=\352\020w\275$\361t=\235&\004>\010(\234<\346[\235=\020\036:\274\004`\200=Z\276#\275B\2515\275<0\201=\300\220\266<\200\312x;\210\303\212\274\356\346\271=\202\204\246=\374E\023\276\3450\030\276\330\'\335\274|A\377\275\214_\374\275\254\371N=\266\020\324\275\374\206\005\275\266w\345=79\333\275L\351\263\275\024Zx=\000\264&\271\034g\326\275\343\212\357\275\2347.=2m\\\275\226g\345=\260\247\"\276\365\226\033\276j\t\254=\320Dc\275r\020\201=\262\177\233=(\343\211=\370\312N=\302Q\333=\226\006\322\275|\265\224=xI\254<\214t[=\260!\021\276wD\027\276>\225\020\276@p\220\273 \257s<\214\256X\275\253\265\037>\371E\"\276I:\022>0A\006<\360\020\006\276\340\264\371\275\022\030\\\275\350\371\t=\310\220\260=N\256\317=\250}\035=\220\341S\274\344\215\207\275\234\200\215=\226\034\347=\340g\363<\326n\314=\332JC\275\313\266\010\276\240\307\322<\241\177\035\276\263\207\025>\2501\023=v\262\310\275r\361\346=\226\350\334\275\375\270\006\276\320i\302\274\017\236\036\276 j\314\273D\250s\275\273\330\201\275r\271\355\275h\235\260=\342\341\021\276\330h\336\275\340\025\320;`\313\241=\0148A=\342\023\010\276\360I\303\274\t\035\026>\314\036\217=R\240\r\276\204\r\200=g\265\300\275\262@\376=q\213\030\276\200\033\253=vz\017\276\330\253\017=\220\353\251<6#\262\275\324\207\r\275|\320\204=\000x\334\27122\245\275P\243\251\274\022\207\254=.\240\315=Sm\253\275\010t\242= b7\274\207\201\315\2758\tW\275\371*\006\276\273\232\023>`\255@\274\2139\035>&\272\344=B\377\236\275\304h\002\275&\242\014\275p\013\207\275\3348p=\270\034\201\275Y\205\002>\200T\314\273~\347\342=\300K\206=\352\212\317\275\302\030\347=\356V\222\275\275\210\242\2751\374\021>\000\234\317\275\000M\227\272\030o\304<4ni\275\230\\\366<P\241Q=`c\000\275$\327\r\275D\035\206=Rq\231=\340w]<\332\307s\275\226<\375=%D\006>\360oc=6\322\371=\323\326\034>0.\363\275\010\373\226\274\003\376\004>HD\024=\310n\036\275\231\271\251\275k\363\310\275J\227\350=\254-\027\275\247\365!\276/\360\301\275K\332\004>\360\303f\275\245\361\023>EZ\t\276\244\246\247=\342\333\003\276\242\265\217\275\207\230\026>\336\023\326=\235\324\005>@A\223\2746\257G\275\330\302\331\274\210;\244\275\262\005.\275\240-V\274@\036\273<\240}\271<\212\225\337\275\037f\272\275\325\213\356\275\3220\245\275\227\017\021\276\000\273\220<t\272\206=\212~\314=\300Uy\275^g \275\215\345\005\276xo\200=\270z\257\274\300{\360;\346\\\216=p\001\330<n\277\240=\352\r\212=\300\342I\274\t\251 >\246w\263=\372\345\203\275:H\365=\204\227g\275\014vm\275\377R\007>.4\375\275\304`V\275\344\304\200\275&\250\325=\022\243\340=\200w\016;\344\365\353\275\224\253a\275\354\334\237=\010H\003\275\377\213\253\275\030s\355<0T\224<>\251\315\275MC\016> ky\274,\'\214=U^\201\275@9\030\274\260\rF<\242\005\311=0\034H<\035\316\024>\225\016!\276\230[\332\274\354\2148\275\035$\364\275\310\n\354\274D0\024\275\243|\007\276\307/\240\275\000\n\254:p\361\326<\300\241\300\275\036<\351=>\306\031\276\242\223\316=\277?\036\276\353\004\303\275\270\334j=\342>\255=\\\232R\275\020\311\025=(f\242\274\177\216\t>\270\246\270\275\226N\022\276(0\205\274yB\332\275N8m\275\036\303\250=x\220\016=x\215\244<I \215\275\270\324r=d\274g=\020\247W=\242(\205=P\333L<R>\305\275&7\251=+\025\020>\020,\231\274\200\343T<\346\201\217=\322\'\032\275`u\004\274\0267\366=Y\004\212\275C\224\023>r\310\246\275@\r\032;P\341Q=\307\367!\276\212B\333=\276\212\273=\024|\002\276\300\336^=p\227\031<\033\322\314\275\327\031\002>\336\004F\275aA\">\002\025\351=s,\n>\356\t,\275\264id=\036\325\342\275\275U\224\275[\\\001\276x\224\343\275J\366\372=@\003\010;\272\273\022\276Pr\337\274\310\025\266<\356_\323=J\265\306=\031\200\006\276P\220\023\276\323\343\021\276\325X\024\276\'\342\022\2765%\021>P\323\n<>\234\270=:\315\266\275\2003\265\274\355\251\037>\272\177\203=g\363\265\275\300\233\025\276m~\031>\230\330\252=\270\320c=\022\262\203=\262H\215=<{\t\276\212\371\272=h\304\356<\200(\233\274\306\276\275=\334ky=\200P\375\274x=t\275\316\214\007\276\274\000\347\275\024J>=\226\316\240=\2307\306\274\370^q=p[b<\357\307\022>OX >\240[\317<@G\215=.\375\272\2750\223H<DZ\200\275a\177\000>|\255\'=\304\2113=\237\006\016>\311\302\035>\242\321\370=\226\333\241\275\276U\314\275f\035\343=\240H\200;\000\327O\272\"\270\311=\361\312\220\275A\321!>\036\213\366=$0{\275m[\253\275\"\221\334\275\000u\355<\222\301\327=~\237\370=\'\177\324\275L.\002=\000\330\350:\320\265^\275\025\201\030>:\313\326=\354\313\004\276\207Z!\276x\267w=&\025\r\276\3172\020>\020\373E\274X\332\362\274\270J\243=\364\334\336\275\200\027\215:/}\t\276\034\247~=n\022\310=\360\227T\274\2342\237\275S\270\331\275\260\365\215\274\272\034\317=\244\223\t\275\230r\212\275\370D\202<\376\270\334=\321\361\301\275\204Iw=\000\212\021:\255\247\034\276l9N\275\360\036\335\274\037<\306\275\000_\330<\241m!\276,\350K=\363\010 >\240\344m=\300\254m\273\210\364\365\274l?]\275\316\270\376=|\221\027\276\307\251\367\275yl\006>R8%\275\220U\372< \313\265\273\230WA\275\000\002\376\274\337\316\024>\242-\026\276\220rJ\274t=P=\300\027\271\275Q\265\026\276\300\204\016\274o\341\013>/\'\035>@5S=U\243\273\275lA}=\372\375\372\275\210\256\266\274?\271\263\275RL\242=\270\277u=\210!\274<\220\3413\274\234@\006\276c\002\035>\244\227k=&\331\371=s\022\321\275\254\301\300\275\300\n\352;\000\271\340\273\220`\276\2742!\330=\326\250\232=^:\253=L\244\014\276\236\314\372=\304Dn=B`\t\276V\016\226=x\226\260\275\364M\367\275z\266l\275\035+\001>/\022\363\275\026~\000\276`\264\235<\262*\220=\024\222B\275\344\0055\275\244\301\236=\370>\362\274\022\017\270=\006Y\373= E>\274\265\037\">\231?\323\275\240\035J<\020Pw\274\000\232g\273\000\\\027;@i\024;L\207:=~%u\275\320;\250=\303p\204\275`P\000\274\235]\024>\206>\321\275,\233\222=\004PG=Gu\206\275\256~\225=\236\353\352=f\370\n\276\030G\306\274=\355\242\275\316\275 \275\303\242\003\276\005[\027\276\030\246\247<\340\225(=g\235\234\275h6\347<\264N\271=po\306\275\206\262\366=3\327\234\275\354\304\002\276R\202\225=}j!\276F\311\000\276\335X\026\276]\370\035>\270\345\236=\224\205\244\2750c\230<V\037\333=\362\343\002\276Q\\\007\276\250|D=\222d\315\275\263\350\016>\260Q\337\274x\227\035\275V\334&\275\'\344\254\275J0\276=\252\323\351=@\355t\275\322\375\224=\202\'\260=@\203\325<\330\255\312\274x-\207<\354\310\207=d\305\276\275\000C\325;D\024m=o\261\r>\344\357\235\275F9\016\275\252\246\340=\262I\340=0\206\003<h+\354<\360\374C\274X\177\005=A\230\006>\330\310\223\2752Y\333=\037\360\005>I\357\n>\021\357\240\275\373\246\037>@\017 =pm\026<X\0163=\330i\251=\352)\252=\276\177\212\275\"\336\366=\210R\235\274\026\273\373=\2208P=\340\251\224\2744\320I=\007\211\356\275\007\001\r>\360\272\260\274\304\322C\275\213_\024\276[Q\035\2764\346\027\275HY>=~z\310\275\250\"\221=\201\251 >0$0\274\026\273\325\275g\320\030>\002\333\262\275\004\215\036\276\233<\004>\244\257\273\275\376\344\274=^6\333=\224yB=\260\254\316\274\n\031\372=\014\263=\275\340\305\010\275\252\022\026\276\000\357\336\273G\217\026\276$\301\353\275@\226U;\247\272\037>\374t\333\275\304$M=\000\324\217\275\336\020\001\276HZ\330\275\326z\035\276\300S\002<\000\n0\273\332_\307=\234\256\371\275,\310:\275\300\211\024\274U\232\331\275@\233\010<X\026\317\275\314\270\262=\334\355C=\3303\217\274\265\310\031>\312\335\022\276~\342\r\276\322!\371\275(\356\211=|\321t\275J\024\236\275\324\"\002\276 \301`\275\304\201\020=\232\201\177\275\024:\004\276,To=\0001\001;\020\273m=g\312!>X\366c\275\004\363\n\276\311?!>\267\375\002\276<{\032\275p\363\r\274\000>o\272\024\350\206=\212!\361\275\244\225\230=\335\013\022>\277\340\031>l&\314\275z\327\201\275:A\377=q\233!>$\341)\275\203{\031>\2546\255=\310\335\315<\350\312w=`\312\324\2751\001\027\276\346\225\274=\\\034!=\3160\024\276\000@U\271\032+\207\275\0209\341\274,U\346\275\n\013\335=\360\235\005=\236pT\275\313\242\">\022\252\033\276x{o=2\005\240= \007\205=\024Q\237=\004\370E=\026`\037\276\232\371\326=\303i\031>\252\307\265\275{\266\234\275\000\034\230;=\201\232\275\"\366\254\275\000\305\322\275[|\030>\301\217\370\275p\t~\274\000d8\272u!\240\275\320\302l\27463\322=!z\005\276\212*\343=\2601\344\274-6\312\275\217\254\004>$M\237\275\306V\304=\340V\251;\252t\311=\210o\262<\300zM\274B\325\332=Lp\301\275=.\222\275\024E\211=_\257\037>n\312\267\275\340\274\312<;\007\030> \253\235;\3006J<p\360\243\274bH\301=5\231\027>\t\372\033>\372\322\372=!\240\205\275s\027\203\275\0001}=\013\001\200\275f\340\365=P\300\302<\327t\034\2762L\030\275]\270\036\276\234\255i\275\220\020\017\274\014=\000\276H\220\026\276P\211\272<$#\255\275\2408T<\340\317\366\275\244\352\266=d\254\231=r\257\346=\2322\345=&}\030\276\010\212\361\2758\023\363<K\206\213\275d\262y=p\017\252=\022?N\275\312\241\004\276\316\212\265=\014\376\332\275\226\334\352=\203l\024\276H,\373\274\266M\014\276\332\021\312= \303l<\372\201\014\276\256\220\350\275Z\035\327=`\235\277;\3203\234\274\202\275\027\275\300\237\316\275\212\330\235=l\213\211=\212w\376=~\341\227=zL\371=\3662s\275\242\340\303\275Q\362\225\275\2009n\273\373\320\022\276\310H\247<\246\306\000\276\270IM=\261\362\340\275\300\221\207\273\262\315\267=\216a\222=\'d\010>i<\217\275dX&\275\256\t\245\275Z\037\301=x\317\213=>\033\206=\3201A=\231\026\277\275\302I\225=\250e?\275\264lq=0LY=`\236\276<\332z\372=j*\336=\031w\240\275\000`\000\274\007\211\002>j\023\004\276\t\177\242\275\214jF=\345H\005>\232\345\340=\3620\357=N\266\304=\242\036\244=\354\030 =t\322S=\270\251\205</\323\215\275\036\365\336\275X\277\224\274\215t\033>\026W2\275\340\235\254\274\340\031\267;L\324\016=\245Q\353\275\262\275\342=\310\002\204<8\205\207\274V\242\364=\260FH=\211 \337\275\320>a<\007\233\017>(M\307\274\326\001\301=\340\312\300<K\021\032>\225F\r>\334\225\220\275\260\257(=\000\025\303;\334+?=\002w\206\275\000@\264<\311\366\213\275\234?\367\275.\246\204=@u\373\275\300s\006\275\227\276\021>):\363\275\030o\332\2748j\235=\370*\004\2750\360B\274\313\234\030\276\274\026?\275F\t\236=\340\215d\274E-\034\276\014\305f\275p\006|<\246\206\265\275\276\325\351=\"92\275\236!.\275.\325\340=\005\237\027>\300\322\242=\357b\371\275\nT\254=\201\236!>\212\325\200=\002/\354\275HE^\275\300v\241=H\333 =\311S\">u\216\031>hM\307<nw\353=Aj\031>\026\242W\275\256m\212\275\177\331\315\275\226\226\375\275\365y\372\275F\322\362=\336)\345\275\031[\017\276\004*M\275VA\234=\364=\376\275\024\2673=\036\344!\275|\t$=N\273\276=\000@\003\275\000\215\002\273\300\240\355\2735q\031>\260\271\346\274wL\210\275\\\036\017=\250\031\226<x\373\016=\000#\010\274\231\323\024\276eu\037>\021 \t>@\320\221\274\212\303\033\276\210\376}=\035\236\021\276\234\325\361\275XS\344\275\227}\001\276\006\272\001\276\350^\255=\017\273\037>0qR\275&\001v\275\2035\006>**\253= \307\355<\214\274\035\276\014g\205\2758\026F=\276d\355\27578\260\275\216\020\227=b9\211=\004\211]=\360\330\023\274\000E\213=*X\361=J\203\303=\010~\016\276f)\332=`\371\331\273\020Q\222<\013\024\302\275\222\007\227=\267\"\021>\022\274\033\276\000\201\250;8\272\351\275\355C\027>\034#\217=(\331\010=\200\276\241;\213\336\023>\251K\004\276F\366\273= 6f=F\177\240=\240\344\317\274\240\251\377<\333B\023\276`L\027=`\"+<\300M$=\332\014\320=\303g\320\275`\201\306\273\244\234\n\275|\321Y\275\257\035\313\275\310\200R\275\007G\014\276\352BA\275|\312]=\267\340\033\276L\201\345\275\332\004\363=\200,;=\232\344\000\276\027h\317\275\332x\r\276nF\034\275/\344\031\276\340\252<=\353\217\014>@\030\250\275w\300\032>nA\333\2757\375\025\276\314:\217=\005\241\314\275\325\367\006>S\241\014>>I\352\275\200{\325:(\373\351\275\331\022\014>\274\337(\275^\215\317=}H!\276\222\231j\275\274\254\347\275n\214\377=\246E\314=\260\216\025\274\3517\004>\350:\276\275\370K@=\016\203\275==\270\t>\326\304\362=\006\000\265=\334Jk=fH\304=P\231/\274\332(\343\275l\025\314\275@X\005\276\177J\235\275[D\017\276x\374[=\000\031g\274;J\014>\202|\344=\020\257\256\274\240\333K<\005[\252\275D\353\314\275\260\261\253=\374\263\035\276*D\244=\316\265\334=\035b\037> \231\353\275\200\376\276\272B\r\335=\242\024\262\275H\007~=\220\361C=\204_\317\275\004\024\233=\332\376\343=\020o\366<\214e\241=\035\020\005><\370\355\275\017`\023>\215J\032>\263\340 \276\202\203\250=\212\302?\275&r\223=t\262\317\275y\217\212\275\273\345\010\276\266&&\275\3112\017>\2405f\274\200Q\263\272\337\213\007>\n\026\033\276\260E<=\220\331\314\275\2161r\275@\374\023<c;\024>\006\343\375=\260\236\257\274\254\276\370\275\370\267\251=\352`\370=j\021\t\276z\341\014\276\246-\275=k\226\257\275f\244\335\275\rq\240\275\314L\013\276oC\001\276W\'\226\275.\024\304=\360\325!\276&\275\357=\224*\245=\340\253\r\274\234+Q=V\001\037\276 \237\013<\342\274\222\275 \300Q<d\006\221=@\275\000<\363m\022>\001z\023>\266\t\336=n%P\275\250=\004\276\020Ou\275\026\355.\275\230\2451\275\243I\200\275\2567\360=\360PR\274\320:\273<(\250\344<\230\201[\275\300 \\;X\032\233<\316\212\255=\206z\321=\375\014\023>\300\352\301;U\341\005>TU\336\275\336#\250=\365K\005>a\346\303\275\000\234S\272\357\366\014>\'\221\205\275|\311\027\275J\254I\275\372\241\001\276p\332d<p\312\266\274&<\t\276\360\304\216<\360\222\026\276\240lD\274\250iL=\000x\202\275\3300\211<`\331\366;?!\210\275 \211u\274!3\241\275w\232\n>\\x\006\275\000\020P\274\000\362\230\274x\177\263=\225\323\t>i=\036> \311\010\275 \326\356;\303\327\017\276\232\266\203=x\235\260\275\276\024\300=PK\036\274\232g\342=J\236\037\275^\213\340\275f\214\364=\000\354W;tfi=TC\002=\370\212(=\2029\273=(\020\330\275\352\001X\275 \026\321<8\360\256\274\320\311C=\210{\240\275\262\254\341=0\260\364<\262\376\370\275\240J\031\274Thy\275\326\250\330=M\251\256\275\000\t8\273\230\021\351<\004\230\371\275\376_\223\275\240%\006=(\223\356<\366\201\334=\360l\223=\3467\375=\262\027\252\275\000\212/:\332\2072\275\260f\t\275\310\323h=\366\203\257=\242y\331=\000O\214<\206\360\307=\014\227\026\276\246\211\257\275\202\361]\275\300t\207\274B\034\216\2750%a\274\314\034D=\274\035\222=\205H\215\275\005\370\035>\317*\371\275\204\201\263\275j\"\363\275\354AQ\275\034G\305\275LD\007\275\322\216\370=\333\332\031>T\'\213=\263/\021>H\037\225\274\240mg\2746.\377\275\377\325\350\275\355\365\027>N\364\363=\300i\255=\262<\245=\305\257\200\275>R\376\275\027\343\257\275^z\310=\000E\214<\310@\313<>\036\323\275\300\240q;\201\204\332\275\336E\273=\360\323,\274\240\211\210=\320qh\275\023\311\306\275\204k\216\275p\344\010\274v\020K\275K\202\031>\032}\360=&-\341=\027\236\037>\256P\225=\233y\010>\0266\307=\323\004\037>\3209\020<\321\331\356\275>\036l\275\234HI=p\276\230\275\244K\201=\247\265\016>\372\216\353=F\351F\275\340\235\257\273\264\366H\275\336#\342=\220\270\270\275X6\004=\230\352\210\274u\245\234\275(\254\036=\027#\223\275\272H\272=\000\244\271;8\210\205\274\270P\002\276\000\243\037\272\270\263\224\274\264NN=\270\327\354\274j\275\274\275\344\'\356\275/t\274\2758\243\375\275S)\023>\034\276\354\275@u\001=\350\241 \276r\222 \276$>\025\276\030\004\273\274\253\260\364\275#\203\025\276Xc\261\275\215`\200\275\2755\312\275\206\223\352=\205u\247\275\323\243\035>h\303\340\274$\2443=p\303I=\374V\377\275@\024\352<\350\264~\275\004Q;=|\272\215\275)\365\017>\030\203\347\2742D\376\275\336g\275=\305V\r\2768mv=\274\260\036\276\200E\316<\340\001E<\300\255\226;j7\345=\245\025!>(\243\213=n\376\210=\310\0326=1=\206\275L\275\003\275\004\333~\275(\212\346\275\020\334\200=JX\"\276\234\025\020=\274\214\211= \031\303;\311=\004>`\376\002\275u\212\235\275 \256\330;\361\222\002\276\313\217\016\276\2723\021\276\020Gc\274{q\364\275*G\004\276a\233\301\275\360a\376<\246\001\222=\000H,\271?\327\223\275\246\314\325\275D\n\365\275\010\246\335\275\344\216\177=\230\005(\275<FO=\361\003\"\276s\025\030\276Um\005\276\244\014\010\276\206z\363=\310\246D\275\372\037\325=\022\365\356=\305\257\">\310\376{\275\224\2300=\320n~\274(\014\207=\240[3\275\300\266\233=x\244\331<\331\321\347\275\230\332\251\275\271\235\330\275\000\265\033=\200\367\"\275\301\254\001>09\300<\2449\034\276\010\242\220\274\016\3117\275\022\305\033\276\032l}\275\236]\333=T\345\177=\217\032\021\276f{\231=\300QW<\362\240\372=\203\025!>f7^\275u\353\005>z\267\314= \013\210\2747\366\003\276v\371a\275\006\n\230\275\300:&;\3511\001\276\250\325\265\274X\256n=Vs\341\275\372\006\374=\230\204\214\275vF\335=~\026\341\275\240\247\220\273@u*;\342\220\354\275Z\222\262\275\024]D\275\272\266\274=\212\252\'\275\325\030\352\275\230\272\302\275l\220y\275\354o\200=\270R\232=\200\210\240=\006)d\275\224\207\212\275\026J\027\276\300\032a=\250\325\306<\350l\345\274Z\301\313=\214$\030\276\016\'\216=\200s\031<\\\347#=\303\213\037\276`\201\223\274\230{\237<6B\004\276\317+\004>\032\377\346=\332\217\020\276E\253\006>\025\307\016\276h\\==Yp\331\275\332\n8\275w\274\224\275\365\336\034>`\\\241\275\223r\003>\266\347\t\276d\246n=\362\346<\275\016\223\366\275\000^\304\273\254\351\255=@\333m;\222\025\262\275\2236\025\276\000\323\376;\247\371\016>I\362\000>\023t\006\276\364\225\206=\263\034\001>C\222\035>m\362\261\275\200\317K<[\227\037>\204?\001\276\000\226y\272\263T\272\275\366\350\305=\270\275\222\275\230\375*=\356D\n\276\'\306\263\275\350\227\332<\020Y\034\276dfX=\035u\223\275\0003\254:e~\007>1 \035>\314\n\255\275\304\017\004\275\300b\231\273\334\215\237=\210@\004\2760\233 <8\220y=\326L\n\276\243\r\325\275\024\201\013=&6\375=\231A \2764\271\016\276U\037\227\275\206I\006\2760\027\275\274\360\ta\274\240i\256<\344\356/=d\226\315\275U=\003>\232\214\217=,\217\270\275p\304\273<L\353]=\242\365\337=<\337\232\275\023|\001>E\376\027>\032\"\317\275\200\251M<`H\350\273\321v\226\275\200\311Q<:\314\246=\234\262\246= \302\\=`\301d=\346!\307\275C\357\017>g\036\004>\222\342\245=$+3=d\030\307\275\364\010\207\275\302\360\322\275 3,\274\252J\362=\372\016\310\275\272]\202\275[\241\032>\327\270\010>8\366\237\275\034O\243=z\311\373=\270\223\220\274\026\032\033\276zh\002\276\016\352\343=\320*:\274\330\246\224\274@~\241=\020+\214<5#\246\275\234J \275\343\266\373\275\312\363\225=\326\232R\275\201-\017>\222:\212=\320\006`=\374\000S\275\013J\025>j\253\005\276;\322\024>\004\022\220=\351S\036>p\3739=\220\300\203=\030\361g\275\310\234\200<\202B\316\275F\377\272=\004\016N=:\023\341=ry*\275 U;\274#\026\031>R\317\320\275\240F\270;j\036R\275^\231\211=\004\3664\275\335\350\033>\000\277\345:\037h\"\276\226\001\331\275\030\037n=<\037o=\246\230\353\275\236dR\275\224\nL\275c5\r\276\205\036\032>T\214 \276\260p~\275\030\331\034=(\362\310\2748\312\374<\024\035\013=\333\247\360\275\342\314\250=.O?\275\246k\272=\000SQ<\242\246\201=\326\261\260\275~\005\324\275\177\370\242\275\322H\256\275\001\351\020>\246\243\246=\372\320\005\276\010\210G=\306$\274=B\267k\275RQ\214=\376}\337=deT=|\375\267=\322=\246\275\307I\003\276D\222\007=\220\261n\275(\203\227=D\'\367\275\344\236\261\275\360\316\245\275\230v\037=\232\3767\275\000]Y\273\240|\275\274\225*\035>\340\377 \276\nS\333=\326$\366=a\317\n>^\305\304=\310\332P\2754c_\275\242\226\333\275R\342\221=\374\365!=bT\313=L`g=\330\242n=\205u\r\276\337\025\035>}\320\036>\030\350\200\275 I\364\275N\363\363=\375l\034>@f\212;\376S$\275\2378\022\276rv\371=\236\273\246=\034`\027=|\272w=\016\373\372\275\017\334\030>\260\226\256=\222\363\202=\324\276{=\243\260\361\275@\327\230<c\232\032>\255\033\260\2750\344\360<\226R\320=v\034\312\275\300+\300\274\200=P\275\206^\325=\332A\234\275\270x-=\340\212\246\274\034\370\235=f\031\306=\314\n+=\213\316\r\276\254\275w=\276\371\201=\353x\t\276R.\207=9\222\017>\320\262g<\233\023\362\275\320\177\307\275rv\331=\304\246\263=\374\001K=\010\375\374\274\000?\204\272\001\204\273\275\0008\204=\305\263\">j\310U\275\212&)\275,\203\013\276\300\230v\274I>\300\275f\266\253=4\264.\275>\352\035\275\304\"\025\276x-\323\274|\322\230=0,K=x\372\260=h\243n=\370\n\222\274PX\222<\344\261s\275{]\013>\210\177\366<\210\037b\275\224\326\341\275A\020\n>\242\031\210=\0102\346<\n|\001\276UU\037> \221\336\273H6\243<\366\r\351=\\\231\241=\234 \035\275\000bW\274\005\030\007><\345\002\275B\240\237\275w\251\005\276\214\373\021=\210\231\307\275\"\306\033\276\"\325\005\276\031a\236\275\326g\341=@\3435=\003\261\003\276\242y\377=F\222\245=\334\247\224\275\245D\025>\014\2061=\340#\277<\003\332\264\275\266\t\326\275bQ\021\276g?\017\276\007\215\021>\236\245\242=\320Ib\275\222N\362=$\324\250=\240{O=\203C\002>\362N\221=8\201\201\275\340\257Q=\010\324\356\275n\353\207=\2667\207=\000Lb\272\026S\311\275\272T\230\275`x\177<\334\256D=\352o\205=`^\220;\020\220-\274y\356\363\275\266gU\275\240i\006<\262\232\312\275\030\244\355<\307?\003>\200\307&<\372u\337\275R\034\255\275\261k\274\275 gH\274\257\346\243\275\322\017\024\276\344!\n\275\346\322\216\275\345 \031\276\370\336Y\275\320\235\336<\312\n\254=\000\250\243\272\010\234\r=\346!\371=\204\327s=\310\010\317\275\326\366\366\275L\221\021=\272\233\r\2768N\244\274\362\266\225\275G:\t\276\330\243T=\037\275\003>H7\335\274x\210\302\274\376q\272=P\247\264=\377\334\032\276\222P\330=\210-\255\274\326\366/\275\022\201\031\276;!\022>\300\332\t\276\205\257\226\275\300\345H\274\216\n\310=P\\\233=\224/\324\275\240K\367;\026\250\250=\322\255\325=\344C\266=<\356\242\275XE\010\276\346\336\t\276\010\016\226<\211\336\001>@\276%<,\356(\275\260`\007\274\030O#=O\\\301\275\034\3129\275\370t\013\276\0227\236=\310\372u\2759\321\035\276\310\177\322<\260\227\306<\246z\336=\247\202\n\276\300\211e\274\013\363\010>\220\231\034\276\306\312\231=\275K\271\275\300]\235\274\334\372i=?A\035>\340\257\262\2730;\231\274x+\031=\030^\320\275\000\251Y<\244z\340\275\010\005\370<(\303\337\274\370\r\260=\242\230\252\275\323\302 \276\362v\277=\361W\037>\312\250\370=\025\273\021>\362\034\307=(\332x\275{N\201\275t\266\325\275P{=\275\000*v\274\232\221\251=2>\211\275\261|\026\276\"I\246=V\023s\275\3562x\275V\233\211=\354\272\177=\340\304\020\275\354\263\340\275\330\350\366\274\372;\245=\272\253\344=?k\010>\000\263W=\320\207\234\274\202>\220\275^\001\010\276\200lC\275\203\355\024>\200\266\006\273\264K\016\276\236\340\313=T\3224=\230+W\275YL\243\275\230\205\001=\007k\275\275PE\027\274\000\360\263;N\363\320=0\347\317<\354\002\263=\300\353\226<8\235\350\274`3Z=8 \301<:\271\343\275\316g\321=@\336\027=\010\276\"\276(?\034\276\217\225\005>\000\321\250:9q\t>\371\306\"\276\002c\324\275\340?!\274\313H\">\270\253\344\274H\204\014=\004\343\"\275j\345\t\276(u\237\274+i\302\275\240\306\201<\035\321\351\275\n\303\334=\330\345l=\323\214\035\276\302\370\360=\353\271\007>\255\302\n>\2122J\275\242\305\r\276\272\277\232=\221\r\211\275\222\271\233=t\211\036\276l\031\205=\342R\325=XvP\275|\352D=\305\265\026>\020\303\260\274\026\207\032\275RM\342=p\301p\274\236\231\325=\2664\313=\212\277\235=\310\013\016\276\010M\236\2750U^<\210\216\007=>\331>\275\th\300\275\304\270\341\275\230\303\336\275\241\333!>v?\333=\213W\017>\220\377,=\023u\031>\202\232\371=*\026\001\276\363\274\332\275\252\373\340\275\230\370?\275\211v\021><\r\344\275\336\302)\275\037\254\016> \270\364\275i\021\030\2761\377\010>\340{\003\274\214@4\275\210U\234\274\330\003\206<\364\376Y\275$\371\245=&\342\266=\356\361\357\275+\341\014>Y\216\n\276\352\243\024\276\360f\260<\210E\310\274q8\021>\230\020\260=D\001~=g\220\021>\340\2454\274\"\002\356= \200{<\200Q\333<\362\376\317\275&i\331=8^\305\275>\'\265=D\025 \275\232\244 \276\000K\244:\002<y\275\3118\275\275\006\327y\275\345\n\022>\210<\231\274\000\345\342\274^\340\240=?\377\243\275\335\003\013\276\336]\303=\306\211\267\275\367\372\000>=\356\030>P\227\232=\324St\275=k\034>\252H\266\275u\356\031\276\252\2232\275A<\033\276\020T\374\274\034\037`=\300\374\300\273\236\353Q\275(\365w\275\357\314\025\276\277\251\007\276\207\350\007>\320\353\233<4\017\305\275j\236\374\275\223\206\030>\377#\374\275\\`\261=\340\200\272\273`\227\317<4\365d=\3702\373\274zQ\346\275\035%\027>Hs\232\274\202\222\344\275\237\343\001>\010\332d\275<\004\024=\036YJ\275\313\241\001>f\253\224=\340\312\250=C\276\010\276\346\216\306=D\261\255=6\302\243=X\221\r\276z.\251=HZ\210<\300\335\342<Q2\220\275\002$2\2752F\213=\330M\023\276\215n\036>\200\305\333;\220#\005\274\020\221\227=2G)\275\320\311\260\274\226\361\220\275\002\271\032\276+U\016>\316B\234=D\330\016\275\370\340\200<y,\035>\356\364\017\276r\304(\275\\\267$\275%\010\030>\275p\013>v,\321\275D\006q\275\317\375\026>\325\351\035>\347<\275\275@\0372<@\353\271\274\354\025\n\276h\035\256=\254\263\366\275\250\001,=\250c\t\276\031\300\010>\020n\305\274\330\335\255\274\206\304\364=pu\357<\000\017\352\272\003=\t>\210\r\272<\200\032X\273\306\236\275=\227-\215\275+\223\t>z\305\201\275\372D\236\275\343\305\r>\270\024\212\275p\316\330\274%\372\014>v\375\300\275\302\036\272=P\035r\275`@\'=\322\'&\275\250t\r=\2700\342\274\244\317\232=\371\347\373\275\"\341\262\275SX\026\276\203\341\352\275\032\326\216=\317@\005\276H\233\355<\nz\302=\032\342\355=\016\220B\275\374\314\033\275\022*\344=\342\336\225=\245\310\301\275\312 \027\275\260>\267=\027\260\005>>\263\271=(d%\275\320\'-\275\214\212\003=\301\233\037>\206\033\320=\330\276\217=2S\203=\270;\345\274\2447\031\276\350V\313<,\333[\275\250\n\302\275\232&\337=L\315\277\275\242\214\026\276X\261#\275|7)\275\274\234\035\276\034\253\207=\332\370\363=\030\202\000\276.\312\342\275\352p\332=:\365\310=X\344\253<\320o\022=\337\337\002>l\014\233=\220T\320\274Lw\365\275\200%\371\274\200\330\233\273\030\225#=\350d\206=\351\207\020>\010s\327<\250\010\201<\017\233\006>\"\024\334\275B\022\276=\026\r\374\2750\031\335<0Sr\274t\244F=\'\353\017\276H_l\275*\374\356\275\200\340\271:\024\342\244=\226\256k\275\024]\214=Gc\002>\335\361\n\276\220{\274\275\330\244\t\276\351{\t>\340\250\314;;\354\034\276V=\036\275\232z\344=\335\202\001>w\356\251\275\335%!>(\343\361<\246i\374\275\320,P<\366l\235\275(\222Q\2757\313\035>\240\177I<BS\r\276\020zW\274XZ\275<\200n\243=\311V\260\275r\332\325=JC0\275P\025@\275|5\005\276\026W\310=\0207\214\274-\017\032>\271S\202\275w1\242\275\223T\367\275\240\037\'\274`\235\037\275P\370N=\217x\033>N\337\277=\016%\304= \020\250<W\306\024\276\300\017\\;<t\322\275x\206\303<\340\375:=\320\221Z\2756\216\252=\036\252\225=\351C\313\275\331\000\000>\344\336\010=>M\331=\251\312\034\276\206\373\371\275\306\336\363=\264\014\014\276P\244F<\336\236\300\275vh\301=m\215\014\276\210F\252=\215\210\245\275\010=\351\274\201S\227\275\316\271\034\276M\235\036>\006\201\326=\374\264\016\275\271E\272\275\027\343\002>\232\333\032\276\243\200\364\275p\353\274\274\027\001\027>1\367\241\275L\364\324\275ET\024>\014^\010=\002\371\027\276\221\205\037>\004\311p=\272\240\332\275ff\260\275\301\322\035\276\331\363\002\276\020&M<\246\225\007\276\340f\000\276\355\271\242\275p\313\'\275\326\265\374=\005b\014>\347\266\r\276|qg\275WN\034>\226\336\031\275\300\037\345;\222\024\215\275\344\310\235=\016\355\306\275\310\274\031=\224zq=O)\316\275D\326\211\275\200m\360\272p\377\022<\213d\363\275\204\330Q=\256\224\030\276\000\322&<\344\245\302\275\240\252\304\273\306)X\275\005\221\025\276S\203\001>\363\360\247\275\023i\032\276V\212\373=\344\004\201=\352G\210=:\200\342=\310x\213\274\3334\035>\346\271\304=\330\0251=:\344\242=\246W\316\275\010\001\231<\341\260\023\276F\240\256\275\240\210\177<\\\344~=X`\211\275\334\007\215=\016\272\206=\300\311\224=\302\354\026\276\340\232^<\326\306\014\276*\006\347\2750\362\000<\313\026\201\275T>}=\274\031\026=V\234\302=L\357\005\276\3102\225\274\206\264\356\275B-\366=F`\204=\360\020\272\275\221>\n>8#t=\304\261\031\276\200\005\273\274\320t\322\274\300\001\310\275\230P9\275gl\342\275LH\314\275\212\276\205\275\324;\244=\3153\262\275\364\232\025\276\376\266\220=xf\331\274\265\026\023>a\364!>\300\030#\274\323[\026>\340\366\211;\014\212?=\340j\353<\300n\317\273\000\350<<\022i\020\276\0304\231\2740\307$=\022,\026\276\024\021d=\272W\333\275\2678\243\275~@\350=bcx\275\3340\020\275@\276\245;\243\225\017>\260\221\312\274\212\263\226= \223\340\273c\327\035\276\003l\362\275\314\336\201\275\354\244\036\276\n\366!\276\252C\002\276|\270\n=p\000\235\274v\345V\275\340\257<<\200je;\\\220\244=\263\007\006\276\220>\200=\014\3520=\203n\026\276\210\204\206=J[\003\276\224\237\241=,P\230=\300\177\344\2737\303\244\275\226\274\335=`\035\264\2742\314\320=\342\027\326=\220\366\254\274`\372\203<d\202-\275D\214\307\275\312z\327\275\326\020\375\275*9\351\275\020\023\200<\212d\342=\346C\350=\264(\037\276\323u\017>\220\2355\275~\337\230=\003\r\013>:\013\221=\213X\021\276x\323\204\275\221\251\">\300\253\002\275r\367\030\276^\021\321=C\361\025>\224(P=\327\243!>\247y\036>9\346\r>\005\023\016>\020\350\241\2748\030\272\275\3763\313=\244w\223=&\332\301\275\200\375\322<\030\227\224\275rX\226\275\354\255\270\275\250\220\215<[\254\035>&\253\337= q\311<6(\375=\226_\367=\224_\r=\"\255\310=sh\017>\217\314\013>s\202\031>\242\030\273=E|\016>J\304\371\275\372\253|\275|\361-=X\233\364\274\240\305\343;@\301`\275\332\346\032\276\300:/\274p\223!<+G\013>\350j\213\275\337>\002>`\257\003=\2047\365\275\n\375\313=\200\257\027<I\"\022>\276\372\236\275\224b2=\265\365\000\276\017\360\020>h\240\217=\200\347\342\273\200\367\001\274bd\375=\332S\357=\027\205\000>\334V\007\276\210\007\230\274\362)\274=\201>\002>(MV=\246\253\326=\220\013\025=\265\365\234\275\261\205\005>`c2\275\201L\024>N\326\303=0\271\276<\300(\000\275\\\335~\275`\337\343;;\366\037>\000\304^\272\226\021\244=|\017\006\276\260)\031\276O\223\031\276\260A\325<\300O@\275pW\023\274@\331D\273\312=\241=\234\223^=1Y\202\275\370\375\006=\000\340\237\275\340\247\234\274^\376\021\276\232\330t\275\300\016\270=\274\200\247\275\352@\016\275\254\260J\275\2603W<\030\000\023=\034Dl\275\213\371\224\275\220$\266<\006\331\020\276m@!>\362\330\343=\200\202\247\273\'\372\002>\366\307\361=\030]\330<\327z\217\275X\215\344<xe\035=\360\330y\275&,\373=X\\i=\260\236\200\274~\322\346\275\000SD:~\230\361\275\352/\340=\014-\216=\244\302\256=\340m\244<r\300\331=\245?\347\275\355\031\033\276\200.\363<K\333\261\275\220\304\020\274V\336>\275\036\277\275\275\000\364 :\214H\362\275G-\027\276\222\n\342\275\210\335\374\274|\317z=A \013\276\311\000\010>\232\004\375\275Z\250\356=\354\2462=\000\022\377\272\340\347\266<\000\036\242<\220\000$<\316@\327=r\023\014\276\324\3025=-\274\023\276\256\021\310=\330`\221=\262\217\312=H\352\357\274\375\225\277\275fI\333=\n\351\353\275\377\307\036\276\230\272\"=Ie\023>\252\343\362=Q\307\346\275\300\007\236\274\240\"a\274\262O\345=%\313\024>\374\360\003\276\010\343\240<\232\010\221=|\323\215\275\\\"\003\276d\270(=\374Y#=\240%\366\274\310z\006\275P\3520=@\304!<\034\226\024\276Ji\310\275\374u\033=\022\265&\275\277\377\014\276p>\261\274\016\357\323=\356\2529\275\232SK\275\365\344\366\275\312_\315=\000Bz;j\273\312\275\000\231S\272\201|\030\276\256\202\307=\352C\272\275\370A\023\276`\"\007\275p!\314\274`@\243<\2760\344=\252b\311=\212\361\225=\361\341\324\275s\364\300\275\231\344\364\275\000:\271\274\035\374\036\276\0046X=O\355\036>.\203\314=\251\260\010>T\234\213=N\346\235\275\330\206[=\220EC=\233\277\013\276$z\240=(\334\341<P\202\013\275\230Z\200\274:\345\326=\032/I\275,F\033=\330z{\275\355\236\004>\266\262\344\275\340v\215<\362\210\365=A\214\261\275x.\004=6s\317=\3709B\275\2542L=\034\345?=i\"\211\275\265x\001>\340\330h=\230\262\026=\254\032\201\275E\216\t>0\317j<\273W \276\000hy\272\"W\001\276@\330\220\275\234\335\036=X\254\227=6SS\275+C\n\276\257\220\037>6\226\335=\000W\277\275\362#y\275\300\200\000\276hpG=\324c\240=Z\313\373=\300a\'\275`5B\274\330\275\204\274\3706o=\260\014\'<~\217\362\275\230\265\325\274P\321k\275\204\306\324\275\022<\354=\316r\356=\370]\350<(6F=0\255\250\274A\246\">W\266\025\276\300\307\014\276\324\031\202=2\021\311=\250\2609\275\035\375\223\275\340t\301<\000\326u<\350\317\235=h\361\373<$\221\210\275\246L\222\275\310\271\342<%\345\010\276VZ9\275\262\032\322=X\341E=F\260\360=~\206\215\275x\300\303\274\230\354\232\274`\005\260\273K\350\034>}\033\207\2758\002\266\2750L\230<>M\266=\030d\252<\240\'\023\275)\266\031>\215\'\003\276\346\357\257\275\\\204\320\275\326\r\302=\360\350\224=\205\202\016>Z\n\375\275\312\374\010\276\232\\\343\275\306\312\016\2762\245\330={\311\336\275dmo=S\022\r>\034\205\210=y\275\000>`T\362\274\252\225\265=I4\261\275\326\276\271=\221z\033>\356\243\027\275\" \274\275\314\256a=\362F\234\275H\235\234=8\306\275<\250\305\267\275\316+\260=\026\224\343=Bx\340\275>\214\305\275\000\3163\272}\352\341\275\352\003\257=\221\253\277\275\310\032\023=\264\3208\275\264\323\246=6.j\275IX\030>h(\202\275\300\216\264=\0100F=p\314T<\360\254\006\276XN\201=\260\246\252<p\350\355\274 m\010\274vi\317=Q\333\032\276\312\276\017\276\004\353\340\275\3409\271=\316\243\320\275\236\233\367\275\236\344Y\275\270\010\372<v\375\312\275\022D\346\275J\272\270=L\033\315\275\200\247\026=\240\326\240<\010f1=\240\331E<\2369\224\275\305\202\316\275\376\333\363=\031\237\t>\374/\243=J\346+\275\000\271e<\376\014G\275hc1=v\313\253\275\252|\316=\023_\017>(\036\337<\255N\007>\020I.<\300\367\310\273Nz\336=I0\017>\314\377(=8\020[=\272U\361\275\024f\033=\251\277\005\276\215\265\037>\350\325!\276\275\036\010>\351`\004\276G\316\001>\340\004\242=\2255\005\276\236\312\350=\306S\201=\002\221\277=\030\275\307\274*\360\246=\242\025\333\275-G\000>\030V\257=\004O\247=\226u\205\275\200\341Y;\237d\207\275\000\202\340\274n\354b\275$6\201=\361\330\036>\372L.\275~\007\010\276\233\177\027>\320\276\006\275\000\203):\320\277\213\274\3523\010\276\246 \342\275\276\032:\275?\t\312\275\320|\260<D\361\014=%\023\010\2768\266\245\274\215\261\034>5?\t>\374J\213=\036!\301=\304\"\306\275n\037\305=\205\335\341\275\226\213\014\276e\367\251\275wQ\023>\3100\214<\314\262\243=\370=\360\275\300u\231\275\026\256Y\275K\323\"\276\010\347\243\274\320\316\262\275\222.\007\276\330@\215=\275\375\016>\330[\255\274\0227\324=\324\375\336\275x\310\271\274eF\022>\270\273\344\274\310)\357<\240\206\255=J\025\326=*\367\277=\220\226\256<\363A\025>\020\361\037\275\010\203\n\276\360\252\020=\272_\024\275\262\363\372\2758\t\022=\000eb\274\226M\257\275\026*\322\275\032q\243=}F\002>\034J\353\275\212\027\332=\227<\307\275E9\034\276\370}n\275\344\346q\275=Z\n>\320\345\325<\332\226\235=\362\220\316=\367m\026\2764\026\023=V\316\252=`\323\274;l\243\010=\270>\266=\245\357\010\276\235i\242\275\277`\334\275\330\370\365\274\026q\376=\304\223G= j\231\274,\235U=\246\t\335=i%\031>\364\224,=\304d&=\270\236\233<\332\374\312=\340m\222<\210\322u=\223\255\037>\255(\t\276\332\236\232=\2633\022\276\270\365:=\343\254\005\276K\333\337\275b:\233=\022,\255=\222\'\332=4\213\265=\364\213\210\2750\247\334\274@J\346\273\230c\237=\264<\n\276\360\311\350<\220!U\274\344|\020\276y\253\002\276\264\364\206=\025\255\225\275\224\374C=\250\205\252<.L\375=\222g\315=\006\221\210=\022\263\326=\000r\352:\024&\235=\250\251\216\274.K\353=P\036?<\010\231\362\274\314\336v=j\032\357=\373\270\037>\000\346\271=\303\324\202\275\311\024\006>\366\201\311=\300\203\270\273\200\223t\274\207n\014\276\214\274\320\275\320\223g=\352\264\357\275\266\241\016\276\340v\351\275\361\245\016>\210U\357\274\304\231\332\275,q\330\275F\215\302=\031U\360\275\365\225\216\275\211#\004>\366\010\341=4\371\372\275\372 \320\275`\335\020=\000\215\263<\370Y\025=@\375\367\275\326G-\275Md\006\276B\000\230\275\036e\036\276bsK\275\315W\036\276Do\244=`\200\241=\260\277\372\275R\241\326\2754\342?\275\333\345\312\275\223\361\t>\304\342f=\3670\312\275\314\251\211=\344\314j\275U\006\256\275\200\002\007\276\334\266\002\276o#\200\275P\004u\274\000\256\033=\333\242\021>8C\235=\204\033@=\221c\r>Pd\004<\324\251\034=\300\243\204<\211L\234\275/<\263\275\230-\215=\242Z\024\275\370\300\237<j\344\365=\250\271\355<\320\244d=\322\231\273=Q\365\024\276`\020d\274%\253\347\275T\010d=\354\353\024\276\300s\'\273\0065\310=\010o\202\275\"\327\302=\213\022\027>`\257\244\274\344PJ=@\"\333<j\221\317=fL\314=\220T4=\340\211z=Ph\215\274$G$=@\344z\273\037\244\034>\270M@\275\200_n=\376^\273\275\344m\021\275\006R&\275\\|\177=\216`\347=Xf\247=\231w!>\237\261\000>@k\024;*\276\336\2752\220\324\275\320\266\002=\240\212\310\273\0100\345\275\372\275\301=MK\234\275\020\225\326\274\363\301\001>\007&\031>\301\360\026>y\305\335\275\310\344u=\262\313\204\275\230\210\357\274\260D%=\3379\003>\270/\261\274nc\240=.\240\331\275W}\316\275M+!\276fH\037\276y  >J\215~\275\036\354S\2752\033\360=\0015\316\275\355\303\001\276\377P\023\276\330\332\201\274y\305\014\276K\364\021>\202$\206\275Wx\274\275\362^\306\275\262w\213\275\227\022\212\275@\301_\274\360\323\242=\227v\006\276\354\202\356\275\260\226o=\303D\020\276\364\361\265=\373\216\226\275\010A\022\275\265\365\000\276\311(\r>\342\211\365=v\347\335\275\274a\026=@5\245<\333\004\242\275\020R\355\275\315)\362\275b[\314=\204\262S\275\362\266\177\275\240\377\017=s\206\004>d\304\003=C\320\025>$\364\201=\357\274\000>>Q\343=|\207\203\275\332\221\240=\360\265\223\274\322\033\255\275\370\234k=2\300\215={}\035\2764Z0=\337\213\016>C\331\362\275\200\021U\274\024+\230\2754\032D=\354rs\275\200\256\254:\314\037\306\275\330\r\231\274\367Z\036\276tp\263\275\013\231\035>b-<\275p\003\216=\236\313\237=\007\335\005\276p\257\271<(x\333\274\\\343\030\276\354\346{\275Mm\"\276\356\222\273=V\305\304=\t\264\025>\364\345\022\276\036\034\321\275\356\242\333=F\244\354=(+\234=\230X\276\274\177\353\270\275\005*\036>0\343\364\274\300l\004<\330\306\322<\364^\223=\256\036\237\275\365\\\014\276\304R\025\276\362\375\334=P5g<\017\263 >\272\005\367=m\253\240\275\254\222&=\314Hz=y\314\005>\nV\372=\224\236 =\000LP:\200\021*<\300\033\006=\244\354\234=\211#\007\276\227\003\262\275D7\247=\004\035\230\275\310\374\343<\000$q;\362\334\312\275{\242\026>\354\233\212\275\210\253\210=\320\3306<\3701\263<:a\026\276\000\374\320\273 7\246;\352\355\244=AF\254\275h\351\004\276\227\234\">p\337=\274`\0329\275\210s\222\275p\253\262\274KZ\016><>\257=\000\014-\274\241t\005\276\3607\264\275 \\\231<\263R\n>\000\200\272\273K\356\357\275\271Y\t\276\212q\341=\340\005\366\274mQ\035>pM\362<\336\327\340=\240\216\266<\240v\254;SU\032>\2007\215\272\340\273\265;\002\231\203\275\003\013!\276\025\022\035>\367\302\002>\200\006\263;\333\247 >D\215\037\275\241\221\244\275@\310\224<\376\364-\275\016\022\304=\322\352\337=\340_\271\274`\376S=\250g\366\274F\312\320\275\230\347\340\274\330gu\275v\374\037\276\004\310e=\307\252\003\276nS\216\275J\021\340=\232\334\004\276\252q\234\275\376\271\362=\303\302\346\275\344@\037=q\344\026\276\002\204\225=H\3333= \251\227=\033\317\035\276H\023\343<\020\230\235<~\372\332=\271\317\010>\212\241\211=(\334\333\274\020\311b<\232W\323=\227m >\000u\033=\232\016\317=\375\271\024>u\264\n>\230\036E=4\373\244=\311<\036>\260\034i\274v\304\330=C;\241\275\366\251\277=\230&\302<X}\217\275s\242\214\275\250\3367\2750\250+<\261\213\264\275\250\252\214<\370&\231<(jb=\336)\r\275\262\264\021\275\340\\e<\320\310i=\037I\004>3\023\">\306\221\217=3\217\007>\205>\027\276\000\276Z\274(\t9=>\233n\275\"\274V\275\234\270~\275P!\374<\250r\235\274J\tJ\275\200\022\035<\001j\027>y\353\256\275<\316\031\275\240\203\313\274\222\255\337=\230=\014\275\246\360\006\276P@W\275\222m\306=\200\350\030;\272\024\373=(\213\024=@\010R\273\016U\027\276\344\236\255=*\250;\275f\240\214\275:\251\344=|\215\270=\020K\235\274G\272\034>\r\256\035\276\366\243\325=\030\227\017\276p\035\330\274~\001\322=|\202!\276(\305\341\275^<\353\2750n\310<[\222\036>\304\204\266=\r\376\233\275\362\376\355=V\315\355\275>\247\374\275\256\222\261\275\032I\035\276\332\"\313=*\255\305=M\223\023>\002-\026\276\320\352\267=\272R\227\275\t\343\010\276\310\204\351\275{\304\261\275\350\217\210=\010\363\213\274.\362\270=\202\322\242=\350\004\270=8\225M=S\r\032\276\030%\253<P\223\246\274H\206\242\274\326]\356= \"a<\002v\373=\001\360\301\275\000\240\004\2750\301\314<\252\234\306=p\377\022<]\333\231\275\366\202\276\275\246\376\375\275\340q\360\273\r\032\224\275\364\014\240=\004%\036\276\314\213\265=\206$\377\275\200\r#\275d\263\350\275`\253\361<\000i\256=HT\n\276\206\371\326=\340P\177=\324\343\020=\002\353\362=\240\341\013\275\006\277\317=\020\236M<\006\350k\275\250p\213<#[\017\276\330~\216=\300l\343;\256\204\205\275|\330\005\276\nE\236=\327\203\025>L\311\014=\006Z&\275\0228\363=\322\254G\275d\330\033\276hk\032=\\?\210=P(\305<\256\334\321=\340#\247;\361\301!>\322V\375= \027\230\274\362y\025\276@\022u;\375Q\371\275\276\356\360\2756\315\335=\246\204\350\275\360\344\265\274\340\252\374\274:T\261=\335+\003>\237a\001>\315^\006>\344Q\254=\020Vc<@?\324\275Xt\264<8\217\244<L\023\177=\210\263\354\275$\221\245=6\233\316\275\355\222\010>l\003g=\300\\\231\273\266\302\214=5\000\225\275\032\215\037\275\000\376\210\274\206]\365=1\013\t>5\351\344\275\234e\220=\200\376\274:\250\010u\275\"\351[\275XJ\232\275\260m\227<\210\211R\2751!\013>\276\333\032\276\254UH=L7`\275\374\345\373\275tZ\027\276\364\371\002=F\021\317=\234v\241\275\006\372\261=\034%1=\222\370\253=\300\340\210\273\204H\207\275D9^=@4\201\274@kH\274\306\030\327=yc\313\275B\343\303=@8\022<\270\332\257=`\330\231\274\336\307\335=\212%\355=\226\230\027\276\200\304\341\275\354\006k=d\223U\275\322w\360=\246\333\360=\356h~\275\250\361\305\274\341\342\r\276@\300\245<b}\332\275{o\215\275\030C\370<D\244 \276\205\356\352\275px\030\274\270s\324\274@\010y\273\016\004\332=\314\357:\275`>w\274\316\361\304=[\316\023>p\204j\274\230\204\336\274\220\320\207\274hWl= \257\006\276`\267\365<.z\367=\307@\023>\025}\031>%\241\024>\310\312\005\276\310s\243<A\020\301\275|sI=\230\265\305\274\3411\001>\034\215\r=\356n\200=P9\037\276D\253\004\276\313?\233\275\317\362\330\275\366M\372=\016\330\375=gV\n>\261Q\022\276\340\016H=\353Q\255\275\200\246p<fC\310=-\033\305\275\346M\340=\240z\346;\007\222\007\276\360#\251=\212B\235\275Yl\210\275Sh\022\276\230\363\272\275\212\304H\275\256\227\017\275R1\022\276\376Z\226=H\266\027\2762\254\376\275g\006\025>\260\210\214<5\033\034\276\262\207\376=\"\253\364=\334M+\275|\233\002\276\235\253\010>\244\030\265=R\201\"\276\033 \014>\341\204\036\276\335$\016>\215n\307\275|]h=\370]\247=|/\323\275FO\323=\010 a=\354\347\251\275\004\353B=\214\303H=\0367\342\275\342\007\300=\232\356\315=\254?\262=\322\343\247=\2329\244\275(`\375\274q`\024>\310\001\225<\250&\315\275jV\330=\372\035\304=\350\356\004\276\356Q\326=rJ\005\2765i\005>\n\210\370\275\"\307\013\276\343\"\010>QT\031>6\315\364\275\245$\227\275\220\301\330\275e\235\r\276\0365\352\275\266\363K\275\260\302^\274V6\364=\240\233\032\274F\232\251=\244\223\223=*-\016\276\200\270l\275\370\010\250<V\336>\275\250*\247\275*\243\310=EM\r>\212\371\276\275\274\330J=\274\3668=xt\n\275\300\177\007\276\235C\037\276X\003\236=@*\262\273k\177\233\275`\035\332\274.{\362=p$\014\274\3117\337\275 \005\247=\030H\214\274\254Z\037=\276\215\356=\376l\034\276\326\017\303=\357[\001>\351\330\030>@\323\277\273\220\351\261<.\334\277=\021\036\020>E\314\031\276\340\362a<\215\351\021\276a\205\023>\254Ig\275\260\260\241=\016\353\333=P\3474<\346\231\306\275\220\024/<\242\025\212=O\310\023>P\341\346\275\202\304\303=\016\362\303\275P\355\336\274\270\246\\=\256\265\347=\004d\212=W\t\">\210;}=\204\020\003=N\260\033\275\200\371h<\276\311\227\275\335\340\001>\326L\277=\255s\002>\006g\323=\234\365J=\264\213\"=-Y\004>\3154\017>\200\236}\275%s\303\275\202\251\320=\274\010V\275\312\233\310\275@$\013\276@<\305\275\014\277\206=4\3642\275\036C\367=\020,I<\310\206\245\275\270f\232\274@\010\022\276\246\257\256\275\247\031!>\215j\303\275\341\376\r>\036\330\223=ff\342\275\326%{\275fB{\275\264\311\035\275\201\275\031>00g\274\221\366\021>;\221\026>\250\203\240<*\344\306\275+\262\005>\352\240\202=P\177\017<\200tL<S\005\214\275:\211\253=\002\312\016\276\'\314\037\276\0204\021=\322\\\372\2754L\311\275\2130\034>\246%\257\275\364i\277\275\226\325\353=\344\327\030=P;\005\276H\261\324\274\325\300\375\275\374\361i=@\205.;\024\302\001\276 \346\373\275{\n\314\275x\226\262\275\312p\374\275\200\0145\273\324\255H\275\000\013\017:\226\257\233=\000\241\262\273\300\223L\273XE\324\274\026\377\330=\340\001\\\275\320\303\253\274\375\257\352\275JQ\n\276\267\225!>\322Z\244=\340\334X<\242\311\306=F\023\373=\230\203\300<p6\302<\320\266\t\276\220Ve<\366q\345\275\315N\033>\332\031\276=~\211\322=\324\222.\275l!\256\275\200\222F\274B\320\244=x\307\216< [q\274\006\253\376=\0066\254\275P\334\214\274No\313=\276\323\365=9T\t\276_D \276\300\327\022\276\222\031\200=^\026\331\275C\353\n>\260\305<\2750ug=~p\001\276\017\336\224\275?\366\240\275\345\003\r>J\323\344=\354Q\001\275\366\255\270=\362\221\222=\"\363\356\275h\367f\275\277H\"> uH\274\324\320\006=\304zQ\275T\033-=\352\016\302\275D\267E=\216\344\337=N\354y\275\r\351\t\276@9l=\030C4\275{\344\031>\314\253-=\342z\\\275\000\274\375;,za=~g\223=\'  >@\025\031\273\037?\035>\004A^=\263I!>\365\353\035>\364\r\354\275\372\300\340=\230\274\223\275]\266\033\276\364q\264=r\346\317\275\226\260\036\276~]\314= \360+\274\000\353\367\274UO\333\275P\271<=\332\356\r\275\010\026\245=@\013>;\336\263\360=\376\342\034\275cV\231\275\340\257l\274\200\251\303\275\230\026D=\276\233\321=\272\234g\275\200\372\357;_>\376\275\360A\365<5o\225\275W\r\013>\336\230\303=\022\025b\275\030\020\002=(\375\233=j9a\275\240\027\304\275\300n\027\275\214\032a\275E\367\033\276^9\313=\376\257\222\275=\016\230\275\245e\037>\204\004\201\275\"\272U\275\300|\252=\2609\243<\310\247\204\274\250x\004\276X\017\240\274\332b\314=\244\237h=\214\313\016\276\200Cx;\352\016\324=\312]\341=xr\231\2748\340W=v\375\360=b\201\322=\250\r\317\275\242N\233=\2239\025>\212\243\373=f\210\327=\240\366\004\276OS\001>\000\350\255\273\276\227\326=\350\004\275\274\254\213\033\275\272\251\346=\026m\310\275PV!<(\243\315\275\340\014\367\273\336\347\313=\317I\013>\022\367\377=p\334\344\275\026>\t\276\352\222\216=F\314\006\276\300\200\203\273tZ\312\275\373\001\204\275\0372\n>\314\357t=\r)\021>\300\221\343;\340!\242=\r\275\021\276\340\222*\274\211u\014>$\027-=@\251\235<\362\355z\275&\360\357=L+F=\247\242\032\276D\356_=R%\334=<FZ\275\244\262\312\275\352\374\272=\362\002\242\275\340>\005=\331z\272\275h\342\241=\326\355&\275\265\021\022\276\370+\302\275\250#\343\275\256\276\372=\206\342\021\276\352\261\375=\"&\357=\237\307\016>0\n\334\275\3357\333\2756\230!\276\372\356\200\275\330\222^\275H\266C=\356\342\345\275\244\214\227=\"*E\275`\017#=\r\021\365\275X\220\231=8*a=\312\025\317\275\366\364d\275\031\256\200\275\0347\022\276\320\n\202\274\021\020\013>\376\375\352\275@F\341\274\256\004\342=<>?\275@\t\340<\210\327/\275\270\244\362\274\314\3551= \374\351\274\264\013\027=\256\211\026\276 \226\204\274\260z\r\276d\003\227=\343i\027>~\273\372\275\350\002\t\276\017\264\n>vt\330=J,3\275\313\331\202\275\0340\232=\227\231\000>\273o\r>7\362\n>Z\354\315=\375\351\362\275\324W\341\275\314\312\317\275\301\316\034>$i\027=p5\202\274C\241\035\276\334\303D\275\326\353\006\276\340\354k\275\252\242\007\276|e\227=\210x\252\274\324N\027\276\352w\242\275\212\221\210\275\021\236\004>Z\204\361=2\330\267\275@\034\025\276\256\010\352\275\277\024\007\276\036\244\372=\200\331\250\274\364\001\330\275\210\240\021\276\266\370\337=\212\363\020\275\020\0143\274\336[\265\275\370\013\235<\034B\203=\203\345\327\275\372}\035\276 R\033\274\260n\r=z\211\252\275\000\350\2219\300\325\324\275f\177\264\275\340I\263\273\245>\212\275,\016l=\023\235\032>>\257\347\2750e\r= \246\n\276-\202!\2763\270\002> 0\251=@r\345;\340Q}\274^3\214=Z\007\371=\"P\222=\000$\324\275\360\026}=P\262;=\2303\274\274Ff\337=Q6\203\275*\006\021\276Bf\315\275\000\014\333\273\370*d=\246I\363=\326\026E\275\034\266\367\275\302\004\303\275\031\247\014>\364wm=\200\250\026=\006c3\275\no+\275S\357\002\276\312\250\037\275\300\022\344\274\366n7\275\014\026.=|\020\343\275\000b\026\276\312q\324=\022\207\346=\202\333\325=\304\326A\275\350\310!=@L\233\273s6\t\276\200\341\243\273\200\361\035\273\254\223\243=\360\221\312\274`.j==\036\022>\237\315\025\276\300\244\254\273c\215\020>@\"H\275r\342\311\275Q\007\302\275+\323\024>\260\303\306\274a\n\255\275\342\024\267\275$e7=\300d\356\275\265_\004\276Td6\275\n\353\341=\215A\000> GT=\020\357\213\274\245B\257\275\300\362\366;\033\376\t\276\225.\026>\241\353\303\275\327\313\030\276t@\233=V+7\275E|\036>\224\250[=\375\022\010>\177y\210\275\305\031\247\275~\250\307=Y+\023>c\343\r\276\376\227\366=\017\037\017>\204u\034\276\001\262\035>L\037z=p\371\334\274Y\033\267\275\234\005\326\275\235\223\013>\265\243\265\275\373\303\n\276\261\213\030>\236z\n\276~O+\275\222e\374\275\0200\000=\232P\312=\357\320\002\276`Q\214;NN(\275\2621\300=\363V\n>$\365\r=r\251\354=z9\203=\014\272A\275\336B\234=\246?\234=$|<\275\001+\242\275\002}\321=E\333\210\275RF\321\275\240t\333\273\260\231\'<\216\275\352\275[\200\001>\302\242\272=\246\343\"\275\030f\273\274=k\016>\256?\253\275iY\002\276\224\317\226=$f\001\276\034\256&=D\240\263\275\3259\037>L\n\245=\320\0343=\243\250\314\275\232\325\322=\245C\234\275\326?\305=\022\300\205=\020\324\027<\322\004\016\276\302zs\275\356\341\016\275 \240\230=H\034\372\275\00469=\314\304N=`F\200\273h/\336\274\331\325\007>$\322_\275fV\242=\257\250\334\275\000\3212\273t\230\005\275\365f\210\275\330\311\206\275\020Z\260=\2307\t=`\"\374;\024\036\007\275\303\030\265\275Z\240\252=\271\303\n>\313n\321\275\220\034\037\276\222\213\031\276\313\006\000\276\315\202\004>@u\246\273\335\316\224\275\270\242?\275\364@D\275\362\300\367=\374\337\212=D\"\312\275\245\377\010>\000\332m;\320\024\007\274\016\303y\275\216\031\014\275\363\\\227\275\216_\254=\226ci\275\020\023\256\274\210[\257\274\242cu\275\346\240\362\275\032\214\367=\001;\276\275\323\273\006>8\347\265\274\220\235\213=\027{\014>}\362\240\275\350{W=\324\336\n\276\333\r\037>\353j\023>x \032\276 \035\377<J\236\274\275/9\242\275`\272\214\275\232\224\343=\373\250\023>\004\302\341\275\000:\255;\335 \t>\276\267\301=\023\217\243\275\302\320\r\276\027\254 >z\201\232=;\270\027\276\240\206\232\273\033U\024>H>\321\275\242\017\331=\263^\313\275C\010\003>\276\262\213=\364\002A=3%\n>\000\352R=\033}\037>\265\037\004>\007\264\035>\224\232\032\2767\344\235\275\226f\275=\210\037y=\226\260\033\276p\357p=.\375)\275\210\360c\275p\331\261<!\342\001>\006\325\272\275\266\340\334\2759Z\017\276\276t\312=\254j\307\275\200\230j\275\354Y\017\276HD\271\275\313\314\257\275\346M\311=\"X\323=\310\256\224\275\232c\330=\020\222\'<@\211\370\275\311$\004>\010\272,\275S\325\016\276\347\227\023>d\'\004\276[\021\">S\006\037>\344\\\000\275\\\355s=F\232x\275\r\217\227\275\306M\223=\216\303\260\275\260\016\211\274\320\217\365<d\004\300\275@_\370<:\241\027\276M\236\010>N\221\375=\001\333\021>\340\274\035\274\200\366\204\272\341,\005>\312_k\275\237(\013>\262\353\202\275.\271\212\275\300\245\304\274\032\031\257=\332\210\352=\261\025\r>>K\363\275\300\221+\274L\244\t\276c\274\034>\020J<\275\344r\002\276\004\333\251=\030L_\275,\304\254\275\340\274\017=(\360\014=\367]\035>\274!\003\276I\273\034>u\333\t>\202\263\313\275h\244\364\274\261\313\001\276` \301<\252\337\340=\371\261\371\275\357\376\025>\321\265\034>\023\223 >\300&0<\210\336\030=8\374\263<q\306\033\276\236\374\225\275\213\324\030>\3747\026\276X~==e\204\362\275\206f\016\276:B1\275\032\323\322\275\232i\332=\342fN\275\230\256\324\274P\271\005\275\206[\377=$\316]=P\007\016\275\310\301\327<\220\237#\275\201\031\305\275\360\213\027\276\330gF=@.8=P6\251=\322{\034\276\"\225\223=\023Z\224\275Z\343\030\275\272x\364=\366\035\346=\201M\017>\222\030^\275\220\343-=\276O\202=\324\243i=\022*\301=\331=!\276\3501i=\211\\\033\276\320\350\362\274\207\252\002>x\004\321\274\312o\036\276\2600\232\275R\224\303=\002\021?\275/\303\006>,~\327\275\004.\323\275\360/&= Q\376\275\300HY\273\310\004X=\007\n\330\275\242\024K\275`3e<\245\264\245\275y\252\005>\264N\363\2754\020\"\276\220|\031\276u\275\036>\306L\322\275P\323X\274\334+\t=v\001\375\275\340V\376\274\336\211\304=\340<\243\275\241\204\010>>\'\316=\257\237\026>\006#\345\275|\337\317\275`q\300;\017\273\">j5K\275\262\r\274=\240\222\202<=\344!\276\020+a=\232\313\301=D+\231=\000h\234\274\220\240\342\274\"\345\241=r3\276\275E\217\036>\322 \304=@\320s\274h\263\241\274b\373\242=\257\236\032\276\024\375\231\275u\246\000>\257\340\025>\330h\222<4\001\270\275\004\tu\275\244\371\003=*%\206\275\304u7=\025\214\004>\240\307#\274r\246\312=\315S\033>\240z\024<\026\274\354=@(\235=\212\001\311=\262\232\365=\276b\210\275|\2736=\000\377\\:\3425\304=\226E!\276ff\362=\244\263&=L\335>\275\301O\257\275N\265\374\275\377\330\000>\374Q\\\275\006\332\026\275\276\272K\275\340>\035<\260\217\212=\034\222X\275R\300\354\275\247h\033>b\177\220\275\200\366\025\273\202\000f\275\320\001-\274}\273\r\276\020K\024\274\200\215\254=,Y<\275&\033\253=\320RL=\3638\013>\353\260\010>^\227\235\275\260Qo\274\210\267\356\274\005\325\">4\254Q=\016\264\343=\213\372\000>\217\"\035\276\370S\224=\004/\"=<\201~=h^\206\275k\025\030>A)!\276\020E\r<\256\031\363=\270p\257\274\340=\034=8*\315<8:b=?\365 >>9\207=X\204\334\275Xa\217= \206\367<\033\367\r\276D\247o=\216R\337\275)6\033>\273\255\014>\315\032\032>n\004\014\276.\335\037\275\260\365^=\010\017\365<\343\003\231\2756NI\275p/\016<\245$\030>\264f\362\275\304@\336\275\000$L:\263\310\031\276.\364\277=?\026\002\276\331\250\032>\3240\010\276\344\024\256=n\030\260=\035\275\030\276\206\255\204\275\276\325\247\275(\242\002\276\330\001\t\276\n;\346=[\020\225\2758A\276<\300u\227=2\031\013\276\350E\020=\313\323\n>6\024\007\276M\t\014>`\252\252=\212\254\345=\352\360\224\275\212\"\337=\262\311q\275\271t\220\275vq\241\275(\177\254<\274\236>=H5R\275\340T\341\273\223.\276\275\374\027H\275\232\267\362=\262\301\027\276L\317\021\276\216\234\304=4\251\223=\242C\031\276\000/\352;\246\317\322=\326\273\254=\240\371F=H\333C\275\206\343\035\275\250\346\246=\343Z\">\302\2154\275\010\222\200<\250c+\275\222\341\313\275x\3576=\236)\335=\321T\030>C\211\262\275\325A\031>7\312\005>\372J%\275N\005\320=\314\203\033\275\276\313\372\2758\r\007\276\233\331\005>\313\267\034\276\314w\213\2750\221R\274\255\225\202\275p\362R<\\\364l=\312cu\275\350h&=\364\2735=\242H\325=xE\345\275\036\334?\275\330\211\214=v*\216=\300F\302<\000Vk\273\247\222\036\276|DR=\031\270\223\275\000\324\212<\364mI=\032\345\246=4\017\246=,\322\307\275n<A\275V\225\355=\304~C=z\326\276\275\360\211U\274P\'\013\276\006G\300=K\320\302\275\351\360\333\275\360\232\027<\361{\014>\313\021\210\275,\313 =D\220u=\334\036\272\275\330\220\325<\300\262\354;*\203\360=\242\340\303\275|\016{\275c\215\020\276IC\203\275\030-\202\2740[\205<\305\326\200\275\300\333\241\273\206\244\213\275Q5\">\210\207\317\275@\320\"\273\274\240\245=T\307\013\275\372\366\302\275\020\237\006\275\3440Q=\350h\352\275\004xc=\233\307\033>8\245\256\274B\234\034\276\302X\037\275`[\256<&\255\354=\n|\343=\340:\'\274V\207\312=\000Y\226\273.8\274\275\357[\373\275\024\"\225=\351y\036\276\307M\006\276@\224\222;Pv\234\274\014\276\025=\340\346\"\275\255\033!>,\336\354\275 \270\225<B]\253=9\245\007>5M\037>\024\342\242=\305\033\334\275\020\273\332<\236\363\222=P\237i<\251\244\030\276zl\326\275&j\334=\000\347f\274\302\016\355\275\340u\247\274\224\031\203\275IB\r\276Y\264\300\275l\356\037\276\036\257\375=p&\341\274\330\331/=f\014\246=\020\215\310\274Of\000\276\360\256p<\306\275\350=\000\212\305\274ng\332\275\376\302\032\276\366\371\251=\360f(<\250\357\351\274\242\274\360=y?\016>\366\270\322=u\004\004>\214\022a=(\372\004\276\3278\023\276\332\036\305=h\'\331\274h\272\241\274x\305\263<\334\004\013=\232\227{\275\2366\037\276\230\022\354\274\324\326\252= R-\274\225\275\000\276\340\342\256\274\303]\013\276\353Y\000>8>&\275\034\375\361\275`\300\323\273;w\366\275f\240\274\275\264\261\224=\272\364\352\275v\254\353=\234\341\035\276\2466\302\275\240\270\353\274t\344.=n\273\361=\306y\274\275\274\372\257=\021y\004>a\007\000>\240*\013\274\200\243\355:\225\303\003>\334\354\203\275fk\203=0<j\274F>\361\275\000\r\375\273h\300\345\275\250\262\274\275\200K\037\274\000j\363\274\270qO\275\373-\306\275\243o\000>C7 >\243-\010\276\330\2504\275\3400\313\275\364\013\026\276\222W\236=~,\314\275\016\000\017\276\3158\005>\204?\344\275TFs\275\300\035\360\275\200\233b;HM\235=_w\020\276\314M%=]\307\224\275\030\'\036\276uf\377\275\340\261\200\275<[\205=\364\002\202=\220\277\212\275\000\215\316:\226\322\316\275\251\214\254\275S\224\032>\213\343\022>\256\0005\275\304\275?=\034N0=\177\315\n>\221G\336\275\340@\205;\260/\210=xW\372\275\344B\332\275\345\251\244\275\312\224\345\275\\`\247=\026u\347=\200C\275:\350\024\265=@t\365;r\335\273\275\234\317\217=\311\272\026\276Z)i\275\005\034\t>@\230\r=0\211\020<\300\213\006\276\006\214\022\276`=\244<\024\034[=\243\342\357\275h)_\275\200\355\265;\340K\233;\215@\n>j\237\277\275t\3234=\372}\353=\017!\013>\304\324\272\275o\307\373\275\200\260z<\355\372\371\275\026#\331=d\206\242\275hv\245<\014\251\360\275\244\357\201=\330\275K=9j\304\275@\0069;\311\002\232\275@\253#\273\252\004\273=U\341\031>\222\301\352=\232UL\275\310\303\301\274(\344\357<\244\327c= fF\274N\n\205\275\340:5\275T\274\035\276\270\311\004=\000j\366\273X\225\224<\316\363\334\275\342\266\256=\266\275\223=$[\027=\240\302k<Z\307\250=&\320\036\276\024\306}=\035l\t>\214i:=@\370\240;i\367\272\275pdP\275\350\246\277<\200\357\376\272\200uC<\233Y\213\275H\363v=\002\t\276=\034\031\000\275\220ux\275a4\031>F\331\301=\264\330@\275\\*\006\275\346\263\332={\340!>\016-\371=x\210\273\274\n\314\322=\n\341\322=\'\013\005>6\333\316=\354$`= \320K\274`\353\202=%\207\027>\022\251\276=\270\334O=\016q\305=\367(\020>R\014\206=`\330^=\036\264\213=P\211:\274\t\224\322\275\344\376\036=\264\270l\275\024@L=jz\274=nI\331=\242\242\347=\005\364\005>Va\022\275\213\000\213\275\227G\033\276\300$<\275\370\000\254\274\370\230\240=V\246\373\275\020bO\274\202\367\004\276\224\364\322\275\253;\027>\206\002\330=H\226`=t\270*\275\333\264\217\275\314\017\363\275\016\330\230=\200\302\007;\257L\266\275\375*\021>\264\262\312\275bf\245\275|\273\206=|\020N=\220\366\312<BP\325=\266\340\377=,\236\306\275\000\265\032\276\310\005\260<V\367\343\275\200\344E;0\016^\2750\221R\274\243\234\243\275Z\220\357=\356\353\307=(r\271\274\260f\t\275.\n\026\276\364Z\034\276R\314\344=\243\035\n>\200\225\364\273\371\034\020>y\371\250\275(\261\326\274\345\267\004>\332\030\237\275~r\225=0\376!<\234%\355\275\240\361c<\340X\206\273\257\240\000>\030\216\356\274\010\312\246<\n?\262=v2\273\275\211S\000>\0319\302\275\310\323\241\274\005\307\231\275VP\334=sD\024>\344\331\373\275\212\245\320\275 \251I\274JG\340=3\207!> \364m<\034\306\210=@\232\326\274\323\013\036>\270\372s=\322\332\347=:\314&\275\202a\325\275\240\271\224\274\2531!>\204&U=\000J\310;c+\021>AI\013>\330\336\347\274%\222\006\276P\217#\274M\206\004>\032\363\305= \240\001=E\267\276\275`u\207\273h\341\332<5\254\016>\036\005\340=\032\245\244=\224\346\256\275\264\221\366\275\032\203\316=\341.\351\275\000\376f;\314\207\016\275 jX<\240\323s=,{F=Q\033\026\276\302m\332=\350\006\324\275IA\346\275\240\031\335;H\034\332<\270\"\372<\014\035\262=\231\274\002\276\030p\267\275\364\357t\275\362\032\335\275\362d\276=\212\311\340=\352\330\336\275^\221B\275\216n\342=\250G\275<\006(\233=\260\227\022\274>\335\372=\020\244\236=\206n\364=\033P!\276 z\333;\323\267\003\276\206\353\361=Nu\314\275\036\353\344\275\020?\230<\2124\327\275\300\020\345<\350x\212<\t\332\005>\302\336\250=\247L\000\276\273\"\275\275\250\306\312\274<\300\313\275No=\275\014z\037\275\302\251\373\275\314\271\021\276\007\025\277\275 \022\355<\262\261\342\275\346o\370=^\265\304=\322\032\342=<w3\275\310\371q=\237V\">@\244\231=\342\203\203=\350\261\341<\217<\022>\003\261\271\275\26050=\202\306\275=\356\324\251=\330(@=\344K\274\275\214\364\206\275\262\r\362=\277\001\023>\n\256\377\275\005\247\026>\321\335\r>\324xy=\367\223\004\276\213\262\234\275L_0\275h\205H=O\032\026>\227\220\306\275\376e\267=@\223\340<\364\232C=@\363M;,\365\351\275\371\331\004>\002\326\275\275o\361\n>}\234\013>\310Y\225\2744\341;=\377\305\265\275\032L\332\275(\301j\275\350\355\373\274\000\335\231\273 \036Z<\240+4=\034\034y\275\276f\302=u\003\r\276t\332g=\010\211\220\275^9\023\275\246\234\305=\370\231\264<*\220\027\276\354\002\032\276v\2447\275\022\215\361=\\\246s\275\340\307\352\274z\215\365\275l\035\021=\230<\355\274!\313\205\2756F\345=2\233\005\276N~`\275<\034\025=\210\364\020\276\021\330\274\275\370\252\223<pm\343<\200Bf\274h\266\241<K\013\222\275*\311\027\275\037\362 >\374!\000=\321V\240\275\364\337\334\275\30098\274\300\315\000<6T\201=\230\323\024\275\177\264\037>@g\307<\010\204\231=\000?\t<4\224\235\275E\000\241\275c\376\022\276Al\021>\n\357\024\275\264g\007\275\343m\035\276Lg\255=\220W\354\274\243\305\203\275\213W\010\276\340\311G</,\005>\370\335\036=\315\227\000>J\t\353=lke\275\210g\363<\245!\013>l\245\030=\300\214B=\326\001\242=\336u\321=\250\302\316<\231\336\014>\000J\\:X}\324\2752\226\350=\274\355\005=~\276\322=\315p\031\276\022\233\020\2754\323\213=O\037\t>y\034\">\310\345\206\274\223d\333\2750\376{\275p3\013\275\266\013|\275\275]\017>X\370\230<\345\030\n>J\272\333=\032~\312=\352X\223=\374/d=\271\270\300\275\nF\206=\354\244\203\275\322\217\232=`\241\033\274\273\217\r\276\234\035\222=\306\256\031\276@\314g\273\235d\005>T\370\013\276\022\233\362\275\314\235\265=I\226\010\276\244?)=@{|=L\365\021=Y\260\001>vn\253\275\030*\376<\200\272l\274@~\324\273g^\002\276I\n\213\275\276\024\257\275!\226\002>\007\037\001\276\035j\223\275\370.n=\3030\216\275\020\213)<\346\nD\275\226\301\231=\024\275F\275L\024\030\276\020Y\325<(\270\273\275I*\035>\220\361\037<\274o!=g\367\023>\211\306\037>\025\337\373\275\311\240!\276\315\030\345\275*U\331=0J\306<\260|\010\274\200\371\263\274V\240\315\275\334\240\366\275\342\344\010\276\250\241\261\275\320\035N<\270\252D=\341\353\016\276\tC\344\2752\303\340=\327\254\221\275\210\225\206<B\367\032\276DL\241=\004\236a=\010\022&=\325\236\312\275\207H\360\275P\274\025<a\222\013>\224\250\n\275\341e\035>\250K\214\274\364r\237=\360\002a\2742Z3\275\000N\2759N\007\022\276\000\001\204\273\276\335\211=\366\203\226\275\300\277?\275~\205\322=}p\020\276\217\'\004>\027\326\021>\333L\037>\310q\301<\2002\020<LZ~=\205\n\030\276p\265I\275\250\221\035\276:\036\356=\005\337\013\276\000\212\254\271\000Gl<\3008\315\2730\"9<\0052\034\276Kn\315\275\362\252\351\275\030\366\362<\360\255,\275\020zq=p\362\266\275\250\027Z\275RJ\024\275\356\354\177\275\3548\353\275]f\366\275\242;\177\275T,\222\275\307_\006\276e6\021>\214\211_=T}\002=\247\262\007>\250\021\330\274\024\001*\275\210!\362\274\005\017\n>\340.\204\274Y5\217\275\032\024\315=Hw\344\275?\325\t>\312<\373\275\224\354m\275\000J\014;\320V\322\274Jf\341=\220\035\027\275\230\361 \276\3168\370=\000&a=\223\330\250\2754\030Y\275\014v\223\275s\010\r\276\217\356\006>\305\007\237\2758\253U==X\035>\020s\263\274(\303`\275\213\366\006>\246\001\222=\260\370\347<\300R/=\233A\026>XK\367\275@\002q;@\233\377\273P\014\365\274\2541%=q\335\001>@\202\321\273\222\230\240=F\253\360=\270\025\244=p\0314\274H\240\267<\225_\006>H \240=|\317&\275\300c\306<@l\240<ZM\371=d\346\203=\360 1=\372-\206=\266z\316=\370\220\311<\273\021\001\276\3749\260\275HF\327\275\002w\317\275\330;\030\276\210\235\310\274p`\337\275N\360\334=\034\334F=\222\246\353=\221\277\025\276~\242\324\275@\220\352<\306\244\013\276\335\217\215\275\215\347 >\033b\036>~\301\302=<\200\270\275X\027\245\274{\276\213\275\356\256\307=\244\220\033=9\315\262\275\246]\313\275 \276\241\274R\205\323=\210}\033\276\354\355U\275D\273@=\223\373\345\275\251\312\237\275\340\r\237;\026>\243=8D\247<\354}0=\216D\234=\027\034\021>+\235!>\330\353c\275\232\035\254\275\214mk\275\3607\\=R\001`\275\000lo\272\000\317\017:\252\273\247=\033\342\026\276\254\345K=\232.\234\275\332KW\275\304]d= \251O\275\220\363\344<4=\005=\000\335\355\274zUj\275\200/\367\274\230\005\r=\246\300\271=8\250n=\322\343\323\275\211\305\255\275\312\365\006\276%\032\n>\360\315\037=\320\035|\274\'\007\325\275d]Z=^e\206=\361\363\016>\301\"\026\276\350\333\273<\254\361B=\000\350\024\275\300\351\332<G2\r>\260F\247<\205\375\014>\315\370\352\275\034b]\275(O\023\276\244g\207=\210uW=\022\222\340=\nA\014\276\304tN\2756-\322\275\240H\003\276s{\024>\377\261\n>6\367\243=\256<\337=\212\002\231=f\3534\275 \203\017\274Rb\375\275pdh<|\245M\275\300\241;;\030\270\032=\272\323\217=*\030\277=\224|\216=\200\344E\273\340\233\342\275n\211\330=\2026\366=\245\362\230\275\254e\337\275\232?~\275\334\316\210\275\230\376\313\274T\352\263=\234\354\004\276\026\252\023\276Fb\336=\250\361l=\022\227\310=\021\310\007\276\375\244\266\2755\t\036>h\325O=\004\214\337\275m\305\025>\376:\307=B\206\215=\232\224\025\275\365\263\273\275\257\023\003>\024V\353\275x\317\201<\340P\237<\231\303\002\276\307D\">Xn=\275\304vO=\200I9\274Z9<\275\314\225\272\275\301\235\274\275Ji\345=:\003\236=\030\272\377\274\021F\000>\244\271S=\310-\215\274X\202\206<\222\245\343=H\236\013\275&\303\341=QX\034>\202%\220\275H\261O\275\202\177\347\275\034d\200=\202\n\356=\247v >\275\252\204\275\304\177\312\275\224+\240\275\314\346\177\275\344\355\027\276\033\354\t\276\264\246\n\276R\271W\275x\274\311\274\010\013\013\276\312\363\336=\276\022\202=S\007\017\276\000\337c=(\300\215<Fs\016\275\210\362g=\272o\315=\333\270\004>%\242\">P\220U\274l\005\317\275p\325\223=#\333\000>\260\020\037\276fK\020\275\351\n\006>\326\322\360\275\364\326\"\276\"!\364\275\236\024\336=\233\374\022>\222m \276\234\306\030\276\0009\313<\200]I\273\324*Z\275\330\352\241<\255\225\034\276\000\234o<\032\333\317=\2424\313=\023\324\027\276\340\353\307\274\250\243\377\275\351\200\022>\r\233\000>\2707\253<\277;\257\275\234X \276\023X\305\275\302\215b\275\306%\336=dI\211=\\\373\244=\266-\211=S\260\016>$cx\275@+y;L\234#=\211x\027\276V\245\263\275\300wS\274\260\342\253=\004\366\031=\026\221\323=\006\273\327=\210Rn=\r\226\223\275\240\023P<\200\214\211\275\\\224\000\276\376\201\376=\"\214\253\275AT\211\275T[!=\340\221\n<\200\376\271\275\320\225\344\275}\017\014\276\371\346\000>\244\202\354\275\227\213\035\276\342\312\316=P\210\n=\210\220\226=T\325\036\276vI<\275\030/\016=\361X\004>\330\256\366\274|_\220\275"
      }
    }
  }
}
node {
  name: "LSTM1/recurrent_kernel"
  op: "Const"
  attr {
    key: "dtype"
    value {
      type: DT_FLOAT
    }
  }
  attr {
    key: "value"
    value {
      tensor {
        dtype: DT_FLOAT
        tensor_shape {
          dim {
            size: 50
          }
          dim {
            size: 200
          }
        }
