node {
  name: "LSTM1/kernel"
  op: "Const"
  attr {
    key: "dtype"
    value {
      type: DT_FLOAT
    }
  }
  attr {
    key: "value"
    value {
      tensor {
        dtype: DT_FLOAT
        tensor_shape {
          dim {
            size: 37
          }
          dim {
            size: 200
          }
        }
        tensor_content: "F6\354=x\232\204\275lv\365\275\3709\350\275\360c\357\274\361\253\351\275F\366\322=\002\035\315=\220\033\370\275x\234\002\276\3132\255\275x\036\242\274\343\371\244\275\374\006\215=\360\323\267\275b\003\326=\364*\325\275\206\307\366\2759\007\030>\026\247\032\2766\272\237\275\236R\303=V3\305=\000\345\337;F\203\017\275\250\200\262\274\0031\">R\'\373=\277t\032>`d\017\276\373%\"\276\\)\n\275\200&$;\347\027\025>c\203\031>\264\323k=\000\327\367;\353s!>\240\027@\275\n\227\306=*d\335=\270:\214\274c\230\021>\337\242\">\240\232\262;\030\177\265=\204\306x=\260\273\033=6\034\342=\014\305j\275L\267\036\276\004\351\247\275\361\221\000>Ug\231\275i\305\001>\214\004\317\275\362J\020\276\377\252\002>\026\030\006\276R\311\343=\3039\">\200v5<\027;\033>\252\240\032\275\246\031\262=\014\013O\275\300#\303<\336\206\236=\252\341\013\276f\006\243=\210\233\261\275\366\257\034\275f\337\252\275\020J\251\275|\207\203\275\356^\207=\360\363R\275\267j\036\276\032\233{\275\301\335\323\275\370\343\244\275\366\274\021\276\340G#\274\200\r\020\273\265\311\032>\340.\257;\360\023l=\302V\330\275\003N\023>q.\035\276P&\374\274\022\333\214=\320m\312\274\222\254\253=R\325\337=@\337S\273\260\007\235\275z\371\000\276,\214)\275\223\375\204\275H\034\003=p\330N\274\230M\235<\326\276\305=8%\230\274*\221\013\2760\004\017<*D\330\275\373\373\340\275(\016\245=\212G\272=\254\017\271=C\311\r\276\311\246\366\275\350o\007\276Z\261 \2766 \344=^n\215=\270d\346<\220$\207<r\336\030\276\201n\201\275\366\211\323=\020=\263=HH\210<DW\r\276\026\226\310=\0003\365\273\232\246l\275\314Z\r=\246\252\037\276\257\274\220\275y\017\025\276`K\200\274\317\245\274\275\275\355\223\275(\355o\275R?\335=\302\335c\275 \324\315\275\2679\372\275{G\037>]\240\025>6e\327\275~\226\362\275|mN=\005;\017>\226\345\204=\032\254\353\275Ha\212<=\026\355\275b\274\306=\262\222z\275\371\010\244\275\201\357\240\275\177\317\r\276RJ\214\275\3012\022>0a\200=\221\367\034>$W\025\275\002c\010\276r:\204\275\354\202\237\275\315\352\356\275\317\360!\276\360u\366\275^\333\243=\335\003\013>\274I,\275\3452\001>\327\232\361\275\266\014R\275\210\356\352< \007t\274z+\001\2760\264\210=\002\363\211=\354#\267=.\034\370\275\"\200\305=\036\373\232=@$\005\276\030\303\234<\320R?<\020R\026=\242\231\377\275\240\210R\274\3474\027\276\356\247\223=\316L\007\276P\327T=\306?\237=Xv\374<\34021=\026?)\275H>\355<\310\314\356<\266\235\233\275V\030\233=\370\2230=\016\217\314=\307\254\032>\330\344\220<\001!\254\275\226?\257=8w\227<\256\265t\2750\340\327\274\336\245\212\275mU\240\275\201C\322\275\252\210\025\2760\376 <\320+>\274 \344\347\273NE\035\276(\'\364\275\n\200\325\275\267\010\000>\203\317\317\275\003(\017\276\372\376\033\276D\370p=\323\033\001>\340\307\376\273\210\233\223\274\247K\362\275\245\376\026>\276\257\321=\346\326\376=\000\330.\273\276\307\350=\017s\267\275Z\343\363=`\377\251<\030L\003\275\240\205\222;\300\224\376\275\001\325\004>\346!\334\275\220\r\342\274\323n\215\275\r\237\031>\t\270\032> \270\267\2738\251\262<\000Xv9*\003\242=pzH=\374\263\256\275\352\242\316=S\275\037>\2228\350=\304\320\256=\004\354p=\200~\\\275!\037\203\275\023\017\376\275D\322D\275\010L\245\275\270\003\334<\210K\003\276x\003\010\275\346{\342\275H\340\214\275xj\367\275\265Y\000>J\n\215\275`\217\335;t\035e=\020\365v=\226~t\275\300\276\037;`xo<\350\366\200<~@\356\275\242\311\334=4\347\356\275N\257\017\275\2059\006\276\260\341\376\274\246\256\344=\321\207\027>0~\036\276\236\366!\276\177[\031>\021\220\031>\371p\330\275\300:\353<\320\331%=|&\021=\254:\251=\\\013\006\276\002\371\326=V\213\210\275,L\230\275\306\014\221\275s\230\n>\351%\031>\241\327\032>0\3669=\202\243\211=\266\204\315=94\025>b\201\274=t\353\004=D#\021=2\213\204={k\026>\264\221\026=H6Z\275\220T\326<\300\017e\274\205\356\200\275\300\314\237\275W\341\001>p\367+<\367s \276\223I\004>\240\347[\275\206\322\360=\000\357\316\272\360\223\330\275\367_\023>\002{\320=\201\375\267\275=7\000>\'+\r>9\020\037\276@\211\t=\220\227\371\275\022\243\234\2758\310\307\274\020\207\021\276\356!\366=f\r\274\275\224YH=5o\305\275\005Z\006\276@o\377\275`\257\332;NM\374=F\244\375=\250+\246\274\316\307\365=j%\232=_\314!>s\347\322\275\3647\023\276\017i\014\276\330&\201=X\257\347<\341\304\023\276$\327\201=c\034\211\275\234\022H=\357?\005\276K\325\246\275!\276 \276\020\243\243\275|~8\275\277\262\025>\026\336\301\275~6\022\276\000\035\353\274g\016\361\275dAL\275n\t\372=\224\265\013\276)\300\212\275\250Y\277\274\304\003\025\276\360l\025\274\361\246\t>!\212\004>N\327\311=p\327\355\275\361\335\002\276\317\005\351\275\250HZ=b\005\316=\000\314\206:\264r(\275\014\222\005=8v\311\274\000\213\t=\030\251\001\276\000o\335:\220E>\274\024]\226\275`\006\340\274\230\342 =\302\270C\275\002\310o\275\220\360\335\274\2741\364\275\326\364\240=\352H\335=\320\213S<\253/\327\275\250\377\247\274>\340]\275\340\266\207\274\356F\260=O$\241\275\026\261\t\276\252L\177\275\000\375\267\272b\332\357=\306\313\212=Z\016\364=`\003\371\274\027\272\003>\330\334S=f2\236=B(\345=\262\366\317\275\0313\t>Mk\022>\211\336\263\275*\377\202=i\327!\276\275\377\025>\027\360\007>\234\361\263\275Tv\227\2753\372\027>\256\305\363\275\332\306\320=\266\213\317\275\264\3740=\240\270O\2746GE\275\262M\357=\236\263q\275\262jl\2754\315\307\2758\255\002=j\022\022\276\352\245\002\276\270x[=h\205\202\275\312\240{\275vP,\275\264=\007\275\357\310\023\276\030\351W\275\213\232\371\275\310\035\244<\322#\267\275\212\337\326=<U\260\275\2608\361\275\342\204\r\275X\222\256<\216{\313=\326+\311=\017\n\214\275\332\373\224=\275k\031>\t\001\032>y\210\t>\260\037\333\274\245\224\210\275r\351\332=\213Y\r>\322\240\361=\267\250\002>\010\367\204\2744I\356\275\300d\245<\321\006\004>\243\001\277\275\014\335 \276\000Rj\272\374\317\001\275\023c\311\275\266{\326=T\201B=0\275)\274IB\023>\276\202\341=.\375@\275\3460\311=\365\220\022\276\270\302\325<\210\350V=\270H\347\274\000G\241=\264bM=\234Qy=\310+\243<\"\330\265=%0!\276\322!\254=\2746A=\362Z\340=\000\2125\273\303\275\205\275X0\272\275JUE\275\2604\252<\330\223\321\275\260\345o<\3260\206=\1774\032>\010|\244\275X\221\214\275\254\2631=\270s\177= \315\227=\224t\027\276\312\025\270\275\214hE=:;5\275^x\365=\007\250\027>4C$=\356\231\340\275\335n\030>(\023\260<\373^\032\276\032\220\246=\342\212\331=\340\r\264\274`\250\343\274\025\014\030>\322\037)\275\210[\334<+\375\010\276\214m\351\2758t\336\274|\256\020\275\220\232\250\274 d\020\2748\006\361\274\326\357\343=\304\365\004\275\312]\251=\314\035)=\003\342\006>\322\'\232=P\250]\275 \300\333\275\270\327\250\275\336\025\266=a\231\016>\377\332\033\276\360\305\213=\326\243\003\2768<T=\025\301\263\275zs\263=0)G\274\360\037\024\274\020!\255<&!\333=\362+\027\276\226c\244\275\236\267\242\275\2501\205<R+\n\276\202o\344=\360\331(<\003\001\024\276\227\336\035\276^\363\330\275\214\305\037\276\220\023\204\275\026\345\377=\006|\016\276\266\361\357=\000i/;\220\303Y\275Fgl\275Xo\254\275\364^\326\275\216\327H\275\216_h\275Cq\241\275\353n\302\275\220\202\223\274^?\035\276\212\215`\275$\373\301\275\000\212\203;\300S>\274\200\334m;\221L\013\2762\335\373=\353\205\277\275\254\366\231\2751\330\024\276\010\002X\275h7<=\343\246\314\275!n\007\276,&\365\275\240x\033<E\254\005\276\376\037.\275@\231\260\273.\252\235\275\020D\363<\353\317\024\2760\316>=\244pb\275\0001H\272\262c\325\275\262i\376=i\332\004>\351\000\366\275y\247\342\275@u\252\273jw\035\276\020\243\336\274\362\277\343\275dw+=\271\010\235\275\236#\323=r#\010\276\304\323\202=\000\026\275\271\200p ;\020\215\346\275\210\037\303<\251>\001>n,\321=\356\265\352=\304\0061=\350/\322\274F:\365=oi\013>\222+\214\275\325#\n\276\000\212\372\274\372\252\313\275F5\315\275\254\207\202\275\230\020\225=\323\031\000><\204\014\275p~\320\275\010\272\237=\316\030\344=J\213\325=@h\021=\036)q\275e!\r>\030\354\343<XF\234\274U\367\031>\344\347K\275X\016\370\274\370\215%=\346\310 \276\205\031\271\275\200U <\346\320\312=\300\313o;\004)\027=\206\004\254=\340o$=x\025\270<\320\025\325\275\240.\222\274\332O\332=\002\366\347\275\320Y\250<L?d=\320,]=\\\367\230=\250\376\240=2\002\363=\375\216\024\276\235\t\305\275b\201\321=\302d\277=~\220\220=\242Ps\275\004\312q\275\356\3705\275\276\355\350=\n\3025\275n\343\353=\350\022\315\275\200\335N=<\016\006=H\001\251\274\302!\213=,j\365\275\340\365\021\274\220$\315\274h\364\311<\240\036\267\274\202\255%\275\330\313\213\275\3344\026=\362\256\252=\250\303\253<\317\217\034\276\220]\t<\016\317\003\276\272\016\221=0+R=\320\376\\\274\352F\304=\322I\345=\204\217\224\275d\262\231=\270\310\234\275\034B\255\275T?~=\n\370\234=F\'\005\276Q\177\022>\200\252\030=\300\264\224;h\2043=\220\032f\275\001\304\232\275\262y\322=\344o\n=n\337\304\275\350\n\200=\246\375\356=\000\000\202\270\214\230\022\275\264\305\021\276 \316|<@\252\236;\000\363|<\250Vt=\234\034h=\024\241N\275\224\301J=\210\373\363\274\216\311\364=W\277\003>\000\026}\274\346?a\275\240t\222=\223h\001>(\365\306<\375r\227\275`\\\027\275@\n\177\274\331=\274\2750\212\330\274\330i\342\274\376\324\334=\324N\006=\312\274\372=)\177\026>j\006\221=\251\230\033>@\304\r=\213\217\013\276\212@F\275\340\336\003\275\350\366\207=\000I\321;gZ\013>Ql\005>`1\350\275v\252+\275n\n\342=>\355\254=\321\303\200\275v\255\324=j\251\370=\r,\002>\372\345\302=\320s\241\274\342\016\330\275HL\020\276\250\240\314\274\"\243\373=\206\363\242\275\004\232K=E\242\010>\360\021Q\274\240\324\270=>\363 \276\307%\024\276Q\366\037>\254\231h=Z\343\311=|\373\346\275\300!C=\036\216\360=\360`\254\274N\021\364=p\222=\2740\3706={\021\022\276\330\337\247\274\276a\367=Nu\277=\2425\310=\202\241\330= \021V\275`$\t=\200\177\243=\200\301\005=\n\317\n\276,A\220\275\177$\236\275\244Ql=\250S\353<*v\372=\322p\035\276\210`\343\274x\3437=\354\314y=\024\177S=\350\200q\275\0266\233=\300\024\255;B\276\226\275\2025\225\275\3200c<\336\025\003\276\200\207\300:\242\233m\275p\332\345\275j{\365=\363\374\003\276 \275\014=\010c\247\274\200\351\201\273\321K!>D{G=\006q\346=\200;.\273eQ\006>\205:\016>4Q\222\275\014\320\036=\021\361\036\276\300k\360\275H\037\333\275\376v\333=O \200\275DS\356\275,\242-=d\372\352\275\"\263\220=#\312\006>\022\271\312=P\252\002\275|:==\260\307\370<B\026\351\275\340\020\034<\200\005\262:\234&\001\275H\274\315<\3462V\275\334\003I=\314s\\=\320\207\367\274\365x\274\275\366>\350=H\365\241=lt<\275P\351\016\276\264/o=\013t\272\275@~P<\270\006\343<\331k\035>8\373\266<f\344\210=n\035\233=6\227t\275\0006\245\273\220\352\256\274\226\017\352=\203<\004\276!3\010\276\372\341z\2757\036\034>\370\272\004\2766\\=\275\202\266\301\275\366\344\226=\330)\265=\370\201\220\274(\240\\=f6\314=\345\217\026\276\230\000\353\274\2066\336\275\262|\260=\342\331\002\276\177\220\240\275a\377\020>f(\303=\031\027\t>\340\356 <\362\307\361=\372\250\351=\010?\214\274\231\350\226\275\203_\025>\300a>\275\242^\032\275\004K\335\275\242\244\340=\206\364E\275\340a\223\274\370\024\230<\270\335\241\274\217[\036\276\335#\215\275h\317M=\010P\027\276nUZ\275\266)\303=\016\374;\275\2205\351<\342#\335=\366\223\031\275\266o\237=\022\367\030\276v\226\263=\246\332j\275\340\305\370<\364\237Q=\246\304\303=\3644:\275\250\206\343<N\312\356=N\377d\275\200\242\354;\230) =P\251Z\274\360\362s<\237k\017>\016\332\237\275J\251\237=\\\215\342\275c\025\215\275\210\322\211=\230\221\004=\033=\020>>\324}\275\240\306\234;H\377\310<L\0041=\341E\200\275\371\025\017\276\215\245\017\276\250\345F\275mQ\027\276@G}\273\277\331\242\275\240F\031<\006}\203=\242}\354\275\270\3503\275\334~w\275\236\005\231\275T\t\232\275\226\276\340=\000g\002\274\200\353\\\274\260$\252<1[\263\275\220o\352\274/\'\273\275\221I\024\276\216Z\314\275\026\366\310=\2469\177\275H\036\023=((\010\275\006l\252=\200\357\245\274P\374\207\2758Y\274<\000\332T:\261{\t>G\247\r>\324\031+=\274E\037\276B,\307=A\207!>\200o\274\274f\302\357=\030]\215\274\004\252\211=z@%\275\244\321\231=M\247\251\275\000\334\r\272\300Y\002\276\032\351o\2754j\026\275\200\363\217\273s\337\026\276~\265\024\276/\005\212\275w\023\014\276.\303\333=\\\373\217=\240\364\017\274\271r\r\276\210\031\365\274`g\275\274\240\355\023\274\320\372\037\275\254\241\210\275\346v\341=\010\347I=8(\264\274\361\331\376\275\030\363h\275\212\302y\275\350U\317\274o\201\370\275\036\203\235=\361\230\020>\334\274v=j{\335=\266z\374\275@c\351;\000\303\237;O\223\037\276\237\312\021>\273`\036>\220\242a\274\364\277a=\000\270H\273\346q]\275R\350\201= \033\200\273b\3426\275\026\247\031\276x\333\335\275\260k\217=|9l=/\362\255\275\250\255\n\275\006\251\327=a\020\027\276\340f\221;\220[\260\274\206>\266=w\314\027>\021\325\023>P>\025<\322\005\247=\000\002\2349\263\200\014>\004\266v=i\306\310\275\212/\246\275b\244\373=\204?\254=\262\360k\275\001r!>NY\316=\230\024\001\276\214\361\263=^s\343=\033t\"\276Ap\240\27585\366\275\224n\364\275\000\031\363:\031\235\333\275V\370\263=\274a\265=J\n\250\275\006\013\324\275$}\267=\300\227\016=\300\217\256;t\036?=\330\2106=\232\354\366=\242u\303=<x\024\276@\003\306\274U\322\022\276.Rg\275l\311Z=\340\317\230=\354\245\000\275x\233\357\274\240J9\274K\305\n>u\003\372\275\037\037\251\275\334\220\005\275\334\306\210=\374\305\'=\370k \276\324\253}=\020\377\177=p9\257=lP\321\275p\341i=\354Pt=\302\217\316\275@\361\255<d\326\225=\300u\204<\326k\304=,\213\227=\230\207\214=77\004>D\375\027\276\260}\357<\3763\365\275\014X\310\275\324\275\371\275\364k\016\275\355\301\223\275\232{\372=\304\033w=\376\t\320=Ez \276\006M\253=\240ea\274\354\346\017=\010\305\200<BK\351\275\270\037\345<\210Cr=XqY\275\252\347\263=\237\371\036>\330\227\177\275\316\307\267\275F\375\021\276\312^\370\275@\211\344;\032\312\375=\377\262\025>\374\225\357\275\026\216\027\276f7\300=\"\034\333=\3462C\2758\277\014=>\034\033\276\200^\206\272\200 \334\273A\001\034\276$\001\256\275ht\300\275\020\307/\275\260)\032=\343\345\237\275Y8\">@G\007\275\372_\031\275\206\377\231\275 \307g=\214\232.=\227\013\214\275\334?\016\276y%\002>C\265\010\276\352\246\322=X0\204=*\311\030\276\351\356\252\275\252\306\313=\340aY<\330\237\370<\002=\235=\0201\316\274\346Y\320=\305\024\t>\236r\257=\231\277\030\276Xx\253=Zy\311=`\025\253;`k\325<\300\305\227<H~\211=\220\305\025\274g\224\031>\255E\303\275\237K\326\275\372\267\350=\356\033I\275\350=\235\275\231\\\010>\354\212e\275B\200\354\275@\342H=@\377\366\273\262a\353=O?\322\275\006\037\220\275\360\rO\274&{\362=@\'\027\276\250\023\272<`\'\337\273\330\202:\275\326\266\261=\016/\366\275\203=\214\275\231\007\031>.\026\346=\036\302\374=\340\211\276\273\355\241!>dQ\275\275\356\204\237=\2207\031=\312Z\304\275\236T\031\276\334\323\207\275\350\315\244<\257:\317\275 \213\003\274\027\333\000>\200Xr=\024\356\365\275h\204?\275~0\032\275\311\360\032>\273}\016>\242\242\273\275\314\311\013=\300\255\226=\023\020\213\275\000\003\334<\260\302D<Z\231\020\276Pp\343\275o\n\t\276(s\265\275v\223\"\275\200en=\270-\257\274\225\217\207\275\016]\341=oI\n\276\">\026\276\222\335\340=\260 M\274\364w\355\275\025R\010>\242\034\317\275j\210\344=V\227\310=\2365D\275\263\375\247\275\323\217\034>\352\323\253\275\302\032\363\275oU\026>\2503\211=N\205E\275\370Z\264\274\360 \367\274\000\356\026\273\005Z\031>l)`=\234\213\031=\225\031\t>\220=\377\275 \334\036=\"\206\271\275\230D\000\275\rE\251\275,\235\033\2752\245\354=\300\2437;\240qx<\200\243\331\274\330/\273<\001\205\013>\271\230!>\350\340\231\274Kl\022>|\021F=/b\036\276\320Y\214\275\2200\245=\340\022\361<\005\037\036>(\023\240<\001\265\020\276\332X\371=\\\212\177\275J\305G\275\311\371\032\276\204\302M=\326n\235=\220\035\027<\022\023\323=\3208\227=\263\202\315\275\270\234\276\275\274G\327\275\\\276\326\275\260\211\000\275\204\346\242\275\275a\242\275\014\271\242=?\030\033\276\300\000\003\275\340\332\320\273\251G\022>t\033\264=\271\360\020>\2008\204\2740\023\247\275(D\250\274R\221d\275C\226\236\275\340\225\345\274L\216\t\276\300\236\335;|}4=\360\267F<\000g\210\274\230`\264=O\262\010>(t\244\275V\250\316=\216\274\313=\277\215\025>\330t\024\276I\205\003>\001\360\240\2754a\213\275\324JI\275J\340\333=\272\236\220=\361\016\017\276k\343\344\275\366\010\354=\026f\251=\255p\213\275\320,!<\200\364\261\273\340\\\205\273\2536\212\275v\304\032\275>k\316=d\277\001\275}f\031\276\304{]=\3412\271\275\276P<\275\200\376p\273\274\324d=8=\236=\362o\371=\340\350\001=\014\222\025=3\313\210\275\234\244.\275\034D\352\275\207\350\305\275\256\2202\275\240\224\245=\320\350\032=\315\357\037>\230\240w=\037\361\020>-\274\367\275\"\271\365\275\244\321+=\324\330\271=\020\036\033\274\324\201\003=@\0313\274QR\247\275\000+\\\273\\wK\275\221\320\003\276\270\210\017=\205\227\013>\024D\004\275u5\304\275\210NQ\275\233\235\021>\2000\206\273\366*L\275\244aV=\207]\270\275\005\277\026>r\236h\275\360z\002\275\322\2730\275\334Y\324\275\355)\000\276[\366\033>\333\"\036>\304a\354\275n;\201\275X2\017\276\226\271\361\275,\010t=n\312\263\275\013*\341\275\361\357\010\276\243\231\362\275\246+\270\275\213\317\033\276\300Q\023\273\264c3= p\374;\324\3630=\224\301\374\275\324\366\260\275@f\010\276\372\223\316=K\026\021\276|\"1\275\250\344\302<\210\324\376\275u\303\031\276,\t\005\276\014\323\307\275\321$\355\275>\202\323\2757\331\373\275^\312\337=>\317\265\275j?\350\275\240\370\245\275\004\317\206\2758R\013=p]\320\275\002\026\332=\220]*\274\3010\026>\370\371\217\275\240\347g=\305\303\034>\240,\376;l[\007\276\350\373\244\274 \353\362\274lFt\275\030>\"=p\345\357\274\240\rq\275p8F<\243\r\235\275&+\324=f\014\024\276\262]\000\276\014\300c=(c\016=_\350\223\275\326:\343=\330\323\330\275|)\021\276\000\254\324\275.\327\364=\274\333k=\300\233\000\276C\356\035\276!\265\034\276\374\244\013\276\306\"\313\275\364\3160\2752\366\310=\3668\305=\260e=\274.\243\343=D\217\221\275\344\217\255=\n\314t\275\226uT\275G\273\014>L\330\250\275\242?\021\275z\260\205\275\313\n\022>\357\271\031>\240\252\202;\325\207\014>\260\207\353\274\301-\034\276\207\\\017>X\007\351\274\243c\t>\3529\301=\227&\037>O\363\023\276\026\334\317=~6\350=\016\267\247=\220\322a\275\n\344\002\276@Zz=\367\254\270\275&\277\372=|\331\014=\032\374\354=\3724\321\275\034L3=\2500\036=`\271\337<\031\251\033\276X\010\204\275P\322\227=\334\305\007=|\315\327\275p\031;=\247\311\222\275e\352\010\276xj\252=\372|\371=\251o\037\276\370\233\036\276P\005[<\234\322y\275\360|\226\274\367\254\033\276*\022\342\275\334+\267=P\271\021=6\317\254\2750\247\240= \231a\275J\275\022\276\240\016\002=\263N\033\2768\017\265=B.\251\275\356\362\371\275Z\214\251=p\240B=\366\204C\275n]\341=\350-\366\274\300\2040\274\000^\2709\n\347\204=\021\023\036>\006\244\337\275 \351:<\020#\345\275\316p<\275H\031\355\274\200\032\025<\274\304\031\275x\035\312<\251\224\027>%\356\013>\240\010\332<\346\353p\275+\227\006\276g\234\020\276 -\234=.\270\276=\000\322\340:T\201\270=@\367\271\274h^\030=\317\340\r\276\337\371\225\275\236\230\003\276\260\027\010<G\361\014\276\251\370\004>\266M\217\275b\023\030\276\236\354\263=0+!\274\326\223q\275\330\031\352\275\376\333\314=^\211\366=\027!\014>\222D\356\275\217\023\344\2750}\237\274\272\250\034\276\"\027\303=\026\026\313=ey\n\276N\254\r\276\026\327\256\275ZJ\347=\216Y\212=n#\025\276\332\260\304=\300wx;[\306\n\276t\211\351\275\264\025\217\275\275\002\206\275bm\206=A\204\027>\360>\376<[\307\035>\030\337^=E\241\026\276{2\004>\232\030\230=M\236\363\275\374\341\032=Z\253\334\2750\315 \274\250Wm\2754v\004\276\314\336H=nB\365=\316\311\313\275\211_\202\275\210\315\263\275\327R\016>Y\263\377\275\200Q\236;\227$\036>\360\005\344<\251\250\010>\315\201\n>*\227\274=f]\366=$\3072\275<\343;= 1z=\256\224<\275$U\362\275\020\347\037\274\351_\010>@Q1\273Q\317\010\276C>\225\275[\364\030\276\301\334\014>\355d\036>\340\366\206=\000\243N\274z\270\365\275\022\343\263=\216 \337=\270\022\216\274N=\273=\262s/\275\2607\270<\320ls\274\270\345\017=\357\001\273\275\337\253!>\262\300\210=\227\352 >j\016\235=\310\223\226\274@\370\253;r~\363=YC\007>\334T\364\275\275\t\007>6{\371=\270\264\033=\376\374\330=x\002*=\361\007\030>@\266\021\274\260\026\306\275j\307\321=\372S\225=\366\037F\275\300\005m=\226Q\265=\340\177\303\274\2236\034\276\370|O= \350\241<\000\374/;\357\301\335\275\203\001\007>\352\213\030\275\304\334\024\276r\273\331\275b\332g\275\324F\020=\322x\243\275\340\251\201\273\305\360\331\275\030h\306\275\213\242\004\276p\006\237\275\214\275\017=\320\3077<\354 m\275\352\316\221=\230N\220=C\217\035>\001\020\n>*\026\371=jd:\275\014)\031=\271<\002>%\360\223\275w\215\302\275\322\223\326\275\236Q\375=\375\003\002>\340\361\352\274\352\026\203=\350\r\001\275\026~\027\276\200A_\273\000\320\316;\002/\277=\033\n\037\276\270F\201\274\376\306\305=\302\017\351=\202Y\315=\215\306\030\276l\277Q=\203 \016>\262\211\303=`\345\324\273\226\254\221=\352\323\255=\305\351\023>\021\301\213\275\2556\205\275\220,\323\275\\]\242=\001\360\036>\300\305$\274 \364\351;\\{k=\270`\034=\330\231\365\275R\350\372\275\240{n\275\300\"G\273\264\265[\275\200hb\274X\032\361\274\330\263\036=\360;R\274\236\244J\275\"\016\037\275\240A\376\274}W\021\276ZL\232\275\340\220O<\220<\025<yY\032>\300\207a\273\006g\000\276\020\3466\274y\007\024>\204\327k=8\r\244\274@`\244\273\335\007\026\276\240Y\363\274\013\013\277\275\030h\353<\021M\026\276x\353Z\275\356x&\275\340\000\201;\317j\023>\240\244\005<\210\364\277<\320\256C\274\354\352n=\034\312D\275G\256\237\275\030\004P=\000a\362\274\244\2466=\301I!>@\024\210<\275\255\036>35\010>=\305\001\276\322\315\027\275\200:\225\274\340\253\340\273\372\001\020\276\272WN\275\030\241\253=\200\213T\274H0\267\2745\n\332\275\270\352<\275\221n\242\275\376x\313\275A5\237\275DgE=`J\026\276\242\266\362\275\270J =\340x\207;\250\360\271<\216\357\010\276t\375m=\260I<\274aE!>\\\r\206\275x0e=\320]\320\274\250W\303\275\020\024G\274*\'\333=\260\332\267</P\001\276\200\274f\273J\233\320=5\346\034>\346\017C\275\226h\311\275\266V\212\275N\355\035\276A\230\005>\227\242\030>\340\256A=\255\'\032>\221\363\026\276\032\273\250=\270\245T=0\001\336<<\005\034\275\246+\204\275D\004*=B2|\275\236PG\275(S\303\274\352\350\220\275\320xk<\272\000\350=\206F\243=\n/\311=\230~\345\275\265\225\"\276\321\347\033\276@\351j\273T8\334\275\000\017G\272\266\273\000\276DS\231=6:J\275 \364\332\273\340w^=\340g\263\273\320\366\315\275\360\273=\274|\245p=\320\236R\275O\r\004\276N\266\361=#\035\024>\366,\315\275P\021\335<\"\344\027\276~\224\335=\2544\223=F\333\222\275\332\351k\275\272~\335\275J_\267=\326\304>\275\254\341\243\275$p\262=j\213\317=\000\225^\274\242\321\301=W\263\037>R>\351=l\320\250\275)\320\242\275;u\367\275\212]\242=B2\301=\200G\363\274l\344Q=\032\240\370=\244\334\002\276d\032:=o\020\020\276\"\246\305=\252\233\374=\370\210\250<|\357R=\356\354\311=:\262\201\275\332\2529\275x\341\253<\300n\262=\025\304\226\275P\346\243\274\250\031\276\274\361~\004>\200\321\r\273\364?\321\275\212&\360\2754LZ\275\033k\023>\256\260\254\275q\363\t>\324\351\212=>s\"\275\212\023\020\276\212?\266=\213\033\027>\003\223\021>(\213\177=P\265\307\275\2278\022>\275\323\003\276X\237\212=\000j\305<\215\332\323\275\\sH=o\377\027>\t\034\352\275\026\014<\275\327k\006\276\220\310\376<n\364\013\276\370\333\310\274_?\023>\365\026\246\275\340\333h<\036\246\373=\320\363\022\274\340h\254;\032;\003\276(\007\261\274X\240\353\2758\223\232\275\306&\260=.\004\330=\346\257\357=\305b\003>\367\216 >6\230\265=\220\240\023\276\352\325\340=\034\310\001\275T\300\203=\306\370\372=\005\274\000>\334\267w\275\330\234E=@\303\352;4h\307\275\001\310\036\276D\316\220=\200)\\=\337`\004>\332\177\244\275\000c\276;00\026\276Ls\030=\216\247\315=Lpk\275\347\317\037>\000\305n;\222K\007\276\000p\3478@A\'=T\300c\275\033\246\272\275|\260\237\275P{8<\334\255(=$\252I\275`\016z<E\363\031>&\330\226=\210\364\355<\221\234\203\275\251\224\027>\370\265\332\275\246\226U\2756K\337=|4 =\260\316\307<\340\207\245\275\235\037\225\275n\226j\275\360\314`=\206e\341=>o\330\275S\260\027>R\314\277=\271\324\037\276\220e\342\275KN\000\276\376\324\307=\266\t\374=ZK\362=,\300\023\275\324z)=\253\211\021\276H\377\240\274\340j\"\274\237\302\r>\300\370.<\216m\262=\ns\322=\020\001\264\275\310\262\211=\377v\232\275\014\236\262=\276\'\307=\262\375\212\275\0101R\275b\033\206=\240?\313;\234\261\"=\330/0\275\002p\222=\314e\250=\000\247\237=\372^b\275\3442\300\275\020N0\274\340\241\217\274\320\316\305\274\373\213\013>h\212\365<\354W\004=\364Oc\275\302W\313=\215\321\263\275\353\024\013\276^\270\017\276Pia\275\214g\342\275R1\241=\253\325\t>^\371\271=\007(\354\275\250\322z=@B3\2738<\243\275\316\243\303=d\266\023=\300\267\231\274\354\310\000\2754\253\035\276\210\006\360\2740\313\207=\032g\220=\250\336\024=4\363\010\276V\327\353\275\370\256\262=\320\"\237\274R+\010\276 \231\307<T6-=\204\301P=\002U\330\275\200\353\252\274h\025\344\275P\225`\274\365v!>p\365#=\230\300\006=\014\033\017=\323\214\317\275\326\325\000\276\220(\220\274\325/\">\325\000\024>[\267\033> \2500=8\304\031=8\313\234\274\330\366\336\274q\247\020>\r\236\241\275\026R\301=\330\301\256=\304\330p\275\340\271W\275R\275\304\275\227j\215\275\307\220\023>\334F\370\275.\022\366=%<\230\275\255\030\010\276\250`\255=\346\005\264\275\276\227f\275W\354\203\275&\254\375\275\316z\031\276@,\024=\356\305~\275\276\317e\275\300\226d;n\331*\275\310X\374\275B\300\360=}\352\033>\366g\316=pU\230\274\230\000\273\274\376\335\303==\346\n\276\010!\276\275=\252\032>\200\204\001\276\\\253\031=\367F\030>\344\342\341\275\334\310\343\275@Q\301\275\260\013B<\320\303\302\274\032E\225=\356f \275\330\313\250=\267\353\262\275\370\017t=/l\030\276\214\026\n\275 \325v\275\334\001\321\275\260\'\240\2740r\254\275\240\024N=\324c!=\003\235\021>\356\303m\275\212\363\302=\200\246\\;:\362i\275\322\277\233=\250\370\340\275\224\231[=\\\211\010\275o:\002>\230\220\227\274\276\264\327=\260\326{\275\320x!\274\244k\347\275\204J\204\275\257q\261\275\346P\323\275\260\203\226<\260A\201<\036\273\036\275\010\023\203=\252\377U\275\204$\271=:\361\220=u\202\023\276X\226\335\274\247\321\242\275\357B\017>\250W\300\274\240\231\n\276\251\022\207\275\334\\\255=J\264\347=\004\2148=\236\035\203\275P\217\231=\240m\014\274\266\356\211\2756\026\276\275:?\000\276\355\322\271\275\340\220\251<\026\235\367\275\205U\013>\244K\244=\020\205\237<\250\311\346<(\3673=\254W\242\2755[\370\275c\334\013>f\311=\275\200\367\215=\010=\271\274*\026M\275|\331u=D\325\014\275\356t\314=\340uf<\020\326l<\267\336\255\275 \267\366\274\256=\225= \030u=\215\320\300\275g\327\t>\337\355\026>\013A\021\276\377\206\227\275\320 )=\246\020\203\275F\364\343=`\000\376\273\202\367\326=`\n\243\273\326=\201\275\030u}=J\320\027\2750\315\213<\262/\347\275b\256\201=\224\330q\275$\300\t\276\203\312!>\274\022g=\270\376\210<\020kH<-\010\n>4\310!\276\262\206\334\275\316\337\340=\225\365\013\276\022\311\243=\214(2=\330m\255\275\240\037\334<p\373\"=\325\333\004>\306\305\277=\246-;\275\200BX<xO\330\2745\263\227\2758d\375<\335~\233\275\033_\020>\n\337\225=,c\014\276\"\274\343=\266#\305=hm\233\274\020=\027\274\222\001R\275Z\276\204=\2477\"\276\240\\\265\275`\372\333;\265\t\030>\017R\034>\032\377\244=@\231^\275\332\036\322=\340\302\250;x^\226=t:e=R\322\333\275\300\235`\274\264u\242=\300\254\353<\n\010\330\275\'\004\255\275\216?\025\275\250\307\364\274\005\177\016>d}\325\275\356\276\310=\216\352\330\275\244C\001\276\250:\263\274\002F\374=\276\020\310=\232\302\311\275\303c\021>F\2551\275\310\336$=fb\373=\304\204\n=\360\007\032\276b\251\315\275y\252\037>\226\007\323=\\\025\343\275p6\311<v\350\337=\322*\305=\340j\260\273\300\333\020\276\3508i=D\211\002\276\020\375\024\276,\306\265=\372\233\177\275\224%b=\206\212\314=\364\237\373\275\311s\034\276\254\214\234=\314\212\033\276\342\275\332\275\260\001\340\274&t\245=\225\274\020\276\336\300\010\276\255\371\237\275J\365\372=\300\357\206=+\326\363\2750p\330\274\3104\304\274p\371\007<\262\207\007\2768\323z\275\177w\014\276|\030\203\275\316\376\217=\372\243\200=p\335d<Cd\267\2752Y\352=`\3308<B\230\373=\031\371\311\275\340\354\300;\246\233\361=/E\227\275\330B\021\276t\210\024\275\202\355j\2752\272\337\275`Ed=\242\235)\275\341W\023>\222\250\360=sF\277\275\220m\320\274N\026\317=\226\333\237\275\000\000Y< 3\010\275\321\212\352\275*\276\361\275$\242`=\200\226\325:\224\207\001=\234\031\276\275\254\324\242=%\300\030\276P^\313<`\231\243=\230\214$=\200\340\306\273\200\235\002\273z\331\237\275\\\370W=\220\333H\274\244\010\262\275\376\332\331=\267\265\002>2\300\221=\3743\237=E\321\025>\222=\"\276\365[\026> \010\311<R\211\313\275\372\227\367=\240\354\231;\240\276\367<\357\262\005\276\271\212\261\275\3063\347\275\265{\035>\021s\027\276\213\010\005\276,\262T=\230\023C=\375\300\t>\277J\273\2754\177_\275x_\261\274DT3=\n\0230\275\366R\350=\213c\034\276\233\230\374\275\"A\024\276Yg\246\275$\252{\275Z\017\021\276\336K\325=\224p\177=d=\206\275\200\336\201\274j\303\341=\227\031\241\2752\003\306=\372\220\324=\226:\331=Q_\000\276\226\014\224\275\304\344`=\366\257\240=\"\265b\275\255L\273\275.\303\367==\225\037\276\016\371\352=d\324\257\275P\366\262\275\246\320x\275\320\212\003<\010]\016=\232g\302=t`\001\276\370i\213\274P\316\253<\227\201\034>\033\313\263\275\215\353\256\275V\370\035\276\326N\321=\360W\262=3\377\013>\365J\364\275O\201\032>~\033\347=\204\032\034=\020\322-<\356\356\354=\240\262\005=B\270\340=\034\3378=6\030\262=x\325;=\340\331\230\274d\007\352\275\024\375\004=(\377\010\276\340E\245<PE\360<\222\367 \276\305\330\024>\240R\374<d\2025\275p5\246<\304f\222=\'\t\017>\365\317\002>\265\305\002>\211\356\311\275\300\256\000=P\302\275<A/\003>\256\346\340\275\007\306\210\275\250k\030\275\010S\024=\260\315\303\274~\251\032\276\n\206}\275x\353\307\274{\256\021>\360\320b\275.\351\034\276\326\315\227=\210\276\335\275\300\256v\273q\214\221\275H\231\024\275\020g\016=\346\276\301\275.\274\002\276~\270\001\276\000\342}\274\314\363\251=w/\031>\000\342\027\272\340\222\034<\004\340\025\275~\215\347=\372\330\254\275\2401\201=r\275\213\275*\237\331\275\207\333\206\2758\355]=&\216\355\275@\337\216\2750G\327<8#\257<Bc\366=\361G\246\275\350\024\034=\204\210v\275\030\303\322<\230\010\271\275\260\246\220=\330?\234\275\354Zy=`+b\274\350\002*=\213\312\210\275Q\270\013>\030)\003=\301\224\036>\304\000\000=\002\332\321=\200\375\303<`\201\212=\360\030\023\274\267\373\035\276\240#\261\274O\024\036\276mM\016>)\277\013>b\326\360=\"B?\275\2001\344\273<\340\004=\200\3476\274.\032\024\276\244\030\370\275R\367\000\276Y\214\033\276ue\007>\352\355\217=\020\025\251\274\334\300\214=P]\003<\340yZ\274\220\205\246=]3\352\275\226\206\024\276\206\266\010\276<\354\003\275i>\345\275\200F2=\3672\227\275pC\315\274\215Y\321\275\254N\032\276M\346\256\275\342\026\377\275\034Jg\275(\t\305\275 \343=<:\311\262=J\331\275\275G\322\241\275\355|\020>@4^=,-K=\2301^=\300\225r=g@\201\2758\245\227<\345x\227\275\343W\230\275<\240.=\223B\031>\2560\241=&\211\376=V\276\002\276@\224\022\273\304\272\027\276\266\266.\275\320\255\365\275 +\320<\014\275\330\275D\302\233\275V\316\307=T\200\003=\304q`=X\273\307<v\350\261=\304\021\332\275\346\354\273=\000\252\320\272\200\302 \273\246y\001\276\233#\332\275\272\001t\275\372\272\355\275\260\271J<\nc0\275\020#j<\233=\202\275\032eK\275\352\342\271=[\375\200\2758\375\272\275\360\020\376\274Q\276\010>H&l\275\315\374\034>L\326\214=p*e\274\230~\274<\365P\035>\331|\213\275\026\364\001\276\\\200L=\037\004\037>\000\317f<A*\035>\252\222\271=+\253\t\276H\272\247<\226\"\300=(\324\227\274v\014\317=l\213\236\275\240t\306\2758\337\203\274@Y\363\273\005\345\033\276\310\331\013=-{\215\275\320T9<H\316\245\275\330eQ=\376\013\364=\216Wg\275p4\310<\233\036\025>\300\317\016=J\340N\275\332\373\232=\"^\370=\372\240\347=\326+\201=v\002\r\276*\324\337=\321\232\013>2\330\333=\373c\033\276x[\024=\000H\231<D\217\242=,_\207=\240\331c<\235\347\032>\334\2572=\300\212\315;$JD\2750DC\274<\231>\275O$\321\2759\257\037\276\230)\014\276\030\001\021=\300\310\005<\236LA\275\257*\013>x\333\010=\234@T=R\267\301=\300\374\253<=(\213\275qk\t>\341\016\244\275\370\310\322\274^\276\334=\250\"\202\275@b\321\274\2321\325=*\215\327\275\206\025\036\275Dw\235=\320\305_=\215:\r><\334\326\275\274#]\275\240rR\275\246W/\275Zh\270=\002\246\013\276\364z\242=\224\262\024\275\304^\251\275iJ\250\275A\224\005\276\320\201\030=\006\204\301=|\n\355\275\"?\"\275t\234=\275\200\276P\275\300iG=\342\244\314=\n_\336=\240\017\315\273(\251\371\274\366\323\017\276\200Fc\273\034\213Q=>d\000\276>\373\246=\365A\250\275\332\262\375\275\367\311\004>\2337\255\275\362`\024\2760\333\254\274@`f\275\310\\\253<wa\315\275\253\312\345\275\340V\343\273}\365\232\275<\264\036=\355\334 >P\244\263\274\250`\231<\000\t\227\273\243p\277\275\340\006w<\354\265t\275\216\207S\275\354\\&=\274\300x=\302\021\314=\210\320p=\217\347\034>\266\364\374=A\267\017\276\303\357\001>\233l\274\275\340\330\340\274`\037\026\276!\236\033>\3727\037\275M\034\032>\256\033\316=\030U\305<@\252n\273\200\231\314\274\362,\306\275D\223\377\275Nq\022\276\257\355\272\275\376l\265\275\200&\226=\311\005\021\276\314D,=\314\001\256\275\024\tw\275\260\017\001=\270\300\210=\033\216\027\276\202\350\277=\200\241\263;p@\026\276\250\323\232\275\270@\271\275\226l\272\275\260\016\231=\340\267\222\273@\372Z\273\214\310\t\275\030\233\032\276R\013\370=^\274\312=\211~\203\275JJ\213\275\251\206\001>\262\230\275=\026\256\353=\232\033\350=\371\353\003\2760\241\003\275\370\241 \276\200\317_\273\312E\333=\204Z\347\275\030f\361\275\270:\037=d\232J=\260\300\017\275A#\031>(\327\333<\360\3611\274\223\317\206\275\240\371\225\273\320\027T<\004O\222\275;\033\211\275\010O\351\274v\'\347\275 \242\237=\306\204\352=P\022d=\314u\226=\344\353T=$ej=\314V\"=>\327\r\276\261\274\365\275h\206L\275L=k=2\250\253=\302T\225=\010\335\273\274>6\213=S\202\034>\300:\312\275\242D\274=P\312]\274,\342\035\275\010\221\204<\340\371\355\274\0346U=$\336C=v\331~\275`\263Y=\020$3\274=\311\004\276\313\307\346\275\260\365-\274 \302\031\276\270\345\242=W\234\276\275\035\024\026>\220\010\306\274\236\205\313=\352\221\301=U0\027>\0133\022>DZ\225\275@\351\003;q9\003\276Lan=\250\257\251\274;`\022\276\260:h=\270\335\306\275\032\211\024\276\220\016\340\274\200X\330;\\WP=\004iX=x#\364\274\206)\366\275\260HV\274=\243\317\275\np\356=\375?\026>\3641c=\276\202%\275\233\326\213\275>\205\345=&\031\342\275R\305\351\275\216\370\347\275\212\025\336=\215L\343\275\261\016\206\275p4\030\276\020\033\016<\234\030\221\275\356\222\033\276U\023\021>\310U\216\274\235n\003>\252(\356\275l&_\275\330\353\201\275\214\342\t\276\326/ \275\005\330\023\276\242a\360=\341\216\023\276\224n1\275\024\315\234=T\330\004=\240\363-\274\335\330\022>\022\321\320=\322H\266=pr\376\275}\345\002\276u\346\n>\370;\353\275\0166\276=\270e\021\276\326\272\320=_\352\267\275\277\217\001\276\\\327\322\275\265\333\276\275/\363\353\2758\267g=\245\337\243\275\254;L=\230\263\236\274\360\313\007\275\274h\025\276a`\023\276\032#\356=\220\007\203=`\344m<\350&\270\274u\300\237\275\256\307\226=\036)G\275\231\342!\276\333\302\273\275\3446\022\275\2720\343\275g\375\033>`\213h\274\265\275\252\275\2507\003\275\270r\205=\330Fo\275\242+\241=NH\336\275v\205\225\275${\033\276V\304\262=\200\222\205=\246?\337=@\267\377;\376^\334=\202v\336=`\251k\275\\:\244=\334\030\366\275\270x\362\274\351\361\242\275$\214\246\275\030;\327\274\022\330\346=\245\036\013\276\377\335\304\275MO\242\275\336\305\303=\371\361\332\275l\223*\275\262C\306=Y\253\r\276\376\313\227=\375\362\303\275\240\320\225<@\333q\273`\3318\275\r\301\311\275GD\025>\010=\235=\360\364\277\274\005U\010>pi$=i\377\220\275\370%\303\274\316\344\205\275\217|\t>\352\311\213=\217\265\241\275\340\307\031=p\354\010\274](\233\275\340\326\301<Np\327\275\252\033\332=c\027\251\275,\021\336\275\010\351\177=\227L\257\275\220q\333<\365\276\211\275qE\000>\360\211;=\026\226T\275o\022\251\275t\361\312\275H\332\220<P\226a\274\370y\222\274T\325\322\275[\203\005>\006\211\330= \334\320<\220\033K=}\214\245\275\304\252\263=\216\300\003\276\010\347\004\276\235\240 >J\023\360=\304F\246=\024\'\364\275\036\366\321\2750+G\275@b\311\274H\035\321<\370o8\275F\3132\275\350h\240\274p\233b=\032f\237=0\247\255<\332\334A\275\002\004\337=\223p\">\240\262\232=\216\346\332\275\232%\350=dq\363\275hf\001\275O\005\037>W\202\303\275\251\244\031\276\326Z\273\275\335J\037>H\213\364<\010\337\255<\245\221\016>@\032\"\273\244\3677=`%\240<\314\360\273\2750\335\213\275\226\014\370=\345\006\036>=\277\030>%\300\032> \323\350;\235\362\035>\252\270\355=\224*\251=\330\215\221\274e<\001>\306\321\354=\020\351\220<\210\214\206\274\333\223\000\276\240&\225\274\032\344\366=FD\337\275d\374r=\3614\261\275ZS]\275\036\264\316\275\250\327\201\274\260\341A\274\247J\034\276\337\323\247\275\245x\023\276\274R\007=\204\202\275\275\002w\362\275T\270\022\275\374]\317\275\266K\321\275nc\322=\353\305\000>B\326\327\275\235\373\343\275)3\213\275:@\357=\351\210 >7\352\004\276Dn\203\275\345p\363\2754\266\347\275<\010\242=\022\340\367=d}\344\275\001s\025\276\220\036p\275\366\036\222=C\326\255\275U\356\034>\350\267N=\006\001\377\275\204\303\350\275\2407\003\274.B\200=\277\335\035> \254\026\274f\"\275=\200\034\311:@\277\374\275\254\033G\275\220\017\254=z\244[\275\304 \035\275\247\013\024\276\332\201\024\275\203\027\014\276\310C\032=\206d9\275\256,\344=\322\333\371\275`\252\004\275\020R\224=\366h\025\275\265\307\003>\272\026\251=\356\022\304=\035\203\037>\350\317\314<^\255\356\275\256\327\316=5\234\035\276\264rq=\300\350\361;\277f\025><\244\350\275\342\331\326=\364\367 =\216)\371\275\020\332o\275\000\033%\274\260%\257=\340j\303<\300{\227\274\002w\262=\010\t\274\274\320\231B\274\014\222\363\275\213-\022\276\351?\013>x\357\204<\364ne=\274\271\023=\270\361\025\275k\311\n\276z\224\215\275`\\\256=fi\346\275\200\216y;\340\351\236;%\202\231\275\372\202\366=\036\264\211\275\200\323\020<`(\303\274\304/\006\276C\253\372\275j\300\033\275\232\004\250\275\320\336\033=\000\032a=\025\307\013\276\250\216\t\276^W\251=\267\316\202\275K\231\256\275U\204\035>\226\314\227\275\207\346\364\275\261W\002>w\203\026>\013\277\006>0\376\205\2748\024\302\274p\003P<\350\251\344\274\022\222\256=.\361\264=\244\344[=\355\205\034>\244<\030\275\214\274\205\275vg\323=\300O\254\273]\314\022>/\177\023>\340\271+<`\334h={\\\017>q\376\000>J\203\332\275\342\240N\275Zq\307\275\0304\371\275B\035\335=\332\347\254\2750\225V\275\222\220\312\275\366\227\206=Hl:=\220\221D<\2036\224\275\200\025\010=\274\274i=\300\320\311;\210\177\022= 4~<X\236\235\274\326\274\243=\016\262\362=\260\356J\274\324\t\n\276\300\202\354<J\275\330\275<\374\320\275|\343\341\275\350\031\374<4\374X=\360!\230\274\3525\024\275B\231D\275\364\265#=\220\343\321\275>\272\303=\372/\340=Zg\354=\346&\016\276\010\306i= {v\274\030\320\374\274V\272\356=$\247O=\322d\320=f\264\311\275\303\033\337\275TS\352\275\362A\321\275\340X\274\275\342\257\221\275\312\226\272=O\257\021\276(\256\260=\262\316\323=\010+\227=\320\026/<\220l!<\323R\t>\300\220o=`\207\231=;\302\n>\000^\014\276s\004\n\276\332\021}\275N\273\377\275\276z\377=\000\2740\274+u\355\275\343\324\302\275T\001+=\314O\265=}\314 >\000\3021;>\037\313=\3039\006>&G\207=\202\371\313=\007`\n>\254N\032\276\314Z7\2756\244\336=\370c\373\275\020T\020<P\336x\274t\035F\275\340\3363\274M&\020>\340m$\274\232\207\316\275\242\221\313\275\273v \276\265#\020\276z\227\273=0\272\302\274(\356\323\274\320Y\240<\'\003\204\275\\*\212=\234\305\362\275`\202|<\036x\024\276p\"\260\275\273\037\342\275_%\023>(s\263\275\000\236\n<F\254\335=to\022\275\321`\026>\203\031\006>\324\300\256=\212L\274=\316\215\335\275\n\340\310=\350\310\343<\311T\257\275[\271\006>\237\004\260\275\366\013\324=\2209a<\354\355\262=\202\"\242=H\216\002\275D\211[=\324h\335\275@7\361<\220\021,=\336/\t\276\355\370\214\275#\006\235\275\266@\347=\324@\n=wC\001>\366 \217\275\232\007\313=\306\031\230\275`\tX<\314\301\222=@K\275\273\263\300\026>P\247\357\274\340r\223\274\350\020\263=\236\030\"\276\330\320T=\230\006\330\274 \212\033<.\365\277=\236\231\353=\334\365z=\236\333\250=\212V\267=@lo<\230e\023=\303F\251\275``\225< A\023\275\037j\n>c\036\000>\220u\032<\232\021\304=\366\263\254\275\320\2355<\0217\r\2768\274\261\274\000\252\000\274@\257\350\275pi\177\274K\371\010>\006\344\253\275g\022\244\275\020Y\203\275f\361\323=\000,\336;\364\031\034\275\224X,=\272\023\023\276( U\275\025\234\331\275r\277\364=\347\204\024>\272\276\216=\313! >\200\316E=\226=\260\275\002\364\377=U!\020>w\t\024>F\334\273\275\337\337\033\276&\'\311=\375\335\001>B0\254= \276\365\273|\014}=\311\201 >1o\013\276Z\341\331=\247\257!\276\3662\225=o\277\205\275\351\333\026>\353\004\037>\376W\330\275\340,\305;\304c\267\275\302A\213\275\320\375\034\274RL\327=L\203_=B\360\242=c\247\007>\222]\341=2\320\304=PV\336\274-\216\025\276\231\370\021\276\326?\332=\270z\177=\020#\202<XI0=!m\021>\244\261,=A\t\252\275L\375\037\276\344\207h=\030n4=\260x9\275\236h\230=<\237\215=\336\350\365=(\363v\275\260v\251\274\310\020\310\275`\0000\274\307\374\262\275X\207\265\275\346\376\337=\2521R\275p\200\220\275\271\026\000>85\277<\340w\303\275\232\010\227\275\270\342Z=);\007>f\276\342=\275T\n>\201v\024>\374\033\025=\274\3478\275T\2625\275\234l\263=\360\333\246=\202\352\331=\242\001\332\275\362\030.\275<(\353\275\033\207\234\275V\034\220\275\254\263\366\275x|==\000\231\357:v\247\350=\367\320\014>\301\310\013>\001\270\006>\357\r\241\275\211$\026>!\013\026>&b\304\275\312\304\361=\322=\324=\352I\225=D\265H=x\330\357<\360\372\030\275 \035\270=G\\\243\275\250\241\337<\020\241\313\274a\020\266\275Sp\002\276\300\375\271\273\263y\376\275\245x\005>\247\026\025\2766\007\t\276\330\376\256=h\325\254\274\000;\333\272l\372F=\004;O=j\217\022\276\320\240!=[O\032>$\221\026=\242\227\003\276D\254\307\275b:\270=DQ\232=\320\351]\274\344\260%=\2156\366\275\000\226i:\022\230\257=\334\3045=a4\270\275p\004\355<sz\272\275\234\221m=\244\003\326\275\020V\244=\222K\331=\0316\t>\240z\323<=!\357\275\240\255\206<\226@\254\275>\277\254=\236\351\361\275\302\257\345\275\350\"\240<|\251H=\244d\246=\367*\013\276{\224\024>\240\232\232;\224\226>=\245\355\003>\322\030\374\2752\024\023\2762\315\345\275\000\0204\272\370q\333\274\240%l\274\337I\275\275\226\253C\275J3a\275\361\027\331\275\000x\2318@@R<\030\022\246<\306\241\253=! \231\275\320\242l\274\340j\004\276\266)\301\275 \372\232=&d\351=\200A\307;\350\250\370<\000\030X:\022\022\225=X<\022=\023\357\002>\305\327\003>\275\014\026\2763\020\202\275\030\323-=\215\322\016>\270\205\221\275j\322\223\275\205\\\025\276&\314\342\275\214\033\271\275\005w\332\275\250\255\217=`~c\275\007I\016\276\261\004\222\275\341f\245\275\226@\357=jT\246= \273\321\274\210/5=\357\002\021>\247\307\020>0&U\274X(\007\275\210\202\211=b\034\361\275\341\215\321\275=\177\264\275#\221\227\275n<\303=\254\306$= m\267<M\332\037>\306}\360\275XJ\003\275\324\204d=Hz\332\275\300\275\321;\346\250\203=\222\370\203=\260S0=\242S\222=\370F\212\274`8.<\357y\220\275\372W,\275$\023\233=\036\366h\275\320-X<\321d\224\2750^\202\274\346n\363=\036\301-\275\3510\022>@/\036;P\367\226<\325\230\010>\230\024\221\274qe\004>o\016\023>\240\260\330\274p\242W<$D\312\275\314M\216=`6A=\360\343>\275{\323\005\276R\276i\275 \314\227\273\240\205U\275\332\235\360=\310\376\004=\322\356\241\275@\317\017\276iZ\010>\005\212\030\276\230\230\204\274\261\225\373\275\216&\031\276\220\301\357\274~5\312=K\237\213\275\210\240\335<J\365\306=@o$=\320\245\262\274\306\365\371=\315\235\034>\212C\355=\2235\034>\000\2645\273\0002\373\274\364X\010\275`\305\306\273k\005\344\275\366\016\207=\026\211\210=\232\352%\275\234\366m=\261\'\014>\255\226\031>\022\303\320=z\225\264=\310\304\007\275\300`\r<\026\314\277=\022[\376=\334!p=\006\261Q\275*\376\203=\264-k\275\352\2520\275\016\240\r\275:\320f\275\0044\231=*\016\275=\"a\274=\320\370\352\274\240<\363\273\244\266x=S\244\n>\370s\324<\034\334R=\224\210\232\275\2139\002>\340{E=\340E\326\275X\337\231\275S, \276\210\202\202<W\212\t\2762/\027\276\2435\014>\210\256\355<>\350\314=\364\305i\275\"\200\200=\370\372\023=[\344\317\275\024)\231=Ba\307=\222_\372=0}\314\274\333N\333\275Ro\345\275\020\225\230<Rl\363\2750\301\000\274\310\370*=\300\226\006;\034\343F=\240\0361<\0356\017\276m\240\211\275h\207\261\274\313\030\033\276\264\343\274\275Z\177\021\275\300O*\274^\024\333=\216\337\246\275\220\372%\274\224\217a\275_\233\024\276t\t3=\302,\322=\360\233Y=\364\320<=\375l\017>h\222\262\274\334;\241\275\240LS<\360\372\t\275\\Y\'\275Z\360\241\275\335\257\217\275\234v\035\276l\315.\275\314\305m=$\325==l\260\231=\300[/\273__\024>\3006\004=H\315\273<\360)n\2742~\310=\010$\365\274\262\224\271=4\302\231=\230\036\211\2755\214\024>[\363\025>\253\014\030\276O\370\333\275\326\345\312\275\327\236\371\275\362\030\347=\327\207\033>\n\364\242=\3627\317=@\240\027\273z\370\277=\263\267\021>\210\245\231\274\256Y\007\276\376\"\252=\303\321\006\276\372\347\235=\240\276\272\274\000\205\215;\250\363\025\276\257h\026>\3568\357=>\254\336\275f\341\331=\350\300\212\274\300\335\331\274\326\314\343=\307\260\004>\362\327\373=\370P?=\200U\360;\2715\246\275 \313\340;\262\013\032\276,\341\262=H%\364\274N\245\323=^\323\277=\300\354E;\276_\376\275pmQ\275\037_\"\276 \t\005=\200\241\233:\234\240\021=L]]\275\336\r\207=L\361\254=p\'\201<d\000!\275\300\2561;9#\007>\305$\035>\202q\"\276\010\215\030=L\370A=@/D=.?\266\275\320\350\013\276\0359\243\275\252\213\324=\"G\332=\246\236l\275P\'*=P\037\022\276i\342\022>s\310\035>\302\206\301=\300\243C\273\236\223\366=NX\216=\250\037\204=\324\030\375\2758\221\035=\360!\256<\252%\220\2756+\037\276\240.\275\275\241\270\037\276\210)\215\275\200{\243=\336\353\320=\301\026\013>\032\243\315\275\3565\202\275\360r\203\275\020If=\236\275!\275@\n8;\372\334\241=\306~\037\276j\033\311=\247\014\004>J\335\256=n\357\336=\037\"\032>\037o\005>n\234\304=\177j\231\275\240\252h=\365B \2760\273\203<\270\332\036\276j\001(\275\3625\371=#\357\210\2756\343\351=\350;r=\222\274\016\276\000\002%\272z\336\376\275:\345\340=\356i\232\275:2\225\275L\255\303\275\365\204\261\275@\014\201\275\356\000\354=\212\013\016\276\300\267\n;x\004\004=@\303c;\222U\301=\350\231\244=\004\207\000\276Hr\353\275JY\332\275X\031\304\274P\262Q\274\330n\005\275P\304\010<Dj^=\\\216\306\275\300\3172;J\355\010\276~\272\255=P\007\002=\210T\227<;n\252\275>x\351=j\322\003\276\004\271\000\276\354\253\033\2762\203\346\275 X\316<\010\216\235<\\\243\266=\234\236\212\275\r\316\032\276,S\232=F\025\325=I\217\013\276\276)U\275\300\037\242<\310E\350\275lc\000\275\024n\300\275^\353\275\275\204?\323\275D\030&=\330m\341\2757\344\200\275\200\022\"\276h\353\330<\316uV\275\360\236\306<\213\245\022\276(\233\213\275\037\301\263\275\216x\273=~\277\337=u\340\270\275\024`\366\275\233\230\337\275\375\204\024>`\030\225<H\021h=t\023\013=\221_\001\276v\024l\275\025\270\031>HA\023=^\371\310=\212\'\003\276\366\221\302\275\024;P=\300\376\242<P\362\327\274\200\0334<\325\"\303\275:\327\362=\3624T\275\356\004\302=\337c\023\276\372\377\256\2756\270\325=n\275w\275x\327\010\276@\360S\273\200]\207\2732\361\355=\024T(=z\231>\275>\301\211\275Fx\277\275\2365\335\275hT\366\274X_\343\274\032}\005\276$\376\312\275\346\353|\275\276\317\375=a\226\343\275\023\026\025\276\344\301\206\275~\221\250\275\362N\361\275`\370\246\273\305\032\024>\356\032\357=\350V\034\276\266@\315\275lh\211\275:\267\315=\326\302\361\275\250\350\364\275\272\000\334=>m\003\276\256\210\330=\233l\034>\303\035\307\275`\004\320\275+_\234\275\274@\360\275\242f\213=\210\214\327\275\242\225\375=P]\336<X\323d=~\274\365\275\276D\352=j\326\241=\366\265t\275~\335\336\275u\305\026\276|8o=\310\010\273<\036\216\305=0\005\352<\225\031\301\2754hm=\273\326\346\275v\376\201=\305\306\025>$\002\002\276\220\007\232\274\273\341\000\276\234.<\275\300\336\t;\034\324\243=\247\337\010\276I\365\016>\230\327\204\274{\330\262\275\t\004\222\275GL!\276\275\375\253\2756\216\351=\302\276\357\275\244\\T=\020i\377\275l\023\007=PA\232=\360\006\360\274p\361\020\274\014k=\275\216V\224= OZ\274\270\307\227<@l\246<\246:\335\275\\\342;\275\360S\213<Hu6=6\373\372=\365\331\020>TW\337\275\354\243\245=W\025\010>%<\036\276\350\014\224\274\272H\266=\210f\374<\310\2114\275@d\252=\316Z\"\276^\251 \2765\367\256\275\240c\253\274\320\234~\274\202\344\316=\033\242\004>\317u!>s\225\006\276\200w\373\275\304\333\005\276\0022\365\275\2776\272\275\200\363\023\273\014\334n\275j\377H\275\235o\021>\304\277v=\376t\336\275\212\304\310=vd(\275\000\033H=2\273\322\275*\010p\275\324\263v\2750\027-=\307\253\300\275\312\036\324\275p\366\321\275\240E\'=\307r\222\275\264\033\000\276\'\276\004>\340[\322;\006m\363=\316\035l\275\227 \321\275\22043\275\342%F\275\177\215\252\275?\344\002\276!\031\231\275L\332\016\276\013\030\021>\2320\303=\240\245\220\274\363#\026\276\356\025\272\275P\356\032\2755\364\035\276\003\243\014>>Z\342\275\360\304\026=(\0064\275\234Ap\275\370E\271=\254$\341\275\002\005S\275V\272\212=@\273\013\276\330N\262<rQ\351=\300-A\274\251\022!>\214T\267=;\025\266\275&\367\340\275\376\001\263=\014G\003=0/\223<2\031\247=\262Y\224\275\376v\306\275v\337\262\275\210\014\232\275~\242\"\275\257\"\023\276\232|\014\275\340\223\320\273\204V\017={\306\004>\356\336\356=6\250\352=\360\240\n\275\210`\275<\223\314\021>D\233p=\256\020\235=\026,\202=\220l[<\360\344\247\274\230\375\255\274H\241\214\274@\321\034\275\231q\033>\017b\n>\"\363\264==]\022>f)\366=\222\"\215=\241\316\017>`\273\377\274t[I=8%\327<\021\266\211\275\220\315\345\274\350\273\366\274\234\370\003\275P:\253=FS\335=x4\247<\214\233\327\275\024\002\'=(\325\023\276\340@\323\274\340\202$\274\245\177\003>l\233M=\330QR=1\371 >t\240u=@\362\322\275\004\031\002=\250W\266\274\227w\306\275m\034\213\275\276}\326\275\317\006\027>\320BV\275\340\242\263<\212\213\234=mF\203\275\026\303\315=\017\346\002>\250\220\263\274.,\223=\360\335\006<\261\215\003>@\214\311\274B\322\315=/>\001\276\315\273\001>\217\210\034>\376y!\275\332\016\337=\033~\003>\0001\251\273\200\326\332<\321\214\004>\320\\\236\274\300ir<d\240\246\275p\245\210\274 D\002\275 \336\351\273\000\321\\:\3743\331\275\300\374@;\351A\374\275\030`\231=\302?\n\276!r\221\275\304\025l=\310\2174=>\375\341\275\260\335>\274\272\251S\275\202U\340\275\340\222\001\275\301h\036>\302\341\224=o\217\016\276\000\004M9\376\021:\275*\214\260=sT\203\275\224\363]=`\356C=\200\340\336\274\346\t\253=\300m\206\274\312s\216\275L\216\020=p\026\360<\270A\300<2\324\361=+\264\t>\340)\224<j\201\337=\240\t\347\274\334\321\002=v\276\277\275B$;\275\270F\331\2759\272\006\276\333h\265\275\004ty=\t\211\006\276\266\246\017\275\000m\372\272Pi\024\275\267\020\024\276\2220\302=\037S\030>\204N\245\275\021+\252\275\330\'\231=\010?,\275~\301#\275\271\245\026>\200\276\034\274\2753\021\276\332\342\332=d\307?=W]\032\276\362\372\353=\270\342J=\376+\312=\374\017\366\275\364\032\014\276\270\216\255\275\256U\326=\340&\374\274\200\260*\275b\325\321=o\232\245\275\227\363\024>X\201q\275v\204\316\275u\261\313\275M\276\"\276\222\257!\275\200\327\370;\0223\350=H\257\264<\220\354(\274\3709\306\274\321\014\225\275\206w\272=\340#\340<\320\300\352\275\304\346\247=2\363\237\275\247\267\022>\334y\201\275$]|=\034]\030\276vg\230=\214\'\036=~\335\371\275L\371\254=3V\030\276\325\306\017>\n\305\265=\360\271\333\275\317\301\000\276]\027\016\276H\262\346\274`4,=\262u\331=f\245\203\275\363W\036>\316\310\367=\302\274\362=\336\370\021\276\000\241\023\276-\237\277\275\036w\305=`D\211\273`\013\270\274\336%\310=\014\257\322\275\240#V\274\030\342\220=\200\343{;\365\005\032\276\223W\036\276\035\034\024>\321\306\023>\352\r\212\275$Lg=#\233\002>FI\244=\370\304\241<\r\202\014>\200m\270\275\332S\370=X\035\316<h\ni=\224T\033=@\r\026;?\241\260\275\023\022\023>\333\256\030>\004\356O=u\234\002>\274y\212\275`Q_=`x\007=\035\005\005>\362\236\344=8U+\275\254\226\220=`\2761= \376J\274\\\377\005=6\221\322=X\266~\275\3003\375\273\3438\"\276\256\203\216=\330\207\333<\223\005\t>\205\206\004>\273\262\005>6d\272=\020\355\306<F\376\372=94\025>@\306H<7\265\223\275`K\232\273\256\036\034\276\304\361r\2755\272\367\275\016\264\234\275\014-3\275\353G\257\275\322?\362\275\014QY=Q\267\031\276\340UC\274$E\223=\244\020\245\275x\317\340\275\023O\025>\344\342k=b\300\376=\212u-\275)J\037>\0106a=\340\207W\275m\365!># \007>&\005\251\275\300\354\001\276\230U\231=X\234p\275\r\314\266\275\330^\350\274\200\030P=\210\214\265\274F1\250=n(\206=^\030\342=\302c\220=\002\177\220\275R\375l\275\022\027\351\275\306\272|\275\020V\200<P\001^<P\307U<T\304\013\276l\024J\275\000\360>\271\004\334\036=~\304\326=\240\321\336\274\337^\006\276\310\374u=\307\270\000>@^M<\020\'\232<\321\205\326\275h\310\331<W#\224\275\n\253\325\275\035:\020>|\337|=\322\371/\275\367\247\203\2758\3357=S\244\353\275r\365\374\275\326\373\203\275\200o\031<\251\211\027\276\331\002\363\275\254\267\024=8\001\224<0/\272<\t\217\n\276\353s\363\275P6U\275\001\343\003> \024\310\275`\337R=b\307\370=\332\346\376=ue\t\276\n\n\251\275\200\005\006<`\316\033<\373\360\010>^\260\317=j\223\267=H\260\240\274@\3574=\342\302#\275B\243\344\275\244\032@=\302LZ\275`\230\260\273\022\311\276=\026\300\320=\324a\024=\t\257\003>\360\333\335<\264\013\033\275\210NU\275\324\271\r\275\312\237!\276\034\271;\275\000K\350\273dM\267\275\323\017\n>\250\3546=\331\340\007>@y\024\276\000,j:p\203\317\275|\206<\275\032,\340\275FH\224\275\310\234\227\274\000p\326\274\020L\320<\224.\203=\332G\305=pR\013\274G\365\032>\3206\330\274\230F?=\274\265\206=\376\355\242\275k\271\021>\000\312c\2746\027\271=\234\021\035=\340\002\266=\346\253\303=\270n\363\274\352Q\311=Ye >\360\200L<\205.\000\276\240?\311\273(\320\372\275\300\351\311\274\343\226\266\275j\334\215=\000\261\244;\260\312F\274\020\331w\274(3\265=\020\3037<@(/\273/L\020>\246\377\302\275\2408\301\273L^\001\275\240\306-\274\246\201\202\275`\377\022=(X2=\024V\234\275\200\352t=\244\322\034=\326e\017\275<\201\"=\260u0\275\350\017-\275\346h\332=~\313\350\275\222\023\257\275\010\363\320<\353\007\t>\030\tR\2750\224_<\020\226z<@nL;(:\267\275\370\036\362<\000wF=\302&\353=\216\215\250=\020\227\325\274Xd\243<\230v\266<\376\303\323=\214\314\375\275\300\005\314\275*\\\334=&<\205=\300\227\262\273\263\201\357\275p\251\365<\306\357\316=M\230\001>A\255\033\276\030\201J=nU\307=/R\240\275\220\264\030\274\014\320\\=\263\357\035>\000\240\2349\267\232\230\275HXN=\307\270\035>\340T\314\273\301\340\027\276\236]|\275\256\026\365\275\317\231\016>\200\375\334:\264DT=(Ak=b+\372=\240\303\177\274\360h\320\275\375\233\027\276\254\355\261\275\222\027\357\275_c\014\276\320\243\254=BRP\275X\362B=hk\211=,\020}=\311d\017>\310+\214\274\330\334\343\275\320\2550=_M\324\275\235\'\362\275\312\334\034\275\344\0256\275r\346\346=N\234\230=R\227\323= ([\274p~\232=(\304\221<\240\340z\275Hv\202\274\000\333\241\272\356\030\317\275\320@|=_b\">\023\361\201\2752\207\307\275p}\345\274\202\265\240=\311E\024>\317\227\031>\304p_\275\261C\010>l\230\317\275\\j\022\275\270`\253=\304\350\367\275\342[\257=?\222\004>aR\257\275\010\264\317\274\232\030\261= \025D=9\217!\276\254\n\235\275>\236\334\275\266]\360=\370\216\"=V\217\300\275\200W\033<\024\261\254\275\360\304\256<\330c\202\274\000y\232<\306+\326=\030:\335\275\0205~=\340>\335;^{\322=\264%\210=\230\026\002\276\022\235\254\275si\030>\010\351\001=n/\364=\340[\317\274\321{\r>$A\252\275h\000\367\274\022\3031\275\",\232=\270\")\275\275\036\002\276\210\264\330<\300\314\010\276\373r\017>\347\\\014>\0279\030\276\020\261\'\275`\317\315<\320\204^=\300{\207<R\341\331=\362.\346=.\026\313=b\265\013\276\022S\255=y\025!\276<j\030\276\'\014\030>\242\021\305=\252U\004\276\211\027\013>\323\304\036>;i\030\276\344?\026\276\206m\247\275\030\260\206<\222\336\272\275\230\224+=}\316\035\276x\220\006\275\373K\334\275\314\345\357\275\350B\262<Hjk=S\020\013\276\016;Z\275|\035\014=\360|\006=D\347)\275p^\301\275\260\214\246\274$\3553=0\226m=@L\\\274 s\207;\020\036\347<\300\253[;r\340R\275\004m\006\275C\245\363\275\024$5\275\260W]=\242j\000\2766.y\275s\374\026\276\324\037L=\014\340\222=\027l\t>\312q\203=jV\251=R\032\373=\340\322\265<8\274\327\2740OS=\253\340\002>`}\226=v\230\266\275hF\311\274\340\344\263;\320)\375\275\330\177\211\274\202]\334=\326\341>\275`\017\304\273\020\274j\275RnN\275h\"\003\275l\362\306\275\231\331\235\2755\242\005\276\261\271\005>\323\313\035>\3219\033\276\200\307l\275b#\314\275n\211W\275f\234\302=\230\024\355<(\300\324\274\317\336\t\276v!\307\275\320j\027=\211H\024>*\337\037\275\"#\371\275gg\006>@\336\n\274T\333\016\275\300\026\036=\034\337r\275\013\201\013>\026\020\343\275\300\252\031\273\320\014P=\246\371\376=B\324\320\275\201\024\263\275\003\371\234\275\322\034\336=*\252\351= \206\252\273\276\334\014\2764\336g=\260\335[< \025\031\274l\300\314\275\000V\3379GS\013\276\231W\000>P\3710\275\262\036\301=\3557\023\276\2328\272=8\3557=\223W\037\276\340\342\247;\260(u\274X)\227\274;\000\274\275\313\037 \276\016l\353=#\242\211\275z\244\314=\206\224\331=\330\n\312\274}n\213\275\373\304\007>l\235\351\275\0018\257\275&\245\231=\340\2430=\200a\336;\263p\346\275\220D\374\274\315\'\t><\001T=\343\315\255\2750w\n\276lk|=\025\312\352\275\314:o\275p\033\336<\"\247\314=\270k\205=\250n\241\274\300]S\275\310\375\253=\200\026\017\276\030\242\363\2744\245:=\000\3540\273\034Y\016\276\346O\355\275\354\276n=\357.\222\275\240\313\353\274\373f\335\275\224q\177=JYO\275\320\224\217\274\335\353\232\275\356T\246=t\205@\275n\361\032\276\010%r=\210m =\001G\000>n!\344=\232`\351=\241O\036>\257\301\021\276:\321\016\275\3761\321\275 \310&\274@\340(\275\346.\201=\322\346y\275\300\2723<\332\017\006\276\204\265\217=@\277\r\274\320\216\002\274\203k\036>\037k\005>\200\330T\274\341\252\032>\321\\\020\276L\206\344\275\212I\034\276\004U\321\275$\364C\275\252\354V\275.4\340=\220\217\354<<\036\330\275Y\204\010>\252\305\362=\200\213\003\276X\374z=LUh\275\254\357\260=V\343\307=\005\022\205\275wj\020>\232\256\304\275\037\302\301\275\254\n\216=\200 *=\346\333\301=\302\336\034\276\220^X=\234\001e=\352U\270=\260\267\024<\322]\341=H\032\317\275\226\370\316=\037 \013>\340\366\235\273\232\361\212=\261u\032>/\306\237\275\334\346C\275\030\341\026=H\275\014=\277\033!>.\017\254=\334\350!=\000\250\3369\016P \276\246\001\362=\221\331\037>\322\2378\275\266/\226\275\250\347G\275\215#\264\275\204\364&=TW\251=\360I?=\324\267\033=\006\256\333=\342\373\260\275\004\241)=T\321\341\275\n\227\252=\360\216O\274\330\330p\275}\205\t>\251\234\020\276P \014\274\240\250\t<\254\330\271=s\227\253\275\306\241\322=\266!\371=\305\372\002\276\356\231O\275\200z\241\272\036\366\352\275\304\303l=\234\254t=f\247\004\276\261\013\023>Jo\356\275\377V\036>\014{\220=\020\021\362\274x\247\346\274q\217\013\276\321\323\257\275[\035\007>\305\304\231\275\030d\333\275\362\033\336=\354\016\021\276\255\265\264\275^\236\300=\036\261\017\276(\265\347\274\217\266\002>\250N\374\275\200\306\335;\324\3178\275\346z\353=\260\247\364\274mi\036>t\245\t\275L D\275Y\367\006>\000\200\021\273\372\035m\275\320\2619\275\300/\372\273`S\276\273\316C\326=\020\2138=\322\307\220\275\260\236\250\274\004\350y=_\361\030\276\022\315\313=\n\036\363\275\204\204U=\274\235\251= P\\=\300\345\336\274`\375$=>\254\273=`5\200=\263\300\245\275\"M\234=*\370\274=\210Nx=\002\301\024\276\2103\020\275\226\324\347=\340\377\304\274\260\005\364<\035\245\247\27584\266\275\232`\345=\333\347\237\275\262\302\373=r\332\221\275\253\003\006>\346.\310=p\215\002\275\277\354\313\275\350\000\035\275\036W\326=\270\327\010\276F\351\253=\020\3526\275\262\361\343=\004!H=V\335\375=<M\336\275\204\236!\276R\307\031\275\236\364\014\276 =\334\273\022\243 \276\276\276\334=x\211\366\274Rq\370=\263U\016>$B\021=Xf\261=\226\014\343\275\000e\033;\256Nv\275\246t\036\276\320\220\034\276\261Y\212\275\"\017\251\275\344\364\t\275\304\\\355\275\354\311\004\276p\200W=\240s\323\274@\263\325;P\"8=@\216\242\275\215\003\264\275\233\202\020>\212\001\313=\020\242 <\016\347\260=Q\352\221\275~o\352=U\'\007>\022\376\335=\\\326\007\275]\211\317\275@T\013\273\356\357\360=@#\314\273LG+\275\344\032~\275\370N\235\275Rg\203=t&G=`{m\2754\247\005\275~m\324\275\360\320\371\275\231Q\004>\276|\263\275P\007\365<\026\337\233\275\316\262\005\276.\306\223\275\200g\224=\026\362\376=0\250\340\274\032\315M\275C\370\025>>h\322\275Xv\220<p\333\254\274k=\033>\"\022 \276\tx\023>\270\rT=\300\331\313;\364\265\027\275\314\305\236\275\312\234\326=@\310o<\016\267c\275[L\007\276\222\r\325=<\311\017=\232h\256=?\253\031>\\^\022\276I\023\276\275\n\375\235=>\206\311=\200\320\030;\017\374\305\275\277\371\t>\363\r\371\275\305\005\271\275\276\373\342=\020H&\274\377\014\342\275\231\343\022>\230l\257=\374pt=`\304\217<(H\203<\306w\236=Z\342\325\275\230\3063\275=p\221\275\256\267\351=\006O$\275\350x0=`\316\210\273\362O\272\275q\202\001\276H\021 =\037\005\020>]\374\t>n\233\331=\200\037\231<\332\300\315=\274X\036\276\245\t\025>\354\366\326\275\273\302\031\276\362$\327\275P\220\034\274\026\245\264=W\235\265\275\210\214!=\004]\276\275\340\334\016=L:}=L\024\202=\350\345n\2750\3228<\3031\024>\200\034\037;U^\232\275%\233\027>m*\030>\226\244\324=@L><z\'N\275\322:\200=\232D\211=D\323.=!\273\013>Xu\257\275\240\021\"=P8:<\212R\265\275\276\037\341=`e\376\275#\373\035\276@.\204;\270-+=@H-\273-D\251\275\366H\304=Yc\357\275\235N\243\275\030?\272\274\240\317\230<\260{\037=_\034\344\275T\344k\275z\337\250=l+\275\275\340\277\311\275B\312\327=@\366\324\273\200\363\007\273\332\261\301\275t;\373\275\3333\211\275\303\247\374\275J\214S\275\014M@\275F@n\275Ot\257\275\340\335\231<\240\312\337<@r\344\2759\366\304\275Kx\334\275\214C\t\276\274\370\232=rB\232=\210p\217\274KV\007>\274\276\251=\360J\r\274\37688\275Ws\">\341=\010\276|\356\255\275\201\010\006>\200\214\316\273\214b\014\2756\327\374=\313\313\014>Xj\344\274\200P&<\024\025\276\275\274\327\201=\373\336\332\2750\263G\275^\322\r\275\206\035\361=\000\357\330\274\006Y\213=h\r\004\276\370\340\316\274`\270\233;X\332\267=\306\225\032\276}\353\207\275 :\227\274rh4\275 \220d\275\270\204\005=\305\366\256\275\2115 >\344\037u\275\271\214\001>~\274\320=\354\002\341\275\030\035\010\275:\377\352\275\261\322\313\275@\371\340\273\264\223\334\275\"\301\274\275Iu\316\275P@I\274\3632\n>\250f,\275@\362\177<8\241\024\276I\222\006\276 \233\206;\260\255#\274\270X\357\274\3207\006\274\331\372\200\275\311\243\000>\244\371\016\276\300\234q=4P&=\177\202\t\2769\323\n>z\026\211\275\300qG\275\241\214\245\275\204\223\005\275\\\223u\275r\366|\275\324\014a\275|\250q=\357\002\034>`\037\017<\365\037\022>\240\264\375\273\010U\262=\270LC\275\320O\330<`\276n\274~\374\213=\204\360\004=\233( \276\r\265\036\276\276\221\341=E\240\017>\020\"j\274\027\267\014>J\244\025\276\200\364Z\275@\325M<\306\223\034\276G\006\037\276\002/\225=D\232\017\275F+\327=\000\256\3179b\374\317\275p\335\245\275\340\352\232\273\364\265\227=|\322\r=\266\243\324\275\220\'\006\274\300\007\220=\2405E\275\256p\266\275f\304B\275\360\\\360\274\226\333\n\276\330\274\266\274\325\206\254\275\320\001N\275\240k\002\274\205\017\365\275\354\010 \276$4\262= \220\213\2738\256\346<\253P\000\276@\tC\273\353r\027>D\003A=\n\037l\275g\304\037>F\333\363=\313\035\034\276\200\361\207<\202\246\361=Z\213\363=\236\214\347\275C\254\010>\332v\016\275\025\241\r>\340\213\232=\301\324\007>z\263P\275\300\271\t\275XI!=,-?=\273\021\202\275\240\311\037<\300a\257=\r\206\001\276 r\356;a\226\020>\000\320\235\273\360k\355\274MW\000>\265c\240\275\353G\003>\220\271N\274\215\254\"\276\210\"\331< \263\026\274\000$\261;\250\321\303<0\303\'<\262 \245=kq\010>\270\340\210\274\000\224\037\274\300?\036;\250z\320\275\201\361\016>b\303@\275Thy=\200\254\213;M}\n>`>H<\201\311\235\275\230\332\247\275\014B\364\275.\216\375=\026\265\320=\360V\023<9Z\371\275\030\327\010\275@\312\031\276\356\252*\275h\321/\275\300\267)\274\222\236\366=\320\303\343<\343_\271\275\220\353\204\274\320@\237\274\265\251\022> \346\330;\230\345\337<\315z\030>\241C\022>\236.\322=\034k,\275T$]=\256\252\247=\200o\202;\317\317\375\275\032\267\303\275\010\005\322<\312\001\236=\216\316\273=\035[\003>\n\345\255\275\363\214\372\275\310\321\211\274\367g\021>\320\277\340\274P\301\013\276.o\203\275N\363\207=o\024\344\275\\\013\277\275lH\223\275\200\264l<\0000c\274\276\307\251\275p\366\274\275\332\313\315=\200\362\214\2729\376\r>@\256\032<$\2723=\356\344\361=UV\020>j\373\255=\374\222\305\275H\273\301\274\013\256\333\275i\276\t>\236`[\275@\275\233;2w\342=\330@\250\275\305\222\001\276\0326\375=|x\201=\360%\257<\362a\272\275X\030\222=\252AG\275v\023\033\276\340\301a<\020w\363<\353\247\216\275\000\371\177\273\300D\204\274\240\017\245=X\256\344\274\301\234\200\275\300\263\205\273\257(\034\2760\021\261\274\2554\346\275\034\031\000\275\221z\352\275@#P;0\343\200\274\342\244\374=\026Y\340=\014\361@\275\315\267\013>ls0=\010\242\246<\335c\005\276\237\363\320\275\263\340\014>K\245\010>#\004\351\275\300\017==X\256W\275lp6\275\020\020\267<\032\347<\275+\232\264\275\333\216\356\275\000\007\014:\023f\217\275\"\333\372\275\276\215\315=\336\335\244=@\024\222;\262l\034\275\260\304\200=\234\211\304\275\323\004\t>%=\217\275\327\246\027>\272\344\211=\322[\311=g\002\335\275\200-\t\274\\\306\246=\000\254\373;\214Lm=3Q\327\275\250\200\301<p};=\250\353\245=\224\300B\275\234!-=(\264\266<\2412\000>\030\344\350<\020\225b<8\245\031\276\000[\326\274l-\216=\023\321\003>\200=\205:2\247\307\275\264\021I=\214R\033=\324\372\200\275 FQ<\326\300\347=\213\013\024>N\273\374=\016R\274=\037t\264\275\264P\241=\306g\272=\241D \2760\256\010<\0363\322=\354*\003\276\220\")=\360[V\274\004\223\341\275\370;\252=8<\320\2744\205\025\276 1\347\275\220/\247<\232\221:\275\330x\310\275\2408\266\273\204>}=P\3019<\360\333w=\004\010]=D\267k=\004ct=_G\227\275\202[\367=\032@;\2752_\246=?\322\n>\302x\000\276\261\351\224\275I\260\037>\206\200\357=\255\200\327\275\352n\200=Cf\014\276\342\231\217=\205\201\t>\342\375\322\275\303\021\234\2753\365\031\276\304t\020\276\242\372\356={_\210\275\301\213\016>6\1771\275`?\215\273\262\010\244\275[N\006>\010F\245\274TsM=Ru\230=P\367\200=\356\317\233\275\364\331\204\275\310\343\262\274\371\351\267\275\'\376\036>\362t@\275\214+@=_\030\307\275~\222\323\275\333\305 >\000\312\254\273Q[\022\276=\244\014\276\240\t <\236T\305=\326\241\347\275\377\037\214\275nH\216\275\027\241\260\275J\243\351\275\004\357j\275\262\304\333=\340a\007\276\320U\272\275<\251\261\275k\235\033>\336\034\002\276\316\223\001\276\000\364\212\274\217\252!\276\\\270K\275\300bb\274\010\2011=\034\357&\275\246Z\010\276\226\350\301\275\"\247 \275\202.\317=hPB=\320\223)=\030\343\033\276\237\206\235\275P^\024\276\027i\017>j\357 \276\000\323\323<\264\023]=\232\351\252=\n\300\337=\253h\036\276\306\242P\275h\021\223=8\217\254\274:\265\363=V\356\231=\226\235u\275~\331\264=7\324\232\275\n\215\233=\260\032v\275~\023\347\275\276\374\216\275\357#\n\276\243q\031>\3721\337=\000\024\3549#\224\013\276\254\373H\2751\362\014>\220\024\314<P\337|<\202R\300=\254\301\331\275`e\215<\244\010\200=l\314\000\275\346\371\346=F\310!\275\332\373\023\276&]\200\275\200-\340:\234\376\037\276Q\024\315\275\"Z\341\275\347A\007>V \304\275\371\037\034>\312\336\216=\334\260\032=\261\034!\276\202j\t\276\370\312x=pO\027=\200_E;9\246\001\276\320]\216=@& =\207\037\r>\0313!>\024\343\375\275\344j{=M\037\005>\337\212\017\276\240/\033\276Y\230 >@b\030;f$\342=^\002\311=\232\247\366\275H3\213=N\'\244\275\342q\312=\300\220\026\276\265\025\262\275\300E\007;\263\247\251\275\234\260\331\275@\207\"=\224\272\024=yr\014>|\326\211\275\244\267\336\275\234\212?\2750+\026\276\200\347\277:\032L\330\275p\252\370<\265\251\006>f\'\310\275\322\265[\275\263\214\024>p{\t\274\236\252\356\275\217\035\215\275\364\341\037\275\232\202\303=/\340\214\2759\320\026>\256?\317=\302\2019\275&b\355=~\263\372\275h\236\213\274\000,\213:\016iA\275\300\325\260\274\362\036\271=@\3438;4\244L\275Jt\376\275\361\253\t>\240\007\266;\327<\001>\234\324\310\275\000\270I;\274\276\017=\350\027\306\2750o\240<\324\243\240\275`\374\\<\000\325\204\273nG\252=\032{\377\275\360\260\007\275\346\224\313\275/\321\005>;\r\010>\276[\371=\000\312P;\350f-=\360\370^\274\360\360\316\2754\347\276\275\351U\037\276.\364\246\275\033B\014\276@w7\273\222\212\277=\004\321\207\275\202\365\362=\200\251\357\272\234\035\335\275i\374\033>*]\346= \341\322\2750w)<\200\001*\2730\265\226\274H}\003\276$!\013=\202\177\324\275\250+\314\275d\300\211=\356\307\376=\332h\337\275\212\302\347=\356\002\367=h\006\217=-\273\033>\300\2751\274\240f\347\275\340\203\361;h^\355\274\270\347Q\275\376&\302=\032\250\302=\000\210\002\272\366\261H\275b\271\021\276,\226\354\275\360d^<\336\'\371=\350\244\356<\202\333\241=\200CA;DP%=zW\016\276\340s\247\274(~\032\276|8z\275Ap\023>X\016\313\274 8\215\274\356F\347=\363y\033>\240\272j=L\330\r=:-\272=\370\307\250\275(\266\305\274\234\206!\276\360\001w< E\357\273\312\363\315\275\200!\330<\306\023\203=\313\026\232\275\222\240\215=T\3338=\000\376\301:\276T\366=X\224\004=\226\004\'\275B\016\226\275/F!>\214at=\n\210\274=F8\331=\320\240\227\275f1O\275\340\334\232;\301\250\023\276\275\237\004\276 \260T\274C\271\n>\220\017\n<:\223\031\276\342\265\335\275\245\363\006>\032\251\314=@,\313;\360\275\323<\230?\033\276\230!\207=Wg\224\275\245E\212\275\207\340\010>7.\r>\360.\261=\330\2435\275\310\366\271<\325\261\005>M>\344\275\254\256h\275\215\355\031>sk\007> \331\370<\024\000)\275\010\010\250\274I\334\022>\024\3115\275\370\375\217\275\262\272\222\275\000%|\274\270y\213<\n\002I\275b!\252=\244I\321\275V\353{\275\374\336\025=\312\337\312\275\352\212\364=\302`\333=\266\337\031\276\3556\032>\344\031O=\200\027\337\273\r&\001>\373(\035\2764\005\270=\020\213\014<\314\023\005=r\030\207\275K\007\241\275<\354\032=M;\016>0\"\270<\250\354\343\275a\020 \276\260&k<\347\216\027>\340A\003=\222B\201=po\341\275\377\311\005>\352!\353=\036\326\360=\320&!\275b\017\375\275\300\247\013=\023\274\020\276`\216\310\273\230\\\230\274!\235\022> \010\344\2759\232\006>\231\263\353\275\016\016+\275\234\336\262=\262\000\312\275\276\365\344=lv\027=\220\037\241\274\274\375\021=\262}\302\275\224\325\272\275\246\331\223=\276\312\035\275\200\256\016\276p\210\375<\340)\335;\350!\235\274\370\215==\026=\363=G\002\002>\327\033\023>\272\322\317=\261\356\t\276\356\210\316=\016\312\215\275\t\372\266\275\303,!>\226\002\341\275\345\006\210\275Z\036\"\275\217\035\010\276\014\3036=\276G\030\275~1\264=v~\313\275\222\252=\275\270&d=6\355\253\275|\345\014\276\377X\274\275^8\315=\332\325\231=\200\006\014\273\356<\311=\372w\275=\342G\020\276\301v\t>\360\204\244=8\230\204=3\302\246\275\021\010\036>8\025>=\206\254\213=`\324\334\274\240z\235<\030\214\340\274 \227\366;\232\361\237\275\300\365\243\274\221\\\004>\030\337\205\274?\215\005>\250ug=\345\"\t>\230\344\037\276a\t\027>\226%\343\275\247\256\025>\024\327\017=$\025\253=`\006\232;\260\000\373<\220\362-=\010\223\010\276p\337\004\275\017\024\237\275,\265\232=\202v\317\275\304j.=\3653\023\276 \213\313;\030\321\331\274\300T\331\274\200K\010\276^\332\350=\310\242{\275\207\206\023>\033\276\336\275\252.\250\275e\251\001>\\\322>\275\030;\021\275\03060=\"\341\311=`\376f=X\370X=\004C-=\240C\240\275,m3\275\277\277\337\275#\016\020\276H\267\367\275\020\267\261\274;\013\021>\375P\025>\240\371R=\270g\306<\360\303}\275\200\201d\274\351\016\003>*\273\266=\254\273\353\275\205\201\324\275\313*\006\276h8\376\275`\316\312;\2701\241<>\362\247=\t_\026>\253N\027>@\035\206=\344@\014\275\301>\217\275\361N\275\275\247y\000>@\313b=\320^\325<T5\207=p\305\210\274\317m \276\220\350\005<\2509\023\276kA\357\275\340,\232;\216`\241=\334\237\266\275\021\344\320\275\246\272\037\276\000\273\002\274h\242\314\274j\035\031\276\317\214\274\275\272\364\342=g\335\025>\320\233d=\233h >\037\"\000>h^ \276\375\203\t>\345\336\234\275\226\222s\275\300^\232\274Y|\273\275e\030\033\276ZI\376=\322\236\313=\242\234\334\275\366\326\265\275R\231N\275\330AM\275\367c\277\275&6\237\275\344\322\217=\312\241:\275\"\243\361\275be\337=\3554\001>d\266\336\275\000a\331<^\222\324\275\r\237\312\275\202\223\341=\200\272_;\320\213d< \313N\275.\032\r\276T\034\211=\300S\372\273\322\000?\275O\367\033\276y\261\277\275T]\034\276\000\243\222\272\311/\212\275\006\204\203\275P\t\301\275\270\022\006\276\320\240\"<K \356\275\370\337\262\274\320\347t<\340\275\201\273|q\304\275\027\220\021>\210\307\204\274\3461\203=%\372\027>\355X\267\275\302\"\000\276\202T\337=0\266:\274\240\235\272\274\016\003@\275\370\'\314\274&8\357\275\3442\177=]\333\254\275\224l\215\275\216M(\2755\331\201\275@\221&\274\312\206\347=t\365m=\036\240U\275\'\211\024\276\250\210\010\275F\345v\275_C\016>Q3\005>\002\305\231\275?$\227\275w\207\004\276\272\237\031\276\002\351C\275\\\324y\275\376n\266\275\205\345\205\275:=\315\275\004\346\314\2754w\367\275W+\353\275\362\342\003\276\215\025\354\275=\307\013>\010\376\357\274\010*7=\207e\302\275w*\n\276\340(\200\274(\024\245\274J^\212=i\203\r\276\334\326B\275p1c=S\314\305\275\346@\326=\225u\027>ML\221\275\222\257\035\275\356\360\324=\366\361\247=]-\033>\000x\035\272\267F\033>\356\256\315=\314Al=\375\202\004>6\232\004\276\346\027\311={\354\201\275\320\365\277\275\360\263\324\275 ,\352;\372\323\340=\307\235\263\275 \'\374\274@\326\204<\236\346\271=`\036\355<\366\373\250=\324\254W\275_=\016>d\225\330\275\020M0<\307\226!>\300\315/=>\307\327\275\343\"\016>\311>\251\275\314Aw=$\036f=\366\261\010\276X\014\241\275~\246\004\276\346>\243=\262d\253=^t\203=TuR=\360(\207<\016D\214\2752s\364=.4\003\276\030\006\\=\330*\265\274\345\323\255\275\014Y\020\276&?\326\275\355\372\227\275\244T\321\275\366P\214\275\322y\343=0\214\300\274\323J\035>\272\315\220=\266\343!\276b9\330=f/\355\275\030\316\200\274vv\302=\r\330\027>0\262\277\274B:\330=\240y\304;6\301\262\275\360\202\035=^\017\302= P\002\274\034}\344\275\214\352N=%\303\010\276\237  \276\242\204\342=\236\214\240=\267y\t>^1\313=\333\036\000>Rn\377=N\216\371=\030\315\365<\000\307\361\274`p^<\261\034\004\276)\n\370\275?\242\020>\222+p\275\344\3102=\271\326\017>|\254\262\275!u\211\275Ra\250\275@\t\255\273\3605\006=Z\363\202\275\370\332\"\2768\361d=k\217\026\276j\224\211\275\255\203\006\276aI\264\275.\303\362=\014\311\321\275\013!\227\275\200\350\265=\240+y<\362\371\345=\222+\353=\366\035\025\276\270-\276<%\263\330\275U\274\013\276\352\372\364\275\204?^=\246<\373\275\026{\317\275\327f\272\275\200W\002=\010w\366\275\222\270\215=w\265\030>\027\024\026>H$\003=\230\243O=\210r\204\275\004\351\031=\320\247B\274\221\231\037>\217\320\277\275\324\274\267\275\276l\202=\240\355?=\\!\311\275p\223\371\274P\005\361\275\230\343}\275`\0059=LI^\275js\265\275t\3400\275\270B\375\275\240\237=<\037\373\r>\356\316\334\275M\263\r>\010\362\311\274\200\326x\274\264\034\r\276\234\376-=\312\337\320=\352v\276=\330\357\346\274\215\036\026>b\001\346\275\034K\371\275\370\313\221\275\242r\n\276\016\037\221=N\265\300=\250\203\366\274\220\323\214\274\216\351\275=\030\366C=\252\035\313=@\017\305\274\265\034\016>\256i\264=\345B\033>\242\\8\275\346\024\374=x\202\321<&[\376\275HW*\275\316\253E\275\264\005]\275@#9=\266\201\021\276\226\255\220\275\252I\214\275\2511\033>O\000\025>\242\021\313\275\323e\241\275\327\031\022>X\032\231\275\367\247\035\276\003\205\022>\200\363\234\275\373\235\275\275\010\346\022=\320h\254\274\333`\220\275\036\344\344=\312\266\025\276D\027\241=KR\003>\277P\017>\300Y\313\275p\274z\274\310\270\373<\224\262\245=LS.=L\215\"\275L\304\251=\270\366\223\274\020\313\230=q`\003\276x|\007\275\017O\037\276\216u.\275f\362\367=F\002\223\275\373\n\013>\237\327\004>\250\343o=\030\022\263\2745\214\026>`\213\035=a\032\334\275\360\207\316\274ZZ\253=\2749\210=\370\323\225<>\211\307=\240\300;\275\356?\344\275\300\366w=8>\212<I\003\023>\346\300\356=\3568\367\2759\310\006\276M\313!>\340f\221\273p\262\013\276\256\031\314=\340\261)=\2227\363=\276\033\366\275B\203\370=Xr\342\274@B\215\273f\325O\275 \260\376<\337\003\206\275lG\005\2762\325\305\275\346\313\304=\236\261\304=?\335\n>O%\032>\r\343\226\275xy\311\275\272\200\017\276@\213\352;\370\217\335\274]n\034>\376\215\310=s\020\026>\303w\005>\177\245\314\275\271H\025\276\320%_<\374\340z\275<\3360=\240\003r<\360\330%=\006\215\340=\260I\244<\272!\026\275@\007?\2748\001\323\274\200c\017\276\245J\005\276\020\272\305<]\036\016>\"\251\322=\220NR<\000\014\363\275R\021\341=(k\223<9\260\014>\272\177T\275\350\202A=P>\351\275\304p\007=\374\322\332\275\232\032\377=[\353\000>\250\273\005\275X)\266<\313\240\033\276\n|\304=0/\003\274k\247\272\275\027A\005\276NE\377\275\204q\004\276\225c\022>\300\323\014\276\032\0142\275\320\227\265\275\000U\227<\314\331i=<\267\201=,\327\276\275f&\212\275\310O\217\275\350\363\306\274\300m\351\273A\262\002\276\226\353N\275\230s\321\274\004\3467\275\337\312\361\275\253\250\377\275\350\330\017\276PM\354<,\207A=bd$\275\200w>\273\027\224\027>l%\256=h\367\030\276)C\331\275\006\305\217=|s.\275\364\362\264=\334\021\017=\000\202\214\273\334\226\003\276{\301\273\275\334\363\010\276\202\006\250=X\326\323\274\271\243\021\276\306a\031\276\320\371\261<\320*)\274\000\n\005=j\274\332=\247\n\000>\332\377\032\275\331\360 >\212,\305\275\023\202\007>\231\232\t>F]\007\276h\233\361\274\300\374\301<\227J\014>\260X\003\276\370\366\214\274\363h\013>\336\356\"\275\302\261\354\275@\374:;\"\021\323=\360\311\256=\303\256\304\275`F.<\315\001!\276\255\003\251\275\362\353\347=9T\007\276\271:\003\276[\303\221\275\232\234\331\275\260\317_<VH\005\276\345\337\014>t\025\'=\207\300\004\276\262\271\247=\240\334\310;\034\250h\275\360UF=H\200\261=\000\344\025;\000\221\220;\326`Y\275K\r\031>\221\362\203\275\222\025p\275\332\373\324=p\014J<t\254\306\2758\031\375<\200\273^<\261N\025>\245f\020>o_\260\275\320\246q\275L\037@\275\326f\241=\000WW<Pb\325<8\213\341\275\272d\326=\340})<<~\'=\340 \216=\036\262\272=!\240 >\370\0173=\270\006@=\246\023\257\275\206\213\377=\212\223\311=G\236\001\2761m\030>\340\201\014<\376\215\336\275\0212\t>\r\377\022>\006\303<\275\000\234\315\273\200Z%\274\266\224\240\275\316\254\377\275XSl\275\207\233\021\276\244\325\"\276\200h6\274\367\020\021>\317\034\315\275j<\370=\216\242\324\275jAV\275X\372\001\275\264>t=\2001\306:\000\t\344;\330\222\207\275nc\207=HFv=~\234\373\275\332\337\345=\374\3509\275\270\272\233<a\256\360\275u\320\013>\341\215\035>!L\">n\001\304\275X\033\022\276\210\312R=.\361\322=\320\371\016\274.\272F\275\250:\372<\214\373r\275\352\001o\275\332H\337\275n\376\302=\317(\000>@um=@W&\273\030.D=:O\300=p\302;\274Z\215\303=vF\253=\260\246x\275:L\307=I\252\302\275YJ\001>\270k\n=\232\326\276=)\025\037>\306\274y\275f\335\327=\351\207\311\275\360\310|=\351 \r>\036l\274=\014\265]=\204\325\025=\340\021\326\274\314\027\223=\022\232\010\276\254<a=\020\361\204\274z\217\345=4l\217\275\004>~=\367H\007\276\240\010\353\273h\376K=\343\270\027\276\024!\215=\306\205\327=^\001\216=\300R\270\275\"L\275=\\&U=\006\260\231=\032C\017\276\242W\005\276^d\254=\311F!>y<\003>\342\250\256=\206\306\034\276\204g\024=\260\3035\274;3\010>\245\010\031>r\000\350=\262R\272=\246P\255=&{\026\275\333\330\301\275\260\037(=Q$\003>\365`\004>\345\371\264\275b\261\036\276{\263\205\275\316d\332\275S\230\022>|K\260=$L\250\275\206\034s\275\246\030\254=\n\037\037\275\210\n8\275\243\251\023>\021\331\032>?\361!>\200\307\\\273\250R\006=\202G\346\275\026\t\276=\366q\363=\000\363\307:k8\037>\240\263\t\274\364-\027\276\352\003\017\276Tf\203=\000{\321<>\376\343=\021f\022\276\212|\216\275\252\344\303=\342\3366\275\000\004\020=\250\366\245\275 \\\265;\201\341\005>\202\307\034\275\200p}\273{Y\031>,9\375\275\025\314\355\275[\222\327\275\t&\001>\263\026\371\275:\032\214=`\2736\274\2075\250\275DlW=\340\264\225=\022]\277=\204\201\372\275p\300=\274\212\330\215=\203\340\030>\006\335\253\275\350\355\322\274\212?\216=\217\365\231\275\311\323\005>\016\315\036\276@1%;\206\325\337=\375h\245\275\202M\376\275Pk\326<\364&\177\275\304\212\005\276\330\360\253<\200\nS;\334\271U=\032=\353=\300k\203\2737k\216\275\360o\350<\300\362\316\273\003\000 >\213\215\037>@32\273\006B\362=F\032\314\275\350j\355\274\370\330\014=\240\252\372;p\025Q\274\344Q\025\276 \230)\274P\004\025\276\351a\251\275\334\210\037\276\233\'\013>\320\004\036\274\346\377\344=\213\245\024>\000\254\261\275\226p\327=\026;\347=\200/r<\000\370\001\275`\220\"\276\320\000>\275\000&\250<\034\010f=\215\003\035\276\346f\t\276\327\217\002>\322\351\227=\010L\211\2749\325\023>\000\314^\272si\024>\020\325\225<4\235\013=\000\337c=d\355\216=\256\355\321=\232\326\345=\nrD\275\3026\240\275\322=\334\275\352\003\020\275#o\013>\320\026<<:\344\271=\316\260\350=\345\257\216\275\0225\365\275$y\257=j)\314=\320\221\270<z\007\372=\260e\235\274\274Ax=L\361\007=\372V\034\276\344\'\n=\213\004\034>\260\251\377\274H\213:=\3504\375<-P >\002X\345=\177\225\272\275\262\034\017\276\262\036\250=\0046\212=X\345\021\276\020\352\342\275\'\301\">\244\240\024\275Ww\256\275`\214\014<X]\350\274\340!\227\273\036k\222=\030\247\332<\342\326\324\275h4\305<\247\225\032>\373\376\020\276\263\244\026>\306%\336=@f\321<\224\024\027=\340\305\264;\302\354H\275n=\321=\220\336\332\275\311\305\313\275\324\023\236=\372\035\277=\310\252\256<\032W\020\276.H\314=\351\234\254\275`\204\017\276(\022>=e{\002>n+\214=\232\327\027\275\340H\316\275\37047\275\014\230t\275\342e\225=\370\022[\275an\366\275\014\224\335\275\220B\'\275\242\263\377={\225\364\275 \235\253<\232P\345=\032\020\241=2r\311=\316\n\273=\340\2257<\000`\006;\255\216\036\276\254\204\206=\344\327\306\275*\177\014\276\261}\212\275`\022\022<w:\034>C<\026\276\222\247\357=\304\376[=\"\240\r\275\300\334_;\000>\207\271\t\"\217\275\266\255\370=?\226\217\275H\227\254=\350\266\214\274 \003\207\273\372\r\257=\300s\230\273\235u\021>\231\311\211\275\344:(=|\2774\275\3121\020\276`\204\r\274\"\304\246=\305i\027\276B_\342\275 \252><\300\303\013\276r\312\377=\340\337V<\010\266\212<\000\262\273\274r\241?\275 =%= P}\274`\317,\274\220\250\317<K\277\013>\340\246\325;\316I\345=f[(\275\254b\002\275>]\336=`\272\353\274A\023\007>\003\235\256\275\0161\361= \'\367\275D\225B=\276\307\272=\200z\323\272\360\350A=8r\326\274\206\2466\275LN\325\275\236\275~\275x\212\354<pP\311\274~\311\275=p\t\372\274\235.\013>\351\300\002>\300]\010\273\262}\343\275.f\346=\240\264J<\006\311\324=c{\333\275zy\337=\014hr=/\215\037\276@?1<\256\275\255=\250j\336\274N\345\022\276\300#/\273\304\367j=:\307\351=~-\025\275\310\353\014=\252\352\313=\250U\246\274Vk\020\2760\001\002\275\244\243\335\275\222c\336\275\000L\004<[\266\014>(&\260\275\321\233\025\276\377\243\031>d\034q=\225\322\226\275\013+\t\276zp\355=\004`\260=\000\355\214<\373y\355\275\270\261\347\274\350\213\231=\033R\017>\314\\\356\275\216\027\336=~5\235\275l\247\224=\351?\014>\210\032\247\274`\250\321;\302\263\361=\266\331.\275\006;\331=\266\237\363=4eo=\t\001\n>\3600\033\276\216\025\347=\266\014$\275\224\370`=\3756\222\275o\223\372\275`7X=\220\374\333\275jA\301=\000f\2329\010\222==\270\235==\3119\r>i#\027\276C\261\032\276\n\277\342=\2126\254=\356\216d\275\320E\363\275^\035\003\276\022\312-\275e\337\004\276r\232\305=,\333c=\364\273[=\254\361C=\261w\003>\2566\374=0\370\362\275\254w \275\212\376X\275\230\307\242<\232\025\013\276|\340\030\275\262\311\313=\376\312\357\275F\310\243=\322t\312=\006\\\300=\240\373\241\273\222\355\343\275\364\361\330\275\220\366\003\2748\307\033\276\000\331\271\272\371\243\342\275\200\030\243=@\212\220\274\300~\032;\300*8\275\0309\372\274f\377\217=Y\227\036>\3506\225<\035\337\255\275P\230\036\274\003\027\320\275\035\350\003\276\262\231@\275\256c\021\276T`\277\275F\230\232=\361\211\354\275b\252\024\275A\370\316\275\322\322\343\275\014\025T\275\330\341\020\276f-\303= hL<P\234\177<\240^\321\273v)\004\276\214*\363\275\373\n\016>\264\204\n\276\006\227\225=\260\315\010<\036\266\302=\300\007Q<\2077\030>d\224i=(\205\271=\336\036\310\275\033$\030>\000\250\3109\343\317\342\275\030\307E\275b(\313\275\222\324\265=\010T\001=\270eE=PoO<x\371\222<N\227\300=\311\036\251\275\352\242\275\275\220\223A<\t\210\366\275\340$\363\274.\245 \276;\026\r>\336\2548\275\357c\352\275\364\301\016\275@\030\372\273\022\272\350\275@f\035\276\246\247\336\2758\217\224<H\261\263\274?\211\003>\373\314\007>\207\353\277\275\2726\034\276FJ\023\275~\265\367=\026y\275\275\256\376\322=\200\376\311\274\334\265@=\1770\367\275\372A\351=`\327\253\274JW\374\275\350\310\342<\221\201\030\276\006\022s\275M\360\014>}\371\035>\320\253\010\275B&\331\275\240\310G\274U\033\277\275~\212\022\276\243\277\305\275\320J\264=\214 2=\002\022\342=tv\253\275\330I\303\274\177\303\014>\320H\267=\220\267\026\274\310c\341\275\200\204\026<\265\022\003\276S\255\202\275\200\215\262\272~*E\275\275\374\270\275\026(8\275\220\2757\2753@\016>\n\274\375\275\000\233\337\272\024\263\"=\356,\305= \303\217\274\000\207\241<bQ\321=\204\2369=\251\261\003\276\340\215\377\273a\353\031>|\217\017=@\376z=9\324\002>\336?\n\276\026\2317\275\242\315\034\276\252\023\335=U\266\002>I\341\001>z\027\254=`\"2\275\224\205\254=\354\203\230\275@Q\204\273gO\246\275\260\372q\274\270-!\276\030\341\351\274j7\n\276z\347\225=<\260\337\275C\251\001>01\362\274\274\nz\275\272\241\373\275\362\352\253\275+g\215\275\246z\304=:\270B\275(\2015\275\260\213\365\275\377\277\035>r\275\236=\016~_\275\351R\t>\333\242\007>\031\275\247\275\024\212s=\346B\371=dQk=\322\227\235=\nX\231=\014_\031\276\220;]\274\020a\317<\036u\032\276zw\324\275i\205\036>\202\310b\275\n\367\271=\370*\320<H(\260=d!\010\275\316\034\356=\200\336\244\273t\263\372\275B\273\242=T\244M=<\276\265=\301\202\037>x\014\226=\220\254\026=\214\365k=\211]\030\276k\273\n\276\005\244\216\275w\357\002\276\236q\352=\3502\252<\004\370\224=P`:\275\206q\323=\336\215J\275\300v <f#\023\276 \324\322<\200\020\303\274\320+i\275\344Q%=ta\247=\217\352\342\275\370,\234= \212\315;\256\025\032\276\200H\r;\326B\256=\362\344i\275k\273\026>\346\351\303=\340)\301\273\021\323\014>\316%\335=\310w\266\274\354\252g\275\241\036\201\275(\177\273<\277M\261\275\030\266}=\200B+<\266\022\374\275\241\033!>,A\010\275\330\316\340<0\262\335\274\361\326\n>\3249\313\275\302\216\344=@cZ;^\201\027\276\230a\270\274\365\253\017>\213R\010>Z\036\357\275\241S\021>H\031\004\276\200\205\335;\252\'\223\275\362\366\342=\302\260\365\275\n\251\014\276k\327\035>\262\311\205=@\227\214\274\373\034\275\275\340\353\020\274@z\002<4\\~=\334a\207=\024\223R\275z>\013\276T\232\307\275\314\362\016\275\226\230\376=\023\335\032\276c+\034\276\201\024\006>\220\270}=\034\324\360\275\212c\364=\202x\303=M\006\014\276\274\351@=\260Y\016=\342!\315\275\232*\236=\023\030\026>H\222\'=;\267\362\275\260\270[=\300\367=\274\336o\362=b\311\213=\n\235\312\275\361L\037\276\300K\320\274B\203\002\276\2000\272\275\370\230\330\275 \237F\275\313\256\034\276`[\266\274\313\005\363\275\202s\321=\370\250\013\276>G\376\275z\004\263=8\243\031\276\206\367\322=2\007\245\275\363$\364\275\246\314\361=\251\274\017>\221J!\276\272z\035\276\242\310\270=\3207-=\"\204\200=W\374\032>o\264\006\276*\t\366\275r\373\262=\"N\366=\361,\237\275D\202<=\017\260\003\276\\g\253\275r7\337=\201\236\344\275@Z\022\273L\355\244=y\003\017>\313\363\010\276\241\020 \276\263\331\">\220>}\275\000s\310\273\316\310\311=\266>\004\276&Z\001\276\230+\377\274\204\351\005\275\177N\251\275\213,\035>o\320\374\275\352w\211=\377\031\242\275!\025\">\272<u\275\310\242\270\275\n\010\347=\371\003\333\275\252\343\n\276\360\341v<\200\330\317\273\260\312\305<xb\004=\016\255\230=\206\333\335=C|\245\275\330{\276\274M]\005>p\333\311<h\260\007\276$\013\267=l:j\275\212a\340=O\301\030>\226\266\322=R\223\336=`\000\353<\222\313\331=k\344\016>C1\026\276\000 \272<\331h\003>\034\222E\275\220wO<\342/\321=\300{\005\276\362\212\213=\000\200\302\270\240\027}\274SD\252\275\022\341E\275U)\326\275\000n?\272|%\331\275\367\245\036\276\304\340\326\275\256\356\376=\364\270\215\275`+\321\273\331\332\030\2760\225\205<\277\002 \276\270=\002=\236\315\n\276N\n\261=d~#=\202\022\266=4\002\010=u#\013>\200\314\177=\212\365\227\275\214\217y=,\275\033\276\000T\244\272\230+\211<\320J\334<^\361\366=\350\355\353\274:\351\177\275*k\333=\351\363\013>6v\360\275^\325c\275\241>\026>H\321\013=*\004\377=p\373O\2744\275\020=e[\013\276\356\323\356=jH\216=5A\031\2768g\023\276n\214p\275H\327\027=\230_\377\275\354\312M=\366\276\332=U\211\024\276\2527\370\2758\276\267\275\234I\353\275\270~i=\332d\247\275\t`\323\275(\345\032=\260\325\014<P5\322<$\312\266=\350Z\334<\240}6=0\350\354\274"
      }
    }
  }
}
node {
  name: "LSTM1/recurrent_kernel"
  op: "Const"
  attr {
    key: "dtype"
    value {
      type: DT_FLOAT
    }
  }
  attr {
    key: "value"
    value {
      tensor {
        dtype: DT_FLOAT
        tensor_shape {
          dim {
            size: 50
          }
          dim {
            size: 200
          }
        }
