node {
  name: "LSTM1/kernel"
  op: "Const"
  attr {
    key: "dtype"
    value {
      type: DT_FLOAT
    }
  }
  attr {
    key: "value"
    value {
      tensor {
        dtype: DT_FLOAT
        tensor_shape {
          dim {
            size: 37
          }
          dim {
            size: 200
          }
        }
        tensor_content: "|L[=\017\016\022\276\200?\265\273F\253\350=\002\014\216=\255\241\376\275\365\327\326\2752\031\253\275\340\332\272\274\010\220\323<T+\202=&\370\347=\232\224 \276\222\227\023\276h\210\305<@\356\374<\"\253\256=\305\256\246\275T\032\251=\357[\336\275\370\214\307<\346\203\021\276\221\327\027\276\240\326Y\274\177\014\217\275\034?$\275`T\277\275\342p\341=\221\360\202\275\316\245\027\275w#\355\275\026\321\344=Pr\231\275b\376`\275W\354 >2\364T\275_\250\030>\024\327c\275\224\266\253=~\311\220=\200Z\237< H\007\275\350\300\335\274\272\242~\275\232\362\310=xV\306\274?\373 >v\322\356=\000\246\314;V.\376=\264\202\031\2750\242]\275n\277\367=\334\331\224\275\240,2\274\232\306\301=\247*\032\276\240B\336\273`\274\246=\373\026\026\276\352\302\267=\240\361\251\275\260W\360<\342\307\345=I\213\273\275\002\347\302=[\247\315\275\316\232b\275\224Z\215=4<\030\276\200\332\373\273\260#p=\223\353\025>\004\345]=\254%9\275\313\007!>(\227\317<@\t\034;\222\231\225=\343\007\n>\034\240\361\275W\317\226\275|\277\210=\020y\336\274F~\263\275\200?\222;\\\230\001\276\350\221\331\274\224\232D=\\\251\225=\307\227\250\275!4\000>\200\251%\273\362\006\007\276\311n\250\2754{\017=]\366\033>>\217\314=`\266\264=\336\024\"\276\251\234\222\275\370\331\335<p)\344\275P\204\350<\023\313\023\276\321\203\n>\250[l\275\264i\364\275\250o9=`\376n\275\340\262I<\276\324\200=\004T\003\275@1\\\275G\276\036>\240\313\276<\314#O=\'\231\303\275V\216\374=\204@K=\2406\270=os\253\275\310\021\035\276\272\272\274=\207\223\034>\272\000\311=@\322\034\2738\231n=g\256\032>\303q\033>\252(\342=fv\376=f\\\241\275h\230\346< R\371<\224\221S=;I!>\304\274N\275x6h=g\257\n>\320\003\201<b\003\353\275-_\021\276\230U\006=\256\003\356=\371?\006>`\010\326\275\321\"\000\276f\021\347=4W\014=\354<\001\275\246a\370=\360\370\000\276\302L\r\276\213\260\024\276([\376<f\177\373=R\271\375=\034\"\004\276\244d\273\275S\310\035>+>\013>\035\331\t>+\357\021>\270\232\211\275\332m\252\275\316\n\344=\260%\307\274\372\301\002\276(\336\331\275\326\353\016\275\360\243\\\274\260\307\033=\220\223\327<\226\017\214=\rR\032\276\370^\240=\250_(=\352\207\342=\"\275\322=\254|h=\322\021=\275\004\256\264=J\351\352=\005\363\366\275\000`\353\274\225y\240\275\232\330\305=J\346\220\275Z4\273\275@\310\010=\370\213\217<\270\307\247=o\002\013>\256\204/\2750S\n<\367\342\001>3k\263\275\200\346\325\273v\253\201\275\323\027\030>\204\302\004\276?\303\013>T\260\007\276>\212\"\276 \305*<PW\n=\312:\203=\005l\007>\230j\002\275`\016\341\2758\331,=\t\367\t\276\250x\226<\3046b\275\nS\346=z4\365=\007\336\033>I\016\021>\300F5<\252\375\002\2768\335/=\360\004\347\274\210\207\027\275\222\365\276=\037\270\001>\216{A\275[\001\275\275\310g\007\276`S\211=|~\266=\222\350\274=\032[\233\275\337~\267\275B\365\272=\242\346\032\276\000T\030\272\303\271\002>\360~\027=(\177^\275\362*\303\275\260\221b<\350K\203\274\n\321\017\275\232\032\004\276\0222\223=\000\024\2649\262G\337=\003*\025>\010vt=\323\353\005\276P\304\007\274 \221x<\010V\254<x\030\361\275V\345\345=H~\017\276\260\031\266=d\254\206=\327\234\247\275\002X\271=`\310Y=w\330\302\275\356\250\241\275\240\235\265<\000\343\375:H\220#=\010\213d=XC\332<$\303H=\334\356\025=\262\335\222=\026<\343=Tt\001=\372\035\377=\370&\335<\311E\331\275\024t`\275j\340\315=\252\365\364=\211\351\001\276\036\307\210=\374\371U=H6\271=\034\0132\275\213=\367\275\365\026\r\276<\035\347\275\300\347\346<\303[\"\276\342~\350\275\356m\314=\372\373\201=\240\265N\274\367\253\006>\245y\034>hp\002\275\306\337\244\275\207\347\025>p\026\"\2768c\254<\340\036K\274\272\254\356=]\340\022>\014[\031=\376_\321=&\335\361\275\370\202\340\274\000D(\271\352\226\362\275\340X\332<\270\334-=\266t\003\276\240\213\272<\210\202\317<\342J?\275\300\371\343\273\242\037\325=@/v\275\261\273\034>\326\323\255\275\004\016\004=TM\324\275h}\021\276IQ\004>\240\346\260<ZdK\275X\305\200<\374\304\246=\033y\240\275\360h\177<\340,\373\275\320\372!<t-\213=P\177\n\274B\252\027\276h\032\311<<\354\321\275\350t1=\"\031\327=:\353\273=\360\3536<r\307c\275\344\202\001=\327\216\033>\022P\301=\272\207`\275\246\304;\275\320\367\212=P\336\204=\020\372\023\274\224\034\033=\266\'\331\275\340\267\361<V\237\347=\177\013\347\2751\017\023\276o~\316\275\021\006\347\275\200\003O;t\353d=\322M\276\275P\032\347\275B\207\"\276\034E\010=\200\244\002\276`\331\377\275\317A\022\2764\252\016\276^c\032\275\252\033\220=\220;e=\260\2176\275w\202\243\275\260\202\030\275\266\356\207\275\034\243J=\272\221\340=4\340Y\275\'\216\r\276Ox\027>\244|\017\276J\024\211=\2203:\275\005\303\024\276\360\336l\274\221 \014>l\377]=s8\t\276l\0243=\251\023\006>\370\020\013\276^\026\314=\3027\370=`\367s\274p\024\376\274\342\330#\275\233\r\232\275pl3\274\300\276\372\275\031\311\232\275Y\177\035>pZ\221=<\260\t=\004\347\020\276\306\340\001\276xH\213<.\030\253=eh\001>\000\217\264<^\273B\275\334\275\251=\000\350x\274\000\315\022:\305\377\027>@\343\315\274\314\354[=@\242\004\274D\367\330\275\210\225\345<\225\210\021\276\371\222\023>\022\217\350=xF(\275x\357\017=\330\263*=i:\370\275K\373\255\275\250\"\002\276`\260\210\273.\320\002\276\007\376\027>0\234\361<\036\362<\275\350\350\334<F\010\335=\2713\t>\200\212\216=\242(\331=gT\r\276\373f\025>\212\026\215=\212\375\300=\300\t!;\340Rt=\371a\263\275\367\\\007>\300\324\253=\020\227b=\240\353\305\274X[\321\274\304\262 \276tp\271=\274\230\202=7(\003>\034\366g\275\204\207)=`B\362<\234\203m\275\330R\223\275Y(\035>\212\372\320\275\374 \002\276\000\376R:8\223\314\275p\326\024<j\226 \276\004\2529\275J\261g\275\213\364\022\276d\371\024=\266\271\301=Z\021:\275j(\274=\220\036\220=>\270\375\275q\256\005>~\034\377\275D\013\336\275,\0262=B;\204=\306`\245\275\200\034\227\273l\017\344\275 sR<\rK\000\276\250\313\216=\314\362\241=\204\263\002\2750#\226\274\252y\336\275\360\320\r\274\204\213\027=\004%\030=0\343X\274\2665\372=\036\310\245=h\364\350\274\224\367\013=\026\001\274=\352\n\355=\026/\354\275d\t\"\276\'\215\037>\342;\216=\024\204\'\275\236u)\275\214\372q\275\010\006\306<[\305\261\275\374\345\256=\025\325\002\276`\302\367<(\241\240<\350\373~=\214\3637=[\320\022>\346{\262\275\2549b=0z\261<\313.\210\275\336\330\364=H\036\364\274\250z\240<S&\030\276\315\"\364\275\022\027\201\275\304\025p=\221l\006\276\300\237\231<\226v\017\275n\245\312=\204\301\345\275H[\215<\016\311\347=\350(\226=\250\025\225\274\250\035Z\275\203\350\025>`\246o<j\366\262\275 \312\250\274\214\252\255=\336.\301=\200sX\273\014\214[=H\366\226=\036\351i\275T\207d=*\332\t\276\246-\244=O\342\206\275\177\205\275\275x\224\233\274\311\323\342\275J\"\322\275\177\221\002>\313\263\027\276\270oG=\324\226\266\275\334\364b=\356\216\276=\360\230!\276\252\225\261=`9R\274\342\367\r\275\234\322\246\275\340\305\025\274\255Q\321\275C\262\016>\376u\307=@\272\361;\355\004\032>\207\342\t\276:\216\355=\007\271\002>\316\235\371=R\260\377=\300\213\023\2733\302\034>\000?\226;\332C\035\276\203B\007\276\370v\333\275\225\\\031\276\346\331\311=JT\232\275`i,<\342I\333=v\253\261\275\300 *=[X\017>\222y*\275\364\332V=\211\333\035>G\211\020>N[\307=\212\013`\2756x\246=\237u\024\276\366Vo\2753\257\030>Y,\214\275:z\367=x*\202<\220\264\000=\336\264\341=mA\003\276\300\214\004\273@\236d\273\277\240\213\275~\237\330\275\351\003\034>\351)\213\275Z\377\317=#`\037\276\354/C\275\000\227V<`\r\215\274\234\352\\=\300\275l=-\206\020>\250\225\002\276\316\277\362\275\262\231%\275dB\215=\364\317\241=\264\365G=\340\332\360\274\255\305\036\276\340\357\333\275\032u\323=c\233\004>\034{\257\275\\\367>=\010!\000=V\n\035\275\300\325^<\\&\016\276L\254m\275\344\202\t\276B`\222\275\201\027\006>\2367\324=\300\376D\273.3\330\275\236$\330=\341\001\007>XS\266\274\024\262\264=\376w\376=k\351\006>\264\317(\275Yh\260\275\376\250\220=\272;\330=\022O\305=\345\342\001>\223\214\007>x\324d=\000\t\024\2720\0375=\327\200\025\276\320zC= \374!\276%,\031\2768\360[=\316\277\306\275\330\265\317<\302,\275=\334|k=.9\310\275\2001t\273\026\313\322=\351\036\031><w\010\275\300\203y\274|\377\377\275\000\322\216=\210\271T=Z\004\375=\352_\270\275\240,P<\300\032\211\273\310m\243\275@\225A\275\360\242\246=\300\005\025=\234\276W\275\332\371\225\275\252\247\357=\022\342\372=\244\305q\275\302\215\362=@{\263<p\310D\275\320\264\020\274\344\207\010=\242\021\014\275\010\204\023\275\000\315\244\275@\203\204\273R\230\366=H\341\266\274\006\224\346=\305\374\005>.\035\034\275\022\"\343\275\3725\251=d\014\020=Lvz=\310\206\213\274\300(Q;2\273\322=\2701\302\275\003\206\036>nS\370=\3061\302=\367>\337\275x^\251=\316\202\360\275O\344\013>\305`\007>\2646\260\275\312\311\302\275\340b\006\275\315e\027>\212`\314=\346\320\330\275\360o\020\274\332S\032\276&/\321\275\362\314\350\275\245\020\030\276\232%\373=\226\004\204=2\332\300=\347\316\230\275\200\337\342\275.\276\316=\230\357A= `\236\273\\7\371\275\366~\346=\300\021r<\307\314\035>\300\370\257=D\t\003\275\033\226!\276o\026\026\2760?\331<\266$\220\275\224v\347\275,Q4=\020\343p\275RL\367=2~\306=\266\323\214=t\262\354\275\271\224\031>\t\237\001>>\332\342=Z9\237=\342\340\034\276\230-\262\274\220\364\020=V5\302=\366\3005\275\362\277\366=\025,\023>\240\037E=\312\007\371=\235K\364\275\026\364\221=\n0\020\276R\341i\275zYJ\275\274\272$=\365J\031>l\237[=\244S\231=\354\303>=\330\005\264\274U\312\013>6\253\325=\022\212\324=w\035\377\275\340?\025= ~\267\273[\263\261\275\rA\004>DF\345\275\031s\037>\214\"\267\275\340\351\351\275P&\377\275\204\271K=Xl\230\274\325\216\266\2753\252\262\275\360\345\254\274P\344\315\275\007\375\037\276@\260\276\275\0166_\2751\006\r\276\252\003\277=`65=K\226\002>\346x\364\275\360D\347\275\3408\206\275<`\237=Wu\253\275\320\312\367\275*\253\340=\001\037\020\276h`\030=r\353\263\275\336\360!\276Y\201\237\275\355\322\363\275\230\216\031\276\246\255\222\275\211U\014>\344\307\244=\314:\324\275\000-\270\272(\305\367\274\250\272\'\275\333\376\261\275\310\025\300<\350/p\275P\215\322<\230U\266=\240A%\275\000+\203=]\362\024>H\246\322\2742\307K\2757-\034>\333\320\005>\240I\266<\247+\302\275\020\024\312\274b\224\365=\2168\272=\256\371\323\275\242\277\312=H+&=\006\341\372\275\276uT\275\nf\217=\252\305\223\275Z5\377\275@\034\364;\202\244\200=\004O\232=F\244\276=\320\021\203<\017\333\236\275\360=\200<\244\336{=b\352\035\276\tY!\276$\004o\275\252\261\214\275\346\037\263=\236S\370=hMr=\230p(=\250\006h\275\016\266\034\276\300\250>\275\200\330\030<\250\024\221\274\310\355\251\274\002\000\365\275xgs=poO\274\020[\363\2740\314>\2748F*=\310H\210<lb\177\275\020\264\255\274\000\035\361\273V\262\331\275\312m\250=z\254\030\276\354{e=H,\345<\320\212\232<Sx\017\276f\355s\275\246\266\333=\324 \317\275\356]B\2758\252\223=8\200\000\275$cB= o[\274\230f\033\275\024^E\275\370\0235=\004Q8=\201\325\016>G,\014\276\223\216\023>0\323\215=\301Q\005\276\202\324\t\276S\025\032>\3748\236=\315\370\034\276b\005\317\275h\000s=\200d\033\273d\366\027\275\315\260\256\275\000x\365\272\037c\017>DW\026=\200L&<\214\247D=\000\257\r;\220\236\233=\242\371\274=\250\250\"=\033\035\033>\022\t\316=U\025\007\276\320g\336\274\344\377*=/H\013>\245\344\036\276\251\341\234\275\240\017\037<\240\2560\274\256\002\251=/\231\234\275\300\n\312<\345]\025\276\320\200\224\274\204\0137=\271&\031\276\301\177\311\275\200\270\264\272\242\344\233\275\010\255\211<\220\224\002\276\240\312/\274\006R\333=\220l@<\006W\315=v]\250=\300`\206\275\356h\322=E+\210\2758+\216\274\351\216\200\275\327\305\305\275\264\366c=\350-A=\202\274\333=d\336c=\322\273\274=\261\300\340\275x\353\260\274\360\255L\274PtY\274\034*q\275\032\240\355=\270\246\010=2{\010\276\320\232\013\2755\352\010>\200\253i\273\312\025\333=n\252\236=\257q\224\2750\006T\274\326v\366=}\"\025>\200\025|=S\277\007>\336\271\020\276\352\247\352\2754=\256=\306\3557\275Pax\275\366T\333\275>\213\371=8T\344<\n\265\377=1\222\026\2764\300\333\275@\325\261;\345:\301\275\354\216\341\275@\236\304\273h\302\226\274\"Y\341=7\335\021>\247t\010>\224&)\275\237\007\">\356_\316=\032\355\260=\342\354I\275\240\336\212;\320\256P\274T\371.=\234(f=\020\223\001\274\010\017\366<\304Nw\275\230\307u\275\252\320\260\275\274\245|=Fe\274=\226\311\243\275cQ\351\275o\254\337\275\020\r\024=,9\241=\020w\256\275X\216\351<^\240\205=0Z\217\274P\326\307\274+\320\035>\250\341\007=\270`\306\274F\334\234=r\340\347=hXZ=lqN=R\017\225=L\370\221=\376\370\363=\324\337\027\276h\375\265\2758zF=vH\326=\306\233\342=\006\376\307=:)N\275\200\253\305<S\237\014\276\255\023\027>\356\026\261=\200Le<\272\274\001\276\234xv=\324B\345\275\243\204\013>\370\027i\275\310\021 \276XC\333<\320\031j<\310\321\301\274peA=*\271\347=\022\217K\275\033\251\032>\036\320g\275i\230\006\276\220RE<\013\326\253\275\262\322\364=\204xf=\0326\353\275\020\200\365\274 \313Q\274\321\353\247\275\037\235\031\276\3503)\275@fP\274\326\207j\275S\376\002>\274\330\363\275\221!\243\275\\\020\254=\342I\257=\014n\330\275\262x\357=Loo=\224\271 =\324:\210=\200\203W=\314b\260\275\216G\353=G\332\372\275\201R\275\275\302\357\024\275\312\337\357=]`\211\275\244\230\216=\340\200<= u\014<\000\\\276\275\034\232\227\275p\324Z=\r\227\014>Fg\301=\377\r\022>\222\317\033\276\035u\025>\300\023\377<\263m\t>\034\212\326\275\006u\212=\026\314\305\275\033\263\252\275\240\255\370\275P8\232\274\030\001\r=4Y\030=\340\010(\274\3708\014=a\227\003>p\330\365\275\222\340\211=\300\275\021\273\200\032\023<\300\331Q=$\211\227=\316`\022\276)\020\270\275\374\037\326\275\336\341\023\276!\027\021\276\220\365:=v`\325=\222\356\004\276h\225\026={\240\017>\314o\001\276-\331\016>P4\\\275\220\376\021=\350Wc=\n(\205\275\247\016\020>\214e\302\275\342w\006\276,\353\336\275Bk\335\275h\260S=cN\002>\234\335\307\275\240=0<\364\227\246=\366\'\345=r\2646\275\234\030\021=\224\032\021\276p\340\263\274\241`\035>Gq\350\275Y-\034\276,\263\030=\265J\273\275\345\363\017>xJ&\275\304\251\"\276\252\356\232=\027\224\017>t\013\006=o\241\n>\205A\246\275\020H\001=\226sO\275G\363\007>W\241\t>Q\312\r\276\367k\017>b\357H\275 \312.<\356\021\004\276@\002\266;h\\\271\275$\263\020=\264B1=.\343\315\2750U\330\275\276\026\025\2750\2063=\332\336a\275\221\227\007\276\356\360\373=\370\353\204<\\\003\222=P\343Z\275\0266\373\275\032\335\310\275\250\321\341\274\344N\014=\236\310\263=v!\200=\3169\225\275\337\037\016>\260\326\022\274Gd\031>\222\347\334=\363\317\202\275\346\231\351=F\023\003\276\254&\027=\262u\352\275\177\017\t>\333\342\035>##\033>\006\202\361=\347\t\004>\350\002\210<\037\252\014>\260t\257\275\247A\265\275\020\255}=\330\334\035=VM\340\275R\340\314=|\372\271=><\253=\366T\346=<c\r=\252\216\003\276\340\343\332\274ph{\274\340\257~<)\014\311\275\200\006\247\275\216\246\246\275\000R3\275\\m\000=\221|\242\275\304\264\021\276\262F\237\275\320M\233=\226\237\352=\215\240\022>dx\240\275}\031\237\275\027\210\002>\322\326\000\276P\231\321\274\340s\374;\332\203\336=\200\226\'\274\366\202\340=\250B\316\274\216m\273=\306l\342=P@\212=Q\257\021>`\367\315\274\252S2\275(\221\004=\362\234\333=j%\006\276\361T\026>\270<t\275\232\246l\275\000\2145:6\032\304\2756b\322\275p\227\267=\330H\260=\226\335\365\275 !\357\273Z\274\375=\275\002 \276\214\022\033\276\300\301\255\274\304\333\031\275\240\361/=\322N\324=\250\334\326\2747o\017>\020\353,<Q\016\017>\223b\301\275\200/\002\273H\313\010\275\007\365\255\275\006\263\207=\264\004\375\275\200?\005=\3605\013\274\372|\362\275\275\312\004>\340\350o\274\360\242e<\372\271\'\275\300\331\035;VG\375=`\266\264\274^\n\322=`\266\204;v\341\372=\036\240\200=,\340\002=\204\224Z=\024\250t=\213\342\022\276\3515\204\275@\033\235;\301a\007>\362\207V\2758U\330\274V\264$\275\200\254\202;\340VA=\204&&=\310\215\233<\260\233\307<h\217\225=\030\233\032=\0100\221<\232\271~\275\324\261\024=\'\313\013>:\304\034\276-\311\004>\'\227\251\275\177%\014>\310\325\013\276b\207\201\2755.\025>N\203~\275$\205X=`\347\254<\203\322\305\275)\352\022>\3024\342=a\315\027>)\273\n>\031\n\n>LJ\245=t\233P\275-`\036\276\210\302\351<\202^\r\276n\271\334\275X\331\002=0s\377\275O\005\025\276\334\014B=\340\236\350\274\206\366\324\275<\331\334\275|w\243\275\035\241\017>\034\372\217\275@\n\266=0\004\256=\261\001\035>\360 \252\274\266^\005\276\236\016\224\275\337\226\007>\000\216\251\274\342\000\305=6\364\313=4\212I=;\242\r\276\224\210,=n`\022\276$Sk\275Pw3\275Z\351\245= sh\275\314kc\275@\336{=PE\313\274\032\203\272={P\033>\320\350\244\274\300%\263\275J\257\352=\027#\026>dS]=\220n\365<\200\361\235:\233)\r>`\023\036\276bFY\275\262\234\225=H\345\211=pq\204\275nG\373=\350)\316\275\310\335\376\275\374\212[=\302\232\034\276,\305O=\302\276\350=xo\376<\275\321\027>\316\013\313\275\240\340\010<\002+\252=\000t(9T\233\241=T\320d\275q\343!\276\226\202n\275Lz =X\007Z=*\027\360\275\352\024\326=\350\273\267\274\022\"\006\276\212\256\335\275\346\322\017\276H\367B=8\265!\276`\254F=\224\247\235=\000\363\226\275\370\'\342</g\034\276%\321\266\275B\233\223=\306\302\201\275\314V\211\275\372|j\275\300!k;\222\325\372=\257\305\025>\207\211\014\276.B\256\275n\262\013\276\336\340\246\275>q\253\275\320\336\t=\000\016\":{y\034\276x\352\272<\214\276.\275S\'\t>\320\277\360\274\364\262\356\275\263!\013>\3624\342=\364\271\346\275b\231\341\275\372J\270=v\247\224\275\300\307\366\274Rs\242=\377\225\001>\206\001\304=d\345\026=S\356\r\276`X\362;\302,\215=@\324\310<n\274\361=\230\016\302\275a\004\006\276\325\203\254\275o\316\016\276Na\254=\022\004\366\275\300\235[=\300\237\213=6\002q\275@D\220\274 ~0\275\221j >\352\317\360\275\302\024\"\276\230\371\021\275a@\000>,h\035\275H\023\304<\242\307\340\275R\362\276=8\262\234\274\330\000\202=\376\204\362=\300\016\313\274X\215\023=\026\007\371=/\272\006>\000xl\274\236\322\305=2\001\363\275\234S!=\017\233\007>\256\374\241\275<\200\031\276\250O\236\275\223\377\322\275eO\021>\230\250\234\2744\001\014=\217\330\373\275\020TA=q\255\035>\340E\252;\366:\327=\305V\364\275\"\202\274=\240J\007=Ke\026>z\241a\275\020Ml<i\330\261\275X\307$=Fe\323=\001\232\014\276^\204\256\275\225\246\t><\222\311\275\230G\266=\030\000\370\274 \027\362\275x\317\367\275\\\245\355\275X\230@\275`m\211<\210\323\323\275\273\277\026>\354\253\345\275&*\363=t\276\022=\343\247\332\275\342\030\250=@\323C\274\030\341\272\275\202\336\256=\254\313\227=\344y\004\276$\341\006\275\354.\005\275\240\020\202\273\027\254\030\276(\247\301<\000\305\261\275H\306\304<\221\320\001\276\351\345!\276\273\220\000>(\222!\276\245A\006\276-F\032>\177\316\010>\004d>=V\002\340\275\276c\334=\3333\215\275\274\257-=\320\024\275<\000\370}\273($\304\274Z\200\273=U\360\272\275\033\253\320\275*\226w\275D\353\345\275\260\227\000\274\250\r\001=\000\215%\273\302\360\353=\223\242\003>!\255\020\276\300\360\216= \215\244\273\320I\315\274r\244\320=\244>b\275\302\254\374=\251\262\r>\330\234\312\275\270n/=C\002\245\275\240=\353<\232\330\206=\240\031`=\306d\275=Qq\200\275@\201\001\274\002r\374=\265\223\031>p>^\275\030c\325\274\307\304\024\276\005/\r>\332\352\313=\352\265Q\275:\002\002\276\202\273\375=\\t\231=\264\013{\275\242i\013\276\254\233\244=\220\375q\274\261\274\020\276\033\256\306\275\200\327%;\375\261\036\276J\016{\275\2205?=s\207\r\276b\326\000\276@\017\332;@\326\205<\224\257\306\275\332\210\323=\323?\240\275h\372\335<\357\224\n>\362\034\250=\3110\224\275N\'\240\275\344vj\275H#\345\275I\005\212\275@O\255\273!U\215\275\237<\007>\230\312\344<\250\372\355<ry\273=\370U\237\274U@\241\275\032n\323=W\205\244\275\360\235\002\274\234\251\014\276\036\370\037\276\374\030X=\364o\022\276\0044b=\321\017\305\275\213\264\350\275\000\324n\274\240\032l<D\017\010\276Rx\202\275\332\t\323=\240v\307;\274\177d\275\356<\277= \007\030<\342f\226=\240\221\214;4\2058=i\371 >\255T\264\275.\177\233\2750\354\356<s\034\307\275\030\331\014\276\000i\310:h\213\304\274\230\'\227\274\355q\324\275\000u\001;\310\256\022\275o\231\200\275b\300\322= \321M=\335\025\244\275Kk\005>\214\373\360\275s\336\033\276\350|~=f\030\037\275\246\023\304=2\021\313\275>\264\350\275\256\206\363=\276b\353=pc\356<\236\r\r\276U]\036\276G\t\375\275C\n\026>\302\037\272=\033C\320\275\000&\030\274\344\370o=\320\352\215\2758\263\230<\324\256\301\275\322\016\021\275$\305\353\275\232v\301\275w\001\037\276\230\037\010\275z\350t\275F3\351\275\330\021Z=,\314\004\276\336\016\034\276\260\352e<\272\244\215=0,\016=Z\013\261=\344\207>=H\307\336\274\332\326\010\276\342\036\316=H\034\036=\024o6=\266~\032\276\273\037\034>!\020\374\275\220\305\331\274\324\236[\275 \222\270\274\025)\001\276\n\254\355\275\030\023\375\274\000\t];0\372#\274|@\213=h\336\256<\030\034\350\274\331\236\300\275\2226\014\276\370s\201<\300F\273\274e2\023>h\2019=\336_\341=\361w\031>\316$\373=\020\265\216=\353b\035>\000\333\345\274&\321\372=8\264n=P\350\271\274\331-\r\276\000\202*\272=\004\007>\000\007k=\340\253\234\274E\000\024>\230\t\363\274\261\003\235\275\000\203\t\276\300\220\177\274\300\364i;\260\244\222\274\262X\367=\036K\343=\034\257*\275\2344j=(\203\211\274\n\rr\2758x\223<\3161\240=Co\n\276hM\203<\245\265\023\276\350\200\225\274n[\232=\320\301v<\304\356\265\275\200\322\227:\333\373\236\275\224\252\200=-\260\026\276\332\033h\275\363\370\030>\3177\236\275\240/\335<\240\301\030\274\000:M;\370\251\304\274\370g\031\276\350\025!=\020\306\201\274\n\212\260\275h\022\313<\260\350\256=\026\214\361=\273{\002\276\024\3714=\3229!\276}\252\001>\304\201|=\002ED\275\034r\313\275\320\263\033<\352\212\367=\n\347h\275P\014V=\022\006\246=\360\016\322\275\332\005\"\275\213\177\005>\276\360\334\275\006\307\307=\007\222\035>\214\234a\275\324k\266=V$\302=\220\000\214<I)\007>\320\367W\275\215%\002\276\214}\213=\034\262\250\275\305\325\207\275\334\027\026=\240\234\025\276\025A\014>\316\372\342=\034i\214\275 \235>\274\016\007l\275\010\370\373<@\271\344<H\226\205\275\3656\016\276\320\200\224\274B\336\275=(\246\227\274\340\341\007<*\003\326\275\003\367\006\276f\360\211={q\214\275\250\333\271=\355\353\242\275\000\"u=\310^\373\2752\006\344\275\022\252F\275\300\222\307\275\t\227\017>\316\\E\275W\023\026>P\203\014\274\026w\315\275\246\320\316=\205\177\003>\320L\007\276\344\310\264=\020\222:\274\316B\245=\350T\311<\240\373\314\273\374\253R=\306?\262\275\326n\222=\366g\351\275\242\270\357=D\370\204=\370\357K\275\\\270\223=0\330t\274\361\231\002\276\010\006\310\274\200\177a=\027\353\033>\302[\021\275\320\023\300\274XQ\232\2759+\213\275\324\234\005\2761\332 >\353N\032\276_\005\t>&=\300=tj\307\275\316LO\275\346\225\302\275\2130\036>\320L\256<\346\017\313=\240p\351;\200\320\021\275\364\244\241\275\000\372\000<\0207l=h\310A\275\025\343\034>\256\304\337\275`(\335\274\346]\036\276\260\210\235=D0\300\275 2\327;\360hk=\000\3642<-n\"\276\000\326y\272BC\317\275`pj<0\316I\274x\246\366\275&\036\341=\000\265a<\311\221\034\276|\307v\275\341e\014>@hc;\274t\031\275\264l\221=0\271\325<\033\370\350\275\276\207\335=\036\214\236=\'\336\270\275\036\275\366=\020\207\355<0oX=\314\317\026=\320\227|=\016#\000\276\330\337\006\276\r\303\271\275fv\265\275R\201\244\275\336L\300=\024H~=\364\316\373\275\224Y_=\004|!=\210\366\005=\004,\213=\344y\321\275\366\375\025\276f\326\253\275kF\001\276\223\025\"\276\370\'\362\274p\3710=\254\2721=\022\372\215=\010\320\240\274\321\005\036>@f\234<\202\002s\275\370\236\311<0\326\233\274\301)\340\275\271\025\215\275\2171\276\275)a\246\27504\357<\273\361\232\275-\245\026>z\255\236=\355D\002>\366\230\331\275$O\365\275\314\301\036=P\357\367\274\370\211\332\274\222?\312=\353\204\201\275\3633\034>\034\344q\275xG\255<\312\257\321\275\232\361\325=\340\006\343<\366D\225=\375%\351\275,\223n\275\200T\177\275<\260\372\275b\307\247\275\"\003\235\275j\360\253\275&\343\020\275\016\337\004\276\207\230\343\2759 \032>\025\264\020\276\020\r*\274\nx\377\275PPb\274p\0018\274\326\026\207=\223\311\022>\014\221\030\275IF\025>\360.\257=2\375Q\275\032\007\357=k\367\005>H\356:=\230\013$=\222t;\275\350\327\013\27638\005\2760mM\274^d\277=\307\230\027\276\013\351\213\275\274\327R=\320N_<\335\255\300\275e\315 \276 \016c<\227=\216\2758\336\205<\300\366\231\275JU\334=\3200\r\276\357\236\006>\224\234\237\275\265\343\222\275\267Z\">\371I\223\275\220\250\017\276\306i\307=z\264\221=\364\337P=rZ\007\276\245\022\223\275j\213\311=\262\275\216=\031u\025>\010\371\235\274\001G\t>\316\237\017\276\262\324\240=\360)h\275\351\021\013>pL\325<B\320\320\275\3204@=\"T\322=zm\334=\"\003\272=B\240\346=\3056\022\276p\177\032<\352C\360=\216\362\233=\020\031\346\274\365\357\304\275>\206\364=\240e0=;d\200\275\3100\311<\3605\330<\353c\021>\250l\240=\264\351\007=\273B\326\275\020@\340\274\230*\224\274\342Lv\275\3774\016>\312\314\210\275\340j\343;\236\371Q\275\205\271\021>\270\265\261\274\324\237\343\275.\314=\275\232\352\376=k\223\242\275\007\341\277\275rU\365\275\212w\254=<\371\342\275\026\322\371=~\231\200=\'\316\016\276\3069\232=A\177!>1\354\007>PM\200\274\240k\232<\255O\031>\260\344\324\274v\201\271\275\220q\246\274\332\347\017\276\010\024\325<\200\227\236;\360u\371<j\234\\\2754\021\222=\207\276\237\275\376\014\351=\332t\275=H\362\342<\236\264\371=\200\375\251\272=\260\207\275\000?\031\275\t\231\005>t,m\275\215\004\007>\\\222\251=\316\360\260\275;\317\002>r!\004\276N\244\005\276\004\014\003\276\340Fl\274H\374\033=Z\014\343\275\024\355w=\270;\221\274\340\352\243\274r\233\241\275\226\030\005\276\364&p=\220\2022\274\200\3419\275\"\002\336\275\337\364\002>\310\005\365\274\313\363\016\276\242b\357=\317\200\032>\212\342\322=<o\247=\200g\021< 6 =\226\225\001\2768\364a=P\222\204=\276\372\310=\014`|=\303\331\257\275\353\035\027>\334#y=\200\244\273\272\001\321\241\275z\346k\275\264\024\034\275\262\242\201=\206\032\304=\256\025\367=lx\023=\220P\"<6R\310= \207\373<\350 \267<n\213\363=\221u\031>B\\\370=\370\013\327\275\360\363\245<\340:\204\274e\003\035>[!\353\275\340g\365<\263\374\032\276\344\030\233\275\305S\001>>\257\236\275\251\255\317\275\262\310\025\276@\362\320\274y}\001>\037\212\"\276\020/\227<E\354\231\275sM\035>\200\351\261\274\320\246\356\274,[d=\"j\021\276\270u\004=\326\327\311=\000m\370<\310_\310\275\004$\224\275\356\345\342=Vh\343=\334BW\275\216\223F\275\205\267\016\276\200\3702;2j,\275N\020\327\275V!\211=`\n\274\274\025s\035> \305\246\273\024\240\202=G\215\021>\240\331\303\274i\355\021>\020\204=\275u\006\022>\201\303\247\275h\n \275\030)\361\275L>\010\276\034\276t=\006\217\341=0\320\250<\225\237\005\276\230\3354=\246\025\365=\272\332\323=N,\315=\320my\274\272=\344\275\336\204\336=\300\324\367\274\320\237\201<\372\227\246=\354@I=\360:\026\276~\025\t\276N`\217=\024\307\204\275\220/\355<&\316\024\275\332~\265\275\244\231\224\2758\266o=\250\216\210\275\245j\230\275\356\207\002\276\272 \342=\370\244d=\230\212\322\274U\013\030>\302^\367=\250)\007=\321;\202\275\010\'\333<tvj\275\\\013\t\2760J\361\275\2106r\275\030\301/=\0329\030\276\000#\337<\020O&<\300\221\021;\251D\"\276\3147\202=j\3176\275\3316!\276\200p\205:\034jZ\275\204\344\323\275\350\010L= \334#\274@3i\274\226\344\355\275\220E\361<^\260\317\275\000\216\316\274@;\200\273\316\307\236=h\225\031\276\330\271\236\275\310\267\231\275hc\361\275\234|4=\t\001\">@,\300;i?\">1s\304\275|\3279= x\367;V^\277=\226\254\317=\030\250\212=]d\014>\3722\361\275\007\330\007\276\334\220\367\275\210g\264\275R\245\361\275&R\016\276\310\205T=*\370\344=\t\r\375\275\246T\032\276\223&\024>\003<\t>us\036>\247\207\002>F\326\235\275\333U\016>N\335\224=\277\245\016>\350\2057=(\262\352\275,\257\002\275\2669\375=\031\363\027>s\014\000\276\367\330\021>>\n\265=&\220\255=\262\005I\275\324tP=E\372\026\276\220h\225<\300\240\355\273\360\325b<Nb\353=\340>\014<\014\362v\275\302\212\262=\352\224\r\276\010|\017=r#\310=\230\220\304<\026>\325\275\326k\257=\265V\035>0\324\351<\030}}=\014Ef\275\3604\006<\004%\332\275\354\221\'=J\307\234\275\236\034\255=JM\303=\\;l\275\240\004\232<\212\177\313\275\300e\226\275L\326I=\340\260\211=\034\230\026= \325\376<j\207\260\275C\277\264\275\376N\206=k\200\021\276\001\354\007\276\240l\350;\250\321\315\275\023\004\026\276\0024\323=\200T\354\273\332\014\361=\333\030\302\275\321\351\007\276\204\230Y=@s\270;\262c\315\275@\275\337;R\312\315\275\334\324\021\276b\021\"\275vQ\341\275\270\365\207\274l:\334\275\"\275\313=\260_\347\275\240\246\212=\032y\374\275\"\177\205=\336\026v\275\352\357\016\276~\263\214\275\322\361\034\276\'\005\034\276\2033\006>\220i\\<\0009\323\274L\314O=FG\344=\006\240\216\275x\367Q\275\370\255$=\255\006\"\276@\327\002\276\000\341\014<T\221\372\275=*\024>\370\332\342<\242\214\224=P\254\340<@\267g=\304\265\207=\262\254\372\275\240\010\200\273L\311\353\275\254\340h\275\006\265\204=<Dh=\032Q_\275;l\020>^`q\275\317\025\037>F\255z\275\024\253\214\275:z\262=\336Nj\275\231z\273\275 \202\007\276\200{<\274\036\201\023\276\330\330\004\275p({<I\215\331\275\010\316\250<\250\035\036\276l\273\321\275\300\207*;\200\331\227\273\2201L\275\000(\213\275\2321\366=Bo\303=w\207\263\275\314\236\217\275\332\236\257=r\361\214=H*\304\275\204\r8=\276\244\267=$\346\223\2758\243\304<\343 \036\276b\300\234=\000\236\361\273\014\241\025=\000\243;\273\250#J\275\365\226\236\2750\340t<\014/\266=\340\037\210=\300\363\032\273\246x\316\275\372F2\275\246S\230=\250\014\340\274m\010\272\275\267\260\005\276T\r\036\276\302\317\312=F\210\310=\037\025\376\275\024\300\r=\"\265\267= \231\372\275\210?\225=FQ\305\275\243\234\030>\020\350~\274\325\201\033>H\333\265<v\236\305=\200\000x\274L\234:\275\340\356\256<\022\033\303=@\364\023;\\L\254=}\241\026\276\360\347V\274\362\340\377=`\304\217<\005\013\234\275\212\002\247\275\303\n\207\2756E\304\2750Z\346\275\222?.\275\200Hb\275\344m\207=\002\361S\275\310\240\366\274\300\021\033;\340j\260;P\254\'<J\014\316=P;\030\274G\361\036>\343\266\023>\000\256\226\271.\016\025\276\206\312\323\275\253M\027>@\205\240\274u\266\026>h\272Q=\372/\252=\200\017k<\361\315\037>0;\027<\266\327\216\275\016\021\025\275\351\271\262\275_\345\235\275\nU\331\275\244ui\275F\347\367=\253\344\036>p\302\007=\230\362\361\274\353\263\036>\367H\037\276@\014\004;v\023\256\275\026\323\010\276\360\0242<\031\026\">`H\222=\260&K<\340\375F=\240D\276\274\340M\"\274d\007\000\276\207\017\r>\251\"\243\275\225\357\024><\375\017=\220\375S\2749Z\250\275x\200;=\362\020\372\275$\243\200\275y\022\364\275\300T\246=\343z\010\276\306\272\323=\2123\273=\204\347*=4ue\275&\337\247=O\037\301\275\334CW=\207\257\003>\3134\020>v5\207=P4\013\276P\204!\276\362\301C\275\024\332>\275\003\345\264\275\030\016J=\2524\026\276\341\206\270\275\201\\ >&*\334\275@\271\032;7\306\002>\275\315\307\275\005\206\023>pt\315\274\270\244\265<\252\257\323=\214\363N=]U >\345\337\r\276\242h\304=\034\330}=\034\005x\275\266\314\371=\200\350\020<\354\000\227=V\214\302=\270\215\244<\316\t\314\275\004j\231\275Q\312\017>xV\227=;0\263\275\004\272|=@0&=\260\371\013\275S\200\024>\216y\233=`\242a\274xB\006=\036L\357=mk\334\275a\234\354\275 \314S=\300Hh<\330\227I=\014\303\337\275f\275\224\275P\031\210\275G\276\320\275B\263\322=b#\324\275\3701\254\275@\227S<\220\375\341<0\355\t\274@7\217\274\260\230P\274\231\255\305\275 \252W\275\332\217\321=\002X\334=\272g\025\275\215@\001\2768r\014\276V0\373=:\353\255=p]\227<\332\3429\275\317W\224\275\200\256\025\273lU\030\275^\253T\275j\313\300=<7\221=\2520a\275?\023\032>\207\246\035>\312\027\236=Fp\310=\311E\016\276\000*\367\274TI\014\275\016\364\322=n*,\275$\2156=\322\022\316=\210\373\325<\331\371\002>\276\231\261\275\000\3552\274\326a\307=\014\340\230=\332\272\310\275\3604q<\224\241\026\275@\267\"<\247\252\020\276\370\272\223<\210\204\202=Z\014\364=(\230\372\274\'3\025>$\236\t=\034\257\377\275\200\275\221<\367\275\250\275\340.\027\276\367c\267\275\300]}=\301\037\237\275\010IP\275\241\332\350\275\260\253\211=\316\221\226=l\367\215\275\302\323\203\275\271\315\237\275J\301\031\276$aL\275\332\213\014\276\")\316\2759\366\027>\216s\345=@>\315<\350\242\372\275\342n\330=\312\370\376\275@w)=\255\306\014\276\260\215\205=%\031\221\275\244\262\002\276\014\004S\275oo >\237\225\251\275\005\312\303\275._\343=d\336S\275\376U\323=\303`\205\275\300F\202;2\2631\275\037\256\325\275\244\367 \275\240\000\353;2A\324=\202\361\302=\206&\263\275/p\023>\257\350\020>\344\303J=\204\316\026\276\266Z\341=\242+\300\275@\350\260;l\301\r=f&\317=\262@a\275\340\236 <\260\206\327<FH\306=\000tH\273B\257\313=\010\332p=\370p\016=H\210s=\266;\303=\352\337.\275k\237\031>\200iM\275\204\253\222=\320\006U=Qy\r\276\244\304\201=xx\257=p\240\210=n\002\005\276\300:\014<z\207\204\275\030\033\010=<\rC=\216G\370=HL\001=@\233\265<\330rM=\236{\256=\204\346\\\275\374\023\362\275\210\266\241=@\223k\274.\350\023\276{u\335\275\000\304\326\273\272C\240=~iT\275B\254\335=\006_!\275n\340\377=\220\013u=0(\003\2766\027\343\275$m\031=\310\251\241=xtv\275\340\210W=\032\332\320=]\\\017>%o\007>\236O\232=\3016\023>\t\326\032>\037\314\001><\216b=!\243\234\275\251\007\035\276\214T\226=\340\206\264=\020\247H<\314e\013\276@\332T\274\200\374\022\273\252\277\376=\222Y\354=\000-\271:j\'\206=\300z\266\273\321\207\004>\337[\213\275 \306\264\2750\022M\274\300\337\363<\333\271\276\275N\260\302=\317\017\032>\300\361\233;\356\334\375=v\366\265=\316Q/\275\010Z\217\274$\305\205\275\366\350\240\275\016#\227=\320q\014=\204)\307\275h\364\261<}\'\005>@\\\345\273\032h\320=\200.\206<\304&\324\275`\014\220<\241\200\336\275\235T\254\275p\004\031=\314\031\030\275\246!\310=\226\317\323=<\256\227=\334\245\221\275@s\363\274\246\207T\275.%,\275\202c\341=C*\306\275\030[\"\276.Q\270=D\211%\275\010\215+\275\231{\034>\007H\021>\242\034\276\275\366*~\275 \213\246\273\022i\201=\252\241\321=\002\207s\275\232=\375\275\215\232\331\275FY\371=\242bu\275\376_\260=e}\016>\242\027\211\275\274gS=\221g\021>\200;\277\274lt_=o\254\300\275\010\021\312\274\2708\327\275\320\014\022=N+\273=\320\345\001\274\256N\367=\250R\222<t\234\037=wo\027\276\200!\210\273\354c\253=\255n \276\304\306[\275\200\226$;U/\000>O\336\010>\210\305_\275\002\252\300=A\374\004\276\000B\211<\000\253R<\\+\263=4\223\221\275\003A\003>Bt\363=\3402X=@Q\314<\320\330\311<\220\251;=R\265\"\276\316\024L\275\2008\324\272,\201\000\275\nJ\010\276\253.\006>\200\327\257\274@G3\274\000\200\314\271I\243\024>\000$\0059\301\256\034>H\352\254=M,\373\275\325P\000>\226H\214=\223\276\037>\364\\\346\275\341\312\002\276\236\003\222\275(f\302<\000K\205=@\223\214\273\033\253\203\275\300\277\350\273\005\201\345\275$\237<=t\232\257=\260\343\214\274\003\353\025>\360\001Y<;<\000>nR\243=\320\351S=/\260\033>t\006\014=\344\307\332\275\206:\352\275\350\013\345\274z\245\327=\010\247Q=XV\t\275 E\233\275\320\341\273<\000\021\323\2728\261\324<\374\025\260\275\247U\035>\0106B=\315]\221\275d\326b=4w;=\030\346\335\275PS\274\274\340\032\207=\016\020\334\275\346Y\201=\270\237X=\274`)\275H\004J=\260\355\364\275\021\237\253\275[\242\r>\235 \364\275\004\222\266=\346vL\275\240&\256<z\202\321= \377\320\274 \330\274\273\344\035\312\275TL\006=M\035\003>@\201\315\274p\227\264<\001_\022>\030\304\336\275^&\341=\200,T<\014\216\261=\016M\016\276\346\340\327\275:M\026\276\240\364\212=\010\3170\275\022\350\334=!\n\254\275;\321\003>\304\362\213=^\321\016\2767\001\205\2758\316Y=%!\021>K/\026\2761\255\034>\311\024\030>TE\356\275_\004\022\276\241\375\021>am\317\275Xt\022\275`\r\211;\302\346\354=\262\203\233\275|\276\035=J\351\032\276*R\347=<K\251=`\022\316;\207s\007\276\306T\332\275\234\255J=h\037\322\275n{\310\275\031\361!>\300\366R\274\260\257(\275$\004\361\275\367\014\341\275\274\003%\275\255\300\006>`\016\363\274\221$\031\276J\230\036\2768{\260=\352\033\313=W\205\017>\350FV\275G\276\025>\210\215\337<\020?\r<X!\254=-\002\340\275\256\265\216\275Rg\027\276\344\007\n\276\275\212\037>3N\251\275\356\227\273=\353t \276g\316\247\275\220D\300\274\245S!>\300z\013\276\262\377\314=\2750\206\275\246\014\353=\374\326;=Hy==\256\230 \276\242^1\275\220\263\023\276\220\273\033\275\2455\273\275R\373\023\275\313\304\264\275\250\0035=\032\342\330=\244\332}=\260WH<d\266.\275\366\345\376=\200I\330:\020\371U=\002\265\310\275l\276\242=\025\347\003\276\272X\036\276^f\031\276\000\272\311\274\024\251\267\275\226\005\357=(\037\315\275y\016\014\276\350L\237<l\024Y=\350\327)\275b\276\225\275\320\306\231<xf\032\276LI\001=\200k\216\274\200ZM=\361Z\233\275?\266\033>(\372\333<\351*\">\232&\312\275W\351\n>\320e/=\232\360\324\275+\201\000>R\n\310\275\354\002\030\275\022\005\226\2756\"\301=\n\257\362\275\002U\361=~\324\353=\232\205\260\275R:o\275\205G\033>\200?\352;\340M\360\273\250HF=`\236\333\273\0320\273=\n|\212\275\"\226\300=Pz\362\274h\334\361<\027K\034>eQ\035>\355\'\023>h\020+\275\301r\022>r\271\265\275\276o\016\276`\223\230\273\230$\317<\310\263\305\275L\313\354\275\233t\014>4\"8\275\260_\250\274Ay\002>\360\345z\274\200\275I<\336\245<\275\244\221l=\262\020K\275\"\353\227=2\023\341=\314z=\275JJ\303=\304C\025\275\036\230\375=\347\341\t>\240\250\362\274X?\376\275`\314\310\275Gn\356\275\000x\371\271\360\021\005<\350\372\315\275\224$\252=(\314\321\274\214\326\022\276\340w\312\273\366h\362=\230)\276\274\010\316\003\276\355\236\034>\340\214\356\273\n3\367\275\022-\003\276\200\336T\273(\262\n=*q\226=bn\351=\222\327\356=\007\255\006\276\300@\337<(\315\014=d\200\342\275F\366\200\275\360\352\027=Z\025G\275\365\363\031\276\016\234\361\275\303s\227\275\372\347\210\275\233l\016>\007W\245\275l\376&\275\332\304\325=pNF\274\332WJ\275\322\333\336\275`%\227\273\2448\013\275*\366\255=`\261\255<\"\024\326=\217\242\025>D\277Q=\341I\272\275IE\037\276\004\271w\275`\274\222<\270\343\333\274!:\272\275\017\247\034> \302\376<\222\\\022\276J\'\373=K\243\242\275\026E\337=\030H\370\274\360f\032=(\3305=l}\324\275\034%f=\340#3<\026]\367=\230\317\206=\375\273\261\275X\332\246=J/\245=\330YK\275\307\014\033\276\2504\n=\255\235\026>\200\247\277:\244\003\234\275hZ\245<\026;\025\276\300L\220\274T\032c\275(\275\266\274]\356!\276\252\344\320\275\257\235 >\374:\243=^\232\233=\316\336`\2757\313\031>`>\200;yB\035>\366\263A\275ko >T\262\234=\026J\353\275\000\211\217=\3744\036=fi}\275\010\035\345<\235\263\016\276\236\204\301=*VT\275 \034B<+\371\003>\024Hz\275\000\347Q;\315B\276\275\277\310\013>\246\013\342=\004\377\263\275,z\023=\210,\240=\366\000\351=aW\r>-\375\037>\035~\310\275j\242g\275mB\017>i\256\273\275\210\252\205\275\376`\224=*\373\202=\2002\365<\333F\317\275@\340\230\274@\2020<\266\346\222=\326F\010\276\3171\">\304\300\201\275J\200\345=\n\320g\275\2606\350\275\260W\220=\'Y\t>0\0013\274\271\306\037>\365\020\035>\341\277\027\2762\357M\275\352V\222=\rh\241\275h?\317\274`\357\307\274@\332^;\251S\020>\200uH=t\346\033\276\240\330\000<\310A\211<\300\307+\273\016\232\310=\032\267\312=\233m\n>X\270\210=\204\330\267=P\251g\274h\016\222<\277{\023>4I\002\276\313\027\221\275\332F\023\276\260\206\327\274DG3=:\240\263\2754m\276\275R-\020\275&\r\203=P]\366\275\340\257\303\273\030i\033\276:?\020\275\370\351\326\274a\327\"\276\260\225\271=`N\344\273\323\215\">\362\244\356=9\024\247\275\"\255\374\275\346s\240=l===\370\250\260<\000NL\275H;\337<\024\231 \276\240|\227<^\342\306= \323\266\274l\301\314\2752\242\370=\350\325\014=\005\220\250\275\214\324*=\365o\036>\302\322\276= \2345=U\227\017\276\350RA=\032\220;\275\036]\257\275\032\260\316=\300\373\030\273hM\356<\344\263U\275V\375f\275\3300\020\276LB,\275w\017\272\275t\244\241=\300\007n\275\250f0=\222\236\304\275y\213\003\276\223\317\034>$\256\206==\370!>\0003\"\273@@\351;\262_\355=\345\301\n>\034T\370\275\227Y\021>*\205\277=`\243\276<\263\261\321\275LH\007\276\033:\003\276\251E\377\275\336\016f\275tj\030\276\336G\302=\305S\027\276\014\335\265\275\236r\023\276\037& >\272\360\354=N\275\314=\";\244=\010\376\273<u\376\022>\354Zy=<\177\r\275\032\241g\2750\336O\274\242\277\207=\200*\376:\204\327\257\275\000\025\345;k\322\016>v\350~\275\341\347\014\276\253O\300\275\24062=oJ\033\276\326O\330\275\320O\215<\332\364 \275\nD/\275\000\010\317;I;\022>\234z\272\275@\377\255\275\300]\265\274\225\343\007>T\355\024=\234\013\323\275T\2012=\014\302\272\275\250\301\257\275C\211\002>\225\026\032>\030\004\334\274\240i)\274 h\237\274\310u\027\276\270:\242=\372nz\275F\235\307=\006\311\277\275JT\300=\300!\032\274/\304\000\276\213\225\027\276\036f\221=z}\332=\346\235\376=\223\311\236\275\312V\216=\231\241\261\275\206=f\275,\314\317\275\327\037\337\275\020\206w=\314\265\034\276\314Uo=\'P\022>\220\200\031\274\250\313\021=X\346\275\274r;\027\276\340\371\035\275\02049\274(\235\334\274V\352\354=p\225*\274\207*\020>X\023\237\275x<s\275\006\326\321=\370;\031=\323L\005>I\267\344\275\357\223\345\275\000x\3738\210\351\226<\201\350\033>\252T\310\275\200n\271\274\300\234\021;\017\253\t>\014\311\321\275\242\360\222\275\370\262\037\275]^\002>\3036\022\276\224\252\264\275\3224\212=\342Bt\275\323\265\035\276\305\354\274\275\367K\030\276\301\305\023>\320\242\022=x\333\177=P\324\256\274\200\234\252:-r\013> \0346\274rp\006\276\323\215\017>\346\342\336=4/\221=\222\r\371=\257X\025\276\370\274\233\274\206\030\222=\200n\200;\346\366\016\276X]\240=\331\225\301\275\2173\033>\n\201\324=PX\370<\200\2652<9\023\002> u$=h\305\022\276\376\261\215=\271\001\017>\331\204\031\276\016\240\233\275\000\023W=\26039\274\320b\203<>:\303\275\367R\264\275\260\362\200\274\370\346\342\274\022U\215=6\035\212\275\036t\350=\320\177!\274\210<\307<\010\344\r=\200+\273\275\001\266\022>\364\001\240=\316\362\372=\n\376\322=*\347\314=PCi<\276\207\026\276&/\010\276\300\220k\275*d\310=\374\017\274\275\345\014\303\275\360\365\030\274|?\232=ZU\323=L%\223=`\263a=\376\003\302\275\323}\252\275\260\301I\275\210\341}\275 \252;\274\364\257\251\275\213\307\030\276\000\205\327<T\235k=\336\250\365=\365\320\r>\200\242E=iz\034>p\357\006\274O\335\365\275\370\235\267<qQ\253\275\177\006\036\276\236$\361\275,\030\t\275\224\023\007\275\344\233\007=\000\226\331\273\337\252\332\275\272-\345=\214Q\324\275\2440\007\276/\036\020>\374\206F\2752\343\217\275\020\365\361\274\023\034\000>B@\201=9\303\276\275\374n\\\275\343\275\014>\314,\026\276f9P\275\211%\021>(\262\321\275\036\262\212\275\207R\023\276Hb\322<\300\242\350\273\026I\202=\010\245\360\275 \213\\\274\320\366X<\355\223\033>\374\352\030\275g\354!\276\006\301\374=\256\237\354=\316P\310\275oo\021>t\274\262=\340\233\240=X]?=\376\025\257=\217\266\022>\267#\021>wb\017\276\343\005\010>\0006\353\272\314mw=\222\311\r\276\036\250\313=\200\275\377<[\035\032>\026/\366=Xo\"\275\340\224\364;S\234\t>\300\037\262\275rj\325=0\212\233\274\270Z\331<\340\330\344;\344>X=\255\343\002><e\032=\370\277\213=y\374\000>\303\000\n>\362>\341\275\t\262\000\276\232\253\257\275`\377L=\200\t<\275\357^\244\275\203\356\033>\023\356\n>>\261\233\275\346\202\210=5o\014>@b\333;\225\371\022>p+1=\000p\200\272\220\233\226\274v\232\301\275(X\233<\311\203\036>\217\222\022\276\260)y\274\376\344\307=\240\007\336\274\327\203\335\275\361u\026>p/\213\275\000u\212=\212\251\r\276\200FK<\310\344\374<\000\234\365\272\312\023\337\275i\030\n>\350\000\361\2744\366\226=\320YM\274\220`\010<]R\r>\3007\r=\340\327\211=N\340\232=\000\315q=F\220\032\275\003\347\n>\230a\236=\322\246\204=8\254\374\275~\010\365=\227\016\266\275zi\360=\264\256\002\276\210\'\242\274\300\202\232=\222\0335\275X\024\341\275\370\374/=\214\357\361\275 \337\036\276P\373\310\274\024\2417\275\320c\200<\242\200\321\275\000\"\000\276@\305\354;\234Gs=\366\376\347=\330\367\265\274zA\267\275\010\332\211<\221<\014>\300}=<\\A\355\275@\322i=5j\034\276V\222\325\275\"\177\236\275\373\244\030>.A\234=\254Y\014\276\335\230\t>>\013\350=\360\213\260\274g\303\214\275Ptk=\242;\355=\213l\033>U\227\257\275\332\247\331=\262\350\313=\022\017[\275>\215\356=\304[\230\275\250Yn=\2045\372\275x\272\375\275\364\034\035=\344\345\235=\306\367_\275\344\034\233\275H\203\253<\026\335g\275\307\245\326\275\346q\302\275Ip\026>\001\003\232\275S\353\034>\206\010d\275r3Y\275\350\005\005\275*\222\343=\3525\333=\254\347\007=\016*\034\276\364i\260=X\346\377\275\226\303\273=Q\265\026>\345T\264\275\000\3079\273\300\277w;\026\230\270=$\353x=\2005\367:\252\270\302=|\230x\275.\243\275=mZ\031\276Nj\'\275\357\327\034>zz\261=\272\246\257\275B|\034\276(\033\023\276?\254\200\275\340J\024<0\322\211=\263\037\255\275J\212\326=\210f\355\274\242\t\260=\223\211\027>\250p\250=\310j\023\276\020\250Z<O\033\026>u| >\014l]=uO\030\276\310!\264\2756\273\326=\331O\033>\025\224\030>\324a\274\275\374\'\004=RE\375=\232\373\223=#\373\030\276=l >\032\247\317=8\2270=4\344\n= r\265=c\240\005\276\330\207\342\274\260\321g<\031\027\307\275\312\324\306=F\002\254=zr\337=\337\364\025>P=\220<\352K\332=\000\3365\275\260{\326<x\377\310\275LW;=\310\315\266\275\266\211\334=\316\363\227=\272\270\341\275\200O\'\274\366\335-\275\252\260\332=\374\242\253=\312\375\361\275\240\331\267=\222Vt\275.n\216\275\000\234\247:\023\313\025\276\370\303\236=f\222F\275\036\224\326=0\374T=\340\242\211=\2404\016=\016\366\332=\000P\324\271\372\217\271=\030\373\302\274-\307\034>\370N\005\276\3000\252=b\337\361=\244\220I\275~\204j\275\272\246\356=\000=R;\020\232\r\276\'S\020\276\0141\007= S[=Z\313\275=\300A\021\274\240\r\314;\030O\033=\313\335\032>OP\027>\206$\354=\240_\320\274\037\025\007>\224\367r=\023\300\032>\340\330\260=\200\210\001=V\341\257=;\230\032\276\266W~\275\2302\302\275\224\224w\275p!e=@\275\201;M\266\031>0n\224<\224\223D=\3174\010\276\020K\023=\366\030\030\276\300\003\022<\272D\317\275x{\220=\356\315\027\276P\232\020\276r\234\336=\3220\316=\337\326\264\275\253Q >\025E\025\276X\025\034\275\024?\231\275\241\023\023\276\272\220\323\275\006\261\356=\010\277t\275\270\366\'\275\221\033\234\275<\346{=\314\375\255=\022\231\352=P\314\244\274 ,\270=\340\357P\274X\255S=\261\216\307\275\337\231\027\276\234Ha=u\322\241\275\220\024\230=\330\"H=h\260\234<=v\222\275\225\353\025\276\334\370\034\276\237\326\037>P\371\013<\002C\267=L\206\023\276<\276\257=\006\3059\275\210\022\232<\360,\230\2748;\260=\007\324\n>1\223\010\276\214\251h=4\327\240=\252\2232\275\030\2241\275\310\376\006\276\210#{\275\"\300\215\275,~\341\275`\321\356\274\250\371:\275\270W\225=v\230\251=\330\233\025=\000~\236\271\\Z\334\275u\277\336\275r\365\352=\377~\030>\320i\267=\335\211\247\275\320\241V\274\270\317\232<\312\225\373=\314\263\034\276\352-\323\275t\3345=\230\243\206<\364]X=y\346\261\275\310\320\213=l}\265=\001J\027>\240\374F<\030]\223<\026\022\305\275\033Q\004>\000\325\255<\240\260\325\275\265\313\006>/3\031\276\347\317\246\275\032\236\007\276\254\211\355\275.\245\343=@d\033\275\360\225\010=\235H\263\275\340kn=\270\330\321< \221\r<\030\032\272<\201F\003>x\2627=\370\225\321<\372U\257=x\214J=\234\023\024\2768\276\310\274\314\355d=\000\245\246\272\205V\006>G\300\024>\240\244\231;\247k \276\000gp;@\237\322\275D\202g=\376C\366=\266\016\337=[$\374\275\340b_<8\235\377<\300\230\340\274\326\261K\275h\255\251\275\300\354@\275\250u\264=\276M>\275\354\370\266\275\232m\325=\201C\006\276\3542\250=l\227 =!Y\367\275}\001\023>iJ\254\275\205\003\036>\373H\027>\322\027\356=\261\304\026>@S\224=\030\020\371<\2343Q=<-\244=0.\\=Xv\t\276\350/\232<t.!\275\251\"\274\275\033\311\035>\265\356\t>\216\261\330=\316t\332=\273o\327\275(Q\337\274\234\355\230=R\200\333\275\376\365*\275\332\307\217=\300\024\002\273 \312j<\246\021\225\275h\024\343\275T\014\025\276* \363=\034\n\301\2758Z\360\274\332\321R\275x\3368=\215\033\014>\214ae=:\027\025\276y%\236\275y\361\001\276\364,\252=\000\360\3618\302+\005\276wW\274\275\274\227\240=\2257\007>\202\024\326\275\030v!=:w\231=\245=\016>\010l\365<\000\004d\272\310\215\233=\006\001\313\275`5\210\275\236\215M\275\352#\324=L\225\031\276\343\221\004>\312F\207=\372^\371\275\020\326x\275\030R\035\275 \000\271=\376I\022\276\346\306{\275\000P1;\250_;=$!o=S\225\027>\262\215*\275\240|\255=\370\020\224<\361\262\027>\244\260f\275\353\376\013>L\353\233\275\302i\367\275\000\2223<\355\324\021>\n\207n\275\372\001\223\275\006N\327=m&\032>\325]\370\275\230\370\270\274\n\215\342\275\000\004K:R\225\247\275\376Z\230\275T\300\007=\214\031\020=T\227>\275\336M\305=P\302\362<(\255\216\274\257\034\326\275\000\337\236=r\231?\275P9u=\024\307\032\276\000\000`72B\307=\264\264\266=\334Wv=C\177\000>\224\325\003\276DP8\275\242\005\326=\312~\222=\246\372\221=K\223\251\275h\003\300<Ih\373\275\274\005L=\325m\215\275\272m\306\2750\231\275<\220X\312<\"g4\275\000k\022\274\300\314\266<$r\214=3\276\n>`\234\265<\202?\312=\027t\035>|0H=(\355\326\275\266\257\036\276\304\013\202\275\340N\251\275\366S\266\275\000u\024=\350h.=\300\324\205=U\332\354\275e,\031>\312\t\217=\3009\227\273\273\336\013>N\264\034\276\374\313\\=\000\255\246=\301\242\000>\326\370\274=\010&\232=\300\236\305\273\365\025\036\276.,\017\276\346\323=\275\260\r\010\274<\t\334\275\354\273\245=\244\215\031\275\214\3457=\036\270\236=x%z=\340\372C<0\022w=\300M\035;\315q\214\275\000\356\363\274B\305P\275\261B\036>\260^{\274\350\215\221<l\203W\275\304\010d=\354M\251\275\031\220\207\275\304\226\227\275\306\247\321=\272\220\010\276\240\232\223=\224\225\037\276\000\277!\274\016j\344=\346\226\226={\246\027>\256G\253=\330s\320\2743\300\276\275CT\237\275]\006\001\276\212\206\305=hy\324\275\021\303\030>>\344@\275RX\200=<{\\=\376\370\203=-\236\001>\314\346\027\275\374\351>=\300\271\350\273@\306h\274\206\212\265=y\336\222\275\340\016b<\024\320n=R\r\243=\265\332\305\275\304?\007\276{\203\005>\300\256\\;\"\304\022\2767\272\014>\340\347\222\273\026\351,\275\337Y\017>\276\016\361\275\335\346\n>e1\022>0\370\276\275m\214\266\275\001\t\"\276\3403\356<\377&\327\275\300\375t<\342\250\313=\343K\034\276GU\331\275n~\325\275\212%\252=\3241\021\2756\320\366=\232\300\021\276\242\r!\275\000\316\006\274\221A\276\275\352\241\226=\354\301==<\013\037=@P\';0D\250=$\263?=\372\037\342=0\201\031\274\337\200\002\276H\321I=\257%\017>\302:\325=\365\027!>\267\033\256\275\026\314\223\275h\355\027\275\344\377\263=`\242#<Ze\025\276\005\n\021> \347U=\336\320\364=\330$\261\274\232J\332=\000\013N\275L\360\034\276\350i\205\274\310%\271<0\371:=\372\336\236=\301\201\005>|\t\341\275\240\237\r<\243\340\317\275\332h\330=\246\370\333=S\321\036\276\360\027_<\272.\355=\271f\016>\320\216\243=`a\315\273\270\002\360<|\017\014=\370#\321\274H\314\361\275\250\035a=\202\025\256\275(\267\371\274\256\271\345\275j\265\221=\314(\r\276\354\201Q\275\002\227\212=&\024\316=_\273\306\275\246\261\230=\326\023\307\275\004\362\223\275\0233\267\275\220D:\274\200 E\273\326\003\253\275*S\302=:\327\031\276\356\347\"\276\300\231\030;\000\334\236\274C\304\002>W\201\034\276VB\311=X\276\333<\356q*\275\000dD\273&)\374\275>!\264=\220&\344\274\340\2464<\020\334w<2\t\231=\220p\202\275RA\207=\300\310X\2734f#=^X\203\275\307]\271\275\317\253\027>\330S\251<\276\376\016\276\222\256}\275\332\307\254=\020\365\233=V\361\341=w\347\021>\020\241!\274V\326l\275\266\025n\2756\026\214=\0200\r<j\024\027\276(F\261\274\254C\210=\260\241\313\274\200q^\274\352y\016\275\330\317\304\274\342p\310=\354\331\002\276\341w\006>Q\321\013>8\321\340\275>p\027\2760T\245=(\223\'=\261F!>^\223\311=\314\013\324\275\226\207\t\276\300\352d\273\004\257\216=\327\311\027>mW\034>~F\246=\000dZ;\205\370\024\276\225v!>.\251\221=\006l\365=\000\361\370\274\354\356V=8\343\203\274\252\000\235=\036A\343=\300\363\351\273\224\273\005=Td\027\275\242p\373=\200\300f\274 \374q\274Z\"\273=\234\2324= \261\216\274eT\223\275\026#\324=v%\025\275\315\364\025>\356\031\r\276 \273T=\231=\026>&\037\322=\224\351 \2765*\324\275:\037H\275\212{\250=t\221\254\275\000\310%\273`\211\344<\300\356E=#\325\252\275}\021\016\276@\231\333\273<\360>\275J4\236\275q\204\003> \347\177=\353F\010\276\000N\274\271(\025~=21\204\2756\222\340=\001\347\002>Pnt=\202O0\275\3578\027>\230\037\234<HR\010=\261u\007> \331\001=(\217\274<=\253\005>Ntv\275\355\032\024>l\256)\275\367\t\240\275\024\3459=\257\255\241\275;\033\036\276\373\307\226\275\3053\257\275k\274\000>\366,\314=\236\006\315=\332y\212=\362\3447\275\226\253G\275\250\376\232=b7\245=0\"\234=l\357\201=\354\001\202=H\255\244\274W\204\020>\302%\327=\370\253\315\2758\226\224=A\207\030\276,\243\"=`v\320<\3101\024\275\220*\003<\0134\274\275:f\276=\215\234\t>\030\246\213=\002S\216=\340\031\224= W\237\273\013\377\000>\311T\226\275:\336\023\276j1\243=\224A\017\276.\222n\275\254\226\356\275\370{Z\275>\251\272=Bj\346\275S\235\002>\3139\276\275\"l\374=\241\343\026>-\316\250\275ED\270\275T\001Q=\014p)\275\236\025a\275\3626\311=\344o1\275\035\027\002>\346\216\345\275\252tD\275v\327\006\276\272\336\357=\310u\246<\377s\">\260\024\340\274(x\351\274\000\030\327\2720\327\222<d\342\243=\302\366\247\275D\215\n\276c\315\037\276\362;\026\276\333\370\213\275\024\201\203=F\347\217=\232\035\322=X4\261\274`\031\322;\020WZ=\315*\004\276\200q\025\273t\324\341\275\266\206\316=\273\352\024>\202\343\027\276s\375\035>0d\332<\213\n\003\276\302(\211=\210\210\204=~W\320=C\315\023> 0\202<\004\267\333\275@\256\302<~\332%\2758\242\203\274}\211\017\276\310\272\335\274\006\331\311=\023\007\006\276\022\306\304\275\000\005S;\"\223\313=O\327\014>\354\211\331\275\030\235\363\2740z^\275$\362>=\246D\t\276\330\247\237\274-P\002>\'\313\023\276~mN\275\016\330\215=@\333\334;zf\256\275\342\341\244=\230\305Y\275&)\201=\250?d\275\220\261!\275 `\033<\\\031\213=\001\031\032>\273|\r>\341c\216\275\234o\231=P\317\366<\372!\342= \363i<2P\\\275vd\211=\334\226b=\224~d\275\214v\\\275\204F\004\276\200\211\315\275~\373F\275\346\363\351=\220U\304<R\353<\2754\275\306\275\207\267\010\276\233\211\013> \032\035\275\034X9=\000\332\000=p\310V\274\326m\364=\210\017\361<o\246\036>\351\324\232\275\200\323}<:\245\210=9\336\250\275\204\343\244=\270\307S\275*\005\233=\020\274\346\274\224F\005\276\251\205\031>\313/\037>\216\307\300=\"\275\024\276\352\342\324\275*\n\312=5a\035\276&\344\203\275\240O\025=\220\334\362\274\340y\257\273\230H\332<\224\'\\=h\013\332\274\300\2229=\000w\227\272\246}\321\275\330\350x=0\274\022\275H\322\362\2753j >`\353\013=\362\207\307\275\030\230\211=v\260\177\275\tw\027\276\200\353<\274`-\356;\250\236\025=\203\311\017>K\270\242\275\036a\273=(O\231\274\325\226\006>p\336\263\275\246\004%\275P\213\235\275zz\320\275\240\024#\274\354\316L=2>\004\276\2003c\273\232\037Y\275\035\221\000>\210\026\034\275\000\371\301\2743\255\303\275( \034=\240\241\335<\254\346\376\275\360\336\333\274w\337\n\276R\034\026\275\262X\364=\207!\t\276q{\037>(\221\260\275R \276=q\344\341\275O:\247\275(wt=C\226\232\275\312\311\346=\200$i=\254P\036\275`\351\314<\303\023\n>\344\303\002\275\200\016\235<\312\241\367=\346Z\332=\236\014E\275\300}\302\273`\245\267\274\212\220C\275\232\310\215=Ts\266\275\0344H=t>.=\213\026\233\275>\247\247\275Z\231\250=\220U\326\275\355\314\026>\250H\311\274^\360\024\276\034\023\014\276\376\277\301=|J\201=\3532\007>\225\221\027>\302\001.\275L\244\306\275~\023\301=\244XN=\261\003\034>\024\336z=\351\326\003\276\360\276\010\274\336\365\353\275\200}\234:\200\226\227\274{\334\206\275.{\024\276\013t\010>|\030\014=@\272\016;\242\254\251=\322\334\335=>\354\032\275\320T+\274\300_\341\273T\237x\275lF\366\275h\212#=K\201\331\275tDP=\376\205\255=W\323\261\275\364SC\275\332\374$\275\206{\327\275*\\\316=k\240!\276\2014\374\275\250\3633\275\200\230\374\274l5\001\276\244\001w=&\004\303=P}b\274#\214\004>\246\026\241=\n\355\353=8\274\346\274\0102\261\2746\261\347\275\204\252\002\275\300\\*<\272\033\316=\210\366 =,\230R=\014\374\007\276\366M\337=u\254\021>\200\\\250\274\000,\004=\360\3136\274<\377\310\2757\360\026>)l!>\362-\203\275\320\2461<\215\274\007>N\033\372=\264uE=Ok\305\275\220\201\210\274<d\016\275\250D\211=\274\266\247\275#\236\345\275\314\256\274\275\026X\357=\236R\347\275\241\374\226\275X\333\010=\033\342\022\276n+\302=\313j\036>X\330<=\317\223\033>(\316\244\2740q\345\274=\377\211\275\273\212\006>_o\n>\350\312\315\274\027\177\034\276\342f\255\275\340\246\363\273\230@\210\275\322\341\371= \037\313<P\255m\274\346m\336=\260g\r\276\307\373 >\354F@\275\226c\344=^U\332\275:\205\235=\330x\261<\034v\010=\300F\014\276D\224\014\276$\205l=\026\"\245=\224\324*=\020\247\'<\300yK=\334\253\271=\325b\017>\2628\315\275\r~\005>\307b\032\276\212<L\275\010x|=\264l\307\275|\206\017\276\0004\211\274s\203\r>\2001\306;-\021\r>\3472\027>\2241\247=\263u\300\275\375\211\261\275\352\323\020\276\310\230\371\274\277U\035>\252\201\320=\200\225\322\273\360\247<\275\364\340\352\275\367\025\024\276d\250\260=V\376\016\275\000\273\373;0\276\202=\247U\036\276,+6\275j\026\255=\200\265\000\273\200\250\333;C\354\006\276\350\210\270\275O\375\032>\334\224\356\275$\323\003=\362\367\361=AW\006\276%\\\021>v\010\326=\372\225\321=\374x\236\275w\325\304\275c\364\354\275\232\226 \276`+\355\273A\272\247\275\000\337\335\272\253/\007>\322l0\275T\255\245=\350\311\206=bs\303\275\373k\013\276\340>\362<\252\330\241=0\225\332<\016\202\201=F\250F\275G\211\r>\355>\020\276m\212\002>H\271\"=CT\017>g\372\347\275\350\344\246\275\2653\030>S1\032\276\254\232N=:\331\372\275\207S\360\275~\265\277=\310}\213<\222\354I\275\367u\273\275\266\206\034\275\267\221\032\276\360\377_<D\251x=i\227\014\276\240\225\231\274x\206\341<\363\263\302\275Z\027\036\276<J\321\275\311\202\212\275\025t\204\275\310\336\351<J\0055\275@\254\033=$\205=\275`\223\361\274\013\306\036>Tk\023\275Z\"\363\275,\203\207\275B.L\275\340:\311<\340\353\035\275\210\236#\275nY\354\275X\313\242\274i\\\254\275\242\306\265=6\003\362=+\367\005>\342\331\303=\020\365i<\322\320\334=\277\252\007>\020\230C=\016\377k\275H\336\026=\204\242\277\275\374yb\275z\270\211=0o\373\275\304&7\275x\231\366<\320\242\230=\350e\003\275\312e\350=\006\372\226\275\016\257\366=Qt\023\276z\026\\\275\232E\262\275\326X\364\275a\224\340\275\277\025\027>j5\014\276\300\332I\275;\305\010>\356\303\324=\006\333\367=\340W\236;\327d\r>\021\213\t\276C\347\036>`{\254\273\\z\033=AM\017>\020m\313\275\346\314\205=\223 \247\275\000\353M;*\000\305\275\340\314\222\273\216\310\010\276f@\334=w\241\367\275\224V\355\275\312\331\205=P\222\252=p\327f<\250\351\241<\214kq=\240;\225;\240\305\000=\300\301\276\2756\220\021\276\322\021\271=R\322\335\275\270;\226\274\250\000|\275T (=l\220O\275\234\035\270=`K\305;\"\346\323=\250\363>\275\tS\232\275\246\236\251=C[\274\275\354\215j\275\320\225\023\276\215g\375\275\3107h=X!\323\275@\2033= F\363\273\3472\026\276\220\375\234<\322\217\232=:8\001\276\026z\021\276)!\217\275}\035\030>\375\247\023\276\276\367\023\275\234\214\212\275(\236\317\274re\202=@\254\336\273r\341\326=\0048\225=e\313\001\276\033\373\311\2759\234\216\275x\344\355\275\324\002h=\033j\002>\336\275\317=\032\217\312\275\0210\243\275\002\210.\2750\365Y\274\021\207\002>\260\227\222=\316\223\223=\230f\240\274u\327\007>\300\302\357\274\202}\177\275VX\326=\347\022\340\275\010~\350<\2005I\274\236\253\013\276\357\272\224\275\366~\270=6\316\203\275x\301v=\252\361\243=\300\274\257<x\373\374<\\\024\245=\202Y\277=s[\034>\310\341\222<\216\220\311=C\023!>\210S\214=\005{\032>\330\235.\275\345& >\320y\014\276\350<\017=z\242\355=\314WQ=\300*\020;0\0245\274\330%\010\276tI\207\275\r@\024>\301]\226\275du\025\276\274\312\016\276\200\373\250\273>\036\204=!\207\242\275\010dS=\206\372\007\276K\030\377\275\205L\301\275\247~\023>\311\245\006>\0349\025=i\270\257\275V\366\354=\370\343z=\330x\310<\300\004\247<\343\325\320\275\362W\277=\365\323\031\276 \334\327\275y)!\276\244(m=\263V\242\275`\241\021\274\314\215\231\275\252\213\017\275\030\302e\275\220\321\006\276\354\225\025\276\354\021J=\202\013\334=W\274\003\276\nu\307=\376 \326=Q|\315\275\221Z\010>$P\031=\202\314\023\275\210\031\367<\313\022\224\275\020p\304\274\024\007-=\242\214\347\275\336\216\352=\306\020\315=\266\014\236=\226Y\016\276\344\305!=\354\216\265=\237\006\025\276P\257\003\276L\364\255=\340\204\034\274 \352g=\310\344\201<\270L\274<\034\013\321\275Pd\003\274\220\364)<\330\310\240=\331\327\005>n\241\344=\324F\254=\000\307\224<\026\344\224=\232f\241\2750\222_=~c\213=\270\312\263<\240\370\200=\026\265\312=\240{I\274\316\222\332\275\362Q\376=\200~\221\275`\037z=>V\335=:?\363=\262I\017\276\016\375\334\275<:\222=`I\323\274\036b\371=\200\037v=\200q\277<\270\233\223\275\334\234\253=\260\320\350<j\221\016\276x%\007=@\313\241\274\320\340t<\240Q\271\275Q\235\253\275DC\026\275\010_\207\275hx9=\276#\353=P\262\313\275X\032\272=9%\022>\352v\203=T\326\250=D\252\345\275\275\362\002>k`\226\275^x\332=D\317\025=\361J\037\276\204aF\275~N\365=v\036\245=\260\304\263<Hu\t=f?\350=*\243\247=\2000\345\2740\342d=JCq\275\360\350\255=\325\243\002>m\277\020\276\374WP=\220z\226\274\000\336\256<\222W\356=\210\023\276<\246\267\315=\311\211\300\275\266|\020\276\240 y<\265] >\221\230\026>n\350\244=\304\226\000\276@=C\273h\214\271\274.\321\260=\022q7\275\335A\262\275\006\373\205=\372\007\312\275\300N\025=\"C\221=\022y\303\275\010x(=x\221\335<3\251\004>\224d\034\275\000\024\270;\270\312\202=\256\300\224\2757J\375\275\360\252\021<\246\316\213\275\340\373\250=\214\261\220=\342l\206=\220\3470\274\334T\004\275\002\226\024\276\220n\353\275\336\364\302\275F\352\"\276\232\216\334=\216w\263=Xod\275\335\346\030>zb\371=\030Z\237\274\346\001\273=\366\007\225= *\240=_\016\002\276#\345\016>t[\365\275\324\3538=b\231\035\276na\037\275\350\253\277\274\266^\002\276\341|\306\275_\267\025>\230\035P=Tl\206=\214M/\275<\254}=\310\346(=\304\341\365\275\004\340^=2\340\346\275\200Q,\2748\324E\275\270\340\201\274JC\211\275x\n\014=8v\314\275 bz=\332\373\224=f1r\275L\022\013=\010L:=D\017}\275`:\302;\000\252\005\272\330\025\236<I\307\016>\310\270\250<\210~r\275z\275\206=\310*\325\274<\367\253=\031\220\000>\211g\206\275\336\363\264\275\332\336/\275\030\271\227\275fN\230=\257^\014>H\215\006=\262\365\333=\014\024\006\275\200\317\\\2742\347\242=n(\362\275\270\356\'=\350\3031\275\257\366\024>\222{\203=T\344\263=\310\257\r\276N\224\241=\315\217\016> 2~=\301p\n>\000\374g\273\250|\301\2742\324\331=\000\342_<\255\340\321\275\3375\264\275\206;\n\276\252\001\247=\244M\010\276\306\312\345=\020\013\013\275|\251^=rv\320=S\363\014>\200\233\'=f\330\033\275@!U\273\210$\366\275\340|>=X\375T=*g\005\276\244\321\206\275\224\030g=\337\263\016>`\344\017\274\355m\232\275\\\326\232=U\017\022>\352\267\340=\000\327|:\350\036\216\274\022\222\330\275n\335\022\276\264\246,=\356v\344=-\305\370\275\341\317\025\276J\2023\275\340k\274;\0243\207\275\330*\343<\250\030\016\276\000\203\241\273\267P\016\276U\270\265\275\370[\356\274v\211^\275&\035\346=\246\003\360=\200\223[;._\333=\035\002\010> 6\364\273\270\302\314<\210\234\207=,\213C=\\\231\024\275\260;\034\275`(\305\274\\\300\031=B\322\323\275UG\010>5\317\022>\272&\236=\270\213q=p\367\034<HF\206\2748\334\027=\355\274\234\275\360N\361<\367X\034\276\300Bc;\302A\303\275fD\345\2756\274\005\276\nO\364=\320!\034\276M\316\245\275x\253$\275\236\232\265=\272\311h\275\234\2377=\r\313\007>\243\250\004>\"x\326=\351<\004\276\234\230+=\326\220\367\275\334\241\322\275\350\326\254<O\335\020\276\370\272\204<\376\231\323\275&\252\275=&N^\275\"\270\301=\000\273\337; \007\362\274 \210\271\274PT\202<<9\212=DZ#=\304d\007\275\240\2441<\000\241S:\320\034+=b\217\271\275\200QM\274\3125\326=\276\021\203\275\302\343\231=t\002\024\276#\010!\276k\200\026>\\\327\001\276Cf\212\275\353\332 >\300uE=\010\020\n=\361\373\016>p\257l=\000Ob<\340\031\353;\020\007\021=\026M\330=x\204\"=`z\310\273\211\355\032>\360\262\272\274X\032\007\276\025\016\240\275@\221\246;\270\321\252\274\2530\347\275\344y{\275\327\257 >O\301\311\275\341P\350\275\235\247\231\275X\367\250=\2336\032\276\005a\010\276\314\316n=ZX*\275Fc\324=\343\221\006\276\376\310[\275\3001 =\244\273\336\275\377\\\t>2\346\311=@W\031;e8\235\275bcY\275Hw\353\274 \022\375<\254\334\006\276\262{\317=s\243!\276\344\306\234\275\262le\275\360\267\232\274 5\354<\306\335\033\276\316<\354=\302\260\205=\250\307B=\2245v=\250\212\206=\010\023>=(\307\312< A\276\274\261>\271\275\2406U=pw\206\274\274\037\344\275\330\302]=\300p\036\273B\360\022\275+* >h\345\334\275\200\237\020<\020~{\275\030\372\001\276\214\214\377\275\375V\037>\244\361\377\275\230\026n=\352d\234=\360\006\224\274<\323\010\275D\376\363\275\336\223\003\276\340\201\027\276~\330\353\275\326T\327=m\230\341\275$\3568=p\374\350\274\3422\027\276\200\313\002=`\336J=8N\357<Z\213\361=\332\036\346=\210\321\242= X\257=\370\016\235\275\r\\\244\275\371\354\017\276\014\201\023=\236\035 \276p\035)=\212\261\302=\254X2=\270N\225<\331\270\347\275Z\005\276=\320\356\223=\\\337*\275\354\343G=\357}\022>\3402\351\273\236\374\371=4\367R\275\224rZ=\340\2007\274\002\223\206=\367\220\r\276\004\222\272\275 B\351<\006\231\276=\\.\372\275\322\016\373=\350\230\242= \243D\275\242\302\331=\005T\000>\220f\371\274`e\034<@q\207<^\305\322=\264n1\275\3701\217=\351\261\006\276\354<\033\276\250\267\335\274\210\231\377\275\364\274\377\275\032Q\306=\024\341\362\275\236m\331=s\366\301\275\300\342|\273\200\200J\275@T\357<\024\265\262=`H9\274\0238\217\275\363J\227\275\340{\204;2\214\312\275`\313\372;\360\236\361\275\270\242\217=\330H\\=\256K\232=\022q\355\275\350\200b\275J\026\016\276\337\344\313\275\340\357\354\275L\240\025=\t\305\007>\274\013\013\275\004\346\374\275\270\313\020\275\244*\025\276\3140?=\210n\331<\320\314\007=f\250\'\275PX\037=\020F\210\274\216\000\302=F\t\217\275(\3517=!F\236\275\215H\006>\353\036\317\275\300#\216\2742~\272=\nJ \276\340\351\320;R8\340=~\222\321\275\220j\027<\204^\023\275\222b\345\275Z3\370\275\250\331\352\275\340\247*\274\0173!>\242_\021\276&F\355\275z(\265=\200\001\371\273\343\037\024>\010\352\305<9\217\036\276\304d\000=y\004\312\275\230g\206=\316\t;\275\203a\300\275>\221\333\275\254[\002\275dC\211=xi\033=\323\025\256\275\000$\351\273\376\035\036\275\212\323\307=\300\207k\274\214\244\r\276@R\317<\212\224\302=\202\352\276=Q\n\331\275\032\217\341=\200\323\320\273\200\255\203\274\350\222\274\274\200\212{\274\350v\346\275\364\2143=\353\200\022\276\374i\'= \360w<H\234\212=\266\351\226=\004\tb=\0148\253=\010r\254= s\360;;\373\014\276\2634\"\276`\004~\274ji\307=H\234\323\274`(\211;\270\364\321<\000\351\334;\330m\220=\233\t\004>t1w\275\335F\034\276 L\202<,\366u\275\352\210\263\275\360w\336\275\266\rK\275D\247\007\275\300\3462\273T\220\010\275o\310\005>\023\326\035>H\351\217=\366m\306\275\006\246\307=@\320\327\275F\274\n\276@5\214\274\220\217\371\275\340\235w<L\365\025\275\366G\376=\354\332\213=\374?u\275\"\020\021\275\302\235\323=\262*\321\275\256\217\226=TF{=2\177\321=%\321\"\276\n1\214=\005\331\036>t+\210=\261h\216\275\370\021\230\274\234\373\243\2755V\033\276\270N_\275\226\333\272=\214`\367\275\362y\211=\217\205\"\276vH\334=\344)\007\275\006y|\275P\256\223\275\247\000\255\275R\240\037\275HF\352\274\010\232\233\274p\305\255=\217\215\033\276*\356\366\275a\023\025\276d\364\007\275\227y\202\275\035\270\203\275\216\312\365=\244O\326\275=1\243\2755*\020>\033E\030>\342\247\230\275\234\243o=-\t\024\276`\227V=\357M\017>G\030\007>\300\023\274\274Q\307\000>\335\237\021>\265&\034>j\373\257\275&\036\362\275}A\241\2758e\245\274\240\300\376;f2\356=\300m\345;\013\374\033>\'\376!>\000\334u=\333\007\022>r\221\236=\313\374\r>\030*s=02a<\307S\014>\263\216\022\276<\317\231=(\375X=\215\277\032>cM >\310\370\360\275 \243\017<B,\021\275\372\200\220\275\212W\331=\206M\251\275J\007\233=qf\000>\306\202\265=\372\374\027\276P\350\231\275\272\023\320=0\214\010=\023N\024>\206M\312\275\3004r\274\322R\351={\366\251\275$\373O=\223\030\006>\245:\013>\250\202\370\2746\022\206=X\371\000=\200p\230\272\212\276&\275\273\363!>\370C\235\274?o\252\275h\225\222<<\243R=\035\315\310\275\364\027\"=O\212\031\276gU\024>\230\206\376\274\330n\274\274p\312\305\275V\364e\275\235\306\n\2765\364\001\276v\317\025\276\2770\034>D\017)=\016\245\324=\200\034\267\273\370\260\255=`*\372<\346\304\350=H\000\013\275\010\223\341\274\300\246\355\273\022I\025\276Q\223\022>\376\364\234\2756\301.\275\334t\006=\037}\027>V\241\345\275Y\026\036\276R|\253= \272\026=\316\341 \275p\030\302<\260\315\341\275\326\212\335=hP;=\220\243T= i\340;8\213\311\274=\217\031\276\031j\200\27589\010=u\231\251\275\0335\353\275\030\000\000=X[l\275\2379\357\275\n\315V\275\340\243\000\2760\322\366<\312\361\020\275\270=\252=\214\251\206\275\020\352\251<\000?\234;x-k\275\273h\300\275j\013_\275p\302\246\275~@\333\275\366 \351=\014\330Y\275\240:\234\2735\320\021>\265U\332\275\310\200\261\275\256\312B\275\247\310\017>7\234\022\276\342\005\353=\320\324o\274\370\031\227\274\2160\303=Tz\004\276\270\370n=\215j\022\276\020Ig<(\372\270\275\000\344\326:\000\364\350:\'u\022\276@-o\274\270\352\254=\200\316\243=\220`\316\274 \205\271\273G\226\226\275\212\270\032\276\302\240\310\275\2266\352=0\033\261\275_\207\254\275\330<\336<\026\222\357\275\335/!>V\372\345=\314\233(=\253\346\370\275\210x\365\275RK\331=4\257,=AW\014>\010\315\230=\250\004\363\274\232\033\276=\247G\006>\244\357\t\275\324:\222\275\026\020]\275k\327 >\316\206\267=\004\333s=\362\003\375=\250[\254\275\323p!\276\025\200\r>j\001\207=\272Z\352=\000\\r\273<\320\226=\354\267\350\275\360=\267=\276\203\372=d\245\255=^\007\331=x<\254=\220\245\225=\274\263\261\275(\016\362\275\026[\216\275\250\332\304\275\274\037\233\275\264\322v=tfm=\024\034g=\016\376S\275\226\342\342=\240-%=\366\312l\275\322U\366=\327\247\027\276 \236\262= q\036=X\020%=\340\034 <\014L\004\276n\264\304=BW\021\276\256-|\275\251\177\013\276\022\225\034\275p\226\270<\203\361\201\275\220(\227=\3605\251\274\310\016\246\275\020\221[=9=\034>\225n\230\275\336e\372\2756\353\346=|\223\024\276&\245\241\275\276\207\335=\206\374\264=\226\362\034\275JP3\275\0276\004>%\267\260\275\331\023\027\276\352\350\322=Ov\003>\226\233>\275\303\235\t>0\345\016=\270y\204<\0003\236;\022\035K\275\272\240\r\276T\034\311\275\246\220\024\275\036\206\301\275\243\253\013>\326\246\000\276\036u\327\275\203\306\032>\024\331\262=P\0011=\375\230\357\275\006\340\372=Z\273\374=|na=\310%\340\2746\351\243\275yn\t>X\351\357\274\300Mo<0\334\275\274d\326\260\275\343\333\247\275\277C\037>K\037\033>\020\2230< \311\213<\366\326\312=(N4\275\020(\315\274\026\353\034\276\246[\303=}\243 >+(\t\276W\220\017>4\353-=\016S@\275H\361\326\274\202j\367=\227{\316\275\036q\364=\330\037\361\274$\"\014=&\036\251\275E\275\025>\026\352\350\275\006\217\315=\254\017g=S\243\366\275.\242\242= \3448=p\035\310\274\322[\372=\036r\241\2759<\261\275<U\003\276O\230\001\276\026t\245=C\341\035>\222\025\344=N\370\003\276\302\242G\275\340\255D\274\366o\345=\220\273\306\274\307\272\031>\221\277\t>n\277\352=\267\036\014>\010\366\266\274\276#\240\275/l\252\275\263\313\014>\020\343\264=@\'\357\273\260\010\024=d_\357\275\334\315U=\200\3600<$2N=\216\333\274=\344\213\243\275\315\367\363\275s\301\t>\032\021\216\275\032\232\315=\020H(\275\240E\270\273\203B\324\275\014\001\001\275P\261\001\274p\234!=@\213.\274\207\303\022>5*\013>\200\333\235;^\351\313=Hy\332\274B\310\025\276\215*\030>\200\031\036<\260\211\201=\236\262\237==f\004>@>r\275%^\032\276\220\234\261=\326\0206\275\360e\243\274\352 \331=\367\356\026\276\306Z\271=~8\027\275\343\014\033>&\365\255=\034q\203=\360Ia\274J\241\337=\210\004\307<\321a\035\276\267Z\000>\340?1=\350a\350\275\032\375\251\275\260\363\256=\355\177\003>\027c\000>\324\244\315\275\376f\330=\240\267,\274 \347\374;\373\332\036\2764s\\\275`\255\361\275\244r-\275V\314\320=\000\327&:Xk\265=]*\n>\350)\315\274\205\220\021>\334[\014\276Z\025\002\276\332\210\324=\207\332\262\275\320\247\005<\260\007\241=\252\034\203=Bc\354=\372\027\266\275\302\232\342=\233t\026\276\320Y\016\2766~\360=\350\352\010\275\274\341\360\275(\233\002\276\360\023&=\"\030\334=u\312\340\275pQ\356\275\250\250\377<\n\310r\275Z&\017\276\310\010$=+\344\037>\001n\023>\236\201\271=\374\334(=\020\217\314\275\271S\034><\035r\275\315S\007>\311\250\344\275Cj\024>\366\254A\275O\315\r\276\300\221<\274n\307\375=\200cU\273\246\235\017\275\275\302\007>\207\037\205\275\230<\201\274l\371B=BI(\275\004!\031\276{\357\230\275\034`T=\372\245\271\275\204\320\320\275\032O\007\276\230\365\271<m\327\342\275U\275\007>\030\273^=\010\005\230\275\3741\250\275=7\367\275\340\235\261\273\240\r\351\275f)\373=K[\013>M\232\275\275Q\021\032>J\312\345\275^\307\371=\256\203\360\275\242X\266=\274\346\035\276\366T\241=\022\250\355=\253\307\036\276\034lg=0\232\262\275\240\2250<t_V=K9\014\276\020\272!\274\333\323\032>\025\006\016>\261\310\035\276\324\214!\276\003o\014>\022qZ\275\301S\t\276&\330v\275\325\326\030>))\030\276\300\321><\200\306\361\272@\350G\275\247n\037\276\246\374R\275\024\354\006\275\310\020\327\275\324\300\010\276\330\270\216\275\212\330\233=5\241\r>\000\272\021\273X\257\300\274\000R\345\272+\327\030>\254:\343\275R\3105\275\300\371\035\273\000\310c=6\211\224\275\270\324\326\274\026\013\223\275\240\273\301\273\\&\214=\320VU=\232\365\206\275\274\322\210\275\020\022\222<\354\254\000\276^\322\005\276\220\013\246=\367E\335\275lI\206=S@\004>v\262\366=\2544~=g\377\024\276\360z&\274\251\222\001>\211\313\003>1\366\026>\264\372\334\275\334\202S\275\337a\000>\303d\301\275\304\223W\275\002P\335\275w\032\"\276\324-_=\021\370\005\276\300\014\216<9\021\031>x\342\315<~\352\376\275<\022\024=\350\016\034\276x\262\211=\366\363\r\276nW\272=\216\373\"\275\250Z\227<\232\330\227=\204\177\332\275\006\267\373=\n\345\376=P\235\231\275\014\360\344\275\357\256\033>\361F\372\275\310\216\356\274\342G\234=\320\177Z\274\006\347\317=\316\034{\275\000\022\347\271\2434\031>S\003\246\275`\330\005\276\354P+\275\336M\203\275\005E\017>\3618\025>|X+=\030\257\016=\214\367\373\275zE\354=\036\210\276=\331^\230\275\342\222$\275^\025\340\275\332\006\342=\260\253\357<\330L\"\276\306G\245\275\310\014\200=e\203\005>\2405\363\273\340\311\230=Jc\273=\262\230\317=\016H\355=\322\235\007\276\000\366\3509\n\206\256=\310\211,\275\320K\n\276p-3\274(\264 \276\240\021\355\273S\021\201\275_\007\037\276fI\256=\202\251\372\275\007\335\240\275HO\343\274\310\204\213=;Z\r\2760\013[<\261\306\025>\201\013\231\275\2602$\274\321\233\023>\3302\007=\000\017(;$3\035=P\254u\274\224/T=v\035\326=x\210f=e\276\220\2750ot<\236;\233=t\357y=x\365\222=9\001\030>J\347\300=7\t\017>\333 \002>@\316\321;k\227\240\275\244m6\275l\330\034\276\306\350\022\275\231j\214\275.\357\206=\324\333\177=\250\315\350<P\367l\275P\211\314\275 \255\217;\370Q\321<\212\032\367=0\237\203<IE\235\275\370k\235=d\204\037\275\340_\215<PS%<@\2339\273\024\375Y\275\000@\332\274,\3542=\342\251\277=\212/\272=t\006\321\2758\241\334\274\005\204\023\276\007?\007>*\005\003\276\206/\377=@\'\264\2754\324\377\275\314\222h=\010d\241=d\215#=\304\204\001=0\274\305<\006\n\341=\244fp\275\323,\013>\230\t\304\274\360L3\274\343\263\005>\206G\335==\362\007\276\211i\361\275\333\352\023>\034j,=\361\222\006\276\356j\256\275\270\200\271<\372Z\375=\020B\226\274\010\222\275\274\371\316\233\275xcC\275\026\313\372=\200\"L;=\247\000>\220;\345\274\336\313A\275@\000\235\273p!}=\241\367\034> $\260=\372\273\377=:~\233=\344\257r\275\304\177%=\002\264\010\276 \331\200;8\235\020=\010|\241<\0231\025\276\304+\227\275`\257\364;\000^E\275y^\036>8\342\007=\2648V\275\320\234\367\275\210\376\202=\316\364\337=@\030M;0\332A\275\304\274\t\275\306\243\237=Xh\206<\352\231\014\275x\035\314\274\026\001\007\276Xp\007\276;(!>\235\214\003>\305\345\036\276\310@\245<~~\336=;\014\034>\235\252\215\275\032C\243=XE\225=\2103\230\275\020\265\'\274`\235\333\273\214\2630\275\005\'\372\275\242MK\275\010\032#=\346\232\326=P|\033=\300c\261<\373x\030>\\(\373\275_\273\020\276Kd\007\276\236\034\343=hx\373\274\030s\224\275o[\034>]\350!\276\344\036\252=Z`\317\2753A\023>z\034\310=25h\275\3208\017=\366\0320\275@5\344\275\347$\021>\216a\035\276\200\316\320;\360\3419<\312\245\253\275\360V\215=hm\337\275.a\347=\356te\275[%\005>zAs\275}\371\265\275\034\272\027\276@\201&;\201,\243\275V\177\223=\300]\204=k\316\033\276\r\267\020>^\366\004\276\363\201\010>Y\024\033>\272\310\330={ \322\2758C\325\275:\000\213=Z9\304=`\277\022=\311\023\335\275\032\331\312=n\372\231=\312\216\014\276T\221\014=L\230y=\210\357\356\2743\332\017>\222\031\013\276\024\2354=\nC\"\276\340[\220;(\212\220<\'O\274\275\212\231\330=\334\177\212\275\346\242\024\276\373\205\035>\024\315\320\275\354\232<=0\306&<\361\222 \276U\375\023>=C\035>\340\365\276\274p\303\026\276\200\326\321:\340\311\005<\200\033\023=.\3318\275\347\217\217\275\334\217\265=\200\231\020\273\200\235\353\275\202\265\376\275\271\371\017\276\320\357\212\275\300F\225;\010\332\256=\300nl=\200\2654<I\020\r\276\263_\"\276\265`\020\276\357@\214\2758\270\332\275\270v\312<\255\314\006> \323u=)\"\001>\300\177\376<,~\222=`\217B=\236Y\345\275\372\345\234=\177-\022> \257\244=\307I\001\276\322-\312\275\315\021\033\276\'\212\023>\252\032\202=\020\216\247<\370\223\325\275\372\0208\275\212\000\316\275\326B\306=P\225\365<\033\035\016>\360S{=N\271\376\275\304H\202=\nO\000\2760\377\027<\306%\317=T1~=\000\256\3579\177\220\022>b)\341=\362A\210\275>\227\231=\357Z\001>\266\276\343\275@k\003;.\356\277=\224f\035\275T\342\377\275\022\032\335\2752R\342=*Z\327=$\321\223=fQ\013\276\000 \2448\277\256\031>\272\226\200\275`0\347; w\355\27312\025>\203\022\007>\232\037\224=l\353\245=:\306Q\275\300\341\031<VIC\275\006g\032\275\343\274!\276\202k\026\276\026q\332=\335\260\264\275\200\212`\273\330\377\016=l;,=\263A\r\276\350\006\347\274\3609\352<u\330\277\275\203\211\">\3109\351<\273\020\005>\006h\236=\214.\227\275\262\215\344\275\343\214\017>\243\003\251\275\260\372\302<\267J\">\206\351\027\276\000\344<\273y\343\205\275\231I\023>X\237\216\275\310\311\273\274V2\203=6\227\335\275\0146\022\276\344U\262=\244;\202=.w\375=J\3005\275T\331\201\275\322\340\017\276X&\236=\200\335\257\275\006\004\225=\374+^\275\200\217\003\273\272\207\203=\342I\350=k\331!\276\334\320\357\275\036*\301=\240\251e=\t\312\246\275\240?\325\274\244\274x=\2008\273\274@;l<\254\205\226=\350\025\264<\010\230c=\360jx\274L\016\025\276\336\020\367=\254q\242=\242\350\350=\200:\200=\316;+\275\216x\031\276z\235\300\275he\010\275p\236S\274\370\230\375\274\214$\223=\364\031\023\276\"gO\275\334C\261=*a\260=Z\014F\275\241\234\014\276\000%m<0wt\275L6\036\275V\177\275=\016t\244=\330Od=\362\357\326\275\000\23489|\t\333\275\306\367\370=\332\352\271\275@.\231=\322\336\324=/~\342\275\222\207\363=\212a\350=P\226O=z\231\251=\254\344\264\275$&[=\233s\">\360\'5\275\240h\350<f\303\307\275R\305\205=}+\007\276~\353\301=\330\224\316\274\235\362\025\276zK\024\276\230\310\324\274\331\004\021>8\035\031=\267\031\032>\024\231\366\275\000\345\253=\0008\014\271\014\222\230=\240\r\302<\374\365\267=\230\335\002\275\260\035\243=\210\312\207\275\360\016\200<\271c\230\275\020\225\323\275J?\006\276r\3625\275\325\343\037>|j9=@\266\341;\300_\354<\3449l\275\352\301\335\275>\247\257\275h\022\255\274@\"\376\275TJ\030=\230\000@=Z\371\322=pi\025=\342B\357=I\232\026>\240A\374\274\220B\336<\024:&=\2654\034>0I\007=\034\006\246=\210\3536=\014cn=\034\232\027\275\000\337@\274\220\016\366<\265\004\010\276\274\3234=x\361\233<v\376\331=\344`\225=J\262\"\275\260u\262\274D\355\037\276t_f=|9\252=\"\336\327=\303\032\007\276e\321\037>\010\311\355\274`d\265<\324kj\275\337\364\031\276j\247\233\275p\203\377\274\035|\025>\302\367\037\276[b\021>\200\031\007=\302{\274=:,\372=\001@\031\276\270\271v=*\3302\275&\353 \276\326}\335\275 \341\357\273\3405\377<\362\350\025\276D\234\r=\200+R\275\rM\271\275\360\255\361<\372Q%\275l\027\021=\233E\017>\375\375\001>\2561\346=HZy\275\346o\036\275\315D\037>\323%\023\27635\020>\200yy;f\244)\275N&\027\276\230\376p\275\310\257\275<bD\350=\371A\033>\020\267L=\270>%=Fy\275=\326[\200\275SH\032\276\350\265\256<oe\001>\346\231\232=\303\341\">\006\325\235=^\362\201=\027\321\021\276zm\311\275\005H\032\276\216\010\034\276\277V\317\275\274\211\365\275\000\330\244\272\270y*=\340\205m<\321\305\207\275\220\313\255=\200\007O\273\320ih\274R\331\313=J\216\313=\226(\360=\200\003\330\2727\323\241\275\200]\323:\304\330\300\275x\262Z\2750\214\004=\247\377\t>\030\265\221\275\326\257\312\2750WX\274\274D\222=\000\267H<\210\235\261\274\033Z\342\275z\252\260\275\236@\021\276,\301\037=\373\244\"\276<\006\375\275H\251\345\274b\355\317\275\022\314\360=\312\216\274=d+u=\\\\\022=`K\326;\247\211\036\276\352\002\331=\2026\033\275o\211\033\276\227\361\024>f\243%\275p\273\244=t3\020=f\250\351=0\262}=\265Q\017>j\250H\275\350=\004=.g\337\275.\267\014\276Bv\226=\257\216\027>\035U\025>\244\215\035\276\001|\016>\2302j=F\322\033\275\177\032\326\275\360\372U=L\303}\275\365\360\033>\216\354\016\276f\353\367=\260M\263\275\270C\273\274\314O\"=\032\331!\276\020\323\331<\207,\214\275f\303\034\276Z\304\276=\313\364\031\276\232\205\256=Xb\320\274p\326F\274<;\021\276\246h\010\276\245\314\026>\332\000|\275\241]!\276\252\235\326\275\242\302\324\275\346-\214\275\360h\020<!\363\250\275\000:N\272\315\273\036>\036\202\267=?#\r>\\\r\247=F1\264=\342}m\275\000y=\272\267\357\001>\000\374\201\274\356b\265\275\201\222\007\276\234\220\302\275u\207\n>-\305\016\276\350\2350\2753\262\013\276.\317\326=\256\217\026\275\3768\272=\374S\037\276\226\343\257=(\343\217=L\210\351\275\254\033\301\275\000<\014\275\340\210\271=\360\235\233\274>\004\363\275\006\271\377=o8\006>Q\272\013>\217Z\332\275\206\263\363=\340\210\200<\330\273\007\276\304\367\311\275\177^\326\275\247S\267\275\240\312\303;\312\331\277=\2609D<\204\374\017\275V\365\022\276D\032.=\232Q\335\275\3265\323=l\351\014\276\333\331\000>w\355\204\275]\337\266\275rk9\275\0002\251\271\200=\257\273\"p\306\275F^\222=\270z \276\356\206\365=oh\341\275\032\022\273\275\246\377\251\275\000\003m\273~\336\310=\264\244\t=\210\255\271=\352\236\005\276_\237 \276\3121\260\275N\207\301=\265\022\004>\255\266\021>J\033\236=\204h\205=`\352\273\273\353\017\r>8C\347<L\037G=\200\226\326<\241\225\010\276\030\340\340\275\000\223\226\272\031\257\013>G\027\030>\370K^=\006\205\272=6([\275\221\032\025>\344\235\'=\244\255M\275m\251\272\275^#\250\275\240\336\235\274\316\355\274\275\352\025\220=\2441D\275\0046g\275\000\325a\274\016\367\340=\227\231\014>\301x\256\275\014\014\335\275\000\233y<\224,\363\275l\025,=\344\2141\275E\221\026>\312\252\344=\364\372\255=x\374\246<\374\275\236=G\333\026>\000\265y:\346\231)\275\300\030\331\274n\031Y\275\274(2=\250l\277\275\226\000(\275\010\304\204\274%\006\032> \372\317<\362\'\204=~\364\025\276\376\303\362=Np\243\275h\016\260=\2251\232\275(1\223=t5\036\276\322~\356=\001\342\223\275\230XQ=\364\367\343\275\303&\r>\370$\317\274\020\256z=\200C\221\272\263\336\003>[\353\032>\202\265\"\275tU\031\276\004\355\230=\010I<=5\377\237\275X:<=`\312\200\274\\\031u=LH\207=\340w2\274*\330\200=2\202\340=rXa\275\266\347\027\275\376H\314=\340;\314<\214\356*=\210\301\262=\300\315\010;^\211\220=@t[\273\337\325\006>\350\303o=\232\273\334=\252M\372\2756\031\312=\300\022{;\030`\035\275\260S\014<7\256\371\275\326\225[\275\002\341\341=\220\273\000\276\370,\310\275(\242i\275\352\016\222=\300_\203=\023\226\006\276\370\026\277<\014\244\271=\300\r\335<4V\252=i\303!\276\246\"\236=o\345\247\2756d\036\276]$\022\276\352\241\274=\036\322\270\275P\363\033\276\"bT\275\326<\374=T\234P=zA\273\275\203L\312\275\324/x=gX\r\276\310%c=\360MC\274\260\233\333\275\256x\210=\200\374\364\272j\237\372=}&\215\275\340\375\351\274|\313\244=v\312\343=\023#\031>\264\266L=\000\311t;\362\275\367\275fz\203=\304L\220\275\0176\007>\000\343\261;\032\337\217=\335i\035>\004\201\247\275p\353\353\274\310.\003=\210K\022\275p\3001\274\252h\375\275H\244\307<R<J\275\345\221\375\275\310\003\004\276\312L\203=\337<\007>\026\264\177\275\326\331\270=\202\"\312=\343\204\031\276*\313\325=\2500\250=\340_\340\274:\234\334=\364\022\222=\022\331\277=\272\326\271=`\245\216;\346\032\254=\200\216\343;\266\332Y\275\014\'\301\275YZ\034>\240L]\275\241W\374\275\206\231\036\276\371\250\300\275\200e\272;\332\036\371=Z\216\314=\366\306\276\275\305\200\033\276\354\361f=\000_h\275\272\323\364=@j\264\274&\365\301=J\335\217=P1v=\360,p\274\264H\210=\254\230\246=P-T<@\377\362<\270\340\267\27411\023\276\036MK\275\206g\"\276p\276\263=\320\0234\274|F\366\275\200\250\272\272Y\245\030>\352\222\270=\337\342\021\276\334\016\037\276S\013\371\2758`\222=\200\252\346\272\371l\026>\036\"\023\276e\032\003\276\320\0260<\217\262\020\276\202X\314\275\225\272\240\275\310\332\023=\346g\323=\364\005,=\224@\201=\241\314\014>\322\321\331\275\357}\022\276l\251\202=\224\002 \276@\222\367;\310\273\372\274\3708\205<\225U\032>\000!n\274Z\257Q\275\310\374O=\321\374\024>\325K\370\275\036\202&\275\275\271\030>\035\210\007>\016\235\264\275\220\223\346\274\213~\377\275qO >_\337\016>*\376\t\276\345,\363\275\360R\\=l\221\333\275\210\317\372< \236&=\"&\375=\200yM;`\216Q\275P\350\r\274\350rf\275\212\365\206=*\005\375=G\222!\276\306U\274=nu\016\276\320j\377\275\270\020s=\351G\t\276\264\277\255=\346\232\345=\234Y)= s\261\274@\013\023\274\354\221\'\275)I\024>r\033\033\276\272`q\275\236\351\347=\212\235\353=\361\025\211\275\336\010\274=\035\241\204\275.\344\202=\000\300X9\203\n\200\275\300S6=\200\274\243\275\325\021\323\275\305\331\030>@\211\016\276\036\'\020\276\234T9\275gz\007>\000\260\240=\024\360\'=D\233\266\275R\335\310=\024L\207\275aA\007>:G;\275\335\253\246\275E\236\272\275\274Q\200\275x\357\253<\021\225\224\275\337\034\r>Gk\r\276\266\020`\275\027\243\030\276\207c\022>\315|\253\275\336\'\357=\376f\325=\210\332\325\275\025L\252\275\370!1\275-\202\203\275\355\231\016>8z\351\275MO\014>[L\006\276n\325\316=2Z\263\275\326z\372= \302\341<}\345!>_]\005\276\216b\355=\232C\203\275\252\222\201=\025%\031\276&7\247\275J\014\337\275\210\003\272=\020N\243<wY\014\276\200;\232<\200\"\345:ZV\375=\330\314<=W\t\002>\224p\202=\345\327\320\275\256\322\364=L\262\360\275FN\342=jK\320=\321}\031>\354P\253=V\256\237=`E\001\276U\007 \276\263r\033\276\022\036\025\276T\"5\275\276\211O\275\330\005\"=.\2173\275|\342O\275b3\354=\241\252\n>\336\370\376\275\000\305\036\274t\322\227=-\360\030>\350\002\264\274\000\242\305\275\326R\341=\350\377l=\310\033\302\274\350\010H=\370h\254<\234\022v=.\354\300=D\206#=@Ou<\231B\315\275\247+\022>\342\272\371=\330\230M=\3402Q<\"\266\221=Z4\005\276H\024\307\274n\231\223=\215\276\036>0\320\035\276\256j\261=\n\227\361\275\253\347\r>2L\314=\234\304f\275\340\005\275;4\007&\275 \267\017\276\315Q\027\276\230=\242\274\026\253\003\276\302B\031\276`\000o\274}\312\030\276\371\326\204\275vV\365\275\027\016\034>Z\003\002\276\253\212\267\275\332\177\254=\037M\352\275\310\341\252<\260Q\251<P\302\003\275e\006\022>\002\366\207\275\346\310\353\275\266\237\302=\320\207\003\274ZN\233\275\364\367\004=T\262\201=\326\217\300=\346\242\215=\377\264\217\275\273o\002>\010\210-=x\334\332<\261>!\276\016a\330=\302`\361=\300\3343=\220\356\240\274\tN\030>\254CM\275\366\007\376=\007\034\n>\240W\177\274\2465\270=\000\341K\273\210^\027\276\342{\216=B\232\351\275\204\235\026=z\346\353\275V\030\321\275]\006\314\275\014\270\010\276XK\360<\273d\206\275j\251\355\275~\366\027\276\\\357\'=`\020\276\274<\370\024\275x\360\006\276\302Q\276=:g\365\2758\306\250=\346\205\324=(\365\316\274\264#\036\276\371\\\014>^\254\346=b\315\241=e\022\000>\322Sd\275\200\032[\273\333\362\r>\027y\336\275\002w\270\275\370\220\220=p\376;<\350\0271\275\340\213\260\273\214Zh=\264\307\025\276C\352\036\276\260\336\033=BB\307=\206\206\317=\320w\377<\326\255\231=T@I\275\340W{\275,@\206=9&\t>\214\221\263\275\361\031\020>l\026\233=Nc\300=\376#\337=9q\036>\266\230\\\275T\'\t=p\001H<j\351\316\275([\326<\030\225\367\275\000!\177\274$\017N=\367\272\231\275@\270);&|X\275 W\320<\230\251\300\274<\300@=\354\344c\275A\000\220\275Y:\023>\200\3365\273\020\346\030<X\260\262\275\324G}=\200rJ\273\327\205\342\275}\342\013\276^\214\036\276F\032\322=\216\276|\275\\\277v=:\000\264=r\206\251=\003\032\022>p\350\001=\226u\205=C>\030>]\211\026>\272n\330=\201\034\355\275\004\022_=/i\002>\350\352\260\274\331\305!>\313\372\023>\304\355\300\275\004\211F=\326H1\275\346;\237\275\222\013\222=\3707\240=`\370\314\275\231\232\240\275D\'1=u\343\307\275\200^\360\273\222\223\235="
      }
    }
  }
}
node {
  name: "LSTM1/recurrent_kernel"
  op: "Const"
  attr {
    key: "dtype"
    value {
      type: DT_FLOAT
    }
  }
  attr {
    key: "value"
    value {
      tensor {
        dtype: DT_FLOAT
        tensor_shape {
          dim {
            size: 50
          }
          dim {
            size: 200
          }
        }
