node {
  name: "LSTM1/kernel"
  op: "Const"
  attr {
    key: "dtype"
    value {
      type: DT_FLOAT
    }
  }
  attr {
    key: "value"
    value {
      tensor {
        dtype: DT_FLOAT
        tensor_shape {
          dim {
            size: 37
          }
          dim {
            size: 200
          }
        }
        tensor_content: "~\027\342=\320`0\274\226\341\254=\254\263\222\275\204\211\221=R\304Y\275<3\037\276\364\353\233=\335\232\024\276\373v\024>\r\230\316\275\\\1774=\010\252\245<\332G\316=\006K\315=x\327\331\275\000*k\273d8}=*\202\377\275&7\330=\330\264\234\274\250\226\373<\307A\332\275\262M\272=\276\320\350=\365L\023>\253\"\002>0\271\260\274\000/\361\272C\370\000>\035\373 >00\333\275j6\351\275 M\352\274p`\204\274\216}\312\275\300mc=`\330j=d\337W=\177b\014>:\277\014\276\0201\307\274~Zg\275h\354*=\250\273G=\240E\322<\246^\r\276\354a\315\275\320\351z=\200\366-\275@@\362\273p\300@=\"j.\275\220\352%\275J{\272=\360\305\320\274\355 \317\275\262\030n\275\206\245\354=\020\322\036=\276\261\331=\244\3011\275\224q]=\243#\021>\260vs<\000\\\265<\221t\024>b\204\263=@\216B;\254\344\002=\366\202\206\275@\3079\275H]g\275J\302]\275\336\217\233\275\320\2071\274.\323\326=/\003\201\275#\034\300\275\222\2249\275\376\326\300=\037\361\221\275XW\231<\314\003\310\275\224R\224=\000\370k\271\255\271\270\275m\211\360\275\300\244J;1\027\003>:\260\313=\000\215S\273\350\222\013=\210$F=\002j\356=f\003\220=\360V~<mx\257\275\250+\241\274\\\276\205=`\253\331\273\341\350 >Nr\330=\360\226,=\354\3563\275\276\215\342=j^\367=\274\374\311\275\240I\216\275X\010\260=\030\271\004=\014.\336\275\332\242\035\276L\337\336\2758\244J\275fk\027\276\200\317+\275\300\325M<B\r\337=\034#;=0%\266<p\232\034=\217\305\017>\231\365\233\275\200\363`\273x\004\017\276`\234I=\000\031\312\274l7\014\275\250\210\266<\340\005\010\274P\237H=\030#\323\275\000\014\3169n\033^\275\276\003\365\275\300\330\202;\370\0173=\244\323\034\275N\261\344=\260\246\214<\244\266\001=\022\2178\275V\264\367=r\356\343=\327b\004>\026\305\231=^a\310=d\222{\275\332\222\301=\200\027\274\274\366\362\341\275\026\351\353=\322\254\021\275@\313\002\275\010\266\341<\226\017\206=7\233\207\275*\375\222\275\305\234\016>Y\357\207\275\363;\024>\014l\010=\001\205\016>\332io\275Rm\332=\362X\001\276\300\0210;F\323\210=~\341\370=\374\367p=\320\256\252=0\001\016=\212~\373\275x\177\321<<\314\255=@f\002\273Xy\007\276\202\322\013\275\002\002\360=\203V\274\275d\267\005\275\352F\313=\370>!=X:\216<J\333\022\275\037\242\001>\224|8=\212K!\276!\001\004>1\002\250\275\255\r\034\276\204\372\276\275\300\257!\274`\235\306\273\032\217\003\276\200Q,\274c=\023>f\314\257=\\\373\n\2768p\227<\252\310q\275J\3313\275\256S\022\276:\004\350\275\020\264j=\254t\\\275F\267\232=\200~\260;.\342\307=\210\225\200<\013\370\025>Xg\243\274\303\006\232\275|\260b\275x\336\200\275\020\030\216\275\034\307 =\324o\033=\222C\035\275\342\\\362=\024O\207=\nF\367=/\377\017>,\001\004\275#(\031>\340#\377\274\027\200!>\241\306\341\275\303\323\017\276\241\033\016>\200\230\244\272\200\247\203\272`\365h<\nm\362=\374\306\014\275kA\006\276\366\007\213\275:\362\031\276\250\347\337<\260TZ\274\227n\024>\240}\302<L\302\005\276\220\0031\274\302E\307= 8\n\275\340\027\374;\234\227U=\006k\366=;U\017>\362\304\273=\240\234p=2\252\256=\220\376)<\2749\034\275\344}\364\275\370Z\020\276r\004\313=\317\352\020>\334\261\214=\000\216\375:n\201\364\275\357\256\035\276\306\222 \276\356V\317=8\250\352<\351\223\032>h\033\264<P\345\265\274\207\311\007\276\320b\204<\262g\306=\\u\245=\204J:=\206n\036\276\371c\272\275\260\316W\274\r\367\027>\n\003\300\2752b\246=\230\035\350\274\250\345]\275\007\273\003>\026a\301=\274\215\027\275-W\014>B\305\031\276j\315\310=\220\353\326\274\360\216\365<\221_\236\275\333\256\035\276\254\177\357\275\377\222\002>P,\002<\204\370\232=H\343\233=b\342\323=C\340\276\275\234\213\006\275hQ\302<\220\350\006<\020\307\033\274\332\227\312=H\r4= p\025=\330\206\020\276\034\263\n\275\302h\275\275 \033\200;\370\305\333<Z\273\314\275\340n\267\273\266\231\223=\367h\003\276\236\366\300\275x\017\303\274x\037k= wC=h\225\262\274}\022\005>X\322\002=\316\023\016\276@\362\332;\212V\244\275\351~\021>\005\351\033\276V\227\003\276\223\021\014>\210\310\201\274\0207e<dF\203=\300\020);\007\013\036>\242\301\212\275\000\t\305:\336\240\213=\004\343\007\275\020\t\220=&`\375=\216\374\361\275\232\344\324=\003\251\026>8^K= \355\215\2734\260\303\275\200&I\274\000\020\341<n\201\360=\001\360\252\275?\373\002>\200\363\265\275\332\014`\275\210zI=\200\267\250\275!\373\001\276\231\270\025\276-2 >\3154\335\2750\201\220<\356v\315=\212+\332\275s\271\020\276\230\240\266=\261h\366\275D\273<\275\000H\022:\\\301o\275\275\253\002>x\360\010\276\236\254\343=\352\374\027\275\200\217a;\004FT=\240\364O<o\n\">\334\310\203=\035(\024>\243\034\032>~\221\246\275\260Bh\274\314\215\260=\016\237\322\275 \313\232=\330\206\267<7`\003>l\355\001=\213y\027>\222\035\325\275\006y\345=.I\021\276K\335\233\275\360\027\355\274\212*\257=`uT\274\322t\376=\261\232\016\276\312\275\371\275\034D\035\276\246\367 \276d\035%\275\214\307>=\302\316\310=\000\007\271\274\306&\373=e\333\032>V\036\350=\004\317I\275Z$\226=`H\352;\356\243w\275\247\203\032>\261<\t>6v\315\275\230\222\314<z\330\017\275\343R\032>\271\251\003>!h\036\276\024\337\207\275\310\037P\275\003\255\014>~\260\220\275%\302\031\276\240\313\'<\345\311\242\275\340\254\357\273fj\366=F7\034\275\216C\360\275^\352\276=2\003\346=\201\205\035>s\035 \276\323?\033\276@\362#<\215\310\000>K\211\001>\360\274Z=\332t\336\275,x\"\275\262\033\266\275\221\205!\276\006v\203=d\342/\275w\323\016\276t\353I\275\333\277\336\275\350\007\344\2757\304\033\276p\330\354<6\263:\275\317\307\252\275&\314\276=d\266\004=@I\200;$}\224\275h\335\212\274\3028\022\275aq\026>\350\342\244\274v`_\275#q\260\275<\316\021=\320\255\r\275\221\277\">\352\306\017\276\236\231\325\275\343`\024\276b\332\271\275\272+\333=\275x\245\275\214B@\275\000s\256<\352^\303=4OI=-\210\300\275#\302\035>\232\006\002\276\\P\225=\276\220\235=p\354\213\274\220{\206=\0033\304\275\230\345[=\262i\024\276@\217\274\273\212p\334\275Gv\033>\311\025\026>LO]\275\354\226c=\336\271\323=M5\025\276\304~c=\257\225\000\276\356\302\365=J@\001\276\0269\330\275E\266\025\276\240\022\373\273B\230\231\275\270\201\314<\330\236\333\274\230\247\217<\357\r\003\276\240Y\262;`\223\255<\232\n\267=\236\212<\275\350\354\355\274P\317i<\037\005\033\276\222\034\356\275PqY<\300\254S=k\026\r>\320\242\314\275n\317\221=\200Xb=\300\207\010;\030\033\325\274\t\335\010>\276`\366=\0355\003\276\310\241\372<D\007f=\332\030\352=h0\220\275H\346=\275\206\220\003\276\327w\266\275\220\036<<(\361\203=\374j\034=\240!\205;&l[\275n\264\224=a\202\r>\234>[\275@\334\354\274\3543\004=\230\020T=\241V\272\275\000\034\222:\356;\371=\000}r<\377\324 >\211\265 >f\017\036\275_\347\021>\213\225\030>\273\033\213\275p>\002<\260K\323\274\354\266^\275\264\343\354\275\003\311\013\276KO\006>\211\335\006\276\342?\374\275\266\346\026\275\207\261\314\275\252\300\343\275y1\346\275H\320\254=|l6=P\344u=\261S\201\275\2466\204=\244$h=D;\226\275`2}\274j\230\021\275\202\374\273=\340\244\236;*\021\232=Twn=\373Z\000>\341]\035>`\205\370\273H\006\221<@~\254\273\315~\022>\004|\223=\216\212\250= \367R\275\314nx=~Q\264=i\377\247\275f\207S\275\210s\341<(\267\224\275\004\373\230\275\277(\331\275\2160\316=\200@F\275\373\274\017>\214\276.=>-\251=\370\337\207=Z\245\304\275\177D\023>\273\275\002\276\204L\332\275\320/\322\275\031Q\264\275\030-\326\274$\3325\275\330\302>=H\255E=\320\022m<\346|\251=\214:\366\275`\220\224;WE\256\275\261\271\233\275\303|\232\275 \263\244\275\250S\256<\246S\021\276\364\243\031\276Rt\212=i(\010>h\242\341\274$ \022\275\270\250\007\276\262\036\252=JG\276=\346\\\025\276\016\024.\275|\365\247\275\274\331r\275\272\314\200\275\360F\237<\220\335\241<P\377\367\274\344r\356\275pV\002<\340\310==\nN\"\276\246\242\337=\242\203M\275t\0034=\320\223\317\274\243\252\032>\000\264\312\272\372\342\"\276\253\021\t>,{3\275k\034\255\275)\303\023>\300%[\274\017\214\263\275\320\370\007<\250\206d=\340\262\236\274\274a@=~\312\207\275\020\367\203=\340\304\315\274\223\353\026\276\205\376\031>-\313\315\275tL\236=\250\337\020\276\200\2176\273\235/\026>t\257D\275z\030\352\275y\272\274\275\000\030q9\224\277\020\276\300\247P=\244\360\017\276\330\350\201\274\366\325\255\275\320\\&=Dz\334\275]P\033>D\377l=\340O\230;1\325\267\275\200\322\022\275x\270\364\2742\250\022\276\240\357 \276\210@F=\376\014\013\276\316P\304\275\266Q\022\276\232\354\316\275\360\273{<\340\352+<s\366\277\275\340\251E\274&\225\342=\240\244t\274Hb\246\274\355\340\000>^3\237=\210\272B\275\261u\227\275\232\326\330=\300\344\243\273\020\367$\274\200aI\275\200\350T;@\261\'\274\"i\006\2766\201\274=\374kq\275z\013\030\276\300\3042<\222\265!\276 \320I\274\304}\365\275\006\225\314=\264\302\325\275\310\361\266=0h\n\274,z\274\275\374\233\247\275 \346K<v\244\020\275\001{\241\275\300\356 \274\204\207\031=\200\364\263\273\265X\003\276\342||\275\366v\340\275\000\003S\274U\343\007\276\230!\362\274\360\032\020\2741B\003>\350\204\223=\352\252\313=(]\213<\240\023\256\274ZP\265\275@,i=\270D\325<\342\203\026\276\352\317\302\275(\244\324\274\244\374+=0D\331\274\2623\336=\020\031>\274\330\016X\275\260B;\274\271\213\004\276\375\177\017>\220n\221\274\350\340\355\275\366\'\021\275z\304\005\276\300h\t\276REj\275 \320\374;\300\250\006\276w\323\r\276\000ij:7\014\021>\200\223\341<\200!\350<x:\221<\212\272\376\275\301\031\025>\274\3425\275\352\241\362=\266\307\225=l\362\343\275\016\260\214=\320\"L=\200C\264:\312\370\303=l\364\217\275\346\257\307= $<<\322\030\337=\351\024\227\275\243\177\032\276\350\004 \276\240\220D=8\0031=%\234\033>*\206\360\275\211\203\003\276\200T\233<?G\326\275X&\255\275\364\223\312\275\230$\304\275\252h\023\276\362\325\001\276?\034\">\277s\272\275\304<b\275\265:\r>\212=\351\2750\014J\275*\225\354=|s\340\275:\031\362=VYS\275\240\273\006=\232\232\221=\3239\000>\300\265F\273\264\026\003\276n\304\340\275\n-\210=\373p\323\2755=\342\275\204\004\255=x\373P=\035\214\255\275\"}\032\276:\010\266=\020\332\035\276QF\026>\356W\310=c\004\026>`\206\205=\330\305\232<\300mi;\03420\275\220l\350\275\020E\263<\214\240\027=\206\006\322\275\0066\374=\257\205\270\275 ^\364\273\031:\205\275\223\027\">\320;8\274\300\224\030\275\004\310>\275\000Oz=\240\314y<\222s:\275tF\363\275\370\254\205\274\312\'\364=\263\233\260\275,\330 \275\204\256\262\275\352=/\275\366\242\323\275&J\307=\340Xl=\037\207\020>\377\263\005>\232f\243=\360\031\300\274\263\316\300\275\366!%\275\320\230b\275\240hM\2757\324\034\276wE\020>\376\247\002\2762zD\275`g\275<\014\261!\275\354l\034\276\024\3147\275\276\000\246\275\022\252\274=\276\337\352=\241\255\001>\300\306)<\200\360\306:\230g\177=\322P\370=Ym\374\275f\313\364=\260w\216=\305\250\000>0\031<\274\200\305\016\274\240\317\361\273\332\230\347=\213 \003>\340\030\307\274\001\222\027\276f\013;\275X\352\353\274\024w\034=>\330\032\276\367\242\006>\036\266\r\276\3761\336=\353\005\210\275\200\226^=fZ\211\275Z\312\355\275\034]\204=\373}\002>R\345T\275\251v\273\275\200\2225\2740\007x\274<Id=\206>\245=\300b\313<\354\377\002=\016T.\2752Q\225=\370\322\221\275/I\"\276\000 29\3206m\274\3321\311=\214\r\355\275\036~\242=\360\253\251=\242\375\264\2757\365\035>p\344\'<J+\301=\204\374\252\275g\247\002>\234\260v=8\341\314\275\204J\036\276\000R\236\272\3666\366=`\255\214<x\005\335\274\200p\216\272\nN\247=\300\325^\274<\"\005=\370\260\304\274\242\363\366\275\370\242\363<\224\320\014\276\300\347\366<\246q\353=\024\023\277\275\226\371\211=\331\343\026\276\305\267 >p\225\037<f\330\307=L\215\373\275\372\010\274=tl\316\275\032\307\276=\214\276\235=\264\325Y=hV\234<j\304\231=\3523\271=n\204\227\275\006\367\320=\273\245\220\275t\373\251\275P\024\342\275\000&\223\272@:T\273\200c\325:\327\333\373\275x\200\261<ZV\016\275\340\333\262\273\326\333\246\275\002\007\332\275\312\344\342\275\332\327\253\275^\252\310\275\360\204\007\275\263:\021\276\3317\234\275\340\376%<\314\337{\2758\254\t\275D% \276\000\356\343;R\250q\275|%\023=u- \276\274\"\010\275\206\013\367=\366\263\301\275\\\3233\275\034\026O=zV\306=\370\270\360\274\000\365\022\276@&\213=\216F\202\275\254[m\275@\260\327\275GL\020>\237\t\">\210\321\355<\227\347\275\275\352\020\274=\216y\t\276\005\032\017>\300~\002\274\300\321\274<P\032\004\276\210\304\353\274\266\215\330\275&\317\246\275H\024\335\275\235\316\014>\022\234\345=\326K\030\27567\032\276\376e\364=\340Vx<&\363Z\275\342\373\305=p\340\212=p\275R\274\202\364\010\276*Y\013\276\335\030\201\275R\021\341=\315\231\031\2760\232\027\275\344\344\000\276\026.?\275\347\233\007>\306\241\360=K\237\013\276\032\007\372=Tcs\275\250%\021\276t\314S\275\212\275\224\275\333\014\r>\3067\n\276@\220\021<\240a\266=8\213\346\274\230\235\006\276H5\030\276\006\363\371=\212\022\036\276y\237\006>\203\333\013>\351\030\024>Ou\022>\0265\273=hBJ=\310s\215\274\305\036\006\276\230\242\033\276\240\354+<\326\210\236=6N\354=F\306\267\275R\255\352\275\264\036r=\225\316!>\2178\020>\000.p:\350\r7=\2429\212\275\314\004!\276*U\261=~\354\235\275\246\253\346\275uq\003\276\026\001\303=*d\342=e\221\010>\336\250\264\2755\320 >\344\243\221\275\327l\014>Oz\354\275@\337\252<r\034\312=\216\021\r\276)\234\010>\023;\363\275r\316[\275\020\252$<\350]\343<nyy\275l*\033\276\000\336h;\330\000\317\275\027w\016\276\326\021\r\276\370c\323<<.\206\275\030\256,=R\344\322=K\343\003\276\200\212\255:0\324\321\275^\022\031\276\245\214\033\276\"\270\003\276\030P\002\276\000\246W;\220\245\023\275@\304\220;\200{\357:O\214\004\276|c<=\227Q\026>\234\362\013\276N\003\234=\373\315 >\230\202\213\275@9\236\274\212\231\232=\300=\010\275\260\200q<R\343\377\275,\237 \275F\255\007\276\221\"\">\310\321!=\254oR=;\311\364\275 7\242\273f\245\316\2750nn\274\312\271\231=\360B\263<$G\351\275\204\356\260=\002\300\356=O\004\204\275T\301\032=\323\253\013\276\333\227\244\275\350n\233\274\244\004W=\202\317O\275\237$\215\275\3324\225=\n3\234=p\350\275<\030@J=P\354\371\274\347\001\036\276`\215P\274\310@\005\276\220\340y\274\216)\221=\"\234\244\275^\366\303=\202c\336\275@\301\034;Z\213\275=\370z\005\275R\\\347=\204\270q=\240\355\321\275\373\230\220\275\260V>\275\025\343\227\275.\224\223\275\246\202\300=8w\236=\266\266\346\275*4B\275(\235\324\274\252\3110\275\202\332\334=\351\n\202\275\3770\001\276\271\177\n>\3642\220=\302\306\367=\317d\016>k\340\n>SG\000>\240\273\346\273\230s\213<~m\242\275\264\331\224=K\306\205\275\2704\270\275\024\2434=\262\274\272=29\216\2759P\204\275\372\237\262\275\372\261\262\275\271A >\367\364\036>\025\343\004>,\'\264=5\203\003>\344TA\275\201\334!>\031\364\033\2764\321\325\275\3555\025\276(\310\355\274\030!\300<\364\0033=\204\001~=\264\250\007=D\313\017=\0201\355\274\220\321\263\274\300B\201=@\235B=\004V\372\275\340\276\260\273R\365\302=\272\362\353=]\246\243\275\016\005g\275 \222\\\274\032\277\264\275\200\302\276\274\200\262\335\275\360\256\250<\377\252\266\275\342\212\323=@zp=\300\223V\273\006`\022\275\242\304\321=t\201\005=2\215\322\275\277\232\005>\300)\222<\231/\020>\210\262\321<(X\002\276d\031*=<\251\240= \233\271<\223\274\026\276\\)\237=\223\326\243\275\360\334{\275\232\350\033\276\252u\201\275\240\352\357\273\354\243\020\276\314sP\275|v\361\275\357\270\n>\000L\215=\212\r\253\275\"<\031\275 \236\371\275 \354\376\274^\277@\275f\013\201\275\236?\317=\264z8\275)`\372\275HZ\277\275\354\252-=\371[\256\275\346\256\220\275(\025L=j\202\007\276\245j\201\275\246\353\345=\007\331\020>\232\035\260\275P\272\266=2\017~\275`\324f<\334\212\245\275\247\345\364\275 \016R<\212]i\2758\355\232=\300a\370\273\326\235\304\275\233B\372\275HgJ=\367d\037>(\'R=\216\177\303=2s\022\275\360\351Y<Y\317\023>@\336.\275\304T\032\276X\240)\275\262\223\330=\211\177\256\275\000\271\331;\264\256k\275\222\332\031\276@\334R;j\220\027\276.e\321=\233\355\212\275\264\217 \275\014f\234=\363\306\203\275@\036-\273ND\334=t\333\222=\230p\323<HL\212<T\245\266\275\032\252!\276F\017\333=Y\236\027>4\244\355\275,\332\325\275\267\224\334\275@O\311\273X$\276<&\023\255=\2611\001>8}\026=*\243\356={\344\025>hT\367<\324\265\003=\204\203l=,\373M=\352\343K\2752\243\325=\000\235\025\272\273,\034>0\3354=H\254\322\275\364x\001\276\3031\005>\302\213]\275\326\016\003\276\330\252[=0\373\025=v\004\363\275\0245x\275\3105\301\274\324\364\245=\254\261(\275\020\323\252\274\316\"\353=9\254\275\275\260s\255=@\300\017\274R\201P\275ww\354\275\222\257\256=\365\203\214\275\330_\001=$eN=\000\322D\272B\373\372=\252s\004\276\210\241\361\274\030m\342\274\346\306\307\275\276\017\361=\314\313x=\274\227\234=\244\303\212=\032h\"\275\222\330\364=\370\036\261=\356\327\346=dW\226=pz\032\275\310\276\340\275:\324M\2751}\n>\031\332\335\275\352\272k\275\300\207O\275*\212\376=:\204\301=\322\215\321=\355\346\005>x\223\241=\240{!\275\371/\002>\300\273w<\303i \276\213V\250\275\230S\226=;\211\r>,\272\317\275\020\217i=p\216\372\2745\361\247\275w\201\021\276\353\302\024>\332\202\347=8K\352\274z\224\021\276\273\036!\276\261G\274\275 R\215\274 z\r\276t\263\220\275R\020\241\275Z*\322=R\321\364=^\350\334=h\\\353\275$\353\006\276.\\\331=\024zz=\240Q\346\274\372\002\016\275\'r!>\252\354\242=i\247\016>7n\006>\356-\332\275\336\021\252=\360\025G=\242i\273=Y%\255\275\212U\274=P\241\375<\270\214\252\275-\354\n>\333i\305\275\262m\342\275\202\242\037\275\362\247\236\275@t\022\274@\300\311;\372\263\226=\334\330b\275\364v+=4r9=\370\234\366\274\365\344\370\275\330!\371<\244\001\004\276\030\007\303\274\360w\033\275pk\025\276\010\\\355\274\37480=\220\300\265=d\205\226=\216\275\321\275.4\350\275\335\013\005>\240u\371<LI\031=\340~\016\2760\220\217\274dc^\275\340&\364\275\242\274\274=\374\364\005\2762\221\352=x\261\226\2754\272\330\275\260\273\024=\220L-=\350\006\242\275\370I\215=\236\353\350\275\206S\340\275\277\201\270\275;X\016>\220\355\312\274\236|\337=\340\242$\274\276\250\"\275\200\006\177\273\353\246\027\276\274\227\242\275\000\200m\274\344D\360\275\200\030\250<6\022)\275v?\320=H\276\251\274\322\260\302=q\233\036>\017}\016>\3454\010>\352O\236\275\013\004\030>\252\271\246=o\245\255\275\332\235\004\276\312\031\354=-8\003\276rx\362=\371\212\005>\350\373u=$h2=I\352\007\276J\305\206\275\024\036\021\276Jv\223=\340.\302<\200\270c<\272\260\214\275\233S\036\276\303\322\000>\315\230\014>\000$\223\271\200\327\200;\017\364\013>\246{\277=0\351~\274\030%b=\340>\271\273\342\344\230\275\221F\353\275\020v\346<\0003\177=\205f\243\275)\300\327\275\370\006w=\351\346\000>\361\205\037>\200C\324\274D\016\324\275@5\204\273\300l\360\273\306\376\312=\020\221D\274\026W\344=\024N\214\275\010\321r=2g2\275\272\006\275\275 \022\246=\222C\357=\263\017\020>\000\226\327:`A\205\275\312\264\234=\266\224;\2758m\270=\366\322B\275\222\234X\275\317\036\230\275z\254\222=X\361\024=\276|\230\275\000*\345\274nF\304=X\032\017=|@\020\276\320\016H\274H\215\004\276\010\303\342<\027J\361\275\214v\307\275\334\226$=\026\367y\275\240vX\275\000R\026\276\003\375\334\275\240\t\246\273\346\203\014\276\303\025\n\276\257.\010>\367\256!\276<\263\247\275Nf\023\276l\203\002=Pj\216\274\360;\207<\3575\n> -\t\275Z\235\342\275\215#\001>H\213\263=(a\213\274\035\231\030\276\020\317B\275\305\354\031>\306\351\343=\300\223\025\274\260sM=\244n\251=K\345\007>\253x\007>\204U\270=z\221\256\275FO\251\275\006k\004\276\354\3567=Ly\005\275\362uP\275Y7\021>\246\374\326=\031$\314\275<[\250=0!\376<\300\216\214<\313\234\032>|+\177\275G\035\005\276>/\377=\010XI=\036\005\375\275\200\254\010\276\242\'\220\275h4\200<(\255\210<\336\005\234=hc\036\275\240\235\250=\nI\315=\000x\025\275.\231\020\276F\274\277\275\303\324\204\275\026\254\336\275Ua\333\275\374df\275\002\372\311=R\210\337=\n\260\034\275Kn\017>\357\\\003>\366\311\254=\005\204\013>\276iU\275\360\246g\274\352\366\274=@[\201\275\232W\352=\200\230N<l\215\004\2752V\023\276\256\003\203=h\331\315\274\214\222\017\276n\342\372=\200!i;\304\212\376\275\035~\004>\267\337\t\276\025+\003>J=\004\276(\2047=x\333\370\275\356\020\025\275\310\277\206=|\005[=\020w==\224\275%\275\300\354<\273\330\nR\275D]\252\275\032X\327\275\340\024\020\274%[\n\276\276\233\237\275Z \352=\214\314>=@\223\340\274@{G;D\221\335\275\265o\037\276\322\031\023\275\355\303\205\275T\354\007=v\204\273=@\313\031\273\354\257\367\275\221\207\326\275\252E\304=\270\304\345\275\224\252Y=P\324\343\275\027[\255\275\025\343\030\276\330\003N=R\243\202\275\301\325\030>\246+\315\275\310\\q=\210F\221\275`\233\005<\206m\372\275m\025\021\276\2241\337\275\336\241\210\275\224\346,=*M-\275\300&@\274\266,\326=0\007K\274\304\255\376\275\324X\036=HO\267=\320:\351\275\340oJ<\216\355\376\275:\217\231=\350O\237\275>}\034\275\036\357\274\275\274\342\234\275R\247\300=7P\006>\352\376\306=\020&Z<\240\2236\274\2407\004<-\022\251\275\020\010E\274\032+\336=\212U\376\275 \353q<\000\314Z:\254\220o=\207\270\035><\372\237\275T>\243=\226\245\272=g\\ >\314\322|=\370\207U=\367\036\035>D\246\002\275\220\356\247<x#\201\274\270\334K=\000C\020=\217y\255\275\002\340\336=\250O>=\034\275\207=h\351\336\274\177o\000\276\3024\310=\200)\225\272C)\003\276\017]\374\275X\333\023=\304\355]=@IU=\240,\300;\356X;\275\260U\344\275Y\337\n\276\214O\241\275\2426\257\275\343w\026>\340;\217\273Y\204\021>\372\231\316=\354\211F=H\321\323\275D\021\332\275\366\274\372=\311g\305\2752\374 \276P\344\260<\2230\221\275\256\026\020\276\020\010b\274\023\236\022>\000\376 \274\260\016\005\276\233\355\013>X\332\343<@}\t\273\2529\274=\247y\264\275\244\344_=\334\353F=\020~\\<\340\347\355<\202\357\363\275P\223\277\274\230.\023=1%\347\275d\004:=\244\300L\275\262\347\325=\226}\225\275o@\t\276\0207y\274M[ >\357\036\n>\343\241\036>\343\310 >\000\340t8\353\323\205\275\342\320\273=\362Q\"\276 \352\275;\261Y\266\275\240\177\336\273SP\325\275h&\271\275\370\267\007=B\211\337=\350\363\373\275\202w\373=\301W\022>z_\273=D\007\260=\2169\222=\214n1=\203\261 >`\363\263\274\300p\310;\240\244u\275\343\\\277\275\360t\027\276\022\206|\275\242@\300\275x\215\234=\340s\325\274W\367\320\275\002A\327\275\332\331\273=Z\211c\275Y\034\024>\276k\344=\230\024O=/\214\252\275b5\326=\272\264\275=\215<\225\275\220g\305<\367\232\024>~\202\033\276k\035\032>\346;\220=\\\225W=l\235\t\275 L\274;\000Gg\275X\202\035\275\300\244Q<\350\263z=\210 \300\274ZU\323=\340\342\357\275\200\276\260\273P\036l<\240f\016\275\222\013\222=FU\210=+P\030>G\360!> M\024<\203\211\314\275\202\371\361=\336\037E\275\300\214\004\273\354i\245\275\004\254\220\275J\331\275=\0240b=\2573!>\277P\023>b=\352=\032\345\215=^/\025\275\357\353\025>@\272\024=\020\335?\274%\372\026>\232!\030\276\245\013\003\276S\241!>\017\337\332\275+\307 >\310\354\263<\200z\322;\325Q\225\275@8\270\2749\340\n>\032X\327=\006\253\314=\260\242n\274\216I\275\275\000\004j9P\021\315\275\364A\273\275\014\326\351\275\364\t\231\275\036\216\371=\236+\361=X\315\237\275\330\315[\275@\235\023\275\252\275\345=\376\226D\275\334\"J=\020\247\t\274\330\276\266=\2229!\276\340\336_=\306\266\372=\242\036\301\275X\207\037=x\202-=\377\247\220\275\370\253\220<\315\336!>\320^\316\2748t\001\276\006\020\335=0\366\364\274\016\027\320\275\003/\">\300\325I;\000\352\242;\202\007\354\275\027\307\006>K?\021>\327\014\266\275T\224\374\275\252.\316=\006H\023\276{B\026>\317\343\030\276Z\337\372\275\220y\036=\253\007\032\276\330\260C=\036\306\305=\320\301\337\275\252>\364\275\315\261\000>\017\311\037>l\355\021\276\306\227?\275\037&\004>}x\005\276S\226\017>\370\226\304\274\226\211\276\275\026\220\375\275\026U\332=\006\304H\275\240lK=\363\312\277\275n\213w\275\242*4\275\302>\221\275\242\202\361\2752\036\016\276\'x\037>\220\001(\274\374E\037\275\n\326\315=dP\\=&1\004\276\311\276\000\276\334\335\267=\251\253\027\276\003\221\002>\233\325\232\275\3672\t>\234\252\236=\241*\307\275\0048{\275\204\3742=\200\205\202<\224\262]=\300\"\220<\000\020\331:\343\263\t>\350J\276\274\370\300o=(\013\345\275\316f\306=\362\210\315=\360\310\374\274\317l!>\312U8\275\366&\366\275\310S\332\274\256\373\350=\004\227\004\275@\2009\274\030\355\026\276r\227\350=\347\333\004\276\260\377\276\275\360\260+<dk\204=d\352\031\276\350\264\357\274\270p@=`\352\271<\333T\350\275*\020x\275\366\211\354=\000M\303\273\032\326\333\275\333\022\322\275\341)\021>~a\016\276@4\014=\020\254_<T\243\036\276\253y\025>@\363{=\270\022\205<\000_*;\022\362\367=\245\243\027\276:\260.\275\033\252\020>\342/4\275\2002Z\275\315/\r>\374\313_=\321\251\016>\376\272\314=c\244\004>\370\276W=\304\326\t\276(\376/\275,\215\320\275\007H\002\276)\026\006>\350\344\341\274/_\302\275X\2540\275J\361\337=\002\222\316=\236\274\361=H\206\240<\372\'\333=Q\235\247\275\220\311\252=\266#\364=\230\371\253\274\316\343\335\275\276\n\342=\271/!>\307\245\n>\022^\314=\336\275\352=Sr\036>\026\260G\275%\211\001>\226k\233=\022\000\007\276P0\333\274\265\353\n\276\214\010\362\275\236F\315\275\034+\323\275\034\246X=\227\357\026\276\360\362\001\275\343e\224\275\212\201i\275&%n\275\0005a\273H}a\275\220\027\036<\320\206O\274\200\354#=\330\346\324\274\375@\013>Q\221\023>:\232\225=2[^\275\264W\202=I* >\200\215\316\273qN\031>\343,\226\275`\261V<\332\374\345=\237\374\034\276\256\262\337=\226.\352=\352\024\301=OA\014\276%\213\037\276c*\n>\024\3461=\030\036\371<Fe\272=\330\n\213=\016\352A\275\240\260\255;\315j\031>\300\003\010=PDo<PB\t\276L\031\201= \004\014\274\254\300\002=,X\361\275&>\345=6h\366\275d\313\"=\006\212\302=\010\307\365<\026\242n\275\216c\354\275\340\037j<\360\325+=Vh\030\276w8\027\276\025,\305\275\320\363\373\274\334:C=\302\177\360=l\213\026=\300h>;\236\370\353=\220\2040=\340\226\313<\376L\320\275?\213!>$\004\242\275\020\361\370<\314c\335\275\250\001?\275\207\377\035>\020\026\274<\235\014\244\275\352~\320=\001.\024>\211\330\365\275.\205\317=\310\335$=p\216J\274nJ\274=\347\000\023>\004\235E=\251\325\247\275\314\265\204=\274\030D\275\236\035\003\276C\246 >xH\301<\306J\262=\305\222\024>;\032\032>\034`\250\275\376\016\261=\020\354\267\275F<\003\276\330\330\354\274\314\223\236\275\374\364f=\216\200\210=\201w \276\300\2557\274\346M\241=\372\201!\276\334N\226=\300\212\034\274.\344\006\276\234\344\032=\020G;\2758*\331\275?#\006\276\320\264\365\274\000T\032\273\312mL\275\340\270\315\275\276{ \276\223\225\033>\0043R=\000\266+=\322\357\314\275\200MB;\024\264\205=\010K\347<\022tP\275\031\035\234\275\222\246\355=\225;\304\275\230<\177=\302\t\343=\271\333\t>\356\227\323=\236\347\245=Z\2025\275\365Q\">z\211\353=9\262\226\275\340\357\004\275\307\013\273\275d \003\276r=\276=\020x_<\344C\200\275\200\365\224\272\002\276\317=\025\035\013\276\200\3306\274)9\203\275\336\036\305=u\033\262\275\211D\024>u/\006\276T\177\374\275 =,\274l\241\330\275\305\211\007>l\256\251\275\237<\263\275@\033!<\256\324\275=\343\214\001>;\307\246\275\221\317\022>\350\200\371\274\311\211\247\275\266\264\342=\331\361\257\275\354\210\225\275Hm\327\275\322\007\305=\240u\224;\220\037\266\274\267\206\027>\261\221\020>0h\343<\004\006\024\276b\030\027\276\3335\253\275\000\206I\274D\016?\275\370\r\255\274\000\217\026\275\366\232\357=\020-x<\226-\301=\346f%\275(\307\360<\342#\316=V \257=\354\254\250=\336[\034\276|=\231\275\200\2367;z>\r\276\333h\003>\346\253\302=p|\322<\222V\331=p_\266=vB\307=Z8K\275f\032\r\275\000$\205=\212.\226\275u\314\343\275 \332\021\275H\355Q=<\217\035=\224\241`=\374\316\234=\002\036\325=|\321\354\275\253\370\r>\211s\232\275\250E\336\275\320\350Z<\000\330\206\270\234\314)=\000s\342;\352f\204=\300\r\242=\000Q\254\274rp\r\276\374\020z=8n\275<\2578\205\2756z\354=w\374\035>\246\330\364=fl\032\275\342\211p\275\323i\220\275\370.\237\275\320\261@<\302\204\322\275\001\022\020\276Ul\302\275px\227=y\224\034>\357\345\251\275ns\253=\004$q=\340\272\241<F\342\034\275\370\007\210\275\251\364\217\275\327`\005>6h\233=\337\035\000>\202\013\227=\260\256\220<\300L\307<P_\377\274}^\017>\210\236a=\3437\312\275\375-\024>[c\350\275\344l\224\275\210\212\001\275\tq\023>1\207\215\275\'\337\031\276\020a\242<\024EC\275\340\2127\274.f\002\276\312r\262\275\350r\237=\034qx=~\203\211=6\263B\275D+j\275l\305\334\275\364\022B\275s\376\350\275\212\007\365=\340O\007\275,\347\024=\322S\362=\260\177\343\275No\356=l)\362\275\312r\346=\320\260\035\276\0246#=\321$\271\275\035\335\036>\255\364\265\275*p\352=\226\250\346=l|v=\334\363\230=\212\016\347=\200\332X\273F\n\313\275\346\000?\275\247\225\021>\306;\250=!\310\016>HA\207<\336^\353=L\024\206\275d\242?=\215\310\003>=\266\337\275\323\331\007>g\375\023\276\232\236`\275\332\337\320=\024\\\035\276\340|\340;\2664\361=\212P\206=\356\333z\275 \247\020\274*G\265=Z\375d\275?\363\020>0\323J\274\354\216.=\023\342\224\275;\371\005\276h3\243=\271\344\000\276\346WC\2750X\203=n\233\222\275\316\263\344=\340G\320\273\236$\330\275\227\027\205\275\360\024%\2748\031H=\226\027\230\275y9\032>\217\274\243\275\240\274_\275\033\336\030>\360\326 =f\351\326=X\271\210<\367M\035\276Ug\017>,W/\275F\364c\275P\216\277\274hu\030=xr\260<L5\n=\210\034Q\2752k\351=\200a\310;`\240\210=\222F\322\275\270\366\225\274\326\215\233=\214T/\275\260\370\326<\"\363\321=\026\300\354=^\323\254\275is\r>&\370\255=\353:\001>8F\363<P\324\316\274A\003\">)&\002>\241R\">\232\244\351=:Js\275\010?0=`Z\242=<\034\005\276\200k\355\275\355\343 ><`l=\000z\347\272\263\305\014\276 _\250\274\000\3721;@\252\255;\212\250\274=\035\365\034>\260\220\200\274+N\246\275[P\020>\230&\253<V\315\366=\325\024\223\275 \233u\274v\345\361=\002a\373=(\331\020=\230W\265=\202\344\365\275\340\346y<W\310\r>\324\326\225\275\334\241\017\275\320\334\244\275\350\343\r=\274\242\201=@\322\213\2755\352\364\275\035\253\202\275@7\237;\250}\013\275\262[\020\276\310e\226\274\360\3612\274\231\312\000\276m\370\022> \211\203;\260f,=\335\254\027\276\020|\323\274S\377\237\275t,Y=\306\034F\275t(@=\336\231\307\2756\016\377==s\035\276\240\364\371;\373F\310\275}\222\017\276\240k\001\274\247g\204\275(\225\330\274H\310\313<\222\'\t\276\035\270\005\276p\013\353\275\304\246 =J\263\035\276&\360\370=\010r\273<(\266\267<\033\271\021>\200$\362\272\277\321\021\276 3m\274x\331\\=\346\013\250\275T/\241=\342|\232\275.-\006\276%+\332\275H~\321\274\340\001R\274m\203 >\000\232\3049\324\026\245=\233\350\026>vB\031\275\272\320\341=x\304\334<R\204\272=\250r\220\275 \005\235\274Z\027\275\275\'\243\">,\325\242=S\336\023>\006Q\300=R\020\'\275T\354M\275\226\277\247=\366v\277=O>\251\275\251L\256\275h\355\n\276w\231\017>\010.\201<\362\257\303=\020\004\351\274\210\020\211\274\262Q\323\275\360\342\004\275a\351\013>\340\371\272\273T(\037\276\000FN;+E!\276\000/\377;\336y\342=;\310\023\276\020 o<FQ\017\2767\352\207\275\024P.\275\267\210\024\276 V\312\273\330\307\261<\271t\216\275\276\000\377\275\022\303\334=/\270\235\275\324\021`\275\3162\363=\215\335\036>\021\330\356\275\337]\022>\301\253\010>\276\276\307=\340#\305\273U\205\022>\030\244\326<\240\177\304\275\347\t\032> A\026\276\030\301l=P\245(\274\256\213\345=nT\353\275T~\216=\205v\032\276x\256\346\274\336\333\212\275(!\205\275\360\035;\2756\377\222\275\275\277\037>p\277-<r\264M\275-\241\220\275\310`\216\274t+>=P\024p\274\213-\r>\314c\210\275\333b\223\275{\361\036>\220\247\230=\204\023\303\275z\267N\275\000O\243<T\1771=_\316\005>\370\320\224=FS\357= T\353<v\373\021\275\200\262U=\010\330D\275\030\361L=(\311\236\275\340`\266<Zp\273=++\227\2759f\014>\346\321\256=\2609$\274\0007q:}\323\200\275xt\374\275VJ\233=@\355\033=\2667\353=R4\316=\277\'\031\276\313\355\007>\232d\t\276\233\032\003>J\207\007\276\360\231N\274\241\327\007\276\233\360\032>8]\200\274\020\324p=\270\321\032\276\370\006\334\275\005\035\032>\244\246\014\275Xs\202=\000;\251\272\342\026\343=\033\350\275\275P\224\205\274\2026\n\276\032\251\207=x\036\321\274\326T\335=\332\223\316\275\340\366\005<\230a\034\276\300\005b;@\024\033=\262*\n\276\350\320\261<B\246\332=\\\360\032\276B\006\200=w^\034>\000e\325;\203\262\036>\313\355\316\275@Tk\275\000\214\006\272`x0\274!\341\250\275\'\020\004\276\020\241_=rD\353=P\336i\274@\256\214\274\340\301X=\003l\007>\014B\257=\273>\001\276TL8=@\206\r;\000Q\271;\376\272\337\275E\032\r\276\004\251\306\275\223\240\270\275\322\372$\275`n\037\276\200zv\273?+\030>H\202k=M\035\017>\014\021\363\275\213d\213\275@\326\"\275jr\370=\367\313\037>\240j\273\274\244\013\213=\300\255\001\276x\312\203\275 \3759\274:%\325=\'\001\026>X\243\370\275\246o\377\275\014\222\365\275\021]\334\275\002Z\377\275R\214\363=\316 \023\276*\262P\275J\202B\275\354\312\237=\033H\031>\200S\311\272\000\010/\274\336\300\010\276b\253\025\276\203\276\251\275\r\251\014>f\367\267\275\374R\023\275r(\375=`\016e=:\243\222\275@\332\226;\254\215\006\276+\036\366\275B\350\016\275\350\343]=\362+O\275\266V\222\275\376\000\331=h\231\245<\003\027\003>\320\276\314\275\312\r\342=\000\362\010\276n\200y\275H\237.=k\035\205\275|\006A=p\033,=\030\243\337<\234\261!\2760-\032<\010q\327\274\355\002\213\275\000\\\274\275\272tm\275T!O=P\240t=\303\271\000>^\366\372=\272R\264=\020I\333\274\25657\275X\034\263\274&\t\224=\350N\247<\000\264\260:n\305\352\275\252\224\322=\313w\037\276\352\355\037\276F\362\332\275\316\t\030\275\356\242\310\275\312ju\2753\363\302\275<\370\205=h81\275<9r\275\345M\035>\244\333^=\263\331\n\276v\010\346\275\346D\277\275@\347\261=\213 \022>\332\002\221\275\000\266x=\274\201l=A`\352\275\200\341\371;r\205\245=2@!\276\236s\363\275\200\022D; \227\337\273\336T\306=\200\341\312\2732\210\255\275P\302/\274\320\277\032\2750\351\370<\231\r\t\276X\376\212\274\214\351\241=\202:\241\275\302\205\217=(\002Q\275\005\005\r>h@\353<l\323`=\221\330\r>\004\000\206=\352)}\275\214U\250\275 V\333;\000A\351;\260)\023=\320\357K<\364\"\035\275\036\010\353\275\2322\234=>!\323=\320\235e\274\023\036\211\275\200\014\203<\270\230\270\275\201\035\262\275^\305\025\276\350\222.\275\017\203\004\276\306\002\334=\312\275\\\27565\256\275\330\304\365\275\367\\\240\275B\247\t\276\330m\217\274w1\271\275\260NT=\000\234\335<<\200\030\276\320\313\257\274\000\006\267\272\362\005\341=F|\227\275\250\252\231\275\346H\350=\206\305Z\275\226\247\311=\030\304\316\274X\022\\=@]`;\244\025L=\270;a=\236\272\330=(\205\267=ps\307<\326\310\343\275\356_(\275\300\346\\;\t\232\n\276\224U;=,\207\024\276x\220\376\274*\352\233=\022\006\312=\210\214\206=\210k\372\274T\241\030\276\000H\310\271\026dd\275 \356a=\344&q=\346\215\231\275\351\013\017>Pa\004<\360\365W\275\324\ry\275i\236\020>\375\262\020>\030\367\301\274\324\036\032\275\342\013\340=N\220K\275}\350\336\275&\251\200=rI\272=E\366\010>\364\216)=\244\311P=\324f\363\275\376\277\330\275(8-=x$\006=\240\202\317<A_\217\275\357%\r>p\326\366\275`\005\022\276\010\365\026\275\262\277\332=\204\232|\275A\252\020\276\000=\364\274:Q\376\2757(\314\275\270\265\364\275\200\207\005<\325\374\010>N\210\360=\032)\303=Z\323\325=W\"\036>0\2131=\227r\022>n\245\372=\222\347\376=eo\001>\242\016\010\276\322E\375\275\240\244\007<\300\002.\275\352C\377=\312\226\007\276\233\010\331\275\024\204/\275\230\237\215\275\034\017S\275\024\3237=\200B\260\272\270[\367<P\232\360\275A\026\341\2750\010\266=(\332\263\274\274j\034\276\3026 \275$\262Q=\000\241\222=\036k\333=\307\374\027\276\3611\267\275\000\301U\273\230\342\025\276\250\014\322<\t\260\232\275\325\270\022>zm\377\275@\343\374\275\360q\216=~\206\215=\004\340\262=8\326\004=\212\246\035\276\354\0002=\236C\366=\020Lh\274\340\347\230\274Q\254\314\275\000es=\256\014\343=*=\316=\016g\026\276\374\252\306\275\332U\204=\020\315\353\274\210\232g=\214t\032\275\375\010\024\276\263\266\027>\302\263\201\275\320\330\214\274\220;\374\274\356\030\273=\231\371\016>\330.\250\274\350\365\261\274~1\350\275\270\310)=\334\232E\275\321\000\322\275P\330\002\276\325\\\027\276\3728\352=\026\346\337=\005\331!\276\220O\264=\231^\t>\020{z=8\301Y=\276W\344=@\005\262\274\364]\022=W\020\262\275L\267-=\270\225}=\020\254q=\340\232|\275\342\232\256=`>\236\275\306pE\275\302\246\260\275\214\250]=\333F\235\275\322s\327=\000\364|\274\2409C\275\216\022+\275\330yT\275\206\226\312=\300\343M\274,\003}\2753b\030>\204\000\255=\320\307\007\274\210\230\246\275R\007\341=\010\0021\275\371\376\021>\374\246\007=\017\220 \276\350P@=\035\306\234\275L\224w\275\376-\241=\240\352\007<\010\021\367\275<\324\312\275B\360\355\275\210\220\256\274\033\302\020>\275\264\001>D\013\000=o\212\252\275\236\273\213=\250H\006\276zf\373=\370H\205<\344\320B\275O-\205\275\300\216\225\275j\t\346=0\331\357\274\372I\200=\0001\202\274\201r\213\275\3700\271=\222\241\362\275\341:\032>\000X\2759\274b\013=2+\341=\200P\010<\35088=z\322\'\275x\026j\275\342\252\017\276\"\345\010\276\243-\002\276T\206\265=U\221\034>\242w\312\275\316\231\005\276\177\274\033\276\301G\013>\3146\203=\260\n+<\202l\327\275\244\020\354\275\214v\004=\006>l\275\320\222t\274\232-\354=\235\200\243\275\200\202\273<*\221\226=\036V\230=\210f\252=\325\020\021>lS\254\275\370C\224<\236]m\275\243\017\014\276\234K\n\275\227\243\005\276\250s\325\274\022\263\372=\342\010\005\276\334\2761=\240\352\320\274\000d\026\275\310\003\017\275\276\326\224=\366\245\177\275\224M\241\275{\263\005\276\370\026\222\275\336\211\025\276`\246\233<PF5<I\236\033\276Q?\003\276*x\362\275B\340\305=\244N\007\275\244\257\'=F\360\247=\235y\245\275\303\016\033> \333\331<\0240\330\275\322P\206\275\270\021\346<9~\303\275\354 \305\275\274M\344\275\177\276\314\275\366w\317\275\374\330W=\260p\303\274\200\246T;\0006\211\274\260\n\252=\205\016\032\2760Y\004<+\010\r>f\336\355=w\236\260\275\240\003\030\274\212\213\366\275\000Ar\274\325\263\302\275\263\376\234\275\327\242\030>\267\345\312\275H\275\031\276x\227z\275\3620\265=\350/\010\276\010\321\337\275\244\302\003\275\276\346\270\275II\010>&\311S\275\346t\002\276\246N\342=\244F~\275&\217\300=\255t\026>^\237\372=\222/\333=\333\273\r>p4\271\274\256\312\245=N\370\274\275\261!\000> \223\007\274\253z\245\275\200\010\275\273\036~\353\275@\246\333\273\235_\031>\317\350\032\276p\374\217\275.\355\376=P\360M\274\300h\033\273\222\'\247=\221\307\001\276\006\200|\275\365H\020>\000\324}\274\022\360\313\275\005\267\273\275T\360\021=\246\037\307\275\302\252\006\276\266\020\330=\362:\220\275\252\240\320\275\252\021\036\275 \324\226<\362\003\017\275\240\r\256;\030UT=pL\250=\225;\014>\275 \006>(\034\004\276\254\033\311\275x\010\255=\240\306\321\273\252\204.\275\362\211\350=\300\352\024=\210\342\245\274H\304\024\275\330\264\243=\026\035\202=z\001\373=}h\014>\225/\026\276\310\016\230\274\200\310\246\272\016\331\250\275\260\217\r\274\231\016\343\275\333&\325\2750d\250=\353\325\237\275Xe\212\274dg\254\275q\213\033\276\r(\010>\010\313\261\274p%\260=]\342\303\275\350\033K=(E\246=\335r\330\275\353 \232\275\346\263\357\275\310\232\235<\022\023\306\275\022=\237=\200f\032\273\337\352\275\275\202\247w\275\372_\035\276\217\322\276\275\366\373\344=\324\236%=\260\022\231\274\337\010\232\275\355j\005\276\300\226\001<\360\265_\274ni\306\275\030\336M=\360~\"\275\"\r\023\276\366\255M\275ht\264\274`J\314;\014\263\020\276\252\344\034\276P\027\360<\026\341\203\275\272O\376=\000O^;\014\345M=\270\2455=\302\313\346=\250\256\255<\006K\273=\000}\230=d\022\222=w\331\345\275bm\214=V\244\r\276\000|l<\300D\234\273\220\247\234<vn\357=\234\005\205=,\035\"\276\276\245\336\275@\244\003\275\230\232Z=\026\207\326\275\t\364\376\275`/\003=V\236\340=\342\325\232=\010\211\313\274\263\250\207\275\315O\r\276\306\375\366=\256M\264=J\245\262=\000\352\263\2743\363\032>0\217T\274k\227\035>\362\214\270\275\200\001y\275p\\\212<\236\205\334=\276\313\314=P\235\023\274f\364\242\275\300\024\003<\tS\345\275\351\351\302\275\311\211\">\366\211\243=t\360\023\276\314\375p=\274\010\367\275\031\202\013>0u\205\275\020\357\037\274\374\333\033=pTK=\326\t`\275)\241\036\276\264\255\002\275\316\371\325=\236\256\373=\374\317(\275\006\025e\275\326\231\374=s\275\014>\202r\300=b\360\326\275\257\245\000\276\336\360\212\2751t\025>\360\272\007<\307k\000>`\310/<0\271S<t7\014\276\347\207\"\276X\366\032=v\310\314\275@\246f;\036\006\200=\255\342\242\275\016\313\373\275\274X\027\2767\216\037>\300\037\177\274\034K\202=\350\265\305\274\267\020\031>h\027\312\275\0225\202=\216\254\372=\0031\246\275Z\025\034\276\226\274\274=v\307\253\275\370x\264<D\031\215=\356\303\252=\366\343v\275\232\327\375\275Bo\273=\3740+\275\001\202\036>\254\262\204=)\033\030>\342\000\377=-\242\265\275\221\'\252\275\257\331\230\2750\343\363\274Z\377\341\275\310Z\367<(\201z=\230\007H=\367\254\352\275H\035==\203\374\030>\301\314\343\275hz\250\274?\261\302\275\360!k\274\024&B=X\374\n\275R]\207\275\314@\224\275\253\003\000>\236\251\365=j\226\370\275\254r~=]4 >\260\252\'<\r \026\276\200\264S=\344\177\221=6 \035\275\331\365\230\275\025Y\232\275P\203\226<\2601\200\274\202\300\240\275\340\010\306<\322\357\207=\0076\030>\020\376\234\2750\301>\274\230\300\257<`\347\016\274\312\214\310\275\240\377\204<\220\037\230=I\335\007\2767\216\023>pF\241\275\2167,\275\326\255\225\275\354Z(=\226\222\330\275\270\211\225\275\243\256\014>\006\312\214=\200\240\303\274\314\376N\275\0004U\275\036(\263=\211\266\026>\300=\330;k\262\005>X\316\324\274n\377\315=\235d\010>\020\270U\275p\356\242<I\350\020>\304<}\275\340\275\220=\276M\r\276\000\365==\224\305%=\204\240t=.\271\362\275@\257\t=\301\230\t>\236;\202\275\374i\030=\006uc\275\000$\343\272@\370A\273\260\263\364\274N\225\030\275\001\236\225\275\252>\354\275 \tj<\310\200,=\320\2061=\222|\356=>p,\275d;T=\320F\301\274# \026>\360\252\374<\2566\316=\336\\\342=\260\353w\275l\032:=\266!\356=n\224\226\275I\020\000>\310>\243<\241\372\034>\000\204t\271\304\'\270=Sz\024\276\342\010\315=)t\005>\310S\332\274v\304\303= Z\022\274\250\201\227<\352\225\367=P\364\020\274\212\371U\275\374\024\034\276?\025!>\257\021\n\276\036\267\257=\210\347\021\276 \332\242\273|\203\205=FD\353=\346\320\221\275\310\340\304\275\310A\016=\"\311\327=:y\254=m\270\366\275\330\241\324\274\363\216\022\276hu\210\274`\026q\274\340C\321\274\232\237\343=3Y\033>>s\315=z\177\204=\251;\n\276\220\026s\274\263t\034>RS\344=\362\330\026\275*\373\325=\326@L\275\233u\005\276\215N\377\275~.\307=j\316\342=ZQ\351=0\257\337<\236\342\205\275\320\337F={h\330\275\264\217\001=3\244\253\275\030\212\310<>\252\241\275\242\335S\275\330\264\224=\362:\364\275\372\004\252=P\240\200=\202H\356=\376\370\353\275B\346\017\276\217^\303\275ti\036\276\200\330+\273\371\262\t\276\004\371T\275$\340\202=\0252 >p\230\214<Z\013\300\275\335H\317\275\240Z\330\274\207\251\020>\016\212\340=\230\311\036\275\2122;\275H5\261\275\222\215\336=\267\330\006>\241&\003>\340~\376<\000\230\203\273\022 \340\2756\'y\275d\261\232\2751\220\216\275\024d\"=\240\217\377\275R$\311=}\361\024>\300OH\275\300\207\202= @\210;\"\364\325=W\037\017\276\3774\026>\374\306\362\275}\266\025\276\300xt<XP\306\274\200\210\337\274\303\010\037\276*\2372\275\200\334\272\272\301\t\000\276\026W\354\275\010\370\266\274k \030>\312\003\332=\231O\034\276\250\221\262\275Dy\234=\241p\343\275\300\007H\273\016b\242= u\263=\330\205\025=\252\225\343\275\232\303\325=\304\241R=I\202\237\275p\352\024\276\340\201\023=a\262\243\275P\363\341<v\231\032\276$\333\007=\327+\217\275.\273\342\275\236_n\275p\003\253<\201\016\036>\240R\013\275py\251=A\332\214\2750\264\354\275M\373\005> \204?\275\250\245\r\275J\355\371=0\362X\274 )A<o\300\037>\360\306\030\276H\212\204\274\376\252\260=\350\253\310<(^\211\275\330\307\347\275)\363\004>\204a\036\276\360\005Q=\363\177 \276\360\224\311<\204\373<=\272\246\226\275\201V\021\276DH\202\2752k\337=\360oX=&<\217\275\344S%=\200\207\252<\024ez=\312\324\347=:C\306=`]\363\274\370\260\220=3\253\r\276\204L7\275\202\341\321=\022\200\207=\310\254i=\"d\350=`\"\014\274\323\005\000>\017\003\013>Z\323#\275K\014\324\275\013\356\001>\273o\025>\0002>;\000\240\342\272\352O\331==\367\022>\211v\016>\212\014\\\275\2327\362=\214\\?\275,E@=\300\261\360\274\035p\022>\255@\253\275\353\346\026>\340>\020\276\020\304g\275\370b\234=\360\334e=\000d\374\271\236C\210\275Pp\220<D\312f=@\307\215=\000*\3329&\317\344=\356b=\275\272S@\275\3573\326\275%\016\215\275\263\021\005>\304%\364\275E\005\232\275\010l\r\276f\230\305=\354Q\320\275\264.\016\276\250\371==\376\215\312=,\361\001\276\320\000z<\340\375\004=\n\352\024\2760\030\034\276\370z\257=\t\023\003>\254\272@=\021\320\034>\260\237\213\274\0106\245=T\2771=$Y\230=\364{\223\275*\333\361=@R\260<\004\340\001=\260v\240\274\262\236\311=\202-\363=\000\222&:\244%\007\276\224\'\207=\220\230f\274\022\014\'\275\006\306\371=\265&\361\275xv\303<d9\025=b\214\023\276f\366\317=0\202\353<\365\203\034>x]\240<\002\376\371\2750R\252\275\203d\325\275g\266\023>\276\354\340=\300\016\344;\0347\034\275\315\030\003\276\000\237\271;@\234M=H\243\006=n\312~\275,\373\362\275\r\031\202\275\030\235E=\200\227\333\274\314\262\247\275\ro\200\275\350\354\327\274\324~a=A\333\021>\346\331\022\275~KW\275v`\322\275P\362\345\274\314\232\351\275\232\256\r\276PBP\275l7\360\275\235\311\263\275\256\203\255=\005\'\222\275b\020\352= \337\277\274\372\206\371=T\215T=\250?\330\274$E\017\275nA%\275^\373\037\276\307\360\324\275\300\026\254\273(\r\254\274\377\355\t><\014\332\275\007\311\266\275@\257\345\274,\206\345\275h\357\002\275f\001\244=\3630\006>:\356\326=@\314k\273\000\005\001\272\330l#\275\332$\354=\300\020\250\273\355\232\036>,\266%=\270F\302\275\022\347\205=\352J\004\276\000\000\3239\207\354\221\275g\216\023>\342K\356=p\216\246\274x\202%=\230\303k=\034Q\036\276(8@=\361\202\354\275 \355!<\200W\353;\336\033$\275\312\351\300=\230A=\275\n\376\034\275\017\274\026\276\006\361\233\275\350\217\250\274\306\206\014\276\352-\344=`\276\036\275@8n\273xq\333<w~\317\275C\022\010\276h>\363\274\311\247\355\275Du\324\275\025\374\377\275\267!\000>\242\200\202\2754\216\032=\352\324i\275\000\311\017<\256\372\220=K\260\026>fU\316=\354\274U=\346c\263=\230\235\202=\376:\234\275\256\265\013\276c\323\034>L[=\275\000\234\2129|\243\372\275\216\347I\275`\347\371\275<\027\007\276\\ \322\275\2403\337<\360\340\212=\023H\335\275\242\375\336\275\274\234\375\275\207\271\017>\232\250\334\275\323\303\306\275D\325\001\275\021\206\r\276\373j\226\275U\231\032>\226\264\313=\351\027\361\275\340[\243;\264\357&\275\233D\027>tj\344\275l\\|\275\\\177\225=\242\224\307=\340\304\002<\032\356\231\275\306\274\021\2760\260O\274\240\024\342< \0352=S\311\023>\267\351\003\276i\000\034>I_\251\275\267\355\357\275\246\232\350=\300\305U<\013\254\t\276\266\273\364=r2\367=\200\371/;\317r\022>`\303\005=\262\375\266\275X\353\020\275\200\222\374\275.\261\200\275`X]\274V\326\270\275\373\264\241\275\274A\357\275L\361\357\275D\210\334\275D\223\014=\362M\240=\324\177\006\276`)\370<V|r\275\306\201\020\275$y\335\275\030\275\377\275@I\342\273\220\366\370<\021S\200\275J\032\022\275h\260\204=\356\341\037\276/\025\265\275\366H\327=`\3465<`\313\311\275\250\316\177=\206\013\001\276S\236\035>\340j\351\274\372A\326\275\300\376J\274\357\334\000>\257K\026>\016\016\006\276\326\374\324=\3666\276=2\026\025\276Vu\270\275\342\267\326=@\017u<\034\234\201\275p\205C\275SX\035>\261\217!>V\230\227=\260\255~<\020\016e\275\346~\231=2\311\314=B\204g\275\000\326\337:\224~\326\275Vm\336\275\214+-=\322$\352=H\360\016\2760V\344\275\306\252`\275\332XC\275<\027\213=\240\002\342;\240\274\253\275\322\010\377=\244\350/\275\025:\007>\034\201\002\276P\376\001\274\330\265C=\272J\330\275\2236\037>\300\016`\274\302\315\320=\t\037\313\275P\376\t\276\000\276\266\273\370b\223<\320\247O=9R\017>\022)\001\276\362\010%\2757*\264\2750\004\024=@\231)<S\357\032>8\362I=\372\234\216=\004 \n=B~\347=\202\323\323=\302f\"\276l\214\\\275\030l\363<4\0172=\260\340(\2750\004\035\276\346U\203=\360\tv\275\020>\205<\316\021\371\275\221+\035>\312\013p\275\0226\352=\312\333\310=\271\205\346\275\rX\275\275\302o\351\275\300LF\275\376\352\371=<\241\017\276\322r3\275\227\352\032\276du`=\374QL\275\230\266\205<\332\2224\275\326\002\036\276\240\243F\275\210\n!\275\230\'\344\274!7\n>&t\343=\371l\207\275\322\337\262\275\000\025V<j\304O\275\364X\225=\255\347\260\275p\273\271<\263\361\003>`{\217=P\256\244=\220:G<\0361b\275P\350\357<\305\312\t\2764\203\253\275\314\224\367\275\022z\237\275x\261\257<`\031o\274\362\310}\275t\263\370\275\310\326/\275\3421\273=^\325\222\275\200\210E\274\273\252\332\275\013L\031>w\303\257\275K\251\263\275\032\305\324\275\200\347H=\001\342\026>\253\356\031>c?\000\2768y\030\275%3\007>i\342\010\276d_\n\276\227L\222\275\026h\327= <\007\2747C\t>\250\225 \276\255\301\021\276(\211\261\274\200\254\032;\306p\377=\272\323^\275`\217\260;\2406\030\276\252H\317\275\300\177`; \236\266=T\250^\275Zm\355=\302\273\213=84\236<0\250\271<:\265\016\275\316A\325\275R\352\031\275\352\226\347=B\344\266=a}\024\276\037\031\016>\373\376\025>\370\271\363\274\307r\201\275\300\337W\273\327\341\003>\252[\337=(\235\002=d\240&\275\330\377\201\2740\006\212\274\340\n\256<\010\024\300\274p\224\257<BP\246=\204\227\003=\332\331\r\275~\203\023\276\200e0=\325m\t>f+\337=\342a\272=bu\024\276\315\226\213\275\314\001\252\275\270M\356<\r~\300\275\277:\014\276\263H\250\275@G\235=t\272!\276\217~\007>\356\343\236\275\354\227\317\275\246w\354=V\333\036\275\354\322\203\275\240\330\222<n\331\"\275\250I\022\276\340\034/<\336\375\244= \220\267\274\220\203\270\274\253\341\033>\006%\344=\001k\203\275wX\224\275\220\327T=8^\314\274\347\247\021>\350\357\227<s\273\000>j<\377=\t\311\003>X#\031\276\346\261\235\275\000\237\223=\320u\267\274H\266\272<.\320\314\275x?\367\2758z\001\276\000%{\273\216\237\271=\366\200\314\275\222\362\323=\026\357\035\276BG\241=\366?\320=\276\361\305=\306\'\323=D\234\316\275nP\234=`\222@=\261\231\315\275\370E\207=\270`\237<\364\021\364\275T\025I\275wV\026>\300\214\000;\214z\237\275j\036(\275F\017\322=\000H\200\271\334\177\241\275\\a\207=\247O\370\275\227\377\026>\236L\347=s\354\010>\260\021:<\360\t\212\274\200t\002\276\200W\207\273\332\250\210\275@7\367;\316\ti\275\372\360\376=\200\302\372;j\372\304=\020@\236\275\360uj=\034\207\211\275)`\r>\000\002\364\272\270YF=`\0235=U2\270\275\250N\033=@\360\350\275\006\026\025\2760Uz\274\255\001\025>\217q\237\275\013\322\025>\260\326U=|\243\267=\013\237\031\276PWF\274\010\213\353\274\332\331\332=\337a\034>z4{\275\377\220\336\275\2736\251\275\215\241!>\324=/=H\033D=\256&\333\275P]\325\275\366\r\216=\300\364\270;A\001\006>\000\004x\271`\345\312\274\0008\305\273\306\255?\275\032\310\312=X\177\237\274\266\033u\275\326G\312=v\026\262=\330\242\216=,\2076=\200\377\362\272`G\370<`\214\207\274\326\321\027\275h8\231\274H$\243<\361G\000> \361~\274Y\037\n>:\335\361\275\032+\324=\351\305\212\275j\2207\275\362\334\356=\300S-;\020\201\244<6M\002\276\277\372\021>\200\220V\275\003\370\021>\346J\326=\300P]\274\304q\207=\017\216\031>7=\017\276\216G\342=.I,\275N\266\277\275\342C\257=P/L\274*B\376=\260Z%\275\210^\207=l\"\237=J\327\037\275\014K\031\275n\273\327=\376\265\344\275\004\316\240=@\253\001<2\344\346=\000\335\247\275)V\035\276\240\212O<\274O\005\275\357I\307\275kl\017>J\272\260=\340$\230;\266q\021\276\220\354\213\275\340\275\353<\'\003\036\276\007:\006\276w\201\020>\274|0\275\240-s=s\240\022\276#\222\241\275#\307\346\275\310\267\260\275\264: \276@\207\307\275\366d\017\276)\374\027>>\247\355=p\016\325\274\267\215\">\332\370\240\2757n\035>\220w\031=)\337\013>\304\002\265\275\360\342\207=\274\244i=\2760\013\276\370\360\n\275\264s\340\275\004\317M=#\022\023\276\\W\227\275\362\022\362=\030y\340\275t\336\220=\"\354 \276\000\263\311<\000\350\303\271*M\374=\212\260\326\275\006\264\266=\334\332\017=\014\356\210=\241\310\000\276)(\207\275\231\031\320\275r\024\361=\263\202\024>\256S\262=\003\237\025\276.\342\350=\200\300];\235\217\017\276\tI\005\2764\336P\275LV\001\275\005Q\004\276\200\201\324;\360i\036=xx|=.\355\370=0\216\347\275T\035\243=\227Q\030>\264\'\357\275\360JP=\321(\014\276\006\014\352\275\216^\337=\360\314{=r\261\022\276\332\201\275=pHz<\026\246\210=\242I\250\275TT)=\346J\366=p\301q\274\001\316!\276\200E&\273\004*\023\275\020\344y\274q\004\371\275(E\255\274\334\210^\275\r\223\243\275(\026o\275\344{\001\276\354n\230=\016\244\346=\312\267Y\275\332:\004\276\000\367|\274\377\264\260\275>\036\231\275\323$\204\275\310\3332\275\276\177\037\275\330\377\016=\270E\353<\\\2313=\242$\201=\236\'\026\276\333W\023\276\200\002[\275\205\205\016\276\256\206\350\275.\363\316\275V#\220=\036\315\345=zTO\275\030\221\240< \245\226\274\330\362\007=\320\374F<\344X\225=y\304\002\276E\226\264\275\314]\240=Q\246\215\275\026d\254= \036{=p\"?\274\\{\027\275\370\222\004\276 \033\330\274\266\371\246=hI\331\275\257\231\036> \327-<0Ra<\320\356G<\000\320\3628.\371\307=\252*\252=p\305\270<]\336\007>PJ\310<^*\320\275\274x\036=6\371\234=|\331^=\200d\264<*\025\035\276^0\243=\362\367*\275\246V\004\276\275\334\007>\352E\323=\210\260\370\275\220\211\036\276\314\020\311\275\234h\210\275\300!\001\275PN\324<\310P\220=?i\024>\352\242\017\276\224\233==\244\334\241=\274\363\276\275\300f\374\274\276\032\305=\200\211\315\273(\312\260=Ug\024>\220\n\035<\231\007\037\276\025\240\000>ot\271\275$\r\005=b\310\330=\036\316\361=\367\307\035>\314S\r=\002T\362\275@\303\370\274\250\251\320\275\270\025\263=`\020O=\323\371\027\276\260B\360<\r@\022\276lW@=\324\261\261=\260]\304\274\250s\276\2743\340\033\276Q\233\017>\2400\024\276@i\220\273P\004\016\274\247^\240\275\277\304\246\275xkR=a\274\030>\270\256\321\274B0\264=L;\n=\214$\025\2758\000\314\275\214\353(\275H\256\004\275NG\342=\352\353\323=\\?r\275\326\033\206\275\030\244p=\210\222\035\275W>\027\276(\343\333\274 \037C\274\"\312\242\275\n:\207=pT\266\275\327\227\373\275|\205K\275\320\336\304\275ww\016>\376\272\314\275\002\006\"\276\260\372\315\275\267\247\266\275\366\311\317=\2526\273=\262\357\370\275.\250\000\276\200G\021\274\000\362\340\271\355\263\032\276F\235\323=\210\201\237=\300t\213;\224\305g=\325\324\030>\374\3368=\010\226\024\276\273\025\013>\262\300\277=\346;!\276(\200\327<\260NP=\200+\366<\217m\007>Zh\037\275\243\206\032>$\'\261=\0328\356\275l\303(=\376\371\273=\300u\262<\016\022\245=\370x5\2752\353\350=\251\363\201\275kI\001>\010 x=\240\321\317<\3541\026=\250,\303\275nQ\330=\006\254\246=\017U\032>Z\340\317=\310R\353<\016=\325\275\025H\365\275\026\376\254=\270\354-\275\300\t\255\274\306g\272\275V\034\320=@Y*<\240\371\265\273\233\370\023>\030\332%\275\310O\230\274\367g\367\275\202#\375=\362\035\013\276\200\261q\274\033\035\036>\003z\327\275\013G\027\276p\247\275\274f\227\005\276\214\027\257=\312\033\"\276;\355\005>\204Q\000\275*\213\271=\272\t\353=\n\033\033\276\333~\n\276\000\331\321:\220\372\"=^o\202=\300\365\302\273\014W\247=\314P\315\2751\211\030\276\202x\322\275\000\235\227:\376\211\213\275%\233\031>z\274\276=\034\302\245=|7,=\370\210i=>\255\204\275\243\177\022>Rf\177\275\236\177\373=\220\307\352<\272\332\364=\000\210\\\271\311\223\266\275\000\344I: \n\253\274\212\035\324=\366~\317\275v\247\r\276\242\313\305=\354\211*=\230\372\366\274\202\263\231\275\214\336m=\030\270\261=\035\'\033\276\354\300P\275(&{=\2679\302\275\206\t\360=\200\212\013\276\243= >O\375\006\276\372\216\255=4\216\316\275\340\251\r=\325\344\037\276\"\3224\275\300FV=o\277\006>g\273\000\276\330\274\276<h\364\024=\004\300B=\276x\312=\324,\022=\346B\346=\206\327\275=\340\217\351;\031\007\024\2764\351\r=\"\2228\275\000]\236=<\"\254=\271d\254\275h\007\213=\300\220\245;\371\325\252\275\306\222\354\275\006\367\361=\214#\025=&\034\252\275\204\347l=\030;\366\274\206]\024\276X:\255<G\205\004\276:2\336=\310Q\242<\250t\215=\376\002\371\275\006H\355=\220{\223<B\262\352=;7\265\275|g,=\263\347\013>\000n\205;8#\275<p\021\322\274\323.\017\276\3009\346\273\300\210\202=\272`\361=\017R\310\275\022\215\312=\301\322\033>j\303\324=\033\352\n>\0034\027>H\005\264<\370\256\264<\020\013\322\275+\254\027\276?\316\021>j\006\375\275f\317\356=n\204\233=%\300\025\276DL\325\275@\326\246;P\301\201<=@\017\276\221\376\022\276@$t=X\232\376\274\021\370\035\276\235\311\025>,\373l\275\240RJ<\006\272\341=\251C\027>Fr\200=\032\037\245\275?\220\206\275\240\340\234\275@zl=lv\"\276_A\025>;\022\210\275\336\276\274=\026Z\241=\204y\204=\236\210\236\275\021\277\"\276\364\032\244\275\000G\014:\260\355\327\275l\222\036\275\000\355\314;\200^\365\272\200x\353<\300\376Y<\337\214\230\275>\353\362\275(\271\341\274\300\212}\273R\217\261=@\241.\274\006E\353=I\'\020>\256\255\331=\252\035\005\276\030\313\016=\2645w\275~\335h\275\346^\336=\344@\276\275\036\342\272=\000\210\022=pU\335\275\356\316\221=\365-\274\275\266\206\277\275\017$\000\276\303\225\261\275\222S\023\276^\277!\275\n\223\300=:q\326=\020\353>\274IN\324\275\350\267\226<\350\323\033\276\362!\374=/3\035>bY\333=\372n_\275f\006\007\276\320\265,\275 [`<\350l\242\274\364\006\214=\250X!=\037\004\035>\306.\272=\375\271\017\276\032g\352=\251\367\021> \222\241\274\212I\311\275\263J\022>\034D\032\276\334\357\376\275\246.\373=\370\220\357\274%\311\004>\244\032\024\276\000\307H:rw\276=\374\262;=t\203\027\276\204\252\030\276\270\027\351<\302\305$\275P\224\243<Mo\035\276\256\201\256=c1 >f\311\355=\335*\005\276b\376\374=Fc0\275\206U\371=\366`\337=\300A\352;t\200\270\275Sb\020>\001]\324\275pV{\274\3303\014\275\343\204\034\276m\202\035>`\215\300;\240<H<`1y<\001z\036>\0008\034\274\324:\230=\336\233\374=\335v\n>\226\335\336=\320\346\233\274\351H\255\275\002L\327\275\204\016c\275@LJ;$@p=\371\303\022\276 t\200<\312h\323\275\330\237\257\275\256l\025\276\023\313\023>R\244\020\276\340A5=\370\014\310<A\374\240\275\"\343\001\2768d\211\274f\007\324=\030\032\300\274~ \216\275b\222\322=\\\231\253\275\"B\r\275\023\326\266\275\357d\021\276*\206\014\276\200#8<\030\361\324<6\026\212=\267\013\003\276\000\225\340\273&\330\375=8|W=\340dt\274\240\237/<\336\036\036\275\253V\037>\330\2148\275t\026\201\275\250\226\315<\257\017\"\276(5\205<\370)\033=\034\277t=9\271\n>\017N\010\276\356>\363=\325\301\r\276\376k\257=l6\262=^\222 \275\300\\u<\314\022$=\320\246\267<>}\277=\016\274\343=lAC\275\n\255\250\275\022c\353\275\366h\360=\226\350\344=\320\032k=\250\247%=\332\375\031\276Vt\217=/\267\017>\350\313\320<\341\276\016>\253V\264\275\\\024D\275\206)\241=\236\341\302\275\355V\035\276\352\006\200=\030\244\030\276\006\234\014\276e\264\035\276\216]\327= \362H\2750M]\275\264%\220=G$!>T\260f=\302\372\255=\304\006T=.\377\336=76\304\275\240eR\274\r\237\004>,<\346\275\360\337\021=\230#\362\274gm\036\276\247r\030>\344c\317\275\356X\215=`xA<\212\213\316=\316?\334=h<!\276\000\240>=\356: \275\006\302\027\276\322\306\260=0\246\374\275@\245!\276\001\223\334\275*\303\216=\320Xz\274J\002\332\275\252\344q\275\016f\021\276\305N\034\276x\017\206\274\260\003}=4\261\"\276\373_\001>r\205%\275z\320\244=\261\357\037\276P\365L=\361E\033>H\024\346<L1Y=\260-9<4Q\263=\252\370\334=\300\210a\274\313\306\213\275\200\2420<\223\006\032\276\272\332\r\275\216\342\341\275b\020\370=:\217}\275p\217n<\014t\257=\207\305\033>i3\026>`L7\274]\254\252\2757\265\301\275:\026\377=j\036\240=\300;\260;\264/h=1\024\033>\314\203\003\276\207O\354\2756~\016\275\000\262\345\271\300\005\350\274P\276\001\275\350\263C=\230\250/=P2\266=\340\325\361<\360]\013\276\246\"\275=\000\263\340\272\307\366\222\275Lh\220=\027\360\006\276g\255\033>\321%\022\276et\021>\013\347\006\2760\263\253\274V`4\275\000|?\271c\220\274\275D\266\"\275\330\364\365<\006\317\000\276\"\034\212=\334*\351\275\224\341c\275\000\035\266<\365.\030\276\020\355\342\275P\207\232<\004\217\006\276\205\323\205\275p\261\321\275\002\020\312=\276\335\371=\342\326\330\275d\212X\275B\364\364=\020\337v<\251\332\031>l\177\017=\222\224\022\275\302\340\325= \361\365<j\315\342=HBB=\350\004\240\274\304\302\004\275\177\023\252\275\330\261~=\000\3154\272\'\003\237\275\000\324g;\355\024\013\276*\346\241=\333\001\016>,g\221=\262\213)\275\364_9=\203T\033>\304i5=\223\207\r>\231Y\035>@i\177\273\2748t\275(\001\237\274\3700=\275\360\206\253\274\326q\323=\230\350\356\275\n\027\334\275Z\204\370=l\232\250\275\365\253\030>\231|\007>\024 +=\260c\277\275:\340\026\276\235\035\017>\370\200\322\274H\325\355\274\354\t\034=\304\377\035=\340Xe=}\262\021\276\310<\007=<\341\n\276\340\254B\274\222M\310=_w\004>\203;\016>\200\346\r;\006$\242\275#\r\001\276@}b\275w\327\221\275@\277\'\274\302\3212\275\332V\232=\256i\311\275\016\260v\275PFV=\312\345\344=\271-\261\275\006h\312=\340)\n=\355\263\264\275\032O\246\2752\005\334=\300]\346\273\010=\351<\340h\234=h\300\254<p\270\342\274\036\200\241=F\004\310=\210`\006=\300\363X<5W\327\275\310\303\325\275<\265\313\275\212\2554\275\370\024\211=\275\\\027>\300\000\227\274\220L\264<\362T\242=\264ej=\377\214\020>\247r\356\275\324i\372\275\376\255\265=Qt\021>ow\240\275\205\031\207\275\220\275\205=\302W\315=J\033\263=\017\264\217\275\274\3668\275\010\036\203=,\004%\275\304\035\274\275yc\003>4\007\271=|Z%=~\247\373=\000w\t\2730\031\230\274\350\326\302<!g\275\275\200\223\301\274\230O\254<\210\001\230=\240\211\345\274PM\210<\260s\001\275\266\370\274=\244\321\237\275D\033i\275\265d\023>zx\313=\tP\030>rB\243=\300\360g\274\251U\022>P\267e=x\021\344\275\000\020\253<<\251C=\263x\002>N\027%\275\000\210\306\273\201\257!\276\262\372\325\275:\221\362=H\334Z=\346V\376=*\301\267\275\304W\016\276\213\256\004>\207\272\003>\350\345\202<\234\035{=TS\016\276\006$q\275@\336b\274\013#\031\276\350\317\020\276h\300\201=mW!\276\001\257\004> \036\353<$`\216=\010qt=\002\233\327\275\335E\001>n%\274=\332>\236= \3224<\312\024\n\276\252n\207\275\214*\215\275P)U\274l\035!=\252\201\227=f\324\205=\262I\223=\370\023\360<\230K =5\304\005>\340\270\371\275\335]\020>\200\340m\273\000H\244\270\032t\037\276\360-\205\274\004%\320\275h\002\031\276\310\214\362\274@@\373<\377\350\033>\016\3169\275\230.\216\275\000\275\214:}\305\001>\006\232g\275!\326\"\276\250-\002\276\262\367\277=\200\225\267:^\025E\275\346v\205\275\"\246\326\275\240M%<\344C\342\275\352)\256=\220\007\\\275l5\n\275;\354\033\276p\212\224<\000\275\365\272\344\205\031\276~\264\316\275\333\210\025\276J\322\370=k\370\014\276\020\330w\274\256\320\325=0o\316<\030,\322\275\232\354\333=JF\001\276`J\344\275\361\317\244\275\336\271^\275\364\307O=\240F\232=\332\223\265=\270\240\020\276\263\032\260\275\331t\007>^\327\231\275Ot\017>\0044W=\360\270\316<\212\337\367\275\332\315\353=\002[\346=~Np\275<\261b=A\013\n>K\000\005>&\'\307=`U\310<\337v\366\275\220\341\034=\311\222\n\276\030\"\315\274s[\036>\232o\377=\320\376~<\000\306\020\276@\345\325<\014\013C\275\310\367\333\274\336&\361=\234V*=n\370\366\275*\3175\275\200\312P\274?\014\220\275\326\206\344=\270\251\235\274,\317\373\275 P\243;\301\311 >l\343\231=TqT\275\032\375\366=@[z\273\206F\277=\310o\023\275\350\244\235=\360\210d\274\001d\013>j\002C\275\"\030\021\275\217\265\013>@FG;(\201\016\275&Y\357=\204v\005\275\214\216\t\275\222\260\364\275\266M\330=n\347\004\276L\264\271\275Z\366\331=(\236\204\274l\206E=\247\224\275\275>\313\312=\000w\256=\377a\000>_\306\001\276\224\352&=\370t\350\274\352\233\014\276\206\206\356=J%\226\275\254\213M\275\224\340O=\274\003\022\275\023q\277\275\000\022Q\273\220t\361<\336\374\303=\033t\302\275\267\020\256\275e\341\245\275\336\357\\\2754X+\275`\215}<\376q\336\275\036\251\265\275\200\317 \275\351\350\200\275\240\221T=\346\220(\275~\216\342\275\000\234\315\275\'\271\000>\350\252;=\027\002\025>`U}<T\270)\275\365\237\002\276\335\022\031\276@S\245=\230\302\317<\370\326\366<\\\261\027\276\035 \006\276\307\023\307\275\314\006\337\275|\364\243=j\341\276\2756d\254=\300\347\004=@\236\231;q\301\025>\260\n\233=\324\237\032\275\243\236 >\007/\270\275\314\260\336\275\252:\035\276\250.1=\202v\200=\017\033\023>f\265\005\276\236\335\214\275T\222K\275\344\3604=\177\342\033\276\216|\330=\376\331\025\276\357\325\225\275\351\231\031\2766\016\341=\310\265_=@\274\003\276T\264#=\030\205\370\275\377`\022>\222\332\206=\314`Y=\376R\304\275\010s\276\275j\257\366=\006Q\327\275y\000\366\275\341W\000\276B\202\242=\372\213\323=\320\302\355\275\324\260\230=%z\r>\230\226,=:v&\275(\355c=\254\214\030\275\276^\332=\274\033\004=\000\371E\274\234\307\215=\026\205\221=b!\034\276\032\337\026\276\336c\312=2\252\373=\230\276e=Az\022\2760\365+<\250\035N\275\000s*\272\222\212\345=\355p\020>4\223C= t\326;\020k\014=\037\237\003>|\272\033=\0075!>\000\361\242=\370\305k=\223k\n>4\223K=\025\325\037\276:a\307\275![\031\276\233*\020>>\030\310=\256\202\311=\200\361\277\274\266\314\346=<\365\007=p\262\241\2748\250\007=\365\365!>\204\374*=\234\177\211\275\250\334\260=,\334\257=\372$\277=P\277\260\274\343\200\020>p|\014=_\274\004\276\370jM\275\231\026\013\276\246\326\\\275p*E\274\243\025\031>\256\316\364=K\315\257\275W\027\004\276V\205\363=!\273\003>h\365\255\275\342\353\230\275@}\210=>7\313\275\025Y!>|\226\332\275\314t\264=\270\021\201<\337L\001\2768\261\023\276@$W<0.\336\275\264\t[=\344\202\005\276P\324R=x6\345\274\345R\r>\232[\r\276zy\333=\274\221\336\275\254\311\222\275\300\242\001=\200\330+;^\373\356\275w\\\236\275\242\216\262\275\242\235\014\276\004\205\\=DH\307\275@U\375;\274\372/\2755\357\035\276\370\317\263\274\207\264\023>\211\331\200\275NH\031\275\240r\364<K! >\n\010\326\275\320\236\254<$\264\336\275G\220\240\275\240e\355\273\252\340H\275B\226\022\276\252\200\001\276\206#\035\276n\032\327=\313\323\016\276&\337\333=\022\350w\275@\370=\274\020\337\307\274\237*\004>\235M\217\275\016!\347\275\n&\366=\234\320\034=\250z\326\275@\367\321\275 \256\\\274\300x5\273PV\252\274\"\253\254\275\025@\000\276\250K\271\274,\002\367\275^\005\312=0x\241\274\306\316A\275\244\302\202=\nQ\243\275X\321\255<\037\247\"\276\374\0257=f.\327=`\353\304<\010\346\022=\336\240\014\276r\300\351\275\344\311\005\275\000\270+9\343\252\030><\010\355\275\372u\374=\342\036\r\276\360\206\034\276\200\240_=\014G\254=\255=\267\275(n\353\274x\342\000=&j\311=P\314\225<\021\255\t>\276\251\341=g\336\005>\226\271\333=.T\210=p\211\306\274\030\353\351<\366m/\275\034\300+=\3216\031>\355g\252\275\260<^\275P5\251<S\213\036\276Z\350\217=:\264O\275\266M\352=\226\331\263=n<\353=\370\326\223\274\204b}=h\243*=\204\353\225=\014\302\256=p\273\211=\337\264\273\275R\014\231=\0008#\273\250\254\341<W\004\"\276^V\273=\315\215\006\276:\372\203=\203\301\030>FL\224=\346\213\273=\203\n\315\275\320@\306\275\376C\013\276\224\200]=p\327\243\2743]\230\275\316s#\275\206e\007\276\016K\367=\246e#\275QL\005\2760\021K<\240W6\274\376\025\016\275\222\245\257=T\206~=\377\347\016>\374P\210=\310\030\226\2740f1\275w5\211\275\314=\316\275\370\200\037=\362\r\240\275\r\364\014>\235[\215\275Hr\001\276\213G!\276\200N\361:\232EK\275\221K\022>\035\221\023>V\253\352\275\243j\006>\270a\312<c>\302\275N\000\361\275\370\342\233<Lw==\236\006\276\275\034!\020\275\240.\n\274\340s\353\274\t2\003>\273\322\223\275\020\002\240<\0006\356<\345\265\">\340\013\344;sr >\334\250\351\275+\030\014\276\250\026\326\275*\234\374=<\240\264\275 \014\035\275q\360\242\275;]\001> \0107\274\256\371\310=R2\032\275\253\335\">\232\234\347=lKL=\326(\275=\303^\027>*\032\360=9k\320\275\320\"4<\362\312\366=\350\356\377<@@\334<\000 \3717\350\267\020=\274N\014\276H\236\027\275O\320\005\276\374\276\231=\242\213!\276\324\3565\275 \010\213\274n\272\342\275\212\271\210=d\177G=0\t-\275N%\304=\n\000\261\275\346\374\264=\246\\\330\275\335^\007>0G\237<\000\000\325:\016\272\352=\354\352r=\207\276\003\276\200\327\247\274p\001\351\2742~\314=\240\211\246;\230\373==lu\222\275y]\333\275\016\223\355=n\252\313=\000/$\273\270\254\270<\353\214\035>\270\314\013\276\00048:hH\315\275\300\032\005=~%\005\276I\272\275\275\263\235\203\275\020\360\353\275P7\001\275\250\232\374\275@\327c<\246\233\232=\220LG\275\300Z\221\273*= \275\2239\024>5n \276X.\013=\312%\351\275\240\n\026<\026\355\317=-\n\036>66\r\2768T\340\275 #\004\274l\336a=P\333\035<\266\302\022\276\214\236\200=\214\\O=\250\200\364\2756\274\300=\240\027P=\210k\343<\014\320\033\275\216\322\033\275\034!\017\276\312\343\t\276\332\037\340=c\231\013>\006\323\316=\274^\002=\236p\346=\240\317I\274 pK=\266y\360=\002\347\031\276t\324\267\275\244\006\220\275\260\362\263=d\240\010=:\273n\275HP2=\343\375\301\275\212\330\260=\266\375\356=X\201\354<\360\212\227\274\316z\245=\330\n\350\274\337\377\226\275g\344\026>\230\346\357\275\342\223y\2750\007M<c\214\270\275\246\217\227=\030\014\207\275\000\261\230\274`\004\372\275,\003\031=Nf-\275\017Y >\2204_<\252\332\213=\000\311c;\226_\025\276Z\244\266\275i\207\252\275\343Y\024>\310\204h=n\370\275=;\254\266\275`nS\274\002v\332=\215\372\035>\340\372\241=\273\317\227\275d\312\261=X\342\262\274\032\200\257=\000\355B<\301@\017>\334x\005\275\r7\022\276Cp\032>n\367\370=,\3737=\010\313\003=L\340\235\275\356\206P\275\212\312\357=/\206\323\275\036\244\241\275\270y\376\274\340\360\270\274\306\223\312=\226\232\217=\230\333\322\274(W\036=H\237.=\362\263\337=\247?\023>\204U\006=\375\350\024\276\362/\247\275\020\272\277\274\234b\271=\333\371\037\276\022}\217=\2055\031\276>:\307=\341\256\214\275\376t\336=\272\354\223\275DO@=\000$\371<\254\375\022\276\t5\">\231\326\306\275\300\340\241\274\200@\335;\265\177\035>\324.\035\276\250\306=\275\322\375\214=\353\036\">J\207\242\275\314^\225\275b\006\224\275*n\224\275\016\006\\\275\030\003\352\275\200\227><\020\353\231\274\234!\220=*\304\035\276\3024\200=<\355\002\276\215\252\t> \r\377\274V\\\310=\310\353\275\274\372h\037\276\274z\230=\311f\224\275\340\315$\275D\026\377\275\010\005\274<\267\273 \276B_\227\275\264&1\275\0244\321\275\256\021\261\275\263U\026\276n\267\300=P7O\274e\343\207\275\000bF<\222*\237=\300e\263= \257\331\274\376;\303\275\220|9<\326\306\272=`\2273=\n\"^\275q\360\n>g$\024>`\327J=fe\272=\271,\270\275n\231\344\275\340A<\274PP\036=1P\005>}G\311\275\035*\000>>\227\332=.\200\351=p\"~<PrD=\013\257\263\275\200\203\361; \033\333\275\211#\004>\254K\027=\225W\001\2768\275\225\274\200_\234\274\322\357\326=\004\200\'=@w/<h\013\304\274\006\273\213=P\224j<3\225\036>h\002\343\2752\274\252\275\335\364\204\275d\232\231=~\232~\275,\303J\275_\226\006\2760t_=l\354q\275V\316\366=\\\276i\275gp\200\275\221N\303\275\312r\227\275\355!\007>^\006&\275\254q\217\275x\t\311<\207\373\032>\372\n\261\275\000\262\016\275\240\255\034\274@\300/<P\031h=\000Y\021:\220#T=\364\366\030=r\302\352\275\nW\353=F\342x\275k\360\234\275\374\232\260=\277\265\273\275\274\222<\275\t\205\002>\335\257\254\275\250j\256<@4\014=\332\\\270\275\235\262\005\2764\231t=n\301\326=\270F\333\275`\314\310\274\356\326\341=\252\3575\275\372}\004\276\305\357\024\276\230\253\240\274t\034I=\206\232$\275\226_\337=\017^\240\275`\216Q=\356\0207\275\214@\373\275L\3553=\301\244\014\276N\364}\275\231\010\020>\022\322\301\275*\241C\275V~\265\275\200!\344\273\335\016\007>\345\274\005>\264\212g=\000.\2449\210\373\030=\327\245\n>K\022\020>\300\271\202=\364\244\013\276\036e\377=\267\346\n>a\250\006>q\346\036>*\'\242\275\362s\333=\217\"\270\275\347\326\005>\245\335\033>X\243\017\276\270W\013\2754\006\347\275 \322\003\274>x\022\275`\204\347;\232\353\374\275,v \276\252\311\371=)\247\007>\345\006\021>\200O\300:\264A\254=\226\274\222=t4\031\275\022\032\214\275f\303\262\275\372]\t\276\361Y\037>\020\261%<R\010\303\2756m\004\276z\223\340=\2228\217\275\264-\203=n\363\352\275\230N\277<\004&(=!\337\220\275\362\352\212=\360\244F=\206\265\214=\360lc\274|\007\023\275\006\340\317=\344\374m=2\361\003\276\230\226\301<I\355\025>\240\271|=\001\366\230\275\232\006\226=\360\323P=\"\241\220=\271\303\300\275X\370\335\274\354\250\256=\340\005\230\274\372]\263\275\362h\274=\034\342+=\342p)\275kW\007>\350 :\275{\317\017>01\321\274\022\203L\275\373\036\037\276\240p\267\274\350\233\306\275\023q\006>X\253\271=\350t\007\275\030\006\270=\344\204\214=*\352\243=\240w>\275\226y\354=N\032\310=$h\347\275X\240H\275\027+ \2762\251\274=\017@\017>\302\234\333\275\t?\225\275\014\305R=\220\254\270<n\251\220\275\356\223\021\276\341b\200\275\353\374\026>\021\332\273\275\376\305\330=\212\007\246=q\266\316\275\016\222\031\275D9\020\2763\354\201\275\370\376\006=\\\341\022\276\332W\342=~\3435\275t0\357\275\214s@\275\232~\254\275\224\321\344\275\255\004\353\275\026\253\226=\276\264\325=v\300\366\275\020\356\003\2769\000\211\275b\235\326=B&\264=n\036\026\2762\223\314=\310hI\275\000\017\001\272\344\310\001=\240\'\330\275HR\234<\202\347\327=.\351\371=@\223\241;\000\212\334<8\000\t=\0317\367\275\263V\240\275\200\326\255=\257\366\004\276\014\362\036\275\200\251\251\272N\262\211=TM\267=\276\337\352\275\376\203\342\275\200\222\201\272<\223U\275\030\232\222\274\356\023\375=\n\014\215=\370\342\366\275\210\350\240\274\227\325\006\276\347\335\351\275@\305\303;\252.\205=\034\037I= T\244<\276\225\201=\347W\276\275\227K!\276\300\002\372<\324\370\030=\374\365j=\300@(<\244]\n\276\342\342\202\275`\361\220\273}\004\001>\373\177\245\275\371\247\030>\200\002\323<\330\177\224\275\024\016\265=\356\242\036\276\303\240\002>\210x\337\274\250\'\264<gG\032>2\004\356=\356\3608\275\226/\035\276\276\006\324=\326O\322=x\340\313\274\010VO=9\351\010>y\234\223\275\243\372\030>\242\016\220=\200\202\370;Z\275E\275\210\325\301\274\016\317\317= \342\367\273X\230\224=\270\024\332\274S\370\204\275\364 \312\275\nd\245=\263\276\363\275\022\245\354=\211\240\356\275\270^\343\274\240\223:\275>\343\035\276\212\214\240=\323S\n>\004K\032=\360\322\373<x\334\342<p$t\2740\365\230=\010\345\250<\244s\365\275\032\260\355=\330\245\353\274\032\351\336=`\274\270<\006R\313=\324\t\217=~\001\371=\317\330\002>(\010\003\275\260\022\260=\326x\372=\234\232\r\276\356\332\202\275\244\377u=XP,=\304\001\000\275\210\225\247<h\003V\275\206\332\246\275s(\364\275(\036\022\276A5\"\276\325\232\016>.\005\317=\371\337\"\276\276\253 \276p\037\017=\306~\240=\327\357\034>Z\325\005\276\030\201\207\274\000^\334<^/\350\275\005\356\006>\007\"\034>`\377\234\275\306\320\371=j\031\326= \357\007<\206I\214=\007k\036>\"\301\335=\022[\267=\340u\013<\340\327`=\242\016\356\275\"\343\242\275\202\276\310=\034\274\265\275\302\035\363\275LP\217\275\034+f\275`\320\232\275\004\372M=\210\311\251=\211\310\245\275\021\262\037\276p\212\000\275 i\261;\323\355\034>\321\367\263\275\356f$\275#4\027>\000&\3359\020\317~<\214jf=/\002\304\275\230M\025\276lk\267=N\265\230\275\027\356\005>\314\234\005\276\004\216#=\266\317\315\275\343\267\216\275\320\317\350\274 \032\351\274\320\222V<\"r\365=m\365\t>\3714\031>\366\335\263=`\276\227\273>r\236=\340n\254;\346_\376=DN\005\276\'\344\025\276\020\334k\274\200\002\032;\000\333\215\273\027\373\034\276P\211\343\275A\325\"\276$y?=\010=\272<t\302?=,V\362\275`\000\263=\256\232u\275\026\272\\\275\327\232\"\2760V\031\275\224\341z=e\023\"\276\344\276\003\275\241\353\025>\263@\347\2750\360*=\260\227\220\275\364\2302\275\314\253\374\275\216\342\244=\000dj\273>.\271\275N\216\343=d\323\212=\304[\003\275\200\362\313;`\nD=\320\265a\274p\266R=\270\313\312\275\274O\271=\033\272\016>\002\260\027\276\242\375\206=hP\360\275\014\315\006\2762\377\347\275wE\210\275\357\267\025>\3324\277=\310\232\266<4J\337\275|\330U=\306V\353=>\265\360\275N\346\241\2753\375\r>\200u\026\275\320a\332<\3129\247=\362\354\021\276\002\341\313=\200R\203=T\260\214=\014l{=\340C\336\273@\363\020;\340\214\010\276\261\227\027>6\035\305=n@\375=\270\300\334\2747\277\013>\270\003V=`\346\327<\210\000\316<\374*\367\275\306\356\362=|\030\255=\002\024\267=>\312\266\275Tl>=\203\202\n>F\307\244=\224\203\276\275p\003p=\357\017\324\275\343\207\305\275\210_q\275\313\037\030>>/\326\275\374\363\336\275~j\317=\337\210\007>\001\343\270\275\237\257\014>A\247\375\275\021\000\026\276\356rM\275\276\254?\275\307L\221\275\300\005\004\276x\366\217\275~j\274=r\375|\275Id\301\275\210\"\321< .X<\205\024\021>\371\351\037>:\371\263=\340\242\373\273\350\347\224=\\`\216=\014r\271=\320\007G\274@\221\001=/B\007>+\262\031>ON\007>p\004Z=\352\363!\275\006E\001\276\010+\245=\270\226\036\2762\022\355=\376$\036\275\266*\202\275\r\'\017>\340\213-<\324\026_\275\353t\032\276:\"\361=\006\021\255\275Xc\363<\345\201\030>\030\221\244=8\252\230\274J\001\302=\245\207\017>\374\013I=\370v\372\274\341\233\003\276\336\306\374=sn\010>\220\322\267<\320.\020\274\366\353\265=(\355X\275\375\233\000\276\356\202\370=\220\2140\2744!\223\275\377\232\016>\030\377\261\275\016\251\364=Y\303\230\275x\236\251<\n\342\273=_\355\022\276\000\355\373;R\005\342\275\264S\024=h\320B=\330\370\212=N\220\025\275\370&\276\274\333Y\374\2756b\374\275\\\202\\=\344t\030=\\E^=oN\204\275\313\022\255\275l\3501\275\241N\014>\020\354\377\274\200@];\2115\241\275(\377\024\275\000 .;F\303\322=\300\250D\273\000\374\342\2754.\242=\366\366\234=\215\352\035>F*\335=\362Q\322=\311\"\001\276\007\n\r\276\300\027\006\276J7\017\276\374\334F=e\275!\276\032Sw\275|S\006\276\3679\346\275\364\310P=x\t\270<\364\'\030\275\340v\230\275`\313\035<(\347\266<\n\371\027\276\n\304\010\276\224\275\265=\020Q-=\023`\037\276\200q\210\275\334uT=\342\203\230\275 \231\261\275\030Q?\275\352n\251=\366 $\275(:*=\250t\254\275\303\260\024\276\214\317\020\276xk!=`E\204<\361t\300\275X\320\230<\332\351\356=\356\\\225=\2043\213\275\213X\025>C\365!>\356\346\312=`\250,\274x\361\230=\211\247\034>\321\234\005\276X\232~=\220\260\'<\3124\246=\006\376\357=>\343!\276\260\\k\275_\203\250\275h\204Z\275\236@\021\276}2\032\276Lm\005=\356N\317=\251d\016>\036\221\215=!\030\363\275\224\332v\275H\360\311\274\200\n\205\273@j\032;\372\021\020\276\242\347\363\275\300\030S<\332\312;\275\\\343\237=\3204\231=p15=*s`\275\340Mm=A\246\211\275\030#p\275\365\025\031\276\230v\336\274\255\r\033>\034\\\244\275\240\034\207=H\310o\275,v\031=\036gU\275@@\227=H\372D\275Q\202\017>\220\334r=\262\256\346\275\256h\250=\\-w=\340\n\"\274\374X@=fG\317=\336>\224=`\317\373\273o\375\315\275U\272\004\276\343\031\010\276a{\034>\362r\272=f*\343=\246\255\317=N\207\327=\034\263S=\017\374\017>~\354\312=V)\217\275\266\315\341\2758\317p=\212j\241\275\000\306%\272\032\231\255=\000\336[=M\000\n>\265\303\n>\300\236\374\275r\361\300=\000|\216;6\277\207=\376\005\330\275\316d\274=\255\247\274\275\023\257\034\276p.x=\004z\335\275st\236\275\320\303F<\351{\273\275\257\251\350\275\023\251\036>\257D\225\275iZ\023>@6\240<\266T\246\275\354\260\254=\355\227\003>\330\223W=\373\217\363\275\230\343\220<h\033\225<\014>f=\037o\035\276\000T\240< \035\252\2746\253\275=\263\372\267\275\024\332d=B\220\021\275si\255\275\312F\336=\251>\025>\311\036\017>\346\273\377\275\236\'\025\276@\240\263<\375\227\034>\200\220><\205\323\351\2751\001\230\275\300\345\253;\272Z\202=\260\n\035\275\260\030\006=\254\360\341\275\300\342\251\2758>.\275\257\226\037>\030\372\306\274\027\221\316\275P\013f<\220\3741<\330\353\265<Z\n\330=nj\242=d\263\034\276\354\207X\275\261\351\022>&\351\330=\216\\\323\275\210\257\361\274\200\004\353<8\277\245\274c\356\304\275\357n\276\275r\205G\275\214b\257=\016\363\311=\001L\026\276\254\245\314\275\027\020\027\276w\335\036\276\340Ov\274~\256\233=;s\014\276lv.=A\364\312\275.;y\275\332\207\344=\324\372\235=ZN\273=\300\233$\273\000\2044\274\020\342\246=\020k4\274hR\250\274N\371\226=`\310]\275\350\317\314<&\340\205\275Br\364\275\270\036\030\276Ho\266\2744b\331\275~\334\315=\024m{\275\2607\347\275p\200\020\276@\232\350;\232\372\373=\333I\373\275!~\"\276\214\022\002\276Hr\026\275\002o\336=\217U\020>\240G\332<&;9\275>\226\373=\226\343\335\275\270c\255\274\241$\272\275\256\000\345=\332\324X\275\n\300n\275\333\346\021>\034Y\026\276*\036U\2755P\364\275\030(\007\275a<\251\275\357\375\030>\374/\321\275\343\356\004\276\330\345\037=<\331\033=\230\007\215<\316O\032\276&\275\306=\017\007\035>`\377t<\272\250\375=h\331\267\275\324\257\350\275\224n%=&\301\217\275\020\317\263\275\227\236\023>\020\373\355\274\206\037\030\275\241V\020>p\024\367<\205\322\017>\310t\257<\245\033\024>\370\"2=e1\026>\300\036\250;P\032\t=\260\357e=\027\303\005>\030\337\306\275\326\351\005\276W\362\204\275\032\240\306=\220\375\026\274\2720T\275\224d\035\276\256\237\354=\352\352\025\275\351\355\257\275\004\354\264=\"\313,\275\'\321\035>^\236\352=\004\277\250=s\034\014>\320\276x<n\302\317=\010$\301<\000\220\325;\277\333\212\275P\361`\274\240D\373\275\264\367\225\275G\217\023>D\001r\275\320C\035\275\375\372\237\275t-\252\275\223B\217\275\362L\n\276\252\250\177\275I\254\303\275\320\370\345\275C;\243\275\256|\253=\020dx=u\264\016\276\300\261\211\275#\265\375\275\034\263\227\275p\2407=\374\035L=\334\302f=-6\253\275\277\010 >\253/\216\275\330x\232\274\234\304\001\275\200\270\014=\027\305\227\275\370\313\374<\270DF=\342\203\234\275\017\205\324\275\205A\014>D\227\035\275\340\242\371\275\210|\202=\315\321\n>\220\256\331\274\026\022\233=\334\227,\275\252\371\351\275\016I\351\275\264\275T=m\257\014><,\320\275\346\207\247=\2358\377\275\020\304\232=\030\262\340\275\324\234f=prL\275\340\201\203=\274\2623=\270\262\344\274\250\306\250\275`\346\030\275\325\035\314\275\035\005\007\276\217\331\237\275\347\361\035>\200(-;\240\366\217=J_\336=\365\024\214\275\246J\377=\214\237\026\276\210z\247\275\230m9\275\270&\353<\242\333\330=BQ\276=#\335\035>`\314\222=\300\327\271\274\344\035>=\004RH=\220\232O\274\345\335\013>\232\204\375=4\210\324\275\250\2464=]g\001>\320\2515=z\217\265=\260\013}=\374\360\023\275\350\366l=z\303.\275\n\244[\275\334.\267\275\032\256)\275\246b\273=\224\327\234=\263\346\030>\020\272\230=\372\337f\275\366\373\352=\210t\'=x\226\273\274\002\t\316\275Ni\006\276\236/\275\2750{\353\274d9b=\340\301\370;\270#\330\274\353x\237\275\016\027\334\275N\022\217=\010\265\342\274\010\\\375\274\376\335\376=(\323\013\276\000\252\014\273 \0339=vN\205=#\243\021\276\014\221\017\276\2405\361;p\376\242\274\200\322\002\275>\316\331\275\263U\025\276\020\250P=\024\226\n=\251\351\r>\360\235\177<\360\260\357\275\320wu\274\233\237\372\275r\216\034\276j\263\241=j\313\025\276K\232\010\276\344\226\245\275x)b=\340\033z=x\005\277<\266\221\373=\024\2520=\034\302[=\034\315\364\275}\014\031\276\354\241}\275\\FW=\376&\243=\361\275\013>\0025\363=\231O\005\276 \0226<\204\316\002\276R\021\014\275RA\341=_\017\370\275\310UN\275\315\232\004>XB\022=\343\263\037>=\265\032\27649*=V\277\372=\3378\025>\240^z\275o,\271\275\020\030\035\274\020g\274<\200G#=\360J}=\235\031\022>F\371\256=\330\0161=\234;+=H>n=\030\332\273<\020\230\177<\230[\323\274\246\255\355=\364j\204=\341\301\033>\374\333\270=\326\375\210=*32\275V\017q\275\r\337\017\276\200m\371\274\226 M\275V\313W\275\nn\272=\344\337$=\276\030\342=\304\202\222=\203\372\005\276\302\245\337=\352\227X\275\254Y\210\275b\325\304\275Y\247\265\275\202\317\244=p/w<\371\035\024>\2002\330\2750\020\343<\300\021p=+r\303\275 SP<H\334b=\\D7\275Kk\"\276\363\224\010>p-\377\275H\266C=\220D8\274\334.I=\2104\"\276@\330u=\300u\264\273C\207\023\276\354\335\236=\376\000\316\275D$\023\276\022\020\324=\014-|\275z$\361=\3120\006\276\206\362z\275Y\016\252\2757\251\037>R\237\233=\306K\026\275\216\303\027\275P6\003<\020\342\225=>w\274=\201[\035>\350\340o=\240v\370<@\3155\273^\241\307=;)\320\275BJ<\275\226\034\303\275\322\n1\275B\214\230=-I\002>43Q\275|0z=6)\344=\370#\260=\250\027\265<\275\022\207\275\200\322\214=\236\365\336\275\345\362\206\275\004\305\032=\302\327\363\275h\233<\275\332\364\335=\035% >\026+\377\275\204d\314\275r\254\264=\310S.\275\244\341\257=P\271\371<\t;\006>)\344\360\275B\261\317\275\306\222\243\275\000\\I<(\'\347\274`!\027\274@1^\274\347)\222\275<\252^=\262w\205=\333\236\006>DZ\311\275\300\274\332\273\320\021\301\274\000\321\340\274\261C\001\276\240\342\242;`\240\202<\026>\035\275y\257\030>\034\005:=h\037\316\274(\222F=\367\201\036>2\360a\275{}\031>\346\303\n\276\242+\243=\300s\035=\224\355G\275(\272\212<\030\277\337<\000\200\203\270\300\221\330;\240\177\252<v\247\360=?\321\t>\300Q\207\274\330)\340\274(\254\321\274dgw\275\016\337\037\276\300\003I\273\241\002\013\276\275z\r\276\330<\232=t+\014\275Z\\\334=\032f\317\275\356(5\275\220`\r\275.\253\325\275H{U=\212\263\267=\016\203\313\275P)\026\274\363\334\005\276|\242\"\276U5\020>ze\271\275\244\352\r=\374\233\241=}\005\230\275\262\254\345=\224\262\247\275\360[\026\274nq\315=Z\'\360=\260\013\016\275\266\231\004\276@\252\303;(S\340<0\002b<\021#\005\276\350\275\271<\n\300\356=\310g\373<xR\304<`]\353\274@p\013;\266\327\300\275\370K\006\276u\221\036>\"\245\306=\201:\206\275\020\0271=\301\273\010>\310^\341<\025\365\270\275^\260\336=\0179\021>Z\236\300=.g\370\275\226l)\275\200\004\301\275~\266\341=:R\215=\000\203\217<\326%\305=\202ZU\275\214\240g\275t\251\242=\034\021L=\313\223\031\276\345s\t\276l\257\"\276@E1\275\2007\220<q0\033>\316\332\352=\375\314\n\276\206\315!\275t\273J\275\310\312\222\274\t\210\025>R\300\243\275\232\252\341=\303\222 \276`\003\273;4\302\340\275\237X\245\275\270\213i=$p\260=z\334\204=<^\\=\010#e=\210\363\002\276@P\313;\'\256\221\275\276\324\260\275$F\327\275\240O\002=\224s\005=$\334\356\275\206\007\r\276&(l\275\316\347\203\275\002(8\275\240<\225;\320\324\003<\250\025Y\275~%\330=\270$\227<|\356]\275\312bN\275\363Q\025\276\210\337\211\274y!\025>R\235g\275\222\277T\275`\366\374\273\310\372\216\274\301D\341\275\327\347\003>\006Q\216\275\322e\373=\265\313\003>\300\357\004=l\210\252=^\n\355=\214\003\032=\300q\006\273\034\253C\275\360\"{=\274\024x=[\302\236\275(\374\315<\260-\n\276\"z\335=\365\327\244\275\234\230>=\371!\236\275\306\206\375=i\322\020\276\271q\034>\030\345\037=\364\231\237=\034\345V=\330\202\266\274\373\341\240\275mE\003>xY\306<\000\320\3559Vd\257=\031\236\032\276\371T\027>\300;g;(\337k\275\300\220%;\334\335\020\275\000\376\2729\240\316\304;,\231\375\275\310\273\003\276]\373\221\275\314 +=\350\237\036\275\204wK=P\006\"<\250\014\367\274z\036\264=\200.@;\345\033\027>K\001\003\276\237x\">D\321\300\275\247\315\000\276\352?\315=l\314P\275\220\262\257=\314n3=\300\230\253;\254\tp=\353\312\002\276F\014\363=\331u\014>V\201\320\275\200Q&;\270T\232\274!\241\313\2752\223\263=k\022\005>\320\330K=\017\024\002\276\270\t\004\275\373O\001>\340a\020=\260\365J=\361\370\001>\300\250\235\275\250\342\267\275r\024\261\275\340\014\270\274\360\253\370\274p\274\260=\213f\333\275\376\271\030\2760O_=\000]\177<\002*\340=\206\300P\275t\204r=\334\264<\275ai\014>Z\370\331=@\320\257<\224\3059\275\367a\007>\2048r=\372z \275 \275\361\273\300\177\267;B\034\276=\213\250\n>]U\034>\"P\004\276\357,\013\276Q\371\023\276\200\244m;\ne\221=\352\362\346\275\220s\230<\006l\244=\231\t!\276y_\016\276\236\375\300=\035\003\032\276\254\255L\275.\303\366=\247\244\001>8\254\030\275\352\316\344=\334\335>=\276\312\302=Y\353\006\276\244\034\267=\300\013\264\273\360\341A=0Q:\274Vp\232=A\221\n>\252=\313\275\262\313\350\275w\350\267\275\026\202\352=p\322\t\276\340\334\265<\210a\007\275\242\023\347=\200c\203;\316Lv\275\212Gi\275\360G\312<\344\313n=b9\365\275 \377u=\200I\247\274\236b\270=x\243\006\276n\002E\275\254\253\206=\315X\025\276!s\356\275\301\346\205\275B\016x\275\320\177\373\274 \275q\274J\002\244=2\244\352= Oy\274\220\252\214\275\272\223\331\275N\261\304\275t\332\n=\002\312\316=(\t\212\274!\337\n>\256@\211=\225\351\t>\340\340\317\275\305\025\002\276\\@\203=P;\372\274\266\036\211\275\\A\020\276\233\022\004>\300\360\247=\262\004\271\275T\200P\275\320\341\022=\253\301\001\276E\231\020\276K\311\255\275@D\024\273\2137\243\275@H\004\275\326\3438\2759\240\310\275\330\316\310<\340\031\177\274Rv\335=r\215\364\275`\001\235\274pu\t\274Q\254\230\275\207\020\010>y\253\001>\3407\333;P\246\036=\220\305\006=d=i=\347\326\006>\331\364\013>\"\000\335=\310\036\260\274x\311\264\274<=\216\275\',\263\275\330\211\245=\250\213\363<\233\355\032>P\216\347\274\370H\311\274\300\211\217<\350\254\005\276\315\001\005\276\220\306b=\010\342\313<\266\030\300=\230Y]=`\223}\274\364\003\261=^\377\362\275,\256\005=\211z\025\276\3434\016>\336\260\013\276\035\021\344\275^\250\262\275\206n\203\275=m\344\275\2434\">Gg\021>\374z\006\276Rd\037\2768\223&\275B\373\207=8b`=\345X\231\275\372K\032\276\340\367\236;\030\'\260=\311\206\230\275\013.\005>\0102\251<\242\204\372=n\316\265=\352\335\314=\230\265\343\274\245\004!>W\330\037>\030\177\266<\300\273\345;\353M\021>\\6\252=\200W$;lC-\275|\245A\275\356\246\033\276Fr\312=\223\204\036>?\032\323\275\240}\213\274\027\312\025\276\256#\335=\212\375\344=1\341\227\275\272\330\026\276F\t\260=\374\375\263=\226z!\275\334\2776\275u:\007>X|\320<pq%=\2414\t>\240z\357\273\020\010\215=\231\005\034>\306\354\251=\036\0258\275\276\355\321\275\033\214\307\275\351\301\243\275\200!5;\270\302\275<X\350\330\275\343\024\010>2G\354\275&\202\212=p4\037=E,\220\275t\261\"\275pi\245\274X\330\234<\000\352\332\271\3067\372=\306\313\346\275\220\224\n=\034\264\302\275\214\251Y\275\371\273\037\276\252\006\236\275X\257\341<d^r=`,I\274\025\327\t>\330\005\372<T\003(\275~;7\275\264\326\005\276\366\346\333=\230_\206<p[q=P@<\275d#j\275\220\235x<\321\345!>\004\315\265\275"
      }
    }
  }
}
node {
  name: "LSTM1/recurrent_kernel"
  op: "Const"
  attr {
    key: "dtype"
    value {
      type: DT_FLOAT
    }
  }
  attr {
    key: "value"
    value {
      tensor {
        dtype: DT_FLOAT
        tensor_shape {
          dim {
            size: 50
          }
          dim {
            size: 200
          }
        }
