node {
  name: "LSTM1/kernel"
  op: "Const"
  attr {
    key: "dtype"
    value {
      type: DT_FLOAT
    }
  }
  attr {
    key: "value"
    value {
      tensor {
        dtype: DT_FLOAT
        tensor_shape {
          dim {
            size: 37
          }
          dim {
            size: 200
          }
        }
        tensor_content: "\000\341\241=\224\213T=\317\342\014\276W\037\020>^\365\024\275zI\353=\245B\222\275h\213\225\274q\350\001>l.\201=@\367\330\274\017!\357\275`\263\341;@\014\306;\370\003\220\274\'\300\017\276p\377P\274\374\242e=\000\254\310\275o\255\007\276\360p8\274\206`\306=J\200\021\276AX\017>\026F\302=w\210\305\275\374}\254=D#\267=`\020Z\275PP\303<\252[\355=\264\007\264=\352H\343=BD)\275\013:\336\275\234d\350\275\200\202\364:\017j \276\032\255\373\275\304\207\254=p\262\266=?\303\032>\320\226(\274\213\220\007>\002\350\016\276\220\302\375\275\313\304\004\276p\250\263<\000\017w:\330\354\321\274\036\300\337=:\\ \276\353\023\313\275qp\010>\362\032\346=\234R\237\275<z\025\276\375\210\t\276\242iu\275\360-o<P\341\360\275jz\000\276\313\306\246\275\202O \2760\031l\2750\243C\274\372\277\256\275\222\035\255=Je\356=-a\314\2754\356M\275\300\322Q;~\007\341=d\013l\275T\n\t\275\220&\365<\000p&<L\002\t\275\372\253a\275\216\3268\275\320\344\037\276~W/\275\026%\216=\370\252k\2752\207\346=\030\320#==\216\021>\354\323\336\275H`B=\214\177\035\276\302w\023\276\251D\005>\353\222\021>@\333\247\273.;\235\275$\350\374\275@8\263\274\234\250W\275.\177\200\275+\217\002>\220\010Q\275\014\274$=\260\302\371\274<X\013\2752\2309\275N!\327\275\3616\344\275v\013&\275&T\302=zZ\306=d\242\220\275\210\213W\275\203\265\n\276y\261 >\337\277\207\275\242\374\361=\372G\303=\230\211\205\275\330\266,\275\275\274\"\276\204\240\212\275\340$\236\275\020\367\213=.\345\322=\314$\001\276\210\266\325\275hc\257=\376-l\275\3000N\274\355M\236\275\216>R\275.\302\006\276VO\263\275Z\276\216=\026n\334=\300\tv;9\333\027\276q\266\226\275\320*\222\274<\332\t\276K\312\277\275\307\210\"\276\223`\014\276\340\177\025=U\342\337\275\344\200`\275*\037\232\275c!\002>\274_\346\275\314o\255=\2063\274\275\266\354\362\275\340\036g\274\014\351G\275\244I\346\275\n*\313=\311\347\203\275\357d\002>(-\217\274\315\036 \276/\202\006>+Y >`\374\377\274\223\344\036>\337D\r>\210!==|\346\270\275\3629\353=&,\345=hT\257\275\260\277u<\240\327\237;n\002\207=\275\230\n>\000\020|<\365[\202\275\374xV=\034\367w=PO\326<\312\372\304=\366\236Q\275\333P\027\276\240\032k<\331\036\000>B\345F\275\374q\230\275\262\t\266\275\250;\347<\256\316\352=\250\246\325<P\003h=\034\353V=\320\257%\275X]\351<\006\203\n\2764\320\020\276\020\351\334\275(8\006=\230b\013\276\250\017\335\274\300E`<\252\200?\275T\266\200=\234\345\352\275e\341 \276\002\336d\275\020);\274\272\220\325=d\214\253=3\253\253\275\300W\024<P\302\224=j\324 \276\332\354\210=\373\325\212\275,\211\226\275\274\230K\275\260\376`<\004w\\=\013\310\003\276\262\233\272=\252B\257=\032\274\360\275\322\324\373\275\037\334\352\275_\351\013>Q!\037>\000\342$\275\362p\214\275\270\265U\2750u\271=\305\030\027>\212\325\366=\3343\231=\3650\032\276\251\034\023>\000\243\242\272\370P\255=->\004\276z\017\271=\250\324\242\274\250\247\003\276\n\250\224\275>}\006\276\272\\\342=\370\275\230\274\234\363\225\275\336\214\335\275w\033\257\275X\352:\275\334\245V\275p\265\035\274\335\210\000> /\360<\351b!\276\000k\014\273\345\016\023\276P#\t=fn\204=\364R$=\332\226\337\275\002\320:\275\221\236\036\276@N+;\034\356\006\275\320\'\227<\362\341\227\275\321b\231\275\322\005\342=hj\003\276\024\'N\275\300K\t;\366\274\274=\212;\352=\366\273\006\276\024\2466=\302\013\265=\265\233\024\276\0240\031\275\370 \207\274x\254\321\275\354\256$=\260h8\274\210v\222\274u\376\374\275\000(o<(\371\300\274~\'\235=\320\273N<dC\233=:m\374\275\337\271\001>Xr\002\276\350\312\226<\001G\005\276<\224i=\"\306\201\275\302,\275=\000P=:\340$\361\275\210\260%= \357X\274\302|\306\275\372Q\373=\223_\002>\350\235\325<N\370\366=?:\010\276\0301\371\275KJ\016>\\\301\007=\270(\031=X\220\233\275\020@;=\020\224\352\275\342 \252=\010x\375\274\261\203\303\275x\377\263\274\344\322\252=\316t\361=g\364\027\276[B\334\275+\204\303\275\020(\014\276\256\365\333=:\031\332\275F\031\342=\230y!\275\"\t\301=\200\202\010;DVG\275GN\r\276\246\252\002\276F\266\331=\331\364\331\275\010\313T\275\343n\336\275\232t\372=F\336\304=0\330\333<\250`\356\274\275\213\007>\336\366\305\275\307\227\246\275\343\237\203\275\026\n\261=\321=\004>\266P\324=P\271\360<\3330\023\276\221\310\246\275f\351\355\275B\323\325=\355w\212\275IO\026\276\000\273\032;9\356\014\276\360\347\263\274p\330z\274\354\317\205\275\260\315\274<\313S\036\276\342_\351\275\000iG=`<\240\274x\333\231\274\022\317\225\275\214x#=\212;\241\275\2629\027\276\002[\216=\000\014}\272&y\227=\000\024\224<\342\223\321\275\375\365\267\275\3405\240;^\366 \275K\214\251\275\360zO=\200~\327\274\360\274/\274\235\326\t\276\350\003\342\275#\242!>w\320\034\276\227\361\001> _\210<f\350\212=@\373`=Q\r\031>\230\206C\275\376\327\322=\020\315Q=)\024\020>\027\020\257\275\326i\031\275\354e\013\275d\262\217\275=\354\261\275&\345C\275\004n\n=\307u\010>\216Xl\275D\0074\275\263\332\032>\020\215\254=\003\232\272\275\002\252\230=\240m:<\317H\">\236\301\367=\212\314\347=e%\357\275>\005\313\275C\r\014>:\2368\275R\037\255=\\do=p\021\370\274\031m\016\276\000\336\371;\362\024\277=\276\253|\275\270,\233=\014i\366\275j\177\027\275\342u\374=\272\344\321=\374\r\353\275\366\025\332=\304\246\304\275 \302\332<:\363\256=\354\223^=L*\251=\344D\222=a\275\030>\302^\215=\330\237\024=\326b\256\275\243n\304\275P\277\200<|z`=V\200 \276\364\033\264=pX\326\274T\234s=\003\260\n\2768\315\373\275\306U\374=\271\037\003>\244\344A=\351>!\276k\343\030\276\020#\212\274\360O\037<0bM=\271\216\230\275\n\270^\275\343p\024\2762\327\306\275a\375\010\276l\322\345\275\360\365\244<\216h\263\275\214\305\227=\272\226\311\275\336\232\321=\017@\031>\262\304\347=i\337\025\2766\244\262\2751\374\001>`xt=,\321p=PY\345<l\254a=\260C\252\275\000\244\214\275\334J\022=\360\364B<\222[\250=\346\345\275=r\001\216\275\240\212[\274B!\375=\277\316\001\276\212i\221=*\027\370=h+\013\275Yk\305\2757)\013>\020{\225=\000\374\'=\024\353\233=\230\316\237<\300\243X\274 \321\201\274\346\374\235=\260\222\r\2756\005\004\276`\342S=X\260\004\275`\263\237;\374J\365\275\001=\217\275\351.\010\276r>\342=\256\036\030\276\252\210\227=\240\010\340;3\213\335\275,@\017=@\023!\273PJ\214\274PZ\245=\247\341\000>`\350\301<\244\220\004\275\256\203\341=\3544\t\27561\371\275T\213\006=\277\265\005\276tOi=\240\256\247\273K\275\004\2760\276\026\276\002\226\345=\"\354\340=\371\242\016>\020?]=k\004\213\275\316\305\354=\224c\251\275R\366\245=\326\250\003\276\340\342\232\273\236\247\306=\003\246\025\276\240\023\367;\322\267\217=\262$\376\275^i\247= \351\250\273HL\264=\312\001\321=\030\226\002\276\317\215\007>\336\265\313=yS\022>k\302\273\275\203\343\211\275\020\360b\274\204s\236=\250\367\006=V\373\267=\t\360\007>l\306\031\276?4\261\275\254\265\003\275\324\232\247=(\354\274<V\014\221=\332Y\312=8JW=7\316\000>d\305l=V\276\370=\246)\322\275\034S\n\276<\265\373\275\327X\026>\021\r\031\276\376?\235\275\177\335\010\276}\030\004>\363\234\006>\025\004\330\275pup=X\177\325\275H\322\330\274\230\273\265\275\332\225\254=\325:\035>l\201u\2756f\240=U$\n>\021Q\000>\346{G\275\211\024 >\225\351\033>\023\334\013\276&2\315=\340\342\000\276\263\247\222\275\n\206\235=\264\233\006\276\354dE=\200\2144;\212P}\275 |\326\273\025%\346\275N\031\312=l\277\356\275\2273\032>\242\357{\275\254\227S=6\300\340\275X\016^=xd\036\2766\027\316=`\347:<\233C\">\000\266\241=\376\232\234=\022\267:\275\350\315\t=\003w\022>\000\\\034\273V\306o\275\300\341\264=\320\225B=\225\263!>\210\360\256<1\254 >\202\250\231=@\272\302<e\212\021\276\366\315\035\276d\260\022\276/\270\233\275\320\237\337<\225\240\000>\364\373\017=`\003\243;\210\331V\275\317\351\016\276\226\010\216=\254_\250\275S\226\330\275x+\256=\330^h=\343Y\023>pMn=\324x?\275X\350\230=\366\204!\276\016O\343=\340j4<\320\362\027\275\254_I\275\023\242\026\276\352\226\362=\354\204\334\275\275\255\026\276\372\212\354\275\200<\032=\227\343\004>\020-\214\275\324Q\023\275\005\000\036>L\273\217=ES\016>F\226!\275.\254a\275\245\026\003>\335\002\026\276]\025\">\220\267\207<\025?\n>\200\317\266;G!\017>\211\277\r>\316\323\021\276\000\230r:\"(\316=%\277!>0k6<\276H\344=\014Z!\275\331\260\037>\000L\351<\032\202\r\275`\017\273\275z\333\236\275\200\021\316\275 \251\235==\177\264\275@\003\260\275T\322m\275(\224\273\274\3300\016\275D\030L\275N\276\227=\200y\177<\227\242\257\275\334e\235=P\026[\274G\366\206\275\220\035\221\275\244\323\365\275\214S\216=\001\224\001>\000\230`\2736$\374=\360\250#<X\347\270<\014#&\275\214\335\t=\313\256\311\275nD\006\276\014\0203\275\"\177\277=\271\277\022>P.\340\274\364\255~=\210\363\013=\"X\017\276Y\346\010>\273Y\004>\320p1=\324\226?=3E\022>\250\371\210=\210\024.=9\032\020>Z&\244=\232\023\372=\247@\037>\2400\237;\030\026\250\274\340Y\365\273\020JL\275\374\024\r\275@\3452=\000%M=\330\306\200\274lQ\002=\000\000G\266\340V\336\274\n\333\316=\340\331\201\274*\304\027\276\264\000y=cC\014>\240\342\347;\030\223S=-\207\005\276v2\322=F2\370=\246\236\016\2764\214b=\252\367\177\275\"J\272=c\324\276\275\274\314\023\276\250\026\005=\020iM=\014\232\227=\254\251V=\366\374\255=@\273\265\274\3304\302<\204\201\230\275\337\241!>\214\013\'=\240Pc\275\"7g\275\005*\360\275\276V\014\276Qq\375\275\334\204\203\275\314\024\243=\212\013\375=\036Tu\275\024N\325\275 \230\266;\034%%\275\222\000\t\276\030I\361\275\354\342\034\276\010\215\266<\220\177\006=\306?w\275\240\276{=\375<\027\276\\\037\255=\034\017\266=\340\331\027=\254\\\004\276\000\214i\2753\376\234\275Pw\327\274\327\027\020>\002\t\214=\020\\\333\275\022\022\307=\316k*\275\336\300\303\275\006\263,\275\310*\032\276\3668\265=\204\372\r\276\330\307_\275)%\022>jX\262=HC\020=\232,\352\275\004\253\225=\000\211\207=\326\263\022\275\244\231q=\364\332\366\2750\350`\275X\337<=\000\233\024;\034Xo==6\203\275\240hP<\300\357\306\274\022\340\205\275\240\325\323<\n\212\356\2758v\201=\334\364S=\036\277\221\275.6\330=\220G\362\2743I\260\275\230\006\006\275^\201\360=\320Z\341\275c\361\006>T3\010\276\272N=\275\032\206\254=p`\216=\237\233\262\2750\232\177=h/_=yK\016\276\003K\000>p>(\275\177\201\037>p\251\217\275\037\265\034\276\274\314\026\275\230\266\027=\2768\325=\024\200\n\275\2130\272\275\360\215(\274D\247o\275\245\325\024\276\377i\311\275>\013\334\275\230\254[=T\360\032\276HD\233\274`J\211\274\346\327\315=P@\225<\000 \007\271\242\265\340\275\334\272$=\244Zi=\232\345\301\275\0326\036\275HF\220=\244\201s=\310\327\025\275\3078\327\275F\217\214\275\340\261\317\274@U\221\275\310\034\326\275(\005\220\274\002M\020\276\300iM;>\031\005\276\025o\007>\212 g\275\260\264\004\274Im\024>\3402-= y\267\275\300wt\275\t\352\205\275\'/\007>La\017=Pk\235\275\220\300?<X\271\231\274\334\232`\275\353\300\014>j1\254=\n\314i\275i\355\r\276T^l=\020\310\355<\370\322\246=\221\020\201\275w\242\007>\242\245\330=\272\376\262\275\353\204\004>\261\333\016>\332\335\344=\000\311l<\026\376\355={}\010>\r\006\035>\210\367)\275\031\300\006\276\202/\371=\256u\312\275Ut\036>\254\022N=0)H\274l*e\275\200h\261\273\260\000\022<\250\007\272<\200\353\317;S\230\013\276@Ak\274 \344\005<5\203\314\275\356X\014\276_{\003>p-\013\275\344M\225=(\340\363<\326\311\010\276\247\272\331\275\000\n\013\276\006\244\236=8\371\350\275`\334\216\273\203n\017>xM\256<Ldp=\334y\005\276P\340V<\000E\273\272]\227\032>\364\331t=`\330a=\366)\364=\221\257\r>\224&\n=\354\271\030\276\352m\363=\212\334\354=>\001\\\275\2744\002\275\200n\336;,{\242=\031\337\326\275\273\357\006>\005/\207\275\265\217\004>9\325!\276\364\223\002\276\234\"\007\275L\221R=*\264\310=&\253\375=\300\333\203=\266L\242=d\360B=\300\022&\274\366`\277=\001\310\025>\300\2217<\344D\n\276 \344\303\274\266\314\356=\256W\346\275\276!\341=\210)\326\275\252\357\351\275\310\203L=t\020\r=\006\034\316\2759H\023\276\270j\214\275@\215\205\273v\235\371=\370\347\375\274\266\205\335\275?\265\r>ft:\275r\204\267=\2658\n>\333\267\324\275\257\205\000>\340\r\006=(g\345<h\275\374\274\206!\333=\342\302\210=\n\033<\275\232\266\357=8\366\355<\206\211\005\276\246\010\224=\033\036\241\275 P~<\360\374\252=\312\370\370=$\242\"=\305\244\003\276\300\374v=\360\024\270=\360]#\274\367\342\007\276rD\357=\202\037\363=\360\010\024\276\234\026B\275\341\317\000\276`=q<\372\205\307=\220\314;\275E\322\326\275p\261\275\274\006f\010\276d\014Z= \352Q<\344R-\275|o\231=\300\252=\274\200\274w\273\004\344\262\275\3573\330\275W\336\205\275@6i\274d\214t= \335\230=z\317\214\275\302\236\007\276\n\341\370\275\205n\337\275\2227\351\275\200\273\262:\312\237\275=\2705\223<d\022\024=2\017=\275u\320\030>h\005\337\275\"<\000\276\342\346t\275\020\3635\274\000\306l<\242\220X\275\270\231#\275\334\275\232=R\r\251\275\230a\353\275\270\235\332<\010\315\262<q\254\332\275\332K%\275G\315\215\275\230\210\213< \360\306;\220\213\"\276\357\013\267\275\024\220I=\374C\240=\002\235\373=\226|\357=R\2269\275\266\333\024\275\253|\017>8\235\271<b\363\006\276\003\274\026>\2178\010\276\300\233\006;hP\236<\322\313\272=\300Q]\273q\227\307\275r\017\231=\252\036\333=\0000\205;2\357\376=^\366\322\275\010\262\326\2758#l\275\024\237:=p\277\272<\324;\t\276K9\237\275\301\371\037>\232\272\275=\222\356\324\275x\335\031=,E\000\276\362\2659\275D\006\203\275]\351\023\276o\305\023><^X\275\276c\027\276 \314R\275XtD=\260i\020<Yn\017>\254\213\354\275B\221\026\276\000\347s\274\300\247\023\276\330\364\304<^S\362=\250\036\371\275\342\313\224=\205\036\023>Tu\034\275\340X\204;\300I\243; v\364<\206\025\337=\222d\237\2758\331\303<-\205\025\276\214\303T=8J!\275\301e\007\276\255\345\312\275\256g\265\275\250\244\250\274r\021\211\275`\360\004\274Jj\\\275\316\030\355\275\240\222\377\274\320\273\306<\240~7\274\320\251^\274#\247\">\355\203\010\276)\320\324\275k\331\026>\210\256\212\274\370\034\027\275\350r\n=0\005\320<b\010\350=t\367\026=p\277-\274n\211\310=\357:\r>/3\027>`&Z\274\312\355\222\275<^g\275;\037\213\275 \311\244<(\212\201<\'\370\001>\020\344\207\274\376\357\202\275\000\1775: \377}=p\325\317\275\000_\360\274\000*\306\272z\304\037\276\274\273K=L\"\223=\225D\334\275\230\245\217\274p@(\274\214\301G\275\226\336\377\275\260x\242\274\270\030t=\200\235\307\274\203g\031\276\315|\021\276\026\020\020\275[\305\016>-M\022\276\024\300\026=:G\340=\3733\013>,\307\211=\312\201\247=z\3302\275^\273\241=\226:\370={\034\032>\224\3342=\300\000\206;\260\024\036=\210?&\275\340v\234<\256\017\315=u\357\362\275\370\222\372\274\304\"\207=H\227\344\274q\311\252\275H:\267\274\246\027\003\276\367\263\t>\033N\027>\252\326\215=(\273I=\310\257\236=\214+,=Tan\275\n\326\t\276\234D\212=7\335\237\275dr\256=\006\353\350=@\343\313<S_\335\275\306\363\243=\252\221\370\275h\002\303\274W2\n>\210lZ=\336F\244\275\276\361\301=\024?\344\275\343t\003>4\226\205=\212\247\374=`\323\336<\3268\253=\336\327<\275\260\034\307\275\2579\334\275\203\271\031>\344m\277\2758\320a=\340\250\360;\310\367\362\274\300\306P\273\302[b\275$\326\224\275t\342\000\276(p\215=1\344\254\275\341\247\027>\310\270\220=:C\330=jf\347=\326-\346\275\344\341W=B\312G\275y\232\025>\320\301\n\274\320\326\000\276\004\264!\276\246Pm\275\254\335\256=\326\241\253=0\352\201<\300\323\376;\321\236\357\275\264\260\313\275\223\252\024\276\266\027\361=\230i|=\324X\371\275\252\216\376\275P\034\032<\372x\325\275\3201F=\376\323\341\275w\221\025\276\031\372\r>\200\002M;\274\346u=\354u\004\276X3\253<\005=\002\276\263\256\247\275\203\343\240\275\233\001\276\275\026\\\324=_\'\026>\276\027@\275\272\250\361=B\205\315=\020u\322<r\230\343=\306\322\323\275\351\242\032\276,i\351\275\332g\276=T\360\206\275\206\377\313=\250\303f\275\340DV\275\330P\245=\231N\021\276\355\201\033>p\244c=D\217\013\276\312\374\324\275\210\345\205\274*\352\210=\2103\327<`\r\266\273fQ\331\275\350\223\272\274L\014\365\275Z\267\313=\200\320y\275Vq\227\275\230\\\257\274\310\342\237<:\353\324=z7?\275\252\033\226=Dp\202=}}\007>8\321y= t\320\273\343+\033\276\034l5=\310Z\010=\332\342\320=5>\037>\330\361)=\020\265G=\026\310\336=\302\333\375=T\322\203\275\260`N=\336[\310=\362\314\243= \330\005\276j\200\372=\3731\020>\342\352\266=lqM=2q\307=\242\004\345=\340\365p=|{2=!\215\020\2768\306\032=%k\037\276\330\204N=\310\274z=x\017O=w]\223\275\347t\300\275\356\243\325=n\256\213=0\302\216=\006\353\347=1\240\256\275\230\362\361<@h\013\274\337\301\013>0\232\206=\323y\003>\230\363\340\274P\'\006\276\313\252\022>\033\016\330\275\300Hz\274\020~\342\275\260j`\275*\023\372=\210\241\200=>E\356=\034K\'=\207\331\203\275iu\021\276\372\276\315=@\322\016<\220\371\006=\000\021X\274J\235\361=O\312\027\276\327s\301\275V\337\305=\240\327\323\274\020xB=\345q\036\276\336[\224=\321Y\023>\300t\027\274\200\262)\274\020\233\367\274\200w\017\276@\334\021<\250y\020\276 \023\257\273\326U\344=\242\036\244\275Z\344O\275P\276\031<\340\237\314<(\357\030=h\277_=Mx\032>\356f\374=\314L\213=J<\254\275\300k\361<\305\302\337\275y\"\037>\004\373\265=\014!\031=\257D\024\276B\274\276=p\270\020<\'\024\037>\025\305\003>s\326\227\275\266K\345=\356\203\r\275\037\272\032>\333\340\024>\306\251\036\276\337Q\001>~\373\333\275\350\256P\275\247\363\323\275@\001\376\275<\026\310\275F\260\253=\2708\016=\320\024\036=\320de\275N\010\360=\322\251\266=\237\026\026\2764\033g=\020\\V=\203\354\325\275\030zd=\002\351\307\275\375\370\263\275\206\327\305=t\373\226=`\317\275<\002\320h\275\340\326\272\273\320\341\014<\251d\211\275\036J\233\275\206\005\346=J\215\273=\360e\006=|\007\330\275\300r|\274\210\233\307<\200c\004\273\342l:\275\206\002\312\275\220j\246<X\240\313\274\364\002\000\275\300\227\304< \272\216\274\352d\370\275@`e\274\206Y\275\275\342\366 \276\364\246\014\276\322/\331=\342\'\342\275\250\226\312\275\020\th\274\200\177\004\273\\@\\=\301\\\270\275\000\302\017=\300\332\240<\213\217\010>\020\014\314<\310\225\306\275\002z\306=H\300\216\275\231\207\n\276\240:\346\275,\363\023=\360e\254\275\212\0003\275\350C\276<\242\333\362=v|\243=\220\224\270=\032\224\324=\2504\317\274C\270\001>6v\327=>\365\325=\023\031\t>\200No<\352\310\224\275\303q\253\275&)x\275m\017\017>x\254\013\276Fp\353=\271\036\003>o\250\245\275\316\205\276=\272\020\207=\256\370\256=\"\206\344=\264\'k\275\354\023\352\275\373\177\005>\021\327\026>\337\273\034><\337!\2762\355\334=\000\367\317\273*r\373=\033\367\021>\200\234\305\272\250\212\035\27563\314=F\253\202=\343;\320\275\357\274\027>:\370\337=-\371\022>\204fQ=\346\302\221=\243o\002>\027\030\002> ep=d\335\363\275\351\356!>\312\365\201\275\260\310d\275\000\345\352\274<9\255=6\230\335=\260\224\262<\256\000\"\275D\005M=\320\276h\274@\014\214;\004`\002=\240^\243\275\346\\\222=\316Q\205\275t\010\'=\300\316m<\250\302\266<\000\210x:\316\202\310=\000\346G\273?[\025>K\002\013>p\232s\274\017\353\037\276\316\330\222\275\354\321d= \227\007=\374\331)=\260+*=\032\213\335\275\010B\262<~-\334=\026\314\020\276X\327e=\022\254\033\276\353; \276\211\371\023>\237\010\233\275\303O\025>u\300\030>]%\027><\333/\275\005_\002>P\007\006\275\363\304\233\275@\307\000<\300^\232<\326\240]\275/\332\353\275%\317\355\275\262X\326=\235\250\020>^\344\305=hE\227<\306X\204=h\251v\275\025\037!>\304U\326\275;\"\014>\300\033\242\273\377w\252\275\014Wt=\372\315\340\275W\237\026>\200Zh=\236\232\263=\020\233\246=\331\221\034\276\320\022\236\274\340\262S\275,:a\275`\327\010\275q\204\000>\237@\006\276 \200Y<\020\347\272\275\243\212\001\276\262z\343=J\177\257=tAB=\322R\357\275F\205\220=\236\\\276\275(\222h\275\300\023\253;\030\341\354\275@\370\001\274\360\245\r\275h\332\217=\030\327N=R\232\337=\026\247\031\276~\253\311\275\316\202\324=\321o\036>\370e\005=\002O\323=\211\335\034\276\375%\203\275\312V\364\275B~\246=\037H >\314u:\275\230/\273\2742\013\257\275M\243\013>bw\200\275\344\336R=F\253\270\275\344\\M=\354D\021\275.#\r\276\004\226w=\220Q5<\\nY=\031\'\253\275K@ \276M\221\003>\004\235\024=\224^C=\334\262\205=\n\260q\275_h\"\276\276\262\024\275\230\221\367\274\030\331\002\275\311\251\"\276N\311\273=\335\305\311\275tT\t\276\256\031\317=\\E\231=\0348\030\275[\321\273\275\355\327\241\2754\325\032=\261\225\020\276\201\227\002>\264\000\260=LU\014=@\333\370;\212(\303=\200\200\336:\234\343v=F=\314=\342x\216=\372\335\374= v~<l\254u\275\030\326\351<^\343\276=29\235=\0322\205=\034?\275\275A\"\332\275\200\317_;+\353\035>\246\314\204\2752\317\"\276\200EE<lbJ=@c\375;\007~\r>\226\311\006\276\372[\200=\001\034\037\276 @\325;pi$\275\n\210\023\276M\274\323\275u\223\267\275\020LK\274\n\342\271=1\306\257\275S\005\r>v\212\362=\340\257\222\273\356\312\324=\270x\021=@\316\344<\304\372X=\305o\010>uQ >N{v\275\230\022\030\276v\013\346=\\\006~=f@\331=\025\271\023\276\006&\022\275Z\265\275\275*\033\214\275\331~\023>\322Z\020\276\000_O\272\216\370\207\275@!F\274Re\305\275?\027\023>o`\005>:\007\307\27549\250=\362\271u\275\3008^=\276\002\324=\226:\305=\262\341\263=\342\314\217=d\205:\275h\230\t=\037\034\253\275J\260\366\275\224\244\024=\002\370\r\276\266.\210=\200\335\020\275\000\003\n\274\337\324\032\276v\351\303\275\230k\332\274\325\261\022>\255\266\r\276\017\001\014>\210D\361<\366\307L\275\2743\367\275T\014\216=[\251\240\275>\302\260\275\240\243\255\273\2666\216=\250\231\324\274\3327o\275\226\253\316=\260\237\377\274|\025`=\375\231\200\2758g\303\274\320@R=@\321>\273\022\222\217\275\030\232\213\274\307-\t>\034L\001\275\377\214\033>\210\367\323<\242\035D\275]\375\032>\210\374\240=\275F\216\2756k\307\275\300\352\374<\350\213\333\274\270\373\222\27472\020\276\333\325\005>\002\014\247=\306\253\371=N\021\311=\025h \276\367\377\364\275\010\2649=\300\326a\274ZO\321=\274\276s=\300\350\231=t\272\016\276\334[\027\275\020\010\231=\"\033\n\276>\001Q\275\224\330\020\276\353\000\032>\264c\026\276@\261E=HX\243\275JS\276\275\332\034U\275\346\236\336\275\316\307\276=qd\005>\350~\243=\024<h\275\200\333\001<q\341\261\275V~\331=\021\000\033>`\206\330<@\225a\273N\343\243=\327\262\314\275\t\341\010\276\020\241\244\275[\307\r>\350\332\265\274<$L=\373\243\016\276\200N\177\274J\203\242\275Py\270\274h@M\275\342s\317=@`7\273\260\336\242\274`\246\331\274z,\354=\347Q\031>V\327\323=\321\263\261\275%\254\277\2757\216\035>r\177\320=\252b\337=\360\032@\274h\023z=\312\036\001\276:\310\256=\232K\336=\240\223\260\275\212\0167\275A\243\007>\260mO\274\241\334\236\27549==\010t\257\275\312\216\275=(MS=\245\363\037> \363I\274\203E\007>R\274\272=>\311\377=8_\007\276\210A\376\275\274\331\235= \371\t<@\323W=\300\247\210\274\226\361\376=\250\271\007\276\022\251\354=\270\305\203=\014z\231=\276@\374=jt\215\275\325\303\244\275\236\021\310\275\364\306\002=w\213\001>i\357\027\276\322E\235\275p\210\222<{o\215\275\304\241\256=xLU=PM\335<<\372Z=2\005Z\275\264\000\373\275:\320\364=<\314\014\275VNB\275(\323\005\275\263\\\016\276\222E\003\276pf\201\274\352\372\331\275\005y\006>xG\254=\314\343\231\275\004\375^\275\003\321\023\276\204\331\014=V\343\347=\020z\304\274\322\235\302=\234\355\222\275\352\215\254\275\326\351\371=\352\r\336=\265\036\232\275\374\177>=\230z\327<\010B\207=f\370\250\275\232\263\213\275N\312\251=\207\323\344\275\241\212\014\276c\225\201\275=\003\024>\333M\235\2754\223\001=\227d\016>\202<\\\275\205\263\004>@\313l<\332x\340=P\231\237=\000R\253\271\022 \206=\212\215`\275\006\312\216=7\020\016>,\326\254=\003\276\007>p\320@=F\'\333=4/\252\275[\370\271\275\000\275\020\275d\270\034=\353\332\027>\327\316\027>s\373\037\276u\333\000>\225(\020>\336\231\276= H\334\275\360\367\342\274\256\345\003\276\350\347\350<\216\244\346=q\353\247\275\252Dd\275\211\006\034\276\307U\304\275x\304\245<\330j\271=$\2051=\263@\031\276z\320\345\275DpU\275\355\314\270\275\266\327\214\275\000X\334\272\224\375\212\275\300\277F=\004\346\027\276\000p\2128\036c\377\275x\010\352\274i;\030>\200\224\021\274h\334\226=\214\n\342\275\250\335\001\275\"\354\303=\200`\n\275`#\010\275pC\240\274\nZ\300= \223y\275\\@v=^1\375=\244\253\026\276\024\010X=\202\203o\275\240\340\343;\274V(=\332\266\204\275\020\211(=4\212\327\275\037\245\324\275\220sO<\240Y\007=\007\316\000>\000@*\274\375=\210\275\\\353~=f\215\354=\300\021\221=r\341\363\275\n\036d\275\n0\227=~\017\312\275n\341\027\276\263\345\001>\264\3772\275\304B\034\275\362a\247=\312t\342=\240!\037\274\341d\004>\236\243\277=\211\306\301\275<\335\003\276\310\322_\275\321\277\022\276\354\'\221\275\202x$\275\206\351\303\275\210\037^\275\30693\275\030\240<=\000\252\014:\322\331\216=\026.\232=\356\246\244=\353\215\004\276\221\347\035>\263\254\013\276<B\324\275\002\260\375=\007\024\261\275&\246z\275\364\377G=\0005\226=\214R\027\275\010\n&=\032\353\317=k\336\230\275\250=\271=21\365=@\275\016\276\"\271\033\275\232\323\244=\360\215\231=\340\266\247<\220;\370\275\261L >\214\346_\275\250o\256<\352\344\310=>\262\362=\330}\271\274\274\203\002=\304u,\275\345\201\001>PSm=\034f\007=0\254n=\022\367\310=\267\331\262\275\266\032\222=h\n\322\275\230\005\245<\3009\'\274\000Z\224\271\374\375\263=xP\274\274\353t\n>\352\031\022\276\306\223P\275\356\244\331=U\263\013>\000\\g=-\372\237\275P\003\267<\225;\331\275\257~\200\2752e\366=\"m!\276\000\332\251:\362Z\366\275*\325\235=\000?\002=\020\262t\275F\303\304=O+\036>p\316\200\275\000>\314<\n\314\355=rK\336=\327\220\027>\000\237\026\276\310\010\263<n\210\233=:`\345=\246\201\204=\320\356\017\276BM\331=\000\270E\273\270\277\371\275\252\336\225=\316\340\334=\000\004[\271\210\014\006\276\260\344,\274\260\316\367\274\360h\004<,QS=b\221\266=\201N\324\275\030\257v=\315\274\335\275\370\236\265=\376\256\342=\306.@\275\265f\004\276\230|\300\274\216\345\327=\364\336\006=iH\302\275,\321\031\276\216g\362\275\350N\271<\372\016\032\276\214\331\244=\036\265\344\275-\005\010>f\264\260=\200;\032=\360\231\250\274\307\230\202\275\"a\331=x.A=\240\270h=mo\231\275`\300\316\273\305\241\022>\304\234[=\220u\211<~\"\"\275B\225\204={\014\001>\357\226\014>\260s|=\254\245\016=\364\305a\275\250\312C\275$<z\275\334\373\223\275 S\263;\021\207\001\276\r9\235\275\r\277\025\276a~\361\275\234\226]=\200\021\207\273\315\246\030>\270\206\302\274\310\330\306\274H\340F\275 5\035\276\370pk=[T\021>tp\032\275\322\331\354=\"\302\312=XW\212\274\340%M=\344c\307\275\226A\220=0\347\301<\300\215R\275\340\227\301<\360\376\334<`\301\243\275\036{\252=\224\013\324\275\317\023\030>\202K\206=\224\007\255=\340\203\014\275\375\177\240\275A*\200\275@\200%;,y\\=aq\035>\\\252}=\240,\251=\314+\001\276\340\210\036\274\376\230\256\275-\363\017>\277\341\024>\376\241\326=EE\255\275\2223\345\275\240\372\371<\200\027\024<|\377\033\276\000,\356\274\302\341\320\2756>\257=~\322\350=\362\220\214\275Vy\245=\362~\235=L\324\207=\336\277\203=wn\002\276\337\341\272\275D\363\242=d\017\251\275\206L\332=u}\222\275\360|]\274\320\223\032\2761-\213\275(G4\275\350\322\003=v\205s\275\351\353\001>z\307\025\275\374\332\003\275 \352D\275\310\226\301\275\270\311\304<\360\365\004<\240\300\243\274\260\205\003\275=\327\000\276\322\235u\275b\304\312=\035S\002>F\266\001\276\270k\263=\232\267\301\275\3356\030>\034\000q=p\277\026\276\364\316\035\275\374\013\354\275\000T\014:\310\203\235\274\262\222\251\275\275\272\036\276F&\202=~\375\315\2757\252\303\275\206kk\275\'_\020>\310\361\243\275\212\333\021\276<\255\003\276\002Y\352=*(S\275\250\017\200<\002\027\245=3l\017>\323\300\205\275X\346\317\275}\241\000>`i\374;E\365\345\275\314Yt\275\200o\214:D\255%=\"\306\"\275H\300\233\274\320WV=\360\227\032<p\342i\275\232s\325=}\232\010>\300D\355;\200A\010<z\314\306=\000R!:$\255\002=\030\244\202\275\350\017\340<\212\016\230=f\271\274=b\327\217\275\261u\342\275\354\252\016\276 \3419\274\340\227\347\274\030\200\223<V\006\005\276\350CX\275\014\360\002\275\367e\025>O3\021\276\2426]\275\023\305\274\275\026J|\275b\033\366\275\350\350A\275\264\003\250\275\2009v;\037\024\241\275`\005\341\273\000\215\345\273\357\205\006>\340\026M=\372\227\r\275@\3701\275\324\323\375\275Z\357\246=\240\321f=\332Sk\275$\275\341\275~\026B\275p\030\216=zL\316=\024\351\005\276p\2572<\360)\013\275\320\357\304<\010\253\320<(\004\214<\212\022\271\275\006\315Q\275m\365\016>\336R\333=yf\016>\200S\247<\266{\320=`Dc\274\212\247\021\276\357\271\212\275-\223\031\276~\024\325=}\241\000\276\217\216\014>\270\325\035=\257e\035\276\271\220\004>\212\226\263\275\306E\320\275V\312\211=\240\367\220<0\033;=\233\377!\276\323\304\t\276\202\177\236=\030\333T=\300\220W=P\233\014=#\351\232\275\000\215\376\273&\202\257=`\237\217=2\242\367=\201<\004\276\002O\322=c\306\010\276\007\024\224\275\200\352\007<\237Y\036>8 \346\274\232\361\262=\354\362\263=\220\343O=\265}\016>\034\350:=\360\2776=\340d\255=\366?\277=\232\177\343=\310\241\252\275\271\001\007>\320M\212<\266q\376=\010H\010\276\301\335\010\276\034\3665\275T\205\n\276|\005!\275\322\267\352=\256\350\351\275\266\006\340=J.\221\27509\022<\3503\236\274`\010 \275S\222\031>\200\223R\273\200W4=F\305\346=$\245\215=Z\206\007\276\000\244\245\272\246\306\341\275\\\245\207=\220SM<Gr\370\2750\215\337\275u\251\271\275\232\215\260=\340\223\331\273/\261\n\276\220#\242\275\230\277\263<(\255\t\276\204~7\275@3\372;]\374\017>8\t\346\274\000\340r<\364\323\026\276\202\243\205\275\307\326\023\276\014(\237=L\347;=\226\"\034\275\020\005\207\274(7\206\2748\267\\\275<\373r=\206\227\302=PrM<\274\"#=\301\276\004>\360\233H<\214\360l=HN5=X\026\260<\3403\212<`!\303\273\374:[=\201\303\024>\264|\n\275\000B\321;\232\276\244=g\243\362\275(_\350\275\337 \253\275\310\234\257\275\324\233\030=\033\031\016>\t\323\007>\267\270\025\276\270+\213=\262D\362=J\033\313=6J\223\275\264\246\035\275\304\246+\275\300\264\310<\320\254{<X\335\204\274\375\034\032\276\332o\275=\242\023\320\275}\265\037>\336\336\233\275\325\355\320\275\010\276\374<\312\272\325\275\267\026\037>\306[\250=\220Mg=\"\264\232=FL\226=\300vw=7Y\035>V\264\337=5\314\023\276\001\347\014>\202B\025\276\000\014\262;zZ\201\275d\315\226\275\245\007\016>\204\2233\275\300\235\243;la\032=\342\204\311=\263\203\"\276n\261\030\276\030\022\002\275\226\276\372=\240j\221\273 \231m=\340\343j\274\3400\256\273>\036\200\275\000\017\267=\000Q\235\273\276\357\201\275\267\037\233\275\361\341\007>\024\244[=\245\365\300\275{\343!>\030P\201\275\'\t!\276^\n\354=\"\307\227=|\334g=\250\004\324\274\'t\353\275\326\336\003\276B\377\347=\000e\"\272\353\231\016>\006\177\237=\270\320\334<\336\222A\275,[\345\275\3529\306\275\355T\234\275*/u\275\306\000\376\275\004\246]=\200\017\220<\'\256\275\275\220\022\365\2759b\000\276\202\376\305=H*\342<\\\263\213=[\261\014\276\312\005\001\276T\230\032\276F\276\362\275\240\247m<\251\200\310\275\202O!\276\316h\276=\340\236\037\2760v3\274(\232\370\275\'y\027\2768\324\007\275F\034\202=\242:k\275P\246\254<\020\225\027<w;\370\275B\247 \276\310a==\221\201\200\275i4\013>\2218\324\275\226\235\355=\310\304\325<\200\234\252<2\023\347\275\2401\330;\220v\007\276`r7\274\300\2233=(\352\254=\316\232!\275\020c\021<@\251\251\275\000\200\235:`\001\205<\350\320\n\276\006G\226=pd\002\276`6\201\273\300\315\215\274\340\260\253<\177\257\023\276\254\360\010\275@s\206\275\312$\214=\304\2625\275\360<\375<F!\004\276\247\261\t\276\351\020\r\276\337R\017>\273\033\014>\020\'\016=\031m\223\275\222G\225=\316\t\001\276o\270!\276_\324\302\275\304DG=\200H\n;R\235_\275\222\337\022\276\336.\023\276\272#\316=\240\2357=\240\301\260\274h\202\362\275@\321\242<\210\321\314\275\274 \032=P\355\n\275\364\254\013\275r]\017\275\327\204\006>\361\331\312\275B\233\310=\210\026\226\275mX\027>\200y\213<T,\022\276\t\367\r\276\342\273\276=\200\227\363\275}\364\034>\377Q\035>\"\323\233=\227\354\006>N\351\274=\020\325\010=\006\236\020\276\2743\326\275fl5\2756]\343=\35481\275\207\274\003\276\266p\304= \203\033\274.\336J\275\306\323\343\275h\217\373<\211\267\005\276%\207\030>\363Y\t>\357\344\014>\217\305!>Fa\321=\324\211j=\340\364_=\200\317\330\273\n\233\330\275;j\217\275\356Gt\275\275$\037>1\010\025>\273\355\226\275\0308\340<\256\346h\275\340\361w<\3210\344\275\370?\223=\277\240\037>\200\341\267=\240\t\222<\376P\277=\275\264\227\275\341\010\262\2750\025\223\275h\372\206\274\224\351T\275#\271\023>0\313\357<\352f\204=\026\261\310\275d\322\221\275\202k\354=\212B\275=\334\247\026\27659\">0^s\274\246Y(\275\321\024\004\276)d\232\275`\346\243;`<\021=\326\003\310==?\272\275\036\024<\275\320s\010=\267{\215\275\237\356\272\275b\357\033\276\236\254a\275\271\253\035\276 \342\350\273\264@\r=\260\266\253<\230\315\371<\024\010\221=8\004\026=\322I\305= \250\267=\364m&=\204),=q\202\035>KC\315\275\376\325\303\275y1\037>8\365\263<`\215\001<\230\261\333\274\214\343\037=\000\273\262\273\352\301\372\275\266\254\251=\266\357\231=n\027\342=!m\025>\244\034\263\275\352\245\201\275\000~\34390\014!\274\000D\3509\220]\213\274\240\306\213;\361\205\000>\262%\301\275Qz\007>\320\372`=j\020\330=\371\352\004>\002<\234=\3527\254=\306\355\345=8G\370<\032\340\350\275/=\244\275\367\t >\376\236\236=@\000_\274\316\213\307=\313\314\372\275o*\202\275\370\340\260=\370\366\307\275R\203\264=\324\370\257=\236F\262=\000\352~;\032\027\371=@\205\230\274\377h\006\276:\311\035\276HI\014=^\305\364=(\030\360\275\364h/=\316+h\275\0006\2069\000\210S\273\030>k\2751\220\304\275\000{/;\340\300\247=\320\247E<\363\263\037>\325+\023>\3454\027>\200\032\224\274d\262e=\300-E;\0002\245\274\037N\302\275\232\325\325=U\027\">Q\010\211\275p\261\245\274#\207!\276D\\\207=\334(\014=\210\240\030\276\330\303\234=\257\n\361\275~\372\231\275\236\033\235\275\370\300\262=\240r\244\275Xbl\275O`\256\275M\370\r>?\236\035\276K\223\304\275\232\272\242\275\276S\334=\254\n\247=(\270\336\274T3h=\010\321@\275f\022\234\275Z\361\032\276\306E\275=\272\323}\275\220\220S\274\216@\276\275\214]\200\275G\311\232\275\035\321\035>\373\337\323\275\260\364\316\274\2567\001\276]\235\000>\225<\005>\264\317\271\275\271\333\233\275\246\233\337\275N\217\010\276\000\222!\273\353\315\307\275\004.\006\275&<\223=\366\233\327=H\373w\275\205h\010\276\341O\025>\244\303\317\275\300r\350;D1\232\275\344\372\000\275 \226\215\275\361\002\376\275\314\352\031=#\003\010>\340\203\003\276c\302\013>v-\362\275\216\321`\275!\202\021>^z\375\275Gx\007>n\342 \276`e7=N\337\373=\327`\004\276*!\204=\234\273\226=}S\304\275I\251\321\275\211\037\002\276\370\007\001\275\200\333\305\275\261\257!>\363\327\020>\262\233I\275\310\031\023\276L\236N=\206\307\030\276@e\305\274\020,\270\274\240Q\350\274\363\354\360\275\206^\343=2.\016\276\'d\006\276S\353\017>nN\316=\332\257\313=R_\034\276\354\224\243=HF\305\274f/\304=\326q\237=\277W\306\275r\t\333=$f\237=\217{\002>B\230\030\276\3108\253\275T))=\236a\013\276d=\356\275S\256\343\275\010\325\247<\264\355\005\276\355\365\232\275\276\351\177\275;5\260\275\2468\377=\322\216\352=\220*\365\274\203\362\013>\212\375\350=\322\356\364=\271?\017>\260\355\374\274\026\023\333\2750\347\223<\327\372\024>\377l\252\275\273\200\005>\260\025z\274\360\252/=\260W\261\275\227\372\266\2753\356\000\276\210\001\224\274\312\363\200=\010&\340<\3303\"\276\366\233\237=\206\306f\2752\006\237=:\303\313=xA\n\276\352*\366=\220\324W=\177Z\201\2755-\025\276\221\016\021>2n\245=^\376\017\276\200\312b=\354N!\276\340BX=\2066\334\275\302\324 \275~\241\333=\020\327;=\005\277\016\276\000m\233\274\304j\361\275\020[I\275\230y \276p1\351<\001\331\n>\236\350_\275\350\252\252<\222GQ\275\302\364\352=%r\275\275\" <\275\003\323\035\276;\347\006\276\001\361\225\275\000:\225\272\364\276\271=p\366\037\27691\000>\235\246\014\276\000p,\273\242\235\274\275\273W\232\275\220\264`\275\264\333l\275H+\214\274\214a]=\200\\ <&\022\004\276\322\207\023\276\240\3440=`\301\247\275D\005\216=\200+2;\254<`\275\340\336\247\274\200\312W=o\342\021>\240\340\364;B\343\353=\333\025\016>&F\305=`\310\002\274\300\231-;\222X\375=\032\"\204\275\252\376{\275`\253\271\273\340z\271\275y\027\034>\3601\023\276\200\214u\273WR\263\275\302\375\350=\013W\202\275v\n\376\275H\356\214=\270\232?=\320\221O<Y\242\016\276 4\014=\000\200\020\276\257\006\026>&\257\373=\t\243\030>`h\026\276*\337\260=\260\213*<\250\334\316<6\016\354=0g`=%\030\025\276\025\224\377\275j\223\301=\374T\216=\216\270\240=1\265\003>\373H\262\275\307>\014>\020\222\233\274\300\246\236\2732[\273=\010\033\003\276\230\300\261<\200\224\352:\210\355\241\274JG\027\276\000\024\322\273\204\024\035\276p\230\271\274\\\240\241=\330\207\334<\320\375\002=\362\237\247=\256v\357\275\360\235\252<j\210\324=`\314\325;%Z\026\276\036\261\307\275\227\340\003>\251\312\325\275\254\305\037=H4\233<\364%\250=\010`l=@\3547;\210\267\216=\302\334\033\276\203S\025>\020q\204\274R_\005\276\031\236\006>\016\025\206\275\250\327|\275s#\014>\036\366\325= \213\246\273\270\010:=\262\326\243=\351\310\007>\260\236`=\036\243\260\275\264.\211=.\335\220=\027F\010>\246\303\375=\344lR=\\K\030\276\340N\245< T\233\273\300/X<h`\332\275F\316\310=\210\244\233=5\371\007>\230bN=\312M\005\276J\235\355=t/-=\236\367\242=\022\373\376=Z\260\376=\252\342\241=<\341J=4s\223=a\366\021\276\027^\335\275\017\344\006\276$h-=\330n\272<b\'\230=\275\334\235\275G=\026>d\354}=\367j\273\275X\266\233\274\274\030\321\275Np\366=&\003\363\275\325!!>\305;\361\275\227\361!>,Mk\275\350\213\315\275\212\364\244\275\316\222m\275\317@\006\276\030\364\243<\021i\n\276\340\006=<!t\023>\250\207\224<_\t\001>^0v\275r/\344=-\255\205\275\003\304\252\275\210T\216\274s\212\003>\214o\027\275@=\221<\332Y\350=\200\'H=\320\205\350\274w\026\202\2758a\265=\350\024 \276\367\241\202\275\253/\364\275 \377\256=(\227\302\274x\005y=\215\324\310\275\020\037\304\275\320\\\266<\270\314\331<\220 \t\275\203}\035\276o\326\206\275\1771\245\275%\346\034\276\307\221\n>\204\014\221=\376\025\364\275XA\027\2766s\214=\310g\206<\027\317\334\275\260\241\000<\266\203{\275\315\256\255\275\036?\252=\220\264\241\275P\325y\275\200\017\235;\033\216\257\275aq\t>t\367\014\276\300p1<\230\222\003\276\021\334\030>\364\203\033=\236&\354=\370]\232<\322\342\320=\320\247\226\274\260\005\"\275\256\363\320\275\014\327\017\275+\240\240\275s\263\210\275\274\374\250\275\3108Y=\010\336\270\275F3\027\276}\033\036>\253\025\346\275v\235\226=\347n\007\276:\300\261=\270\260\242=\220\266\035<i\247\016>(\220\262\274\034\365\236=\300\030\305\275\254s\366\275\377V\033\276\336\007\031\276\300\273\236;\022 *\275\244\213\030\276\314O\\\275i\274\324\275F\353\362=\004G\237\275 \005k=\003\306\017>h\213\255\274\326~$\275\340\270\337<\213\336\013\276\274\322^=\257,\007\276\033e\266\275i\010\002>\220\'\341<\247\256\030>l\226\'=\364\022\031\276\220N\373\274\362u\236=\262\236\337=Z\304\373=`y{=\271\316\027>T\2262=i\333\013\276\360\344\020=\305\216\016>\023\343\010\276\222\360\r\276\271\363\007\276\n\016\253=\033_\024>@t;=\236\334l\275\200)f;\302P\344\275|;\362\275k\242\">l\273\025\2750\024^=\034\t1\2758\013\317<\360\3148<\322\231\272=\345\345\314\275\262Np\275\020\230\245\274\361\327\030\276\2766\357=B\204L\275Pn\256\275\354L^=\010\260\"\2764\212\364\275 \264\315\2758e\250\275\340\"\324<@\364x<*\2477\275\330XF=^`\345=\364\371G=\256\271\310=\000\370\033:,\357r=\374}\\=d\230z=p\277\217\275-\001\r>\220\342H<\024\224\005\275c\027\226\275p\211\344\274U\207\225\275\020\035\005\274b\361\342\275\346/\213\275~\021\001\276\244@*=?\373\346\275\264\206\325\275\260k\004= \372\343\273>\346\366=M~\r>w\321 >\247\263\247\275\262\234\003\276\240*i=\376\316\340=\000x\261\272\312f\361\275\217y\230\275ke\t>\340\206\023\276W7\223\275\300\223F\275\266lz\275\356k\243\275\372 \205=`\027,=\301l\001>\324\270\020=\300Zx=0f\022=\'\234\250\275F{\203=F\232\325=\000V\216\272_f\240\275\245\003\014\276\250\022\342\274\262>\250\275:\213\244\275v\377\017\275\200\251.\274xh\321<\'\320\017\276\247f\336\275Z\242\333=\304@M=\215\014\037\276\026\254\361=~\212\017\276\262\345\302=+\376\024>\344>`=\274]|=4rD=[\t\303\275\272\024\033\276\224\\\325\2754\311o\275RM\352\275/\366\027>H\250\342<P\202\321\274\271x\016\276H{\305<\317w\014>h\321\360<\252\017\306=>\372\330=!x\030>\230\226\302\275\246_\213=\252*!\276\030c\\\275\232\323\310=@\356{\2736\332\352=\242\373\273=\020\376\032\275\\\344O=\215;\032>\204\333\006\276\350\211\224=\200\265\324\274\357\371\000>\315\213\032\276\236_\231=\373n\026>\240&R<\310\355\356<\031s\001>\266w\337\275^a\200\275\021c\037>\220\312\237\275\\\253n\275h\253\225\274\033\372\355\275\0000\236\27408x<\232@\236\275:V\021\275D\351\033\275r\003\217=\274\267c=\2760Q\275\346\036\270=`\3775\275\336\347\305=0QM\274\274.S=\320\301*<\360[S<\220!V\274\312\246\376=\275\230\013>n\334\006\276R\005\032\276\346;\006\276x!\014\275Pi\310\275\271\230\r\276XN\032\276\257\225!>\260\231f\274\326\023\217=%\307\251\275\016@\003\276\274&\311\275\016\264\353\275\321\325\">\220T]\274\276\250\375=~t\203=\203`\004>sw\027>l\243\274\275\222\245l\275\354\2428=\252\"\365=\300%\205\273\202\377\241=19\036\276\204\227A\275\223\362\027\276\224O\215=h\346\243<\210\227\260\274\006\227\215=\300c\001=\257[\023>8\371\316<\250,\331\274\222\374\273\275F\361\376=@l\017\276\nn\216=\275\332\205\275\027\001!>\024>\211=\340\246\302\273n\035\345=\022\320S\275Nt\331=xJ\204\274\200A\337;\236\260\205\275\326\263\303=\030\376j\275T\234\000\276\352\004i\275]e\266\275\000\003e=`@^<\362\014]\275\000\302I;\002\035\231=r\326\351=\3103\240<\274\206\262=X\345;=sk\315\275\3622\237=\251h\221\275\000\260\200\273\000\364\203\273\370z\037=x\026\224=<\001\"\276\314\207\247=\260\216\252=\352\035\275=\265\213\020\276\370\360\211\274\030#\251<\r/\210\275*\314\363=\214\026%\275\300\006K\273\214\372\225=\250\221O=\375a\251\275\312\342\261=\262d\343=\024pF=\332\320x\275\224-\210\275t[\271=\3068\365=\266/\363=\200B\240:\014\302\245=\336\232\210\275o\305\022>\205\020\036\276V0\323=\022y\323=j\377\030\276\000\327\263:\2507\226<i#\031\276F\317\303=\220\317\261\274\302F\340=Z\007\247=2-\227=.\366\226=\230|9=\300\207\335;\327>\270\275FN\034\276\372 \207\275b\262\222=^\265\030\276P\2518<_\367\323\275\240x\004\275w\024\">\002\006\312=\275\204\001\276\220z<<\330\177L=\344g\037\276\036\000\226\275\320\264\037\276\000\005}\273\332\304\372=\344\361\211=\276\323\336=\000\371p\272lt\200=\2308\254\2748\250\342\274\354\327.=\252\202!\276\310\315\005\276\230\032\205\275&o\311\275\'\025\237\2758\372\005\275w\311\024>\214\220\016\2750\276\237\274\300Q\356\273\360b\027\275FO\331=\200\307r<0g\222\274\220\303`=@/\376<\200l6\273FTi\275\220\303\332<R.\331=p\314\261=\n\355\311=y\343\240\275\t\341\002\276\233l\">\364Z}=$\007i=D\271x\275<\002\013\275\254]\362\275fp\351=o\355\226\275^\224\214\275\036\244\276=\004\321\361\275\014\362\341\275\332\003\321\275B\004\265= w\003\276\242C\264\275o\024\003>\352\250\232=\350\n\037=/\351\">N\215\272=X\360\303\275\300MU;\300\315;=\304\303(=\320\327\005=\366\033\363=\340\340^<\345\245\271\2752\322\300=\320^D<\356\374\355\275\223\331\346\275dG\003\276m\352\004>\336(\317=\370v\332\274\220\215\005<\000\2642\272\032\200\201=\360\023\230<\234lp=\324;\201=\013\371\036>`\207\277\274\310Z\366\274h\202\213<\000\000\323\271P\342\014\276R\245\263=\320\260\017<\346E6\275xz\224<`:\006\276\352[\215=,\311\302\275~\277\234\275\235A\004\276\256\200~\275\000\352\253\272\2200O=1\'\006>\336\375\r\276\215\217\272\275)l\n>f\212\327=\324_\223=-\351\005>O\267\266\275h\355\006\2760\212D=\365\325\006>\236r\274=\230\007\265<i\254\006\276fW\355=\316\257\025\276:R\371=\260\2776<\360\005M\274\203\220\020>\340\225y=\350h\255<\300Q\313;@|\337\274\256G\322\275\214\273\031=`b\345\274\264RA\275 Q\271=\226g\n\276\3263s\275\0202/=\277V\032>\210\321\305\274T\367\241=\274\017(=\363.!>\273\313\001>\200\213\325;\350\327\036\276\'\367\272\275\240\217\252\2750\332\\<\000\336\206\274\314\030\230=\201\222\357\275\354\375 =(\265\327<\252W\016\275\013W\030>\020/\314<\240\202j=\024\264\014\276a\030\t>\202]\264==}\263\275\376^\307=s2\013>P]^=\306a\025\276\326\035\311=8\334\262<~D\r\276\374\024?\275@\355\306\273\330\204Z=\200Y\233<\316\243\303=\351\257\016>\310\3052\275\031\377!\276\262\203\305=n\202\265=L\225\360\275B\327 \275\362^\253=\302\272-\275\310\214X=P1\364\274\0306\222\275\200}\010\274{\364\256\275p\262\347<`\t\335\2746\026\261=\014\024\026=-z\027\276\330\236\214=\340T8\275\230\323\023\276\235\037\034>\000\272\376<O\265\273\275|\211p\275,<\346\275\373\242\262\275\276\037\347\275N\274\023\276K5\007>\3626\036\276\346P\031\2755p\r\276\236\201$\275\020\221\206\2750s\201\274l\351\000=\324\016\241\275\274\255\340\275\206z\260=rW\237\275\242\222>\275\0219\221\275\207Y\027\276\030 \361<P\304\255<@R\320<p\010\212<\030H;=@\271A=\220\264\237=\360\222\007\275hc\036\275w\334\027> \226\243\274`e\331;;\035\n>M\022\">\356;$\275\'\272\003\276p\ra\274\311\253\026>@\215\\=\222\310\233\275F\275\361=0}R\274\256Z\332\275\031\214\265\275$&z\275>\330l\275\000\300J;\344\301N=\020\226m\275\014\215\216=\340\257\220<\272\307\203\275ue\r>\240\013\243=\224m\006\276n\207\031\275\302\223(\275\001\306\030\276\035`\007>:\272\024\2761d \276\300\027-<Z|\334\275\364\n\206=\016\346\265=\250\031\207\274E\323\010>\256Q\014\276\360{@=\230\243\323\274\000d\031;Gt\032>wA\035>00]\275\n\207\321=(B\257\274\304\332\215=\340\013\221\273dx\236=-\\\200\275\032>\326=\316j\366=x\014m\275\322\'\322\275\340\356\243;@\361+<6\227\222=>\344\274=\220;\306<t\001\014=\317\224\022>\363\317\000\276\246\357\313\275\022Y\254\275\361\'\003>xh6=\354\227\033=\202Y\344\2758\032\217\275\212m\256=| \005=Hs\224<\247\003\020>,M\353\275(Z\377\274\t\303\365\275J\243\005\276 d \274\200\226i=\222\357\350=\313#\010\2766\206\305=(/R=\206\341\213\275\213T\016\276\231\223\033\276\030_\263<\335\344\000>\200\365\340\272j\315\375=\340\354\210<\214\033b=\254\037\031\276\211\264\033>\224l\001=|QV\275\246\201\350\275\274\r\177\275\226i\230=d\2375=\330\346p=\340Z\250\273\227\035\007>\300\017E<\217\340\354\275\020%&<\"\301\247=}h\t\276N\373\355=DdK\275\010#\026\276m\231\271\275\330\213\232<\352\005\365=\301G\010\276\326.\357=P\003\220\274\200O|\273T&\203=\320\333\261\275\333\203\002\27625\245=[\026\031>@\261W\274\036\0075\275\264\002\341\2758\241\203\275\366\016\353=oc\032\276o\324\351\275H\313\351\274\300\223F\275\343\265\203\275\310\216\200\274\242\003\270=B\007\214=\356x\205=\220\355\301\274\276\331\323=\\#==\350u\213=\316R\303=\350\222\007=\\u/=\010\026\250<H\036*=G\341\222\275\341-\247\275L_G=H\020\n\276\304\344\240\275\352\237\025\276\240\306\315\274\362T\323=\205\236\021>\264\001\251=\232!\367=h\311\004=\200\370\235=\014i\002\275pKy\274d\272\241\275\301\377\n\276\232\330\337=`\323\231<\000}\224=\244\036\272=\300\375\342;X\243\024=\223\365\026>0R\356<\232\227\377\275\\I\037\275\222Z\253=\240\321o<00\363<\256\350\360=\304,h=\303\025\273\275\256x\245\275e\217\t>H\242\223=P\004\300\275+\252\024>\"\031\362\275$Gm=>\227A\275\232<\316\275\225G\322\275J\\\340\275>\010\037\275d\010D=\310\226\235<\210a\220=6\310\315\275\302\322\010\276\377\201\211\275\000}\023<>\031i\2755\360\200\275\036\324\373=\314\233\025\276\200\232\034\274($\222=\334XP=\3369\266=Z\304\223= \002/<\345\020\375\275\370{\377\274\232\267C\275|\216g\275\370Q\215<\t\017\020>\324Wk\275\372P\375\275\177P\020>\000\360\311;\366]E\275\310I\216\275p\220\352\274\304\353\273\275\026\016\\\275\232\301\375=\300s#<\204\272\027\276\264\312@\275\203\267\224\275\361\206\025>\206g\361\275\320\246O=\370\273\270<\376\365\260=\022\210\004\276l6c=@$\366\273\036\342\357=\223\365\030>:\244\240=\350V4\275\324\215?=\276\010\204=^U*\275v\272\340=\240k?\2752\346\230\275\227\201\360\275\000\3726\272\265\243\320\275`0\211;\330\251\220=YT\201\275\244#g=\254\340\242=\202\022\233\2750\306\272\274\030D\340\274\000f\344\273\214\034\256\275 \340\024\274c\021\014>\020Q\336<\356\267\224=\214\214\202=\270\222\274<\240\241r<R\252\036\276\270\350J\275\300(\004\273\357#\035>\310\322v=\260\r\221=\204\267\025=\210l\234=\362\243\301=x\370\000=\220EC=\207,\016\2760\353j<\200\305\353<\010\377\277\274\237~\020>Z\213\033\275\307k\226\275F\003\'\275\010\271\375<1\274\010>\262e\335=\320\037\025=2\222\245=\204\\!=\342\336\221\275\252\305\223=P9,<\031\252\013>\000Yx\275\336\201\202\275\376\372\311=\n\361(\275i\030\016\276\371\212\264\275\030\003\327\274D\313E=\360\324,<\370T\205\275\267!\007>\270>@=\320\232\034<\376\273\006\276$[>=\324 .=\010\2659\275cc\035\276{\374\n>h/\307<\334x\266=s\353\025>\320\271\207<T)\240=@\364\256;\370\021\267\274\236\273\377=}O\356\275\200 \363\272\332\273\000\276\375\201\022>>\033\360=\273Y\266\275\362\227\337\275\006<\255=p\333)\274\312;\320\275P\276\214\275J&\"\276\000D[<\371 \304\2750nX=\246\266\363=\'$\017\276\223\346\002\276\n\'\343\275\312+\327=\216\242\346=p\005 =\317*\025\276@m\341<F\r\r\275\362D\317=\230+\347\274\260\3335=2\003\243\275\3604\007<V\277\242\275\367\260\003>\262\020\262\275@\204\341<\\\361$=\305\023\004\276\267\240\020>&\276\260\275Z\235 \276:\215\325=\212\031\302=6\364\306=+\270\335\275H\360}=O\274\265\275\346\226\337=\344\327\341\275@r-\2732Le\275\275\024\002>\335\247\236\275D\244N=\250\324\357<:a\243=\206\257\321=H[\325\275\3770\026\276J\314\274=\177[\003>\335\352\014>\274\251\032=\000\227\277\273\000\213\272\272\252V\254=:l\235\275~j\345=\366\373\367\275\314\205b\275\37061\275\\\273\217=\374\310V\275\266\313\231\275V\013\031\276\306\010?\275\244\302d\275$6D=\256\000\370=^\354w\275\000\227\n\274\000\246]<c\377!>\2538\013>\360\227\242=\252F\310=\005\240\003>\340Q\007\274\r\224\022>7.\031>\2440\323\275\360\243n<P\203\345< \346\370\273\353\345\273\275\353v\r>\010q\336\2748\231_=\364Ws=\027\276\007\276\300P \276\344J\031=\271\'\022>\264\351\250=\343O\r> 1~= \037\253=\216\224\365=0\320\231=q\373\221\275\032\264?\275\000~\360:\320v\332\274\200\3104\273\242\365\365=\300m7<d#[=k;\270\275D\320\264=\367?\003\276\376\np\275?\243\026\276(\265\031\276+\232!>^\223\264\275\220\2440<TdY=\272\262\313=4\035\223=\"pT\275\334.\026\275\2006\327\272f\351\357=\260\375\213\275\340vf\274 ?p\2748t\030\276<n\311\2758\034\267<\346\310\232\275_R\323\275\354y\205=\3341\224=\020\325x\274|\224\202=\236\340\335=\250k\372\275^\371\306\275D\216\234\275h?\366<\014`q=\357\257\013>\330u(=\310R\227\274t\005\211\275\276=\026\276\007*\324\275\370P\230\275\306\370\317=\377\017\021\276_=\">X\\\267\275@\357\243\274\341r\030>\"\375\346=+3\206\275\003\037\r>@{a<\205\252\010>@c\247<X;\026=Wx\036\276\356\033T\275\344:3=\260\260n\274\230\005 \275\200f\342\274\210\235\244\274\000\364!\273\3417\027>\340D\237\274>[\262=\230cn=\240\346$<%\210\252\275\250\264\347\274\240\022\370\274q\205\017\276\273a\007>iO\013>\354\267\264=\200f\274\274\346W\200\275\363\337\021>\300\232\276\2730\001\355\274\356#\037\276X\2479=b7\235\275f\030\007\276\344\227e=\262\322\247=\240\256\250\274p\310$<\010\3121\275V\275\374=\256\022Z\275@\020\246=\000\0302:\340\327\316\275\010\304\231=T\362\201=\300\220\311\273\260\203U\274|1\\=^7\017\276\200\314\020\274\202\361\356=\033\351\032>\330\035\000\275q\030\030\276\372.L\275\210T\323<\314\274\262=\214B\353\275\032r\273=A\343\213\275!v\231\275\313\030\000>\000\225m\274\344!\372\275l\204*=\236\250\000\276\246\\\350=@\017\033;z \360=\352\370\217\275@\"\026=\220\372%\274\210\331 \275\346*\310\275o% \276\300r-<\354H\264\275\300\350B\273\2500\\\275!I\017\276\366^\310=\2205\361\275\350\'\266\274\336\014\335=\356\252\275\275\256\231x\275\200\205\016\276o\302\t>\256Y\001\276\364\367\000\276\001Y\037>H\033\300<\342\311M\275\212$y\275\247F\023\276\371\277\330\275\350~\001=\014\320*\275\233\223 >\334c\370\275p\333\312<\310B\216\275p\216\204\275\000\263h:H\377\021=\312\230\337=\263\365\001>\375\021\256\275l\321\002\276\352A\376=\014C\234\2756\266\033\276N\335\226=\202C\311=B%\256=\030\360\365< \302\266\275\264\303W\275H\356\'\275\337\217\014>\000\021\301:,\230\232=\220\2710\274\270\226\364\274,\277\211=\343\263\013>\200@\201\273@\270\370\275\210\025\345\274_\365\010\276`\373\270\273\200\347G\274p&\321\274T)\320\275!\022\004\276W\333\363\275\314\241\351\275\363\032\257\275((\036\276P\021\315\275PI\343<\240-\261\275\206g\306=\227\017\310\275\211\266\013\276V\217\243=\364-\007\275\330k\250=\310\265@=\244\346{=\242H\303=\364\325\371\275\372\270\334=\264\n\000\275\362\215\021\276\206h\275=\362\210\276=\254t\234=m\324\007\276\345d\024\276\230D>=%o\037>|\205\200=\342\317\372=\202\023\322=\200,\305\272\220\326\203=\260?\007\275\213/\030\276\006\213_\275\200d\333<b\301\021\275W\300\245\275\366\254\322=M\320\275\275\0301\313\275\335\262\r>\356\221\371\275 \244C<\201\246\362\2750M+\275\000\231\271\274w9\020\276\244\3452=\362\306\020\275\203\311\261\275\216\024G\275\020\001E<\301\207\013>o\272\300\275\020\240\026\275\340\256\325\273t\026\263=\013\264\003>\031[\023>\357n\003>)G\031>{\270\026>\221%\222\275\322A\316=*e\275=\273Z\370\275h[\201=\325I\013>y\020\246\275\246Oh\275\372%\370=\0006\007\276|>S\275L\240_=\210\307\033=|\323\240=\036\360\314\275\300\250\336;@\263\235\275\301\037\241\275\000b\000\272\027-\007\276\000x\2658p\177\032<\2462p\275\000,\3309\000\267\274\273\232\374\'\275\370\010\306\275\375\262\262\275\203o\">=\207\007\276\217d\263\275h\\\342<&\003\215=\335\201\025\276\220\255c\274T\3553=D\267#=I\250\330\275\037[\021>\354\251\315\275\027^\013\276\345L\007>\3436\r\276 b\"<\351\035\261\275\350\356L=$\230v=\320\233\013\276\226\227\315\275\366[\247\275\036F\356=\376\324\010\276\333\274\023>\312&\350=\332\241\374=\2424\342=\244\333?=\370\311x\275~\217\323=\246\356\036\276 \007I\275h\374\331\275\371&\004\276\261+\300\275\006\212D\275+\366\002>\260w\200\2745\340\263\275\3542\027\275y7\035\276pq\n\274F\307\217\275@M\020\274\032c\325\275\276\364\317\275\373\240\002\276\000\"D\274\255\245\037>\r-\035\276\206!\341=\257\305\311\275\022\360\333=\232\026{\275`\205`=\214\352\226=*)\314=\000^!\272p\353\356\275\310\315\024=\317]\274\2757\n\014>\234\'\200=\360\342\256=\262\007\320\275\342(\030\276\374J=\275h\326T=5\035\005>\3527\021\276IQ\255\275\320\2175<\356\242\353\275\272\375\367=\2443\\\275\310v\346\274\302\365\321=\\|\366\2758\317\307\274v\265\243\275\264\204\254=\210r\033\276Z\336\007\276\376\273\273\275\262\224\r\276\361\361\037>\250\004~=\204\223e\275\214\177+\275.U\360=\206\257\246\275dH\274\275%\357\030\276\\\326\214=K9\037\276\002=O\275\300\323\242\273\230\021\321\275\354\373I=\232Z\256\275\226\033\274=+S\010>\000\345\224\273|G\246=\300\237R\273\357\377\005\276\300gj\274g\217 >\274\340\375\275\014\365\226=\006\260\371\275\230\365\327<Z\335\377\275\310\374\n\276\270}\005\276p\r>\274\274\017\275\275\214\025?=\000\010\347\270h\221Y\275\336\035\204=\017\341\t>\314\213\021\276\310\311\t\275\320$\210<\250\214\316\275@\260a<\205\232\017>\222?9\275\224\215t=l{\350\275L\037r\275\322S\317\275\013\202\030>\001\032\000>\022\031\342=4\"_\275\350 *\275\353T\r>\354\nC\275\206$\317=\331\344\014\276\376\215\374=W\303\">\304\353\036=0\222\005\274Z\216u\275\330\271.=\366\274\017\276\240\215\336\273\276\377\310=\024\341\033=P\253\361<\210\245\010\275\240o\321\274\3201\034\274:\267p\275\232b\315=W\240\023>>J\341\275h\033\320\275\216\016\022\276`\016]\275\300\317\226\274`B\351<h\311\206=b\300i\275\034Q\207=F}\007\276!\035\033\2768z\203\275H\303#\275k\350\031>{#\261\275`\014\266\274.9\306\275\033)\016>\364x\346\275\324/:=h\356\257\275\352\355\r\276\217\003\261\275`\243\302\273\272\027\201=\3004\213\274E\215\343\275\355\374\025>\354:*=j\365\337= \373=\274\310\020\007\275\233\243\312\275x\307\357\275\310\225/=W\314\000>\372\357\320=\334\004\024\276\310R\226\274\372\361A\275\006\216\273=\262\246\350=\356\205\316\275\210\360%=\227t\026>\300\ra<\300\350$<\3566n\275\351\000!>\021\315\025>X\327\334\275\253\301 >\016:\034\276\240e\212\273\360\265\204=D2\016\276nM\273\275\r\005 >\210\026\351<d\221\330\275\022Nq\275\202-\374=\323\303\224\275\r\246\341\275\016(\030\276\230\340\252\275M\200\310\275(\313\246\274Fo\372=\276\244\236\275|\037Y=\354_e=\351\035\261\275|\355\024=\305M\273\275\220\376g\274Z\370\314\275\002\347\306=\236\201|\275\375t\030>\235\206\017>\310&\226\275O\316\025>\000\364\351\272\037% >\'\"\005>\004\312V\275`\n\363<\230I\213\274\273\371\n>\235\372\t\276\304;\203=\016\237\236\275\010K\376<L\035/\275\322N\361=\252\377\210\275\022\031\006\276m\331\023>X\373\234<\246\376y\275\220g\240\275\237a\024>H\342\362<h\213\362<4\302\022\276\346\030\222\275I\367\013>\340I\344\274\200\355\250\273\000K\002\276\376\214\026\276\300\330\215\274F\303\312=\302\213\361=\257#\033>\000xS:\212\226\232=V\217\353=\000\353\327;\000H\3438\260Wh\274\222;\267=\0107\263=j\034\316=ku\036><E\001=\000\372-<e\370\035>T\324\251=(\340\240\274$S&\275\240~\335<\200\215Q;5\247\n>\250\226\336\274\332\303\373\275\020~{\274wN\267\275\250VJ=\344\350z=Kr\235\275\362\263,\275\224J\270=p\030\244<^\"\002\276\300\000n;\330DK\275\000\302\323<\252\266\330=\177\272\255\275\244\246s=\352\216\327\275\316\n\357=\217\262\023\276\\\037x=K\236\257\275\206\330\264=\022\246\255=\n\356\320=*\225\025\276|E-=\246\357\r\275\373\307\020>U\335\313\275l\027!\275\226\014\357=\304_?\275\264\013&=@\212D;\341\t\300\275\213\231\010>6\355\331=\244\233C=\207\022\036>\030\353E\2754\3764=\216\307\340=[\270\037>\337\350\035>`\215\177<\363\331\007>>`\365=\360M\026\274\375\346\374\275x\265s\275\370\273\001\275\002\023\272=7\313\034>\370\357\305\275/\224\031\276\200]\334:\377c\214\275b\266 \276\376\221\364=\312b\362=\n\355\213=\nG\022\276t\344Q\275\307\230\350\275\000\016\263\275\260y\262=\200\372\340:\027\013\270\275\352\230\252=\360\217\235<x\331\r\276\014Y\234=\240\357\302<e*\204\275\"\302\024\275(\247\017=@\242\337\275\270\330\205<]\337\317\275\226;\257\275\257Z\377\275\372\337y\275h\010\253=\350e\366<i;\001>\320\0217<\222\207\250=\250=\330\274|\006\232=\032\272\265\275\360aq<W\260\025>|*\205=\377\202\373\275\224q&=\005u\007\276\300\017\310\274\322-\216=\016N\262=P\006B<\250\317\301<eR\"\276fG@\275N\027\247=\n\212\350\275(\250\364\275\3536\004>H\200\237<\002o\254\275#>\246\275d&o=0\306?\274\022\r^\275`t\031=\320\000\034\275|\324@=\340@\004<\220m\002<\301\236\001>\230\261\206<\200\334\030\273C\023\031\276]\215\243\275\n5\335=_8\217\275\340\320\002\276kr\370\275\300}\244;J\225\322\275,\336E=\227\206\211\275\036y\354\275#\305\024>X\351\003\275\262\001\273=\200\305\250=h\345A\275\324\212*=\204\341\027=h\202\016\276>\303\333=\244\262\316\275H\030\251\275P\245\014<=V\t>\202\266\300=T\370\t\276 \354\320\274<\370\234\275\372\023\024\276\355D\002>B\202m\275\340\211X\275\314\256\004\276\254&\264=\336\202\366=\236\357n\275\210\226\266=\300\322L;\277\036\r>\256\311\221\275)Z\363\275\270\327X\275\350\315\311<\000Y\312\273\330\260\257\274`\367F\274\004\212\330\275\213\"\364\275\002\023%\275\000T\376<\331\352\016>\370\352\023=\nDF\275Gs\353\275\315\006\026>\361\225\022>\305G\002>f\243\350=I\334\030>\331\036\003>q\251\227\275\240\271\333\274\240\343\223\273\355\326\250\275\006\"\362=\362\315U\275\030\004\007\275\222?\252\275\2401\024=w\313\002>\000\372\300\272\320-\260\274u`\021\276ip\306\275\363\201\">t\210d=\300\266\346\275\004P$=`\tV\274\360N\'=6?\336\275|-\271=D\303\226=15\023>\236\214\203=g\314\275\275\326x\214=\000f\347\272V5\276\275\223)\016\276\225\341\036\276\340D\257\275\346F|\275\240_\n\275\264\203-\275q\265\025>\334Oa=\350{\314<\200,\350\2753U\013>\203t\001>~<\377=\000C\231;\300J\016\276r\375!\276\200\377\215;\\\031\025=\202V\360=\344\020b=\250\036\264\274!]\007>+\334\220\275\000\212\205;\270\214\345<xr\355<\270\201\324\274\312{\203=[\271\n>\270>\216\274\322\343\343=\004\252P=\230\205#=\230\241\004\275\004\367-\275FI\363=\006\223\307\275X\010\200\275$\273\215=\377f\"\276v>\262=\260\315\266<\364\217\341\275(\002`=f\222\220\275H\2026\275\350\026\377<(\363\224=\021\014\325\275\320\370\032=\231_\002\276\210\222\352\275\030\227\251\275\340\340\r\274\\\203\220=,+\274\275\273B\000>\324\2160\275\000t\327;\305\324\230\275\345o\003\276\310\360U=\3662\375\275s\325\240\275\t@\005>\325m\363\275\302\004\320=\355\330\024>\030\'\332<hB\211<\002?\226\275(b\217\275\345\320\351\275\253\330\031>\220\014g<\322\235\376\275\020\240\210=6-\007\276s\276\031>\010\352\203=B\355\376=\000R\233;\"S\274=\250\231\006=T\255#\275\013\022\035>-b\033>\334F:=z\034\224=J%\324=\240\260\315;&\352\374=\006\300\311=\306\343\221\275\340m\005\274\023\352\024>NP[\275\320}\220=\024\005\361\275\014\204\240=\310\357\251<\022\210\227=HF\234<0\341\020<\315\006\224\275\201\204\014>H\271\221\274\254\334\021\275j\033\223=\310c\235\274\320\325\t\274\3702\250<\344KH\275Y\370\010>\201w\204\275@\240\226<K\315\032>ea\032>\365\036\035\276P:\253\275\306z\031\276@\246\222=\352\346\353\275H\2455\275\n\033\243=r\375|\275[%\n\276\236\216t\275\3729\322={\212\007\276\322!\233=FW\265\275\360v\024\274\260du<b\330\327\275\014\234\017=R\023\350=L)\256=\240\317$\275\0202\005\276\200\201\n<\300\272\025\274\316\365\370=\214\273\017\276;\022\037>^\035\243=\320\254\370<\364a\234\275\322\345\301=p\000\t\274\202\344\271\275\203T\034>\300-\222\274\300[\244;i\323\202\275\205y\023>\215\362\036>\266\017\263\275\010M/\275F`\363=\220^\022\274\270j\200<N\010\326=7F\023\276@J\323\273\374-[=`\205?<\334A\235=(\365\364\274^6\343=\225.\036\276\236\276~\275e\365\332\2752\035\032\275\036|\361=\262\274\355=\020\216t\274\033\200\232\275\3506\232\274N\377\204\275:\351\231=\312\210\350=RS\227=a\203\n\276p\304\206=\000\325\004\276~,\342=@>\000\274\310\312\346<@\020\323<`k+=;\"\010\276\2002/\274\260>\304\275q\341\024>\242Iw\275\250\001\247<|\221]=*$\303=A\r\034>\250\372\222=\014\366\t\275\025\326\022\276&\007\317=\303\223\217\275\204\n\216\275r\020\034\275p1\363<\256\216\273=\321\372\224\275\300\227\211\273l\221v=X&\311\274\226S\013\276\240b\313\273p\361~\274\363\036\037\276\367#!>\245\311\030>a:\014>T\201/= \235A\274\352,\301\275LT2=\220J\274\274%\024\t>r\363\225=\360\210\254<y\016\237\275^5\t\276\005w\023>\343\363\344\275\251\202\035\276\372\217\203=\332\025\314=a\t\266\275\215M\010>\251V\007>\214S|=h\300\315<\243v\005>d9\t\276\340-\272\273\306&\227=\222\345#\275\276T\337\275\223\203\256\275\240\371\365\273k\303\033>\353z\002>}\207\021\276I\237\274\275\252J\373=\020X\232<\212&\021\276$lO=\030\232\247=\030w\350\274Q\251\010>4\030(=g\334\036>\334Z\013=7&\024\276\220\246\364<@\r\271\273\320\3262\275\026\367\014\276\274\351&=|\322\234=\260\006+<\0104\346<\304\246\247=k\333\035>I\225\030\276\316\325\372\275\370\234s=\372\n\234=\200\346\323;sk\037>=w\007>Q\242\004\276N\262\230=\240\013&=Z\320\376=\214=F=\030\271\247<N\325\014\275\216\037\315=,\261\t\276\314F\323\275U@\241\275\330B\010\275r?g\275 (\020\274F\227\276=\340\336\211=\203z\214\275b\023\332=\260\252T\275\335\252\220\275y\202\353\2750\363u\275`\342\203\275\216\266\312=0\267|\274\356m\267=B\343\250=\310\214\200< [<=\000\017\002\274\010\'6\275\340\277\211<Oc\034>\016\333\356=\036\216r\275\374\374)\275\265%\035>\362\350\336\275\310\367\334<\334\253\003\276\217f\034>\276\262\271\275\340\275j\274Z\271$\275\004\316T=\005\320\033\276e$\222\275`\302~\274\224e\244=n\317\256=\020\244\245\274\2363\023\276\277\217\034\276=#\014\276I\215\245\27546/=:/M\275u+ >\236\237\340\275\266Y\266=\340fn<j3\351=\342\331\354=\360\337\315\275\246\036/\275l`\205=RY\301=\242\277\250=\022\244\252=\224\362\243=\275P\031\276\302\300\366\275~\211\355\275\230\2444=J\352~\275\210\251L\275\225Y\034\276fLb\275\314\262\306\275\230|\310\274\010\312==b\261Q\275\1777 >>O\020\276\276\n\364=D#\002\276\234\306\036\275\266R\210=#?\315\275\366\274\263=\351\322\004>`\2746\274\3260\344\275\322g\301=\370\215\373<l\250\"\276\320\365\315\274\000\212\243=\261x!>J\356\226=<\247l=\366\314\367\275B\014d\275\340>\036\274rV\317=:\313\351=\200)b\273\006\215\352=\275\264\021\276@fc<rA\001\276\220\362n\274\0002\365:\002\2674\275r?H\275\226\277\214\275\010\003\253<\317\\\030>\253\324\022\276\230g\203\274\203\220\017>61\342=\2004\230:A\372\n>T\227\210\275\373\222\035\276\254\330\001\276\260/T<\343\274\032>z\343\256=@n\344;\211\030\276\275db\021=*\264\204\275\350!\273\274\230\352\277<g\361\t>C\021\224\275n6\313=z\300\327=\022Z\313=\360<\010\274\234o\317\275\2675\024>\255>\250\275@\336\237\274\3760\311=^<\350=d\004x=\355p\337\275z\227\310=Z\2046\275<\370i\275O\221\035>\2038\023\276\002\315\312=\253B\006>\260\023\026<\013\306\344\275H\270\231=\340\366E=\3024\364\275L\003<=\354\317\207=\242W\351=\236]\353=b\351\027\275P\344F<}\013\323\275\341\251\022>;\363\000>\264\342p=\252g\312=\024\023b=6\323\354\275\353&\333\275\351,\t>6x\271\275\374\035,=\200!\025\276\316e\014\275\260\355H<\246\244\025\276*\231|\275!c\035>l\030O=\323\300\265\275\212\327\357=J\314\356=`\\!\274\332VY\275`]\227<\021+\305\275\260(\342<\200_f\273`H\334\274~eN\275\0251\014\276\360\004\205=\000\373\314\272\271\014\007>\367\010\n>*\246\002\276q\242\375\275I\240\033\276\336\352\222=0~:=$\324\225=\200\2163=\313@\023>\226p\257=\021\345\334\275\030\305\305<\362~\346=\356\217\335=\266\035\376\275p\272p<\261\304\235\275e\265\001>\313\373\032\276\'1\017\276\360\353\024=\300X\274<\377\335\214\275\214\223Y=\200\365\367\273\000\326(<>\240\331=\021\357 >\024\236\263=\177_\030\276@\243`=\200\325d\275\032%\315\275\366\337\350=s\303\024>@Z\022=\013\000\007>\374A!=6\350\270=:\033\335=\330\004K\275\372\001\275=\225v\t\276@\347O<`_\203<zT\360=\000\371\010<\330\372~=\240@\317;d\345%\275\365\230\n>o\275!>\200l\024;\262d\330=\267\345\263\275\314\357/=;\325 \276\234u\002\275\330\311\231=>\324\340=\016\016\206=\317.!>\315\373\020\276\260\216\256=\240L\264\273@\001r\274<U)=\346\337\233\275\313\353\026\276e~\232\275\341\233\035\276B\206\276=\265\262\332\275\252\343\316=_e\261\275\260\274D<\354It\275g \007\276\020\356\363\274Tz\037\275J>_\275s\254\235\275\274\034\016\276g{\002>\n|\n\276f\270\202=qD\004>\037;\002>65\024\276<\273\345\275\373\345\221\275\306\\\364=4\207~\275\313\355\273\275\300n\362\273hd\377\274\377\360\035\276Z\216\344=\326\224\025\275xx\351\274\240\277\257;\250w\037=;?\021> 4\327\275\313}\016>C=\014>\210\335\344\275\000i\316<\326\227\016\276`\373\315\274p\300\376<\263{\033>.\211\326\275\n@\353=\307@\033\276X\350I=6Y\340\275?\363\035>\333j\356\275h\235\257<\340\207\355\274\226\323\353=\274F\375\275\224\237\033\276ZT\365=.@\205=\305\r\027>\205\304\020>2\301\255=G\024\010>\"\330\334=\000\307[\273(\300G\275\024\364\027=(\333J=\226\275=\275\000\254\367\272\321U\253\275rt\014\276o\250\247\275\340\335\225\273\342:\272=\010\0046\275f\253\274=\030\007t=\004\331\252\275b\330\325\275\'\037\">\260\230\222=wQ\027>\324\306\232=\274+p=\036\206\305\275\264V\035\275\002\312\216=\241\331\025>\274\203n\275\020\362\007\276\320\344B= \351\322<\260\267O<\360\346\371\275\206\t+\275Pw\317<\314\274\177\275j\312,\275Xm\021\276F/\226=\315\361\004\276\000\213\315\272\350\363\307</\272\330\275\005\031\201\275\200\216\207\273L\255\207=\000Xi9\360\210c<\016\332\362=\257\246\251\275`\264\364;\355{\343\275\010%\310\275@\333\272\273\346\314\355=\030z\243=\267g \276:L\312=|ob\275ya\027>:\230\304\275\300\357E\275\332T\326\275(@\356\275W}\002>\222\244\256\275o\324 >~\010\337\275\340\213]=\036\t\032\276\273I\017>F\177V\275z\007\026\276\264x\261\275\236\272\303=\330X\316\274\352\322\321=\344\226]\275\376\206\020\276J~\360\275\360\021B<:\356\345=N\031\020\276\320@\356\275\206:\264\275L\271:=\315\001\t>\023\262\023\276\217\353\014>\340\017\036\275K%\201\275K+\021>\'[\003\276\240\356\n=0;\202<`i.=g\233\005>`\262.=<\277\005\2760\323\r\276\366\036\317=\227\211\034>\026)\311=\230\243G=|\306\237==\227\022> n\027\276\204\335O= \326\265\274\024\302\211=\330L\031=\326\215\223=\357\350\302\275 \313\203=\030\274x=H\332\240\274\376K\201=\360\nS<e\260\026\276h\226*=0\353\376\275\033f\335\275\014$\036=7\335\030\276\374\357=\275DB\306\275\0226\350\275 \255\232;\306{\326\275\207\271\000>\210\306\235\274\314\275>=V\304\237\275\336!\360=@k\262\2740g%<\331\330\310\275 \r{\274\220gF<wU\"\276\247\372\005>\"W/\275@\332\275\274\000\365*\272\t-\221\275\354\221l=Z\037\264=$\343\003\276N\026\256\275\000\344:<\345q\033\276N\024\234=\253*\221\275g\362\020>z\301\335\275\373S\032>\3502\035=@\370h<a\300\007>\366\357\370=\350\270\264\274\346\212\352=\341\325\270\275`%X<a\010\">\240\374O=H\265\370\275\370\233\255<\026\205\322=R\304F\275\332F\233=\311[\004>@7\377;\204\250\037=-\366\000>\326\035\370=\344\256\021\275g\267\021>\277D\260\275T\241\256\275\300M\010\273P\264\014\274\350\337\207\274\234\\p=2\212\250=\252>#\275\036\235\371=\026\200\330=\213\310\030>\262\207\037\275\300\351\365;\342\010\350=\240\001\220\275\252p\005\276\371\342\035\276\0023\303=\272;\356=\206e\313\275,&\363\275\026X\351\275\250\334E=\376\305\374\275\262\345\316\275\256ui\275\304\255l=\025-\014\276\340\006L=jm\355=\007\233\003>\302c\333\275$\211\252=\200\017_\274 \262\356\274N\023\327\275ZS\362=i\224\230\275\264\275\236=b\227\315\275\330/\273<\343\216\215\275JJ,\275\003+\r>n\311\"\276\230P\177=\300\031O;\"=\354\275\200\330\026<\346n\253=\202k\200=^\234\331=\002Xa\275\230\342\374\275b\244\275=\036\024\313=;)\000\276\'\371\013>p\224\257\274\rj\013>P\227\340<\200\252\223\272\330h)=\3120\320=9\354\025>$z\203\275E-\355\275\333\310\251\275a\240\331\275j\220\271\275\352X`\275\016\353\277=\316M\230\275p\355\000\274\341*\035>\360\352Q\275\306\271\336=\250e\356\274\001\010 >\000\302N\274\307\330\021\276\020\322:< ,p=5\230\224\275\0276\016>\267R\001>\354\365\'=\346\003\232\275\232\203\331\275\303&\027>\337\272\014>\036v\362=\300\216\356;\233A\007\276m\210\024>>\245\326=l\005\270\275\340\210\323\274\325\023\017>\276m\t\276\314\0324=\000%\225\275\222\rw\275l\375\251=8`\216\275\262\232)\275\000\231\010;\321\214\240\275\254\367J=\350\230D\275\266/\030\276\\xr\275\022`\342=v\013\314=;o\035\276\360l\353<\n\235_\275\231E\301\275EZ\016>\352\252\025\275\203\344\036>3<\245\275^.\276=\210q\241<\214\344\207\275\324\202\353\275\332\352\240=^5\275\275\200o\354:\355z\016>\3503\222=\270,\271\274\200\306\227=\216\323\331\275\036aJ\275\032\023\027\276\240\373\366\274\352\221\002\276&\355\375=\222\370\364=\034\341`\275\360\3160\274\354\367\200=\236\'\002\276\337\240\036>\376\020\367=2\277\347=\300H\222=\212\352\034\276!m\263\275p\006z=\273\367\010\276@\267\256<\204\316\031\275\372\221\345=P\2232=6\225\242\275\362\324\220=l\315&=\221\007\020>\244\321\002\276\236\352\235=$\236\020=H\221\036\2766\226\331=\237\332\006\2766\345\206\275\365d\265\275\343v\200\275\244=\021\275~\014\207=\250\261\352\275\270)\214=\2002}=\n\006\354\275\250}\027\276\207\r!>\220\211\264\275\020j\037=o\362\035>x\265\346<Z\227\337\275)\237\023>\257J\">G\364\034>\354\364\031\276\316L\316=\222\346\026\276`\247n\275>T\241=\037Y\004>\014*\000\276@\367\264;Z\021\311=\301\274\373\275#z\374\275\n\270\213=\n\342\316\275)\253\026>\240!\373;,\216\017\276\306p\370=5\357\273\275\227\014\316\275\211\002!>,u\371\275\322b\177\2751&\013>E\250\315\275\200\324\322<\240\351\033\276\366\200\030\276x\214\353<0>f\274\t\301\005\276\000\034Q;\010Q\256\274F\277\275\275@\206H\275\342m\020\276\320\334\211=\362h\374=\004#\377\275/\245\371\275\272-\372=\206+\023\276\313\322\034>\216w\275\275x\277\t=r\337h\275\215T\275\275n\247\313=\356M\343=\203\260\022>\030\313O=L\215\033=\0002\220\271\240\037\321;.L\314=~\360\014\276&\3741\275\240\226s\274\360V\002\275\000\034E:\236\330\336=?k\301\275p\363f<\'\273\032>\376Z\003\276\000\027C\272\363P\010\2763\205\"\276\216\017\003\276p\251h<\366\020\311=!C\024>\241\362\013>}\372\017\276\273G\003\276\246\275\021\275\300\336\021\273\254,r=\n\310\372=\352i\322=\203{\265\275\340\243\034\274#\333\263\275H\304\263=\300\352\254\273\210\303\363\275\320\'\210\275jee\275\215\013\r\276\275d\006\276\315\204\034>\320\220\254\274\350h&=\320\300\323\275\374n\277\275\373u\347\275p3\013\276p\375:=\210s|=\"\306\234=]\304\230\275(e[=\260W\243<X\312\313\274e\372\020>\002\356\020\275\352\254\372=h\222$\275\332\327\332=\272w\312=\240:\321\273g\263!\276\n\255\301=\364f\033=\000\307Z:f\312\344\275\232n\240=\340\032:\274I\302\005\276\030\205\307\274K\314 \276*a\305=J\215\247=\000\321w\273\231\356\231\275@v\016;\240\233\253\273\275\360\006>`\022\222=\321\301\005>\034\037\177=\352<\331=\326\236\242\275Rh\344=\236\022\026\275\260\030Y<yH\013>z\333\320\275\240\273)=\000\266\214=e\241\337\275tt(\275>\255*\275^\365\030\276V\327\000\276\330\334)\275\266h\245=\000\367b;\374x\234\275\200\256n;@m\225\273\270\235\364<\300\205\010;\344\310M\275\200+\010\2768d\347\275Yj\000>LL\000\275\242s_\275\202\004\036\276@\201\236<\273\002\017>\356\201\302=\212d\033\276\370)\227\274h7\245\275i\224\030>\030\312\223<\332\232\226=v\335]\275\014\234\232\275\330\270\230=d\234 \275\000\000\332\271\2361\276=\222\036\320\275\302\305\001\276\262\260\330=[\r\023>\260\326\217=d3A=\r&\271\275\240:\342\273:\266\334=p\313\272\274A\005\003>\302\377\254=8\254\364\2740\340\277<\337\224\n\276\330\304\r=~\332\276\2754\357Y=\"\206\242=\354\222J=\010\027\225\274\220dg<<\201\343\275%\230\013>\240\245\202\274\247\271!>\370\357\314<m%\333\275X-\023\276@\200\202\274\260=b<-*\n>\206\216\033\276X\314\223=xM =u\201\022>G\255\250\275\270\004\213\275t\204\331\275U\243!\276\277\007\202\275\273\006\307\275\374\004#=\314\3534\275Z\300\217=\2060\255=\370\307\216\274\241v\270\275}d!>/\222\002>$\365j\275\326C]\275\354\375\322\275:R\244=`\210\316;k\331\274\275\306?\317\275N:\363=!N\030>a\271\327\275@%\031\274\n$\001\276F\366\302=\'n\225\275\350\375\274\274\302\355\225=9P\033\276\360\326\326<\"\360\304=\366H\324=\313$\000\276\220=i=\266\230\301\275\366\305\373=\264\024Z=\304\252\370\275\000P/\270m\342\270\275C\307\016\276\236O\353\275\370\342\310\275\020_\035\275\235\006 >\330\227\373\274c\177\023>\320\371\243\274U\363\000\276\300.-\273\366*\355\275\273\301\356\275\302\031\320=\306\321\371=\220\355\027\276\330\336\336\275\337\214\374\275\241F\023>E\221\353\275\034\274\376\275`\273\261=\366(\311\275h\243\253=5\373\031>kw >\372]\001\276\3715\013\276p\246\037=F6\314\275f\030\360=93\004>(\250\216=\303\017\024>\246\264\265=\0060\314=V\203\356=\361\373\221\275\254\222Y\275\370\347|=\000*\270\273a\033\212\2758n[\275\030\000\376\274\301\256\264\275\373\311\021>\350j\222<\342\000\223=\352\234y\275N-\021\276\004\2622=\032\315\246=\256c\302=\300\026}\273[\360\031\276\200}/;\200\204+\273`\034\003<V\255\336\275\225W\032>\355\333\002>v%\003\276O\263\006>@\322\356<D\350\003\276\200\351\027;~\265\213\275fw\363=\030\350\312\274\006\200\356=\374\311\210\275\370{\033\276pG\251<\316\370\352=\300^\343;EG\023>\206;\333=M\313\025>\014>\233=\020\361\266=\3505.=\210ON=Uv\010>\200\377\t\274\377\377\246\275 \273\233=\017\005\023\276X\212c\275P\0218<\214\337\022=\347]\n>h\"<=z;\225=m\223\033\276\276y\310=\273\352\267\275S\260\034>\2409\216\274\366\226\350=.\315\365\275\350\001\n=\200\224\212;\231\366\n\2768\001\333<d\365~\275\330\234o\275\222b\347=\024\345\007\275\020\262N=^1\374=p\274\252=\274\333\201\2754\322\014=j\360\314\275\220\334\246<~\241\014\276\354\343\003\275+T\022\276\220\356\211<\000\2015;2\317\272\2751e\257\275@\326\325\273\200\326\313<\020\204\366\274(\213#= \024D=3\361\022\276jh\023\276n\264\216=\340\333\226;,\004\245=z2\306\2750\004\021\274\260\337\033=\231\257\257\275Hz\356\274`2\310\273B\301\372\275\256\364\023\275\355\035\034>\260w\031=\340>\305\275\346\355\252\275\3275\316\275\310\355\002\276-\253\003\2768\220\210<[R\016>bJ\222=\340\256\347\274q\223\250\275\"\324\350=\362E>\275\276=\023\276\260\305\025=k\371\031>\276\027\331=\222\266\311\275\036~\344=\312j\277=L\\.=\200\262\343\275R\n/\275\334`_=x\3461=\010X\335\274\362\354\375=@9\235\275%\257\004>\0275\022\276@\022\206\273\037b\311\275\260t\255\275\240\037k\275H\241\235<`\233\306;\266>\351\275DH,\275*\360\017\276\270@==\250\331\264\275\372^\340=\000A==\374\tk=X\274\323<\026\373\254=>`\226\275\342\036\360=$.)\275\336\024\322\275p\016\216\274\216\350\210=\344n0\275\342\365\220=$9\t=8\211\215\275\306\304\247=@\007\225=T[\347\275\374\301\332\275\026\310\273\275\362\304\336\275\2448\025\276\242\356\332=D\235\005\276\037\027\005\276\231\321\031\276\300\036\030;\031\\\013>S\301\037>\233\237\257\275\202\267\356\275&\271J\275@DY<Z\353\322=\260\317t=\360\342\304\274\340\353-=\242\360\346=\200\303\342;\251X\n\276*\310\330\275\354$\256=\272h\241=\236\033\313\275\326!\240=\206\301\365=\366\265\016\276\370\212\356<}=\033\276@\222>\274\014\302Y\275\032\321\035\276\000\241t;\370\257\003\27628\321\275m(\r>Ay\270\275\310\217\205=\231U\r>\330\330B=\304\262\205=c\207\036>\346\346\264= \217\013=\264\034y\275\342\223\371=\274t\030=\264\227\256=\364\363\026={ \035\276T\226\342\275(%\260\274\013\021\020>\336\215\004\276\313\004\314\275\314\215n=\321U\r>BN\306\275G\245\201\275\016\025\262=\274\004\351\275\004m\250=\320\337?=x\206\265\2757\326\001\276@\313\240<\276\215\237=\t\302\022>\270Re\275\264\313\326\275\362\215\251=\300\315q=\360\024\021\276\324\036o\275\364tQ=\325B\030>N\354m\275\356\005\246\275,\027\203=\240\372\271= z~<\241,\224\275\362\020\303=O\r\031>\202K\237=~c\276=\206\233\331=\341\207\014>@\243\211\273w\202\274\275\005\243\023>\\\3379=h\351\251<\010H\352\274`\341\340\273@\355\004=\346\n\347=k\030\300\275\2545J=\347\203\261\275\330\250\365\275\034\304o=\232.Z\275\247\262\032\276\234\324\261=,za=F\031\343=x\270\365\274\353\177\036>\2321\234=R@\253=\256\357\023\276\366\035\362=\000t\264:\200c\252;\321\314\035>\300\2163;\241\013\006>J\362\367=\320l\201<\357x\032\276\340\327C<1\302\370\275\t\177\010>\222\345\354=\200\341\355\275t\236+=\002\241\223\275P;\t\274\000XE=\036f\365=d\205\362\275\202\362\211\275\200\306\243\273c:\034>\356\205\016\275v{\026\276\222y\023\275/\346\225\275\360\017\263<4\023\235=\314\036{\2759\230\030>\000\360H8\222\361\324=\034\236\206\275\334\207e\275\230F\217=\236\025\245=\346\334\317\275\276\354\336=\220g\032\274zZ\355=*\245\377\275\014\277n\275\222\360\270=\301&\023>\262\334d\275\274\304r\275\356\311\212=h\214\301<p\375\007<\203\201\017>\274\036\340\275\374{D\275\334\372\310\275Hf\267<*L\025\275^\200\332=/\026\023>\214\216|=\006\243\014\275\336?\346=\264\215\206=U\314\021>r\245\202\275\250`\340\274\274H#=I\t\n>\026\217\021\276 \332\030<\266\347\356=\256\270\264=\330D8\275\262\224\023\275\200\270\311\2755\312\000>\031\315\n> id\274\360\033q<\217\275\253\275\360\245\217\275\220\207(\274h\306W=\003\"\010\276\370\264?=*qg\275\307U\216\275L4R=\262\024\330=\340`(<\026\273\010\2760\372\241<\000\006\352\275\200<j=J\037$\275\212?\320=\000\0051\274\360\310H\274\250\265\025=\034!:\275\311\027\024\276Na\227\275B\250\016\275\352`\222=\010g\302\274G\266\243\275z\253\340=\344\311\271=\276\316\306\275\222\344A\275q{\264\275f\315\351=Z\276\276\275\336#\311\275\240\347\t<\212\235i\275\333~\246\275\306\001\205\275\212\000\236\275\300\242\034;\014\270\372\275J\206\321=!\342\037\276b0\216=P\235\027<L\247\035=\022\201\375=,\020F=\324\t\252=\0215\007>cp\016>\034\351\002\276\370\351\212\2740\314\255<*\211\200=\2363\311\275\340\0068=`\'\013\276@\2771;8?*=\217\205\361\275`\013X= \"\213\274\316\210\266=X\373\034=p\036\220\274\202\322\352=@\275V=e\211\037>\342\377\360=\304L\002\275\3466\244\275=\021\"\276){\027\276\337\257\206\275\300\2032=#\210\222\275\254\010r=`\342\227\274\350\225\215<6tF\2753\316\272\275\330\021\323\274\300\3018=\300\366\252\273\320\203\311\275x5\\\275\370\325\215\275\342\006\337=P\010l<o\310!\276\210@.=\236\'\352=\266\322\322=\003\326\371\275\346\224\003\276\270\272\346<\212.\232=s\177\322\275\334\241\334\275@}\207<Q\332\335\275\t\273 >\220\033\310\275>\232\236=F\016\352\275\354\032\210\275e5\327\275\270\323\021=0q\035\276\312;\335=\220;\266<yY \276\362%\347\275d\241\346\275\366\354\244\275\235N\237\275ba\320=\300\214\206\273\2550\022\276\330\3366\275\312\025\340=6}\371=T\t\226\275\230V\316\275\254S\306\275\252\214\317\2756\356\211=\260\352t\274Y\017\032>\330h\256\275\334K2=D\344;=\364\260;\275{\352\026>\000\345\025\276\034T\205=\336\014\240=\202\315\327=\006\377\177\275h\253\257<\2222\321\275@\215\265\275\330y*=\224S\022\276\322\'\364=\354)\333\275#.\t>\236\020\243=Q2\372\275\220r\366\274\360\224\\=\240\335\025=\260\007:\275\370I\232=\366N\004\276\010\251;=6?\372=I\272\332\275 \335\271=\"\301\330=\201\026\034>@i!;bH\350=\2122\267\275\266\231\000\276H:\333\274\240\270\347;x\017\n=\241\334\320\275\340\354\317;<q\332\275\353;\241\275\356\202\265\275\237q\016\276\376\021\'\275xh*=\200{\321;\240In=\356\360\320=\321f\035>F{\324\275Wf\r>\270\030\251\275\010\235\364\274\007t\r>\354\206\245\275\230>\037\276\260\206\347\275\320\301\224<\352\234y\275L\315\240=d\303k=\300/7=q\356\035\276\245\342\036\276\244\371\270=\\\027\344\275\373\n\027>\000\213{\273\256.\026\276~B\037\276\204\303\256=\230\206\017\276\266fX\275\260FA=\315<\001>\242\327\255\275\311\260\276\275\362\027v\275\007\013\027\276\026F\247=\230\247\326\274\022I\234=8$\244<`l\312\275s\030 >\354\220\001\276b\237\016\275\014P\241=`\200\324\274(\022\235\274\260{_\274t\360S\275n\234\275\275\362@\260\275\275\261\003\276\260\345\301\274\222Z\355=\304Fc\275\340[\241; x\363;<\247M\275\260\177\003\276\230\337\325<H\217\320\274\271\177\245\275\3404@\274\214\245\006\276@\275\316\274\000\371\270=p5\032<^%\216=\306\363\327=p\025\226<\340\036e\274\244\024\031=\340\277\201<a\231\276\275i\354\004\276\020Yz=\030L\027\276\225\277\233\275\332i\271\275lvz=\237b\323\275u\356\256\275\000\234\037<\340\303(<{A\246\275J7\322=\336\034\273=\034\337S\275a\316\002>\241\033\001>z\324\302=@\013\327\275\262#\312=\360!\034<\224vA=`\345C\274(M\017\276 OM\275\250F`\275/\320\024\276\236\004*\275\243(\"\276\261\363\270\275\340\310s=\274\031\261=\r|\014>\226=:\275\220|\n<3\016\257\275\200\342 <4\033W\275`\024\244\274`\3124=@x\303<\300\356\022<\203\013\337\275\270\356\014=`\355\272\273\000\230\334\270\277\255\022>\275\227\367\275\340\311\252; \rg\275X\340\327<\023\357\027\276\234Fw\275\365\236\t\276\010\014\357<\027\221\032\276Ob\255\275\225\217\275\275\022[\273=\031\224\330\275L@\214=x\366\246=\241\034\313\275z\332\322=T\'\r=(he\275\002-\353\275h\027B=bZ\217\275B\243\300=z\304\274=.\273\215=\260(\303<\200\310\005;Z^\036\275\033\026\375\275`\'\223\274\020\270\\=\260t\017\274\220x\224=C\277\026>\331[\035\276\274\177\254\275\316\300\035\276\260\024.=\206->\275\266\021\332=\010\342\254\274\236j\316=hY\326<jv\n\276\\Bl=\346\272\271=\230\274\377\275lI\270=\021F\023\276\377\221\010\2767\344\030\276\310\013\261<`S\033\276\304\306@\275\020\030j=\002\037\257=\324\333\372\275\370\340\325\274\\s\032\275\321z\020>\244\205\223=\370\031\003\275u\265\013>L\262\014\276\300\275\351\274hQ\302\274\260T&=Z\237\320=`\270\365;\255\340\026>Q\212\026>*\0234\275\300<d=X\340z=0]T<\010\242\236<\202K\377=\262\031\201\275?\357\005>\252\263\260\275\314\374\375\275\216\203\315\275\200Rw=:U\001\276\252\037\344=c\202\253\275&\232\233=@D\267\274H\250\204<Z\231\300=\212u\261=v\2516\275\205\334\264\275\314\203\270\275O\035\206\275\014\001\"\2761\221\205\275\227\'\035\276(\315\277<i?\007>V\300\302=\336\263j\2756$\312=\270\361\332\274L\003\302\275\032\006\276\275&@\223=\n\027\254\275\':\025>\036\273\333=\020\331\035\274,\257\033\276\000\246\2469\272\007\325=\204\322w=B\326\251=0\345\017\274/#\035\276\254\202\032\276\272\220\323\275\310\226\034\275\324\246~\275\001\215\237\275\n9k\275\020HZ\275\240\210K=8\314o=\334\217K=(0\362\274\336\316\n\276\271*\010>\224\314\236\275J\316=\275\356V\366\275\312\343\326\275\244Dq=\235z\033>\017\337\250\275\364\222>\275:.\306=\254ec\275\223\201\031\276\344\240\003\276\t]\366\275I!\036>f\244~\275\276\274)\275\302\250\230\275R \327=TF.=X|\271=K\'\033>\270R\345\275H:\217\275\034\206U=\231d\020>*\201\242=\376r\374=\216\376\366\275\232=\244\275\272\212\314\275\220W\022\274\336N\231\275\322~\233\275V\'\335\275\312\001\257\275\324\262\n=|\357e\275\344*Y=\320\252\305\275\364\271\321\275H\257\203\275\220\310\213\275\350.\307\275\240u\350\273}G\021\2760e8\274\000\264\020: \213\351\273\276\341\246=z\274\241=#\255\275\275\271X\014>\237\266\271\275:\243\027\276\330\223\333<\360\tS\275\005\241\016>\021\274\335\275\200SE\274\320\321V=\240\235%\274F\024\307=p\024\200=X\343\204=\364\320\017=P\237\353\274S\355\002\276\316V\303=\376\037\035\276\024\003]\275\215F >`\265\316<\370C\370<bd\320=\014\027\214\275~:\352=\244\355\260\275\016\301\337=\320\324\036=`\240\235=\302mM\275\331_\205\275<\350.=\037\024\006\276\033\322\034>\344\375^=8oT\275H\330\345<\022*\275=n\027\353=\341P\025>r\'\021\276\317w\257\275\3009\034\276\226\232\027\275\264\340\255\275TPa=\302\351i\275\241\363\200\275w\317\007\276\006\207\031\276\274\315\244\2750](\275\263\334\274\275\203\364\024>&\207\267=\364%\221\275\242\322\275=\215e\020>\376\332\323=0Wv<s\265\004>\231O\001>\372\022\275\275\240U\312<Y\203\033\276`\276\252\274\302c\t\276\260\'\025=\277\254\036>hX?=\034\204X=A\342\220\275\257\340\376\275\234\207\004\275\242\264\271\275\325\027\007>\231$\027>vj\373=\212\303\362=Z\246\263=\ro\030\276`\213\217;\000\003\010=21\364=F\234\207=\200\265\206\273J$\274\275}k\225\275\356\260\374\275\340\360\236=\177E\003>v\332\306=n\340\275\275v\361\321\275}_\006\276y\324\201\275\315\220\034\2768\357\210=\320\017\241\274\236\r\304=\3668\276=\264\265\\=\305~\337\275\3403\263\274\352\206\025\276\254\233\t\276\300\317\253\274 x\367;\t\235\003>\023\310\264\275\032\240\341=y\021\260\275\020\250z\275\226\261]\275I\234\255\275P\3448=Tbz=f*\327\275\202j\244\275\250\351\t\276\022\235\320=\000\272L:\326{\031\276N\377\233=P/\017<\372H\242=\310\255^=\007\214\006>\374\340\\=Pxm=P\346\261<\217\250\261\275\362L\017\276\364\3666=\240e\242\273\313f\000>0\234\313\274\315\353\r>0G\221\275\331\232\037\276\350Z\276< \323F<\232+\330=\323\344\353\275\316X\376=\230\327@=\374w3=K\202\005>bE\277=\353\003\031>\200o\206\274\000\200}9\371\346\357\275\346f\266=\313\001\r>\314\016\230\275\276n1\275\221;\017>\350]\372\274\301\377\004\276`\252\311\275`\244\254<\225\255\321\275\351\262\024\276\353,\026>\n\361\271=z\375\345=\030jp=\340,7\274\034t\022=t\035\236=\373\230\251\275^\301\020\276\266\303!\276\376R/\275\373O\221\275~\016\362\275\307\372\023>p`\245\275P\300S=\244\306\031\276VC\325=v,\354\275-\352\034>\030O\013\276\007/\001\276\376\"^\275`U\302;\307\307\276\275\243\360\000\276\260z\202=\234\211\205=\324J\213\275\370[==\023U\375\2758<f=*\031\022\276\226\223:\275\314tQ\275t|,\275\3206\211\2748\034\370\275\204\371\225=\242\\\035\275!\265!>{\314\357\275\003\270\265\275\302\270\202=\274\266\036=\220\217\021\274cQ\031>\034QE=$/o\275 \374\243\274\032\021\230=\324~\253\275\264\277\266=\356\215\332\275:\364S\275\216g\331\275\203\236\310\275\350\246\321<\n+\326=\302\236\246\275$\006\257=\"C\344\275\366m\307= kY<\254\344\202=\024!\005\276v\224\260=\274,;\275{\365\004>\260\371\014<\230@v\2756\363\362=\314\n\255=\300\224R\273\365U\020>>\213\316=w\317\000>\031Z\001\276\302\016\031\276\376\222#\275;\317\305\275\320\252A=\331\306\255\275\240\250\377\275\255\214\353\275\233R\227\275\357J\033\276\252\245\241=ac\206\275\201\320\036>\220\206\177<Z0\t\276\352E\371\275\364\016\253\2750K\033=8(\006\276z\2448\275\310\323\020\276 \242g<\221\231\r>\037\032\027\276\340\375:=\341\216\021\276\000\016U\274\3130\244\275@e\326\274s\304\016\276\010\360`=\376&\357=Hd\265\274\322\216\025\276H\336*=\032\300\247\275\267\306\037>\367\343\001>\204]\n=\350no\275\346\322\341\275\021g\031>#\211\027>0\031\264\275\000\250\3658\000\220\312\274xa\200=\336\005\355=\200\007\306:5\341\"\276Jk\336\275\316/n\275]\372\034\276\244\311\217=9d\205\275\337\333\263\275\316w\340= \340\020\275\216\'\360=\344\276\222=T\313q\275;W\230\275 \305\252\273\000\2527:\220>\255\274\021f\013>H\000\305<\264Yo\275\242\337\363\275T\010\210\275\346\231z\275\240\037\327\273\244\345\322\275Ih\003>\326\321\332=\020\264e<\270qy=\323\261\027\276X\344\214<\3603Q<\320(\201\275x\377\357\274z\246\307\275w\311\031\276\020\305\005<\346R\236\275\016\246\036\276\013\356\020>\225\230\004>\262\337\021\276\320\254\235\274\230\346~\275\\\" \276\251u\026\276\"\n\221=\266.\335=\241\200\311\275R$\003\276H\004\270<@\277\200\273\310\254\301\275\000\014P:\376\314\304\275\202\313\242\275,o\025=\000\343l\273\320\327?<Wh!\276\332>g\275\024\325@=X\227\235\274\276H\002\276\024Z]=^\211t\2751\211\023\276j\316\316=\310\257\372\274 qi\274_\213\005>\020\253\n\274\232\251\350=\240A!\276\356r\315\275(3H=\211A\n>\311\357\363\275\370\356\355\274"
      }
    }
  }
}
node {
  name: "LSTM1/recurrent_kernel"
  op: "Const"
  attr {
    key: "dtype"
    value {
      type: DT_FLOAT
    }
  }
  attr {
    key: "value"
    value {
      tensor {
        dtype: DT_FLOAT
        tensor_shape {
          dim {
            size: 50
          }
          dim {
            size: 200
          }
        }
