node {
  name: "LSTM1/kernel"
  op: "Const"
  attr {
    key: "dtype"
    value {
      type: DT_FLOAT
    }
  }
  attr {
    key: "value"
    value {
      tensor {
        dtype: DT_FLOAT
        tensor_shape {
          dim {
            size: 37
          }
          dim {
            size: 200
          }
        }
        tensor_content: "\303f\025>\031\314\023\2762\250\212\275`V\365\273\372\243\343=@O\312<\300\265-\274~\234\367\275\235\213\327\275\360\234\275<\340\266\333\2758(\322\275\000\275\004=\352\357\264=V\367\216=I\242\t>lR1=$\201\267\275>\372\300=d\276B=\334i\013=Y\357\330\275~\276\325=\301\363\n>\320@y<\310\237\343\274_\203\020>B\305\337\275\254s\364\275\354\263\"\275\272\357\016\276z\372\351=H\347\274\2750\014\223<\200\303\322<7\037\377\275\320\363\235=A\355\032\276\342\256\234=\221\312\025>8\255\216\274\255\337\n\276\232r\207=@*\250=\300\220\010<jP\037\276\330(\245\274\363,\234\275\000\035\240;y\244\004>\002\361\010\276\374~\354\275\030k\253<\210\330Y=\370\360%\275F\244\343=\000\350\3408,\010\222\275\204\371\373\275\233\316\002\276#(\007>\320Hy=aI\023>\300\376Z<\035\020\r>x\270\334\274\277\273!>\nA=\275\267V\025\276@\034\256;\240\274\226\275\317G\">\251\024\023>.w\342=\315Q\001>\344n\235\275{\313\302\275\\`u=\322w\\\275(\255\324\275\334\226\t\276`\240\002\275\300\245#\274\330\213\211\274\030\025\253\274[\230\013>\200\004\037=vc\306=,d>\275 \334b=\374\375\036\276\327\333\022\276\2628\235\275:\335\346=\365\332\001>\300T];\260\223\342<HAl=\354{\020=\000\373\031\273\330\2414=\030\026\237\274!}\020> \321?\274\256\313\321=\235\000\016\276\364\031a=07\026<\250}\215\274\326\230\342\275\214\300\316\275\361M\257\275\352\202.\275\300~\227\273\336\251\276\275\321U\013>0@O<\027\235\027>Rx\334=8\365\027\276\275\301\236\275\000\312\372:\352\301\325={\250\001>\340i3=::\364=\327\203\000>\000\242\334\273\247w\">\006\241\346=\332\200\333=\205d!\276L\031@\275T\246]=L\261o=\330=\202= \020\367;\210\030\274<\037\201\027><\023\'=>\221\t\2768q\020=\356P\346=\005h\037\276\342\344\261=\371q\225\275\320C\r<dJ\023\275\342f\304\275\263<\253\275|U\023=\264\002%=\277u\r>*B\007\276hY\307\274\000=\034\275\177\304\360\275\016\322\256\275\345\027\001>Z2\036\276\352[\254=8\371\266\274\352\374\023\275$\3225=\312Xk\275\362\000\372=\250\2166\275\030\275\210=\034h\227=\320\363\276\274m\327\000>\200\327\260<\024n/=Jn\312=\316]\333=\356.\311=\260m\034\276HP\323\275\202\376\002\276\370\035Q=\364\017X=0.^\274\357(\007>\026\324\313=\3627\'\275\310;c\275P\\\214\274B\365\026\276\200\321\025=\026\337\"\276\210u\027\276s\325\037>R\375\315=\350}\372<q\024!>P\256\320\2741\203\215\275%\244\030>\206\355\377\275`p\302\2731P\036>\326\356\344\275qQ\020>\340\241\373\273\030\216\224\274\300\017\213\274+\362\267\2759P\036>\177\213\022>\360\013\017\275\256\003\310=\334\031-=`!\361\275zs\203=V\344.\275d\235[=(ga=\234\017\335\275\313H\201\275&X\271=\354\241\025\276z\206\342\275\252\330\245\2756f\306= \330\302;rd\342=\350\201\271<\252<L\275P\371\247< C\013<~\301\002\276\324@\025=\214\242J=\030\312\361\275\257\\\026>y\311\031\276\236\t\227=\340\330\215=\010\276\n\276\207\016\231\275V\235\251\275\243\257\022\276\000\026z\274\004q\231=\302>\317\275\214b\216=0q\236=\200]\214<b\314\316=m\267\031>\014G\032=\370\350\254\274\372v\006\276\226\321\025\276\020\333\343<@i\202<\260\343\033\276\024Kq=\014z\256=\222\310\310=\264\3613=]\362\032>T\266\021\276\006\022s\275\210\2429=\326Is\275\330v\021=J\314\331=\244i\036\276\016\222\204=\'\034\346\275\244\251\221=\013\227\023>\242\352\366=0i>=\246\366\347=\220\3651<p\3059<\343\263\200\275\300\016\250\273\026\277_\275\013\t\206\275\370\275\232\274EG\024\276\371\377\004\276&m\255\275\030u\327\274\036&\206=\300\036\344\274\250\023\025\276\324%z=\337\357\036>\004\"=\275w\216\035\276\202\271\205=\0009M\274@*j;&#;\275~\254\r\276\360\000\037\276\230\314J\275\210\274O=(\253\323\275\030zI=\305\322\026\276\201\257\010\276\276\307\370=0\367\342\275\342\025\217\275<z%\275jpL\275\310-\343\275E\\\021\276T\271\244=\202a\200=\370\007\213<pn\020=<6\214=8\245\234\275K\367\007\276\ns\205=\252\245(\275\036\264L\275\024\213Y=\200\021v;d\271\215\275\210\373\240\274\334\320J=\266(\234=\306l\201\275\346l\330=\032:\323=\353B\206\2750n\321\274\300\236\245< \364\334\273\000\307\235<\033\267\023>r}\016\276]\014\204\275\261\343\207\275 \272\357\275\370{;=a\231\302\275!\017\037>\024l\316\275\013*\020>\200\333T\275\037\371\276\275\340m\214<\205\234\241\275\227\266\002\276i}\024>r\345\217\275 \351\322\274\240\354h\274VA\355=\200}%=\240X\311<V7\373\275\020\264b<,V\364\275\222\027\336=@i\256\273u\370\t>b\352\343=4\313\372\275Y\374\031>x<\340<\226\025\221=\004\207Q=[\236\035>\374\252]=\221S\206\275\310sZ=\001\216\017>c\216\033\276\343\352\016>A\225\307\275\321\260\t\276X\353\261=:q\322\2754\263A=\3003h<\030\350\025\276\340v\306\275\000\210&=\345p\211\275\330\250\025\275\"n\373\2752\017\005\276\337m\035>\300`\211;s\377\300\275\216\225\307\275n1;\275\000%\350\272\003?\213\275\360\t\231<\374\235\252=3\357\276\275\021\211 >\302\213\363=g\233\206\275\340\352\321\274\260\233\013=\231\331\010\276X\030\265=\207\207\002>\200\325\211;x\326b=\313\336\022>\311J\207\275f\356\324=\212\346\361=\360\3666\274\234\351-=\342\241q\275\226V\323\275\270\010E=\2241Q\275 A\204=\331\325\005\276fB\227\275\0177\016\276A/\024\276\325\002\022\276\236\312\023\276\274\227\242\275^\340\345\275\347\366\205\275 \334\311\274VTh\275bx\022\276\325c\260\275>\361\366=\324\242\253\275\370\216\310\274;\351\006>\337\371\023\276X;\212=\"\301\346=\372^\373=\250\336\257\275\370t\333<\260\314\266=\326O\275=\313=\001>\252\316\366=\227R\"\276Ux\035>\245>\035>\000.\2679\300\020\276\274@\372H\274<R\206\275\327\320\014>\334\346\025=\332\225\223\275\002/\026\276\304\266\305\275\342v\373\275\230Ho\275(Se\275\240\270N=\300GK\275\010\033e=\360\323\211=\\3\223=\222R\235=\220\3428=r\017\033\276\330\271\"\276@\235\242\273\004\002\373\275$\260\004\275u\036\030>\026\277\241=\350\2146\2757\346\347\275\037\204 >Q\006\027>\340%9=0\233\020\274\300o\331\275\244\250\207=\340\212\227=`C\261\274\230~\037\276\\&\001=\207\346\023>\026N\242\275M\313\335\275\2401g\274\257\215\362\275\266,k\275\240E\331\274\376\203\377=\301K\033>ZP\276=h V=\'\n\225\275m\343\007>x\336\003\276,\214\210\275\000\254\036=\034\360\260=\226\031\030\276Zhx\275\260\353\016\276\302\320\314=\2046\343\275\215\016\003>\206=\217\275~\327\245=\272\377\243\275t\335\177=\245\326\242\275\000c\'\272z\024\354=\000!\316:D\212j=\342\362\312\275\310b>\275[\212\231\275\371f\303\275\370*\253<\000\025\310\272\236\210\301=\031\010\207\275\356)\344=\255e\211\275\222W\356=\300 -\273\002\267K\275\310\215\004\275\334\241\330\275\217Z\021>VX\004\276\360\272\210<8\026\350\274\212v\277=\340\257-<\362\\\371\275\230\277G\275sF\005>\365\363\034\276\016G\037\276\2074\031\276\010\211\200\274\016\253\323=\262\\\314=k\364\326\275:\244\326=\240\372m\275\340\362\213\274z)\031\275\030]e=\303\245\031>\007\355\233\275\240Z\356\275ye\314\275\320X@=\340\230\317\273\336\220\014\276\316\211\302=\032V\333=E\033\010>\370g\006=\356:\372\275`\266\034<\240p\360\273\276\265\251=\250\263;\275\000`\"<\356\307\305=\322\251\000\276b\010\317\275(\332\242\274\300\023\377<\032\223\240\2753\022\273\275\240\205\362\273\364\311r=\362%\345=\2759\036>\356\027\r\276\266\203\361\275\037\367\234\275\216\351\205=~\311\370\2756k\317\275N\303\364=\3148\n\275\230B\024\276\220?\366\274 \033\226\2754\347\014=z(\310=\032\256\264=\362\252m\275:\363\275=\010\275\213\274:$\301=\354^\227=\322\241\332=`\266\233=D\367\026\276\240<\r\276\204\035&=\002\260\366=\356\307\264=\016\222\326=\036\313\330=\263}\234\275\230\"\365<N^\360\275\002\306\247\275h)r\275$xA=\244@\226=8~=\275\032\310\361=\320?\027=v\276\250=T\350e= )j\275m\214 >v\016\300=*`$\275:\266\236=\027\022\200\275\002\241\331=w\250\305\275,\'@=\306\351\230\275\222\371\242\275\030L\314<j\206E\275bq\331\275\000N\344:\300K\263<\322G\370=\235\346\033>\247\315\240\275\210\243c=G\215\215\275\232\306\304=Zl\302=yp\037\276\202\302\016\276\301#\034>\2259\330\275.4\346\275N\251\032\276\360\252\316\274\247\226\013>:D\336\275\334\0200=\260\\\213\275\204a\351\275\372<\356=\362\032\022\276\262\341\356=\261\026\025>B\t\266\275(\344\357\274\000\307d<e\366\264\275\302n\216\275\331\275\004>!X\004\276\240]\200\273\037\241\033\276\264\035\005\275 \200\335\274d\242\014=\220\230\027</\354\007\276\002\330h\275,d\352\275F\360\222=\244~i=\\\260\215=p\023;=\331>\r>\200w\252<|\203\023\276\r_\203\275\\\273\026=\000\346\367<\336T\263=\224\351\207\275\300\344\262\273xr\375\274\240\255j=.J\206=j\273m\275\252 \221\275\214\354\377\275\242?\355=\002T\347\275s&\">\353s\016\27667\035\276-w\242\275\3358\007>\212J\302\275\250[\241<\361\365\021\276\227\344\336\275\302\220E\275\340\030\247\275m\302\r>/m\037>\254/J=#*\212\275T\017\030= \343\355<\n\026\335=\370\364\014=Rt\335=\024;\223=\270\357\010\275*\303\374=UW\001\276\350`\233<@\2532=\275*\031>\033\304\347\275\336V\367=\355V\030>!8\355\275P\223\327\275`\231\232<\210\037\216\274\200\333\377\273\016\371\371\275\306%\021\275\000h\375\273\370}\243=L\233\215=\240\355W\275\234\216s\275\242V\253\275&\340\314\275h\260\313\274\017\250\023\276\272\010\356=P\013\331\275\251\266\267\275\004\303\035=\271\267\256\275Ly\010=\322/\363= \2141\274\001\021\001>P.,\274t_\301\275\314f\260=\372#\275=\372\210$\275\000%\000:\237r\030>F\325\020\27688\214\275\315\326 \276\206g\331= \034\306;\037\341\002>*\030\203=\230$\337<\000L\235\272w,\033>\220\010\240<R.\343=1\240\031>\230YB=4J(=\203\215\006>p\354g<a\325\000\276\213\017\033>5*\020>n\352\023\276\361O\026\276Zn\346=\222\264\226\275\251;\">\200s\001\275<\344n=|ga=\233\367\022>b\340\316=\004\330\275\2756\037\016\276\256d\337=\220r~\275\330\311\310\274O\210\002\2768\267\332\275\260P\024\275\202\327\337=L!*\275\020\226\201\275LX\004\276K\220\007>@\3011<\014\230V=\302\213B\275\204p\353\275\255\214\016>\346)\362=\200\250\214\273\300\330H\275\013E\311\275S\224\037>\276\372\344=\322\236f\275\376o\022\276pQS\274\036\002\321=\200s\266\273\300\241M\273\n\222U\275\375\332\006>\024\375\014=\310Q\232<\220\354\227<fz\242=\340\300\013\276\264hw=\013\314\">\222\201\325\275\245\267\270\275\310\356k=\350\010\307\274\230\233\210\274\315Y\010\276\375J\342\275\302\321\340\275\200\1770\274\026\270\353=\200\341\205=\rz\034\276\326x\371=\004J\221=h\203\226\275 |\014<\270\336\315\274no\352=\340\247\354\273\332\232\253=T\352%=\326\026\242\2750$$=0\030\"\275\304\005\016\275\224\330$=h\027 =\340r\343\275\207B\000\276\000y\261=\020\022*=\010W\356\274\273\261\007\276e\013\014>\316\260\212\275|m\300\275\304\030\273\275\316\367\361=\234\213j=\261l\002>\n\256\237=0HU\2744t\321\275NDw\275\026\204\342=\233\276\031\276\236\221\031\275\264\007\223=P\035\373<\245\234\201\275\200`P=\200+\201\274(\363\003\275 \323\277<fl\351=\000\216\342:\342#\207=\260/`\274 \320\270\274\230F\205\274r\3165\2758\222\336\274=\344\030>\363w\035>D\347\265=8\347K\275T3\251=C\307\333\275ZV\331\275\026}\225=PLd\274\335\244\010\276\253\265\n>\222\256\326\275&B\201=\336\002\275\275,J\277\275\215<\025\276v\342\016\276\211L\236\275Z\274\234=G\032\"\276\256\263\347=VR\214=\347 \334\275\270\306u=4\266|\275Do\020\276v\257\340=\030\025\030=\360\214\014\276\0307\201\275VJ\200\275\347\265\224\275}\202\226\2751Q\213\275\300M\010<\340\220H=\365U\032>J\241!\275\360)A<0\t\376\275-\027\r>\000v\"\272B(\275=r\267\260\275O6\007>p;T=}\350\016>\263\334!\276\373\007\211\275\212;\210\275\\i,\275r\250\272=F4\305\2750b\253<8\016\345\275\000\361\355:P\343\272\274t\355\024\275p\034\363<\236\305\234\275\3727\217=\242Z\365=\266\205\021\276\376\306\275=n\3669\275\276F\220\275\314\352C= \027\326\274\207~\251\275\366a\272= H\344<\240J<<\234H\372\275\320\'S\275\2208Q<d\2136\275\222N\032\276\026e\233\275+P\016>,\366\313\275\254\036\240\275bq\345=\304\260\354\275\250\r\326<\347\016\016>\312\325\342=\026\213\271\275g\353\031>,*`\275x;\022=\205@\030>\006M\212\275\032\342\314=2\265\303=\310s\213=T\\\013=\342\214\233=X\3260=,7g=\312\233\320=\223\236\025>L\2705=\241\223\003>\362\225\034\275~N\315\275\245Y\303\275`\340j=\277\021\n\276`\363?\274`\253Y=\016}\325\275\340(\260\274\340\333\031<\354\222\277\275\241\000\243\275\036\311\275=\240/|=\000(T:\200s\352:\005 \033>\200I7\274\205\230\241\275\306\232P\275\221l\004>\230|w\275@\373\000\275\310\324h=\024e\215=,\374\316\275\250r\027=Zu\017\275`\327\324\2737[\005>@>\206<[\266\014>@\3441<\334%\010\276\322L\003\276\367\020\026>\200k\215:\300Xn;\340 \206\274f\024\323\275N9\355\275e\024\034>\010r7=\340\375C\274S\023\"\276\272#\016\276\003\246\021>(\365\315\274u\322\">\246\276 \276\240\360\321\275Pp\006\274lri\275\330\224\026=\220c\305\274\367\351\016>\233\020\016>\310d\365\274\272\367\331=\344\221\363\275\010\205\203<\344\016\027=f\232|\275*\026\254=\375\305\003>\256]\322= O\034<\000|\016<\242\r\333=(\222>=\361\t\304\275y\254\026>\'\353\221\275\006\275L\275\210%\344<JA\341=\220\317{=\2425\356=0\274\333<\000Ak\273\203\237\036\276@\364\370\275\337{\010\276\236\203!\275\350\364r=\300\352[<\263\326\022\276\200\342p;\210\027\354\274\006\216\022\276\340=Y=\226\254\332=\376\003\013\276`\343\203=!v\262\275\360\\\340<\254s\003=@\241f\275\370\207I\275\256\325\352\275\262\261\322=(\260\252<@}\225\274g}\034>\025\210\032>R>\256=.\247\243\275\354\337\004\276t\031\026\275\307\300\212\275\252h\227=Z\223\374=\260\n\250\275\334\2045\275\372\344\323=\360\257D<\014\030\324\275;6\022>k\256\006>\247\033\026>\210,\253=jK\013\276\021\234\230\275\247\214\312\275\320\273\007\276\030:\243\274P\313\311\275\253A\013>\302\212\336=V\033\360=(\241\316\274\350;\221\274\250=\375<\344E\n=0\010\327\275<*}\275j\223\304=\260\304\303<\264v\221\275\240p\250\274\353\241\003\276y\206!\276\274T\367\275\376 \302\275\004\231!\275\344`\352\275\330\335T\275\216\351\341\2754ED=\204\241\000\275\235Y\210\275}U\252\275\306\2030\275\010]r\275|\035T=\270\007\230=\200\377\275<\316\033\326=X\263Z\275\221\333\t\276\240\350\274\273\366\300\255\275\226\251\335=\307\206\001>\310\026\001\276\377\234\300\275b\375\001\276\362\002\226=h\300\232=\242\335\321\275L\275\333\275@\000!; \025&\274 \230\010\275\247\'\035>b\026\331=\372w\274=\230\343\034=\344G\014\275\374\252\'=\266%s\275\251V\017>\334\025\r\275V\273 \275\254^\026=y\257\206\275\366\266\324=L\262\231=Q\335\033>\306\205\032\276\257\364\034\276\256\216\032\275\323c\037\276\316\256\331==\274\001>\353I\t>\n\214\271\275\020u_\275h\277\241<\204\265\231=\227x\324\275>\032\366=\333&\204\275\004\224E=<[\211=\354\260m=vC\230=\314\205\236= T\304<,y\256\275\234\2719=\2166\257\275\341\312\321\275\262o\372\275\026\204\r\276\370\327\227\274T\204}\275`\324u<l\275\211=\377\244\255\275\250\314!=\260H\013\274L\001\001=lLt=\370\010\341\275\261H\222\275\200\307\201<@\231\025\275\014?\314\275\01433=RM\214=\0304\025\275\240\264\360\273\200\203\323:\304\217\017\275\\\271\216=\300A\235\273\024\303\\\275\376\222\333=\n\332\312\275\343\000\007>\360\205\031<@C\244;:\231\341=Pt\177=\240\2178=\353[\035>u\303\344\275\352y\010\276\233\211\013>\341\355\307\275/\363\025>\320\312S<\257\025\014\276\214c\273\275\210\003\265\274\246S\374=m\260\200\275\035\355\020>\2413\016>\020\013A=\310\t\231\274\362\037\353\275]\312\212\275\356\267\234=\352]\353=\271O\013>\313\206\334\275\242\275\216=@\253\370;\370\037@=\352V\374=\230\251+=\352\274\225\275\240\005\224;F\244\312=\246\252\312\275\264\304\t\276x\034\320\2746\r\354=s\250\030\276F\340\342\275\224\323\234=\323\305\260\275\340\"\202=@\216\346<\300x9\273\320\277\205\275\000@\217\272\340.\340\274^\332\346=\373Z\003>\330oG\275^;\327=\3309\205\274_\230\005>\031\201\023\276\334\332\240\275\240\233Y=\343\030\r>P=j\274\202w\023\276\002o\377\275\200)\326<\300\226\274\275I\340\306\275\200\333\001\274\237\237\n>\2606S\275H\323\312\275\016;\337=\250A\246\275\200q.\274F\262\324=\236\251\211\275P\201&<\266\336\373=B\263\326=\013\030\014>\350\260\017\276\352&\330=\303\013\305\275x\263\033\276\320\036\216<@\220W\273TI\251\275J\230\376\275R\026\275\275\000\000\236=\345\024\003>21\206=\365\177\010> \333\214\273\353s\275\275\243\240\036>\\\244\265=\300#+;)\350\372\275*\211\363=D\303_=\330r\274\274vv\213\275\240(\350\275X\000\314\274\026\241\323=\272^\261=Bw\236=\332V]\275\200\360\213:\214\207\005\275\230\202L=ak\036>\017\324\t\276\266\212\021\276Oo\231\275\362\377\021\276Ct\007>26\034\275O.\250\275d\343B=\310^\322\274\000\324\375\272\220^\247<\302\261\266\275\027U\305\275`\220\037\276\014|\265=\240\027\212=\016\347\377=\370sm=N]\252\275\254\236P=\237\260\303\275\r|\357\275\200U\002<\306\257\253=\n\033\243=LT\375\275X\266\033\2762X\023\276j\027\221=4\207\343\275\350U\320<\360\256\347\274gL\006>U\217\005>\336]\037\276\000[\210<Z\327\336=\317\247\213\275f\310\312\275\023B!>\335\036\">PT\276\274\373\270\006>\2409\260\275H\026\342\275\270\032\201\274\235\275\037>\270\001U=\275\t\036\276\222\001\305=\034\205\212=\301\n\362\275P-\305\275*\372\375==m\032\276jw\324\275\371\242\001>\211\320\027\276\300\032t=\260\010\312\275\344XG\275x\315\353<\325\253\321\275\270\n\334<\344\240\200=\236\317\304\275\367^\020\2765\214\270\275}( >\n=\000\276\300\347\355\273\323\323\027\276\326J\033\275 K\313\274\254~\035\276$p\336\275\260\016\255\274\340\202\306\273\0078\022>\345+\347\275\210\224\005\276\014\230>=\302\364\322=\214\205\206=\274\263\021\276W\376\230\275\036!\246=8\337a=\216X\371=b\016\320=\261\355\026>n\214\214=\221\325\000\276n1\250=\340\227k\275\240`<\274\364S!\276\214\301\r\275{\236\021>\260.{\274\031\347\014>\300\363\243=\230\267q=\'\366\001>l^\317\275\\\221\243=p\244`\274\370\314!=\230\020I\275\370\022\272=d5\225\275@\370o\273\316\031\321\275\350\211\017\276(\353\310<\362\234\001\276FZ\304=\360\306\210\274H\242\335\274d\352\251=NU\324\2754=\301\275\310Y\\=\026(\033\276\226p\325\275XD\310<\030\230\201\274c\033\033>Lz\351\275\200m\\<\006\344\310\275\305\247\t>\2000\334\2741F\271\275\243V\230\275\335 \227\275\200!\225=~\350\277=\312\022:\275\230\234\225<X\021\346<\270j\373<\267\225\262\275\237\230\013>\332\177\017\276\260P\021\276\310\204\212\274 7Q<\305\222\002>\3664\224=dr\002\2760Z\034\276\234\254F\275\273E\026\276j\205\203\275\032\3706\275\211e\030> \026\273;\337\275\r>\316\347\234\275(\006\304\274 \021\205\275\010\241Q=.\322\276=\264;\002\275\231\016\034\276{w\227\275v>\262\275FC\274=JT\331=\320\177\036<}!\017>5`\014>\256@s\275\300\346\\;\370C\371<\200\301\037\274\2002?\275 1\325\273~\261*\275V&\344\275\274\262\003\276@\276@=$:^\275\0242\002=@\255\257\274\270\035\"\275\213\n\273\275m\364\031\276\310N\263<\334]\203=\220\250 \275\214P-=\313]\022>\243\220\t>[3\207\275zD\272=\211\205\001\276p\331\325\275\022\300\275=\203\010\026>\036\352\324=\3447s\275\033\227\266\275\306\211\t\276 e\261\274\357\024\023>\016m\005\276I\010\235\275\376%\326=h\232}=\275q\033>*\244\364=8X\252\274p8\204\275H\272\362\274\252\024\343\275\353\351\363\275\3365\363=&E\220\275\232\203\322=\262\004\007\276\320-G<t\200 \276\373\233\001\276//\021\276\001\003\240\275\300\263\352\274\214\177\216=ou\001\276\265]\013>V\334\361=\207\335\250\275\307\304\366\2750x\375<@C4<\360\033U\275\230N\220=}\'\030\276\312\334\353=\332\323\341\275\274)\027\275\204\325\026\276H\227\252=\264j\203\275\361I\034>H\350\201\275~\210\325\275\230\342\220=\200:\245\274)n\r>\210\360\356\275 \300]\274\2323\361=\312\327\314=\246\274\273\275P\347\276\274fc\214=\2000V<\254\026\031\276i\352\026>\2673\002>A\271\026\276\210\302\272\274\3328\262\275\2009\335\273\224\274\245=x\270\345\275\371T\034>\356\335\235=\336\216\325=\313\034\007>2W\351=$9\001\275p\262\023\274Zu\023\275\350\252\341<\022\n\361=\026?\366=\357\033\377\275\267I\221\275\300j\260<\231\002\235\275GD\025>\006c\212=\260\007;\274\022\204\315\275y\354!>\323\231\034>\232,M\275Jz\370=\203\263\220\275\270\307D=\306\255q\275Pp\341\275\302\376\314=\322x\345=\340\250\230<\340\206\311\273&\"\003\276x5\311\275\220\221\014\276\200fG=d\210\317\275\3527\025\275}\\\363\275\000(\260\271~o\251\275\270z\210<$\0100\275\260\005&<-C\013>\352\316\307=`9A<\267D\r>h\347\t=n\206\366=\366>\311=(\347\017\275\322\354\372=\270\321\370\274\001\031\010>jp\002\276z\260\301=|\303\224\275\255X\037\276\311D\033>db\030=*\257\374=\304\352)\275\340^\314\274Z\211\376\275&\375T\275\020\000\265=\300v1;4\317\036\275\305\213\262\275\214H\007\276`w\300;f\351\007\276*d\315=\214\243y=\021\264\235\275\220&\356\274p\310\026\274\361\342\007>\010s\016\275\200\354\033\276\360\216\037=\016\234M\275o@\014>\226\247\326\275\206?\351=\302\0016\275x\216i=d\204\007=\036v\222=7b\013>\271\334\t>\002\341\346=\004\247(\275\353\242\340\275\224Rg=091\274(\223\267=\364\035\205=\026A\305=\337\357\003>W\370\336\275 \322T\274\250\367\351\275]\330\035\276\034\202\255\275\024*\007\276[\366\235\275`\266>\274\237*\026>\330G\013= `\307;\265\262\013>\346t\303=\000\354\240\271\200]\036;&\214\276=\002H\324=\226w \276@\265X<\004\374\271\275\r\343\201\275p\275\027=\205\002\302\275\027\014\030\276P\257\326<\344\255+=q-\r>\336Xk\275\357^\035>xr\202=\220\240\033\274\252RX\275\352\316K\275\000\222\352\272Z\230\333=\370]Y\275B\301\315=\"\216\340\275\312n\276=A\366\001>@-\335<p$\026\2750\200G=b\341\232=^\020\314=Y\036\027\276\000\240\362\272F:\372=\240\242\010\275\340\261\223=0\315\274\275\032-\272\275\260\311\274\275\020\365\025=\020g\344<\303@\014>\2308\260=\232\271\274=a\302\035>]M\r>\200\225\302\274\014\017\315\275\241\372\023\276\220\021\033\276\307G\005>\326\317H\275\002\006\232\275\300Q\335<\332\005\252\275\222\260[\275\363\035\024>v\362a\275\017\310\r\276\311\304\r>\364u\177\275\220{\020\275\200\006\307<d\023 \275\340\221\237\274J\215\314\275\356\370\363=\200\322F<f\366\020\27689\205=\032\001\231=\245\332\020>b\030\376\275\271N\034\276\200O\006\274\036\022B\275\366\354\267=\2161\301=>\253\224\275(\250\216\275\312\'\272\275\360S\005<\260 \202<\264\316>\275\270\235\305\274\000\004\035<@B\335\274W8\274\275\373)\036>hS\264=n\202\343\275\260\351\006<TI\314\275~\307\260=\224ZX=\360S\261<\260TJ<\326\n\263=\222\234\036\275Vz\273=\022+\206=iV\010>\013\177\206\275N{\220=\016\251P\275\373\177\022\276|\205(=\300\276(;\332\323\375=\260g\336\275\360D0\274\241\310\233\275=\351\007>\344tq\275\350\235\364<k\316\001\276\276\004\361=\360\234\266<\2459\010>\200\312\200:\370%\273<\314aF=\346N/\275\245;\001>\t\267\222\275\nk\341=\350\235\347<\246\224\220=79\016><\000L\275\"\272\362\275Hk\264\274\200\036[;\260\376s<p\301\324<*\221\325=\225\317\007>8~!\276\232\024~\275\306\304\036\276\300\214b<MZ\277\275H\237\261<\000\306\217=B=\341\275\004W\242=\346\235\324=\020>\037\275\200\247\342<\266@\352\275\212{\307\275\253\203\037>\274\204\"=\027\236\354\275\202\327\200\275l\317\261\275\262U\375=+\024\n>\031\335\033>D\353e=\200\317D;*\206\345=\200>\204;\200\200\037=\231\304\t>\343\306\255\2758\276\232<\226\003\320=\234\232\245\275\236\216\013\276(L\246=\277\371\025>\022]\344=\224\244F\275\302o\032\276\316o\231\275L\036\r\276\320C,=\350\270\323\274\332\231\360=\372\000\351\275\222\026\210=\272E\366=\340\265\000=\\^\037=\nD\205=\000\000\343;\342\271\207\275\222\333\016\2768\350\253\275\371\206\225\275\262z\005\276\300\201\327<\320EH=z\031\222=\000\315\210:\372\225\307=\000\233\305;X\363\265=j\260\230\275A\036\036>0\345\313\275\220Jp<\230\031\221\274\360\205\033=\250}\230=\277\377\276\275\257\t\021\276\0010\017>@T\343;\271\333\202\275\315l\375\275\036\221\000\276\364\364\013=:\361\'\275\200)\214:-b\207\275\310\241\000=\260)\351\275&\360\307=T\210\"=\306\201\222=\236\201\275=lZ\"\275\266E\207=\320E\227\274\310\274\201<\332\270\330\275t[_=\305w\036>\\\323Z=`u[=\200\272i\275\226\232M\275\235\005\007>%\211\033\276R7\256=\262X\237\275\342V\262\275\260A%\274A\236\312\275\312j\014\276n\345\327\275z\001\365\275vK\010\276@\024\356\273\010?\332<z\370\013\276|\203:=n~\245\275\320\312\215\274\314\"j\275\340\211\277\275.\250\022\276\3269\360=\230\351\253\2748S\375<\376\023\016\276@0p\273B^\017\276\021n\234\275\244\\[\275\301\363\006>\340\337\311<rj\357=*+\236=\010\246\343\275S\237\036>\250\000+\275\000S\322\273\314|\023=@\007q<`\261\344\273\204\330\301\275\000\246J\274\260#\"=<\350\036\276\370IR\275\262J\266\275\340\017\013\275tg\313\275\274\370\211\2750M\023\276\213\202\210\2756\002C\275c]\023>\244s\264=\252(\362=xJE=\366P\270\275}@\036>(\030#=\036\322>\275\020\342)\274\031\356\311\275\357U \276\025\373\211\275L\034\276\275h\242\212=0\252\215\274\310\361\241=\000\322\257\271\234~\006=\232\341\273\275\006K\246=\000\331\037=\3423\356\275V\002\252=\220\034\204<\316\263\002\276\346sK\275\210\034\240\274\026\234\257\275L\356\342\275(\246\013\275\302\3008\275\320\326\340<\002\2570\2750LU\275\010B\231\274\201\315\010\276Q\233\363\275\031\366\237\275\352\351\033\276\250\355\264\274\233\337\364\275\034\336?=fB\033\276r\373\266\275\355\027\005>9\324\025\276\324\026\243=\220\300\006=\344\2529\275\266d\006\276FG\374= \000G\274[\235\003>\230\326\354\275DK\332\275(`\270\275\014KV=\206\"\302\275:\220\312=\201\035\260\275\274E\246=\005U\006>\002*\"\276\252S\000\276 0l\274\2168\306=rJ\005\276|\025\003= \017\310;\213\342\254\275\206\330\276=\334\227<=\300)[<\340t\244\273\022S\021\276\300\022\327\275.\031\242=\020\300g<\260\"W<P\005\314\275\250uv=\0007\263\274V\343\301\275\306\277\342=SU\005\276\275\202\023>kQ >\200\373R\274*\005\300=B\t\276=\316l\360\275@v(=\260\357\330\275\200\376<\273\000\205E\274\000e\272:>\3154\275\303,\025>\230\2652=\360\256\002<+f\021>\311V\204\275\357?\270\275\230J\201<`\220$\275\242\206\314=\250\027\361\274r\362~\275\010\036\353\275d$\270=02\002\275r\246\340=pm\030<\260\263\344<\024\237\377\275\354YR\275\\\313\220=\230\376\024\276 }l\274]~\020>4\001\375\275\024m\225\275\034\t9=h\202\214\275j\221\311=P\332a=%K\010>\266\2603\275\356\366G\275\020\346\031\2756\240\217=\014\006\003=\346\375\343=\223V\002>N\014\005\276\224f\360\275\354E\006\275\003\253\016>\320O\024\275r\364p\275=\345\224\275\3100F=\320\3675=8\245\251\274\216\321\225=\342t\255\275(\375\000\276*\357\220=\305\226!\276\220\344\177\274[\212\014>\225Y\322\275\034X\203\275\007!\036\276YA\014>\024\247\003\276\334]^\275\314]\023=\367\274\026\276\350/h\275C\213 >R\307\302=\202u\205=\362@O\275G?\031\276\\N~\275\366)\327=\034\262\207=\343\245\270\275p\271C=h[\222<\2340-\275\014\342y=\200+\314\273M0\003>8P\243<0s\327\275\000\353\'<\r$\004\276\230z\021\276,\357\246=\020\030I<.f!\2757\014\000>x5\310<S\037 >\200\324\357\272\350\310\260\275|s\373\275r2\231=M\256\360\275\212\221v\275q\255\001>\240I\300\2756\\\356=\312\333\345\275\200i.\275\302\030\325=\276c\032\276\026\213\316\275VS\031\276\262~s\275\370\351k=\002\354\n\276\354$w\275$\310\337\275\232;\342=\034\010\220\275rY\311=n\360\345=_2\245\275L\230\344\275\270\315\345<\234I(=\310\0170\275\321J\025>\004\016\216\275\230\350\212\2757i\003>J\224\366\275\227\263\007\276H+\231\2742\014\332\275@\177\355\275D\237\212\275\330\034s\275\336l\020\276\376\327\267=(\"<=\032\221<\275\354\316\316\275!\035\002>U\313\252\275\2067\272\275\321d\017>2(a\275\346\226\036\276\0300T\275\363P\010>\260\374\362\274\330\236`\275\334\221\247=e\335\235\275\265\255\017\276\210\214D= \243l\274\276\374\306=\332%\355\275\002\213\007\2760\320\n\275\220\036,\274\240\225\242;)B\003>V\365\272=\240\316\253=E(\t\276\276\235\355\275L\330\244=\303\031\250\275\370\227N=]n\000\276\020\001\307\275(~\315\274$\335B=\332\321^\275\237\000\365\275:\375\032\276\241\264\021\2768\016\336<0vG<\270\266\232\275\230N\230<\332\213\310=\350\343\346\274Bb\033\275\006\355\225\275\256\361\307\275z\340\223=\2601\305\274\320U\334\274\222L\032\276\034\252]\275V\262\177\275\356C\032\276\200\216\205\273\246\007\335=\032a\370=$n\257=\025\313\251\275?\354\023>\360C\017\276\344\323\035\275Z\3676\275\302\342\355=A@ >\222\377\026\275\263+\330\275\r\250\027>N\272(\275\335h\030>2+\374\275\260|q\274qa\246\275\361E\030>\010\264\n\275\206\273\233\2758\n\226=\213U\035\276\230`\241=\014\307\253\275\204e9=:\342#\275R\361\266=\374\323P=~\273e\275B\253\322=,;a=\326[\023\276\330Q\324\275\010)\356\274\000;\n\274V\275\300\275\3661_\275\336\376\323\275l\212)\275}\350\254\275|\243)\275P\030\027\276\250\"\270\275\344Q\n\275 M\335\275\362\226\377=\304\006\273\275\310\264\n=\356zF\275`\233 \274\273\260\025>\272f\002\276|\024\240=\231\230\007>\226\261\251=X\264\221<\332\236\314\275u\032\305\275\221\027\312\275&\252\325=X\255\307<\000\216\264\271(*1=P\301\323\275*\225\335\275y\026\033>\360\t\366<\277<\022>`\200f\274\356\244h\275\226r\330\2758\346\271=\210[\217=\250B\330\274I,\276\275\310M\253=$\r\251=T\226\350\275K\035\253\275\230\351\321<d t\275^\333\340=\267)\032>\020\227\327<\217\025\021>\260\336~<P\220h\274@\370\353\273\220Kj=\351E\351\275\003J\301\275\026\255\317\275\000\025p;\222M=\275\010\314\315<\264\211)\275f\307\200=p\235\n=6\t\326\275\202\032\366=\360\010\312<\375\333\026\276\260\275\351\274\024H\310\275\230\312\332\275\177\035\267\275\324\340\265=/7\270\275P7Y=P\344\316<\300\305U\274f\215\350=\0303\331\2746\r9\275\251\335\030>@\352h\274\020\303\213<\202\372\200=\010c\277\274\000\262:;f\355\014\276e#\013>p\014\037\274:\317\242=V\275\272=\310rq=E\325\n>^%\346=\331f\037\276\022E\273=\266\267\364=@\335~\274\241^\034>\211S\003>(\271\270=\240t\250\274\350M/\275C\007\242\275g\332\031>\302C\346=P\272\257\274vP\352=\273x\014\276\3176\016\276\351&\002>\316\230\030\276\340\325f\275\006p\023\275\247\202\t\276\206\267O\275\244rP=XT\270=K\230\211\275\300\273v<6\367\237\275\312\333Y\275\036\n\331=^i\360=z$\304=x\332\222\274pD*< \271}<\236#\251\275b\321\354=~\266[\275\2421\357=\214\347r=c\262!>@XZ= \271\\=\374\005\005=\200S\255\274\220\371\355<\\^\213=b\366\360=\242:\343\275`\027C\275R\330\311\275\250\347\310\274j\270\315=\'\362\361\275\202\250\272=Y\236\007>\224\332\207=\361\032\007\276\020\257\333<\334$!=\370\304$=\000\212\\\272\274\202\240=\210\022H\275\334\007\242=\216\370\306=TH]=\364fw\275\270\332q\275z\237`\275\200\031\262:B\361\250=;\370\021> \334\226;4Ho=!\242\245\275q\336\n>p\312A\275\000\220\017\276\016\2636\275\020\361\253\274@\365e\273\375\233\347\275\300\325\211<\320\306\375\274G\375\323\275\271\212\022\2769}\036>\316}?\275\240/]\274@B\017<\275\017\246\275e\226\241\275\334EF=\2621\354\275,k\004=\360\237*\274\325\206 >\316\037\207=\275F\n\276\376\337\250=@\212Y=\017I\307\275\241L\247\275\370\227:=P3\270< \362R\2744E\307\275\373x\370\275f\301\366\275\3263\023\276v8\341\275\340\321L=\274y\233=\260J\034=\"\325\267=X\007\273<\203P\005>D\035}=\010\210\262\275F\273\226\275\004R\364\275\377\205\036>\006`\320\275\224\373\203=\276)\302\275\335e\">\334\337\002\276\243\316\032\276\3401\022<\376&\001\276u\377\215\275p7\356<\207?\265\275\036\310\274=\310b\345\274\372\371>\275\300M\374\273T\210\233=\212R\005\276\303\312 \276@T=\275\272\223\331\275X\0035\275\356\210\241\275\332\010\263=\037\032\020\276\332P,\2755\240\322\275\357=\020>c\351\022>T\027\000\276#\254\r>F\201\206=\363\257\003>\030\005\234=*<a\275\312g\270=d]\t\276R\324\334\275,\233<= \031\342\275\206\353\220=\217\307\037>\315t!\276\014\352H=\215I\351\275\275\275\031>\335\216\027>\026\317\345=\236\311\353\275\264\374\006\276~Y\336=\376\230\225\275\300\376,\274\232\333f\275\311\371!>\'\376\005>\230\204!\2760\370\325\275)6\324\275\374\220\022\275\204\225b\275\300\002\023\275\270\200\203=\316}\327=0\330\006\275,\352*=k\335\035>\266\215\037\276\0000\0178\214/e=\206J\336=7,\242\275$\303\004\276@JG\275\200\233\003\2732\371\311\275xKp=\362J\\\275\210\273\204\274@\234\264\273\30026\274_)\007>+\344\267\2758\377\252<\026I:\275\303s\027\276\372\000\320=B\372\214\275r\373\004\276\330\023\315<\324\371O=\330\223\264\274@\213\320\273\2630\005>\220\213\313\274\216C\311=\372\345\320=\320\000\347\275T\222u=\306\013\203=\306\267\232=\256\304\023\276 \321\020\275h\022\024\276\372I\331=\327L\000\276\244\216\261=Xg\003=#Q\037>\032\\\327\275c/\026>\272\346\020\276\204\201P=\210D[\275:\333\336=\300\001p;\300\231z;\303\277\006>Y2\033>\360(2=\217\347\010>\272\205\350=\2001\255:^j\224=\3007,=\030\312$=\035\343\207\2750Ad<]\350\201\275\352a\343\275@a\322\274|\014!=Z\267\333=\371d\023>\003\273\022>x\367\010=&\027\337=\200i\261<\000\025Y\274\000|P:(\366\014\275\202y\260=\000\003\r\272X\250\003=\327\240\022\276\006\265v\275\300\177\267=\253\\\363\275\020\345\r=Q0\215\275\245\250\025>\340\021\024\275w\233\022>z\351\310=\r\373\270\275\n\231!\276\272s\'\275\216s\376=h\227Q=6:\327\275`C\313\275\017\304\006>i\021\227\275 &\364;\341N\032\276\270\n\240<\034\277\255\275\357\254\224\275L\275\272\275\276\017\373\275B\257\335=  \351;\031\r\004\276 \240\370\273\346\203\273=JC\n\2760G3=\204\000\016=\312\010\026\275\204Jl=9\310\234\2754\313\257=U\260\023>\346,\326=\374\303\025\276p?\235< \247\200<\335\377!\276 \322R=\270Wx=(\252K\275\\\370N=\"\035\304\275\324.]=VS\301=\262\244\345=]\347\023>0z\306\274\313r\241\275\374xJ=\032^\361=\230f\311\275\304\034\013\276 \251\204=\246\302\343=\026\305\274=\376\'/\275I\373\260\275\200\301\001;\363>\207\275\324Xw=\000\010@<k\234\001>^\327\350=P\237\225<\210w\354\274\206I\315=\036\267\365=\330\316\270\274\333\327\004>\276\372\332=\273\244\003>v\256\270=p\2147\275\202\212H\275\256\r\r\276\030\317\270=a\036\037>\346\222\234=\240\222!\276\000x\334:\230B\254\275\0024\247=\3425\352=ne\276=\332j\233=\024}\017\276\014\256|=\215\000\274\275\220\225\306\275\213\201\">\307V\032>\213F\002>0G\336\275\361\354\036>\216\327\327=\032\023\001\276w\333\317\275A6\372\275\204\035[=\302\316\314=\260bL\275\214\020c\275@\002i=\010}*=\201j\265\275\206\347\224=\356w\305=fMn\275\332\213\035\276rZ\035\276\3502\355\274\350-\003\276,\266\005\275(\333\322\275\236\022\036\275P\010H\275\200M\342\274r\235\277\275\000\004\220;\374\364\274\275\031\036\256\275\033B\274\275\016\346\345=\372\020\377=\356]\370\275*\257\355\275D]\022\276h\371\310\275\010u&==\325\266\275k\307\025>\000\232\337\272;\312\316\275l0\321\275M\267\217\275\376\314\322=\202\007\302=p\351/=f\267\010\27671!>1F\003>\340~\017\274\260\027\211\274\002\024\277=\020\346u=H\026\357<B\201\003\276Xc\232=u\241\222\275\200S\225\275*#\001\276\333t\031>v(\033\275\024\200\245=&\234\037\276\210\033\013\275HP\315\275\300\304|<\302\363\016\275\003\356\351\275\244\310\234=@\206\226<\244\311g=\017Y\016\2760\305\355<|\370\356\275\343H >!\014\253\275\0106>\275H\315\331<\314\246h=\030&$=`m\267\274\247\252\021\276\n\265\346=l\242\262\275;\037\024>\\\242\223=^\215\327=\2160\375=\240@\r\275B\341H\275\200\303w;\217j\014>Tj\013\275\377\263\236\275^\221\034\276\200\020b<\276\245\313=\001@\263\275\370\277\320\275`\206A<\000\030U=\332w&\275(\277f=f\003\372=\304\220\335\275\304\247\271=4\034~\275\240%\263\273\300 \324;\300(Q;@\204\005\275\377t\032>je\275=+\256\261\275x\265\300\274j\243\305\275 \272\026<&\337\360\2757\214\310\275\014N\244\275\036\022\357=\352\3673\275\300\354\362\275\0257\010>\232\243\372\275\221\357\016>n\006\221\275\304\274\240=4\301\026=\030;\013\276\202i\366=\367@\003>9\303\206\275\230\233\020=\334\224\027=\277\241\001>\224\316F=*\340\366=\226H\004\276\307\032\n>X\357\026=66\354=\304\332\221= p8\275\210K\237=\300\266\265;\360\316B=5\301\032>&!\366\275\207\300\032>\020\207\023\2762 \216\275\352\033G\275X`\367<h\204\254=\260 \252=@@w=\000\211)<ht\177=\004u4\275\302f\037\276\032\327\263=\266\363\274=\340\010\244\275Nf\345=\304\252\034\276\362W\320=\307\273\024\276\244\244\230=, W\275a2\032\276\250\222\373<\304 \352\275\3269\201=\320gW\275@6\267;\350N(=0\265\337\275zJ\272=\000j\270;\264\177m=\205\315\031>i\265\002>\274p\334\275\226J\365\275\330\243\363<\204\373\205\275\210\306\n=\355j\213\275\244\321l=~\365\014\276\"\345\204=\230:\326\275\340\242C<0\260\017<0K\330\274p\2363\274\273`\206\275r\337\370=\313\304\004\276\336\036\363=\230\035\360\274D\0028=\023\352\037>(c\260\275\240\204 <{c\245\2758\242\027=\350_9=@[:\2732\253\371=\346k\300=L\252.=\240\3163\2748\246\213=\274\022\306\275\345\227\010\276\177p\277\275\370p\000\276\336\274\244=\3406\316<\302\005\313\275\216a\372\275Zp\310\275\310\363\272<\000\270\301\272\211\225\007>\220ma\274d]\270\275s\230\t>\0206)\274\320\307\023=\370J}\275ba\021\276\320\227\203\275>\212\276=X\2139\275x\231\017\275\200\372A\274\220l\001\274k\377\016\276\270K;\275\252\353\355=2\266\352\275\374\213\023\276\000\363\337:\370\207\320<`\346\244=+\241\034>\332\017\205=H\237s=&6\354\275\366r\236=\224\372\230=\263H\016\276\327 \242\275\237[\n\276 \203*\274\r\251\037>`O\367\273\311\307\006\276 \257\235\274\n\272\370=6\302\362\275h\267\303\274\364\355P\275Go\036>\\\265\005\276\320\256\004\274,b\234\275\250|\340\274Vu\346\275V6\240=f\301\357=\3578\t>\324d\022=L\242\334\275xz4\275 \230\221; \371D\274\224\310\306\275J\340\367=\236\362\341=8N\360\274\277h\035>\217=\036>\237\212\r>\035V\025>\000P+\272X\324\367<\331\327\031>\000\240\004\275:^8\275Q\350\r\276H\204y=\212\202\020\276\350\'\266=\020\312t<x\270F\275L<\003\275 n\230\273\024\341\257=c\256\265\275\325\300\346\275`X\316;\212\344\327=Vt\244\275\014\007\250=@\177\246\274H\240e=\372\025\374=b\177\313=\344\245\310\275d4*=\000\270\257\272\222\320\356\275N\0025\275\366@\365=\320\261\311<\310\341\027=0\343r\274\2467\034\276~z\020\275\\y\022\276\002\211\006\276\217\242\221\275\377W\371\275\004\313\022=\025\302\023\276\000\020\235\272\252\342\237=\322m\241=\324>\230\275\250\t\304<Q\344\005\276\210\023\207=\360\3654={w\031\276\026\320d\275\204\234O= ;\212=\375\246\035>\323d\032>\252\201\231\275\310\334\016\276z/\377=\310\325\271<\000\322)\274\310\341\366\274\210\316\213\275n\002\007\276\210:x=A\037\030>\242D\327\275+\330\020>\026\361\373=\200\377\024;\234\255:=\343\251\276\275Pj\020<\246zt\275\270\2068\275\366~}\275|a%=J)\307=pZ`<\3105\366\274\000\270\322:\364{&\275hL\r\276\000\034_\275\347\321\274\275\260U\223\274S\021 \276\333\026\035>\200}\236<\357N\327\275\000\215-\272_F\017>\'\034\031>d\3229=\304\245\350\275G!\031>ef\">\350ji=fa;\275\212\224\315\275\250#/=<\324\034=\341\375\030>\307\006\030>\332V\030\275\242\322\324=\323M\230\275\200N\306\275\320\302 =\000\216\237=\366^\001\276\215&\026>h\000Q\275\3300\262\274\240w\270\275\244\256a=\320\002f=7n\t>x\320\373\274\000\021\236:\030P\345\275\024g\210=\326x\260=\300\030\021\274\323\355\003\276\347=\375\275\\\241R\275P;\372\274\304\226&=\000\224\232\271\0002\232;0O\361\274*\330\334=:~\323\275\316F\001\276\312\372\302=\326\270O\275\366F\017\276@or\275\206Z\344\275\370{\007\276\226\256k\275\360\252\220< \324k\274(\327o= 0\260<\246\'\344=Z\326\352\275_T\357\275\0008/9#\371\311\275\306\333\203=et!\276\024\027\033=v\024\206=\274\304\321\275\032\022\340=\355\030\016\276\200kx\273\240\271i=@5\235<\034\355,=4\255\027\275(\272\023\276\322\321O\275\2509\356\274@\235\276\273n\007@\275\024YJ=\327\333\225\275\220\205}\274z\337*\275\262\220\303=\225\326\000>\022\205\304=T\303\370\275\374X9\275\305\214\021\276\315\212\023\276\275\314\203\275*\240\343=\200\347&\274\344tR\275(\276\252\2746o\346\275\240Om\2747W\353\275\212u\021\276R\243\321\275\236\255(\275\270E<=\234\333\016\276\244\344W\275\210\336\001\275=\017\240\275\310\035\017\276\000vQ<p\227\365\275`e\205\275\312\250\233\275z\247\272\275\202\224\222\275\202\352\216=`%\261\274\207,!>\353\260\007>*\357\003\276i\021\371\275\314Y;=8_\326\274@\017\256<\314\2333=\320\236\321\274\340+f<v\0215\275\300\3440\275\'X\217\275\254\023\025=p\030\n\276\200\006\335\272\320\nf<o|\264\275\020\345\243<cU\326\275^\225\363=T\362\215=$\347\004\276\247\023\010>m\217\025>\222\2525\275t\354\033=\255d\036>\373r\021>\340\237\276<M\364\024>\354P\030=p%`\275\240\264\227<\300\352\335\273\275}\030>_\270\001>\267\306\037>w\351\264\275[O\036>\230\233?=\007\232\033>/\331\030>\260\222)<\366[\323=\322(\256\275)q\243\275\352_\311\275\240er\274\236\r\033\275\244\264\000=\323\231 >\211\005\r>\020C\343\275\304_e\275\300\265}<\000U\373\272x\002\032=\374t\024\276\000\324\246\272\300Nu\274\214+\202=\214\224\226\275\252\276d\275HN\346\274\253\256\017>\234\225\016\276\225\030\026>\312\233\326=\220\206\275<\206\0012\275QF\037>~O\216\275l{j\275\360\212r=\260\263\272\275\204\324\320\275\311\024\014>`\266\n\276\004\035\230=C\262\255\275[1\034\276\t\245\002>D\344\261\275\353\341\006>An\002>F\233\361=\360\2440\274\214\377\030=`\2255\274\240*\213\275F\016\306=x\\\002=\276.\250=\364\2157=~B\374=Y\347\033>|\205\033\276`\212(\275\241\226\352\275\306A\355=P\325\245\274\236&\345=\351\034\354\275\301\303\336\275\375\010\026\276u\033 \276\372(\254=&\371\343=$W\227\275\026g\322\275\267\265\002\2765\242\016>3d\026\276\r\241\031\276\3339\000>\310\372\234<\302\007\362=\325\016\r>\037\244\372\275\304\031G\275\214\205p\275\332\367S\275bw\344\275\024p\"\276\234\322\375\275\247\202\"\276\230]\314\274U\337\025\276\021[\035>\214\010\002\275\037$\203\275\334\366@\275\370\207\331<^\030\277\275\030L\013=\354\006==EY\002>j\333\353\275\323v\023>\334\262\343\275\300\306\014=\377\354\345\275p\027\221=D\213\207=@NA\275\rO\003>\372\336\330=\360N\233\2740\222{\275\332\306\333=]\352\354\275\366k\306=\305a\255\275\370\361\226\274\013\220\023\276s\262\024\276\210m\034\275n}\200=\365\237\227\275\362D\356\275\031,\020>\262\270h\275\230(\242=\256\230\374=Ch\037>\n\202\344=\206if\275\2665Y\275n\312\345=F\202\335=t\351\"=\026\230\320=\216\\\310=<\220r=@+\246<e\271\315\275\014\337t=*`\322\275\367\344\006>q\222\232\275\312\2777\275\260\004\264=\311\313\213\275G\331\270\275s\360\241\275\360\027\212=\342\036U\275\312\2548\27500U\275\272\010\016\276o7\002>\252\024\310=p)\251<M\207\302\275@\026\270\273|Ye=(b\223=Ta\243\275\031\372\t\276,,\002\2763\315\016>\342\036\374\275\362_\303=\025a\014\276TtB=\250D\233<\242\244\000\276\200O\022;%\311\030>\322J\334=\344\r\024\276\337\306\242\275\216\225\377=\317\340\215\275-Y\t\276^\207\"\276\200,Z;8\347\006\275\200Ah\273\200\255X;\261@\013>\214\354\270=\252\351\377=\260\221\034=\366\022\345=j/\236= \327\374\273\260\237\312\274\034\223#=\330L\311<P9\031\275\"#\356=\342\034\347=\027\212\032>\262\265\354=?8\023>u\231\023>\330@\204\274\332\201\017\276\025\373\014>\370=\365<3e\246\275q\253\031\276P\017\264<S\217\t\276\357\370\244\275\246*\305\275y\273\236\275\340W\021\274\224Md=\2440\021=<R\370\275k\206\035>\326\341\310=\210\022\364\275\216\032\355\275w(\000>8\023\252\2752j\364=\260\205i\274*\263\244=\334\320\221=\344W\324\275>\016\347\275\212\356\335=@:\372\275\304\253\357\275\200Zo=b\351d\275\341$\026>k\200\243\275\025!\025>\325K\370\275N\336\357=\340\321\030\276\356\177\365\275\000u\256\273{{\021>\220\216\230\275\351\'\n\276@\223[=\364\362\032\276\200\206\224\272Hn\t\275l\267\010\275H\206\016= Y\300\273\277(\000>\210\255\377\274\034\275\217=\010j\240<\037\033\004>\362l\222=h\354\306\274:\322o\275\360\312m\274\260\333\014\276\020vy\274\235\315\205\275\030\006\240<W-\">L\036\307\275\375\350\001\276hk\260=\325\312\215\275\350+\365\274L?\027\276\246b\201=v)\237=`6\026\275x\311\303\274 \247\227<\212\000\261=@\377w<^\254\276=\300\'\226\274\360p\037\275tx\211=\277\350\017\276~\036\320=\352&\266\275\300\321\342<\202\237\360=\027c\007\276*\310\207=\312\362\344=\253\306\033><\272_\275 \253a<{\245\301\275\340`\230=\005\023\244\275\364\256\233=\234\320\337\275BpA\275f\265\260=\223\006\034>\325/\265\275]\266\035>\332\022\261=P\303\242=,\2224\275\300\021\252<\200RR\274C\314\242\275p\030\005<\307f\032>x2\227=`\216$<\326\013\311=\360\310*<\200\006G\274\2026\266=\0228\374=b3\354=\224}\230\275?W\t>\342\321\255=U\250!>\304R\005=h\222\357\275\357\227\240\275\374\303_\275H\213\354<\236\370\221\275\0167\211\275P\244\323\275fG\016\276\252\266s\275\344\361o=\230\313\350\274\376M\313=d\357\235=\250\236\342<}\200\026>04\234=\"\014\376=\021\255\003>\227\200\034>\256\352^\275\033M\366\275\200b0;\013\254\005>\366\370\036\276\276M\351=p\365@<\360\020f\275@%\307;\354-\267=#:\031>\376\"\254\275@j\032\273L\030\006\276\\a\013\276\365\034\226\275\340D]\275q\273\004>8\207\207<\365?\241\275.g\356=t3\224=\351\221\004>U]\247\275)\016\026\276L50=\005\014\023>$\344{=:\206\333=\340>\360<\332\237\334=kF\317\275\340\331\217<O\314\235\275SI\016>\337\354\036>H\3413=\\\017\361\275\002\353\030\276&\220\356=\004\327\020=-\211\240\275\020\213\032\276\244.\234=\000\363\031=8\361\223\275\000\245\"\273\224\013\000\275)\340\n>\200\373\024\274\220\305\371\274Gw\032>\360\3445\274\356\331O\275\210^\261\275fl\252=\360\267H<\242\356\345=;7\003>r\225\236\275D\342==\361u\037>Di3=\223u\033>T \223\275\273m\010>\310\313D\275\212H\313=^\257\367=Z\014\032\276\342%\364=\010b\362\2749\330\352\275\262\250\304=\340\315\232;;\224\253\275\210\014\363\274\021\220\003\276\320\277\242=\340\214j<\222\300\355=\010\n\367<[\354\216\275\021\032\013>\036\341\373=\024\371\210=I\247\024\276@\232v=@w\335\275\020\226J<\374!\001\275\254\210)\275\245\377\030>\230f\023\276\020_/\274\264\315\027=\360\010i<\250\003==\364\343\250\275\322\377\305\275\030\217\000\275\306xQ\275\335>\034>\302/\021\276\360.\271\274\020Z\020\2766\263\264=\310[\007\276\334\016Z\275\310\307a=\363\240\026>\360\200Y=\257S\007>\274\2013=\000\354 <\200\222\377:8\320\t\276\304j\207=b\263\205=\226\377\335\275\371\326\356\2750|P\275\\\023K= \225\342\274\010\233\001=)|\243\275M\250\031\276\326W\363\275*&\300=\354-\341\275\024\236z=5\371\023\276\356P\213=\235\253\030>\262\224\371\275\332\\\260=\177\321\020\276\360\330(=U\331\014>t\023\201=`\264 =\341f\356\275X~\373\275f-\243\275\343\273\023\276\021\364\021>p\227A\275t\232v\275\260\332\017<]y!\276\344`\206=`K\372<\252\023\320=\350i\357\274\032\276\311=\304\343P=\000d\340;@\275`<.2\372=\340D\210<HT~=\310\224\003\276\002\304;\275\200\220/;\031!\271\275{\177\007\276o\036\035>\002\177g\275`\nj\275\322\336\t\276\274\226\222=@\316\325\274\376{\242\275\244\005\350\275H\361\254=\001I\010>43:=0\001/\274\340\351e<\312\013\337\275\240Lc\274\326\024\036\276\217\205\277\275\360\222}\274\326\2168\275\216\005\271=J\005\312=|KZ\275\n\206\217=\340|A=$\\:=\310\351E=p\324\377<\340j\363<\310\023\204=\342>\372=&/t\275\244\225\r\276 \326\236\274\252\315\014\275\256\257\314\275(N\305\274`\336\222;@8\347<\270\267\211\275zD\276=\275\243\210\275\220\372\265\274\310W\333<(\036\223\274\360\200\266<\")\203=\360\026J=\\\005\256\275\220En\275\220k\222\274\024\357\323\275\254\350\323\275\3171\254\275S\344\031>\360=\363\274\tj\r>\325U!\276*\273\313=\'v >\027\347\005>vL\017\275\026\360\031\275\036\277\313=\032P\346\2752\177}\275\010~:\2750\244\t<$\331G=4a;\275\300\244\212=8\250\207<\307\362\272\275\331S\022\276\321(!\276\014\021?\275\377\"\032>\243?\032>\316\221\034\276\216Q\346\275$\\B=\320\346\370<B\211b\275p,n\274wW\014>\030\300\215\275V~\006\276\370\004\343<\310l\206<aT\002\276\300\335\264\275y\033\021>\010<\024\276\200f\207<^1\355\275\332P \276\371\371\027\276\276\024\316\275\200]\000;!\323\017>\010\271\310\274n\352\333=\217\371\034>\212\372\314\275 y\206<4\254\221\275\034\360\202\275\214\000\233=\230\353\205\274J\221\342=\223O\314\275\030\333\243=T\032\341\275\376\310\t\276\234\311\261=\020\2269<\032)\303=\360\205\023\276\314\206\204\275\261\036\014\276P\243\355\274Z|\342=2q\344=\231X\325\275\256\006\354=h\326\017=\361@\007>\000\304\177=\343\314\317\275\0249[\275@zE= SG=\327\270\356\275X\275\356<\016\276v\275\246\355\206=\251\243\035>\330\323\325<\224$Z\275\256\273\024\276`\314\310<X\365\025=HU\212\274\010\345W\275u\356\032\276\306\342=\275\026\310\351=\022\306U\275P\007\002\275`\265\364\273\250?+=r<\213=\024\303s\275\332E\366=\000\232\263=,G\235\275\275\300 >{\243\"\276B\014\373\275%\026\002>J\200\326\275\215\376\325\275\210\365\007\276^\325\345\275\342\306\360\275\2609S<p\224\336\274\220N\031\274\370\304m=\220LK=\300\320f\274\262C\237\275\314\333\301\275 \364\021\276\307T\317\275R\302\346=\034\237\220\275\304\331\263=\371\\\264\275aX\272\275\020LA=\020\350\366\275\356e\332=\034F\030\276\330\271\003=\nE\271=\300P~\275\371\344\006>\031#\013>\000\337n\273\037\205\246\275g5\027>\306\361\340=\374\373\026=\036\314\304=P\363!\276\272s\311=BH\277=0MM<\217\232\030>F\n\233=;m\320\275\262\037\206\275\2206\271<\034\276\035\276P\340q\274\010\007\n=\306A\031\276\354\032\002\275\270b\337<H\255\223\275\003$\300\275t\201Q=h\330p\275c\333\r>\351$\030>RX\323\275\030\332\361\274^p\325\275\214\361N=\3458\202\275\256:\272=(\n\362\275E>\031>\372r\330=x\344\215=yl\341\275E\334\232\275\210\355t=J\036\304=\305\201\003>^SS\275\320\313b=\321\177\264\275l\203\362\275\230\214\264\274vo\335=0Jj<\302\254\333=\214\271q=\031\357\016>\206\304\316\275\272\351n\275\351\356\r\276t(o=b\206\245=o\357\031>\030\376\002\276\254\377R\275|\375\347\275\000P\3469\346\234\235=\210\265\361\275\260\'\306\274\200\007\333;\370\316\201\274H\344_\275\020z\031=\206;\374\275\356}\375=\270m\243\274\302 \312\275`Wv\274\006\350\267=\257\343\274\275&\030\322\275\340qD\274qf\021>7-\342\275\313\301\021>h\342\323\275\'\251\031>\231\275\302\275\316N\211=\037\211\034>\\v \275\"q\217=\276\263\346=\214\207\254=P\300\r\276W\014\342\275~\301\"\2764\034\265=\232\331\366=&\220\373=\323\204\217\275{z\361\275R\326\306\275\202s\360\275J\361\320=pFa<!i\t>\274\312K=Zk\007\276(s\003\275\362\353\346=k\343\256\275{9\003\276>\222 \275\030\275j=(\035\363<4\035\211=\250\302\266<\277B\037>\204w,\275\252\2433\275j\243\362=\264\205\005\276Ph\224<@\255U=\355\375\246\275\300\013a\275\244\333\252\275p\220\030\274\360\220u\275`\241.\274C\247\017\276\250\316\345\274\220\372\234\275\270\354\032\275\2730\207\275|\301\336\275H\225\014\276\326\222\014\2765\323\340\275x=\247\274Z\221\254=\360[\024=\322a\323=F0\376=,\'\t\275\013\316\023> .D<\224\005X=x+\010\276\374\243\010\275\224w{=\200\310\247;\337E!\276\333k\025\276 Fv=\366g\307=\247\245\r>Hb;=\223I\275\275@\222\371\274B\356\221=\210\207\217<\340C3\274H\334\242<\360\316i=\374!6\275\262\275\314=\222E\343=\206\275\226=p\315Z=\02499=\215M\001>\200\000\000\274\020OE<\220k\360\274\304\264\'=\340d\215\273\002\036\247\275M[\352\275\207Q\017>\007\031\t>,\214\035\275\343\013\274\275./9\275\320\316\237\274\030\370\274\274\344r#=\200\234\210:\276\343\333\275\000\324*;I\355\270\275\363\274\004>\373K\007>\'\251\226\275B\t\350\275\032\362\245\275fL\352=\232\316@\275\225\204\004\276\310\035K=\330\336\000\275\254.p=j\333\263=:\222\374=0\000Y\274\205c\276\275Y\252\230\275\326\024\237\275\200J\222=\2000w=\000\261\213\274B}\352=8\347\006\276\346\013\244\275\273\261\277\275j\363\212=X\251\342\275k9\037>R\347:\275\030.\226<\270d~\275\330+\251\2746\303\345=VME\275\340\353\016\275\334\221r=\226\254\341=\023\005\271\275\236\365\256\275\315\303\300\275\n\216O\275^\346a\275(\265\266= N\222<@\000A<O\326\217\275^\034\314=\300\346Z\274\200\351y\273\211C\030>D&\242=\340\335\272\273\020\204h\274W2\024>\022RA\275\234\2439\275\020\356\035=b2\334\275\347\333\031>J\342\364\275\240\351+=\300\344S<\274\2308=\251\n\002>\\\341h=xp\260<vC\220=\232\"\206=\246H\335=\342\363\367\275.\207\300=`H\000\276\204.\374\275\003\257\202\275\322\203\364=\244\230e=\024\364\376\2754\247\017\276\340\306\326\274\003\376\315\275\220\374\r\274\340:\213\273H\016\256<RO*\275;<\305\275\256\306\344=\360j\037=LT\010=\3418\253\275vT\274=\372\010\354=\271\212\224\275kJ\214\275Xm\255<\240\365@=\006W\233\275\004V\327\275^]\237=\276\326\310=L\320\014=\005\332\021\276j\021\004\276\330R\303\275\236\023\017\275,\327x=\222\215&\275p\317\013\276\260\323\241<p\246\367\274\332\022\364=\022\371\244=Ho\267<\212\222\337=\000\363\032=4\021\203=\237^\235\275\210\3577=\362\243\347\275p\n\242<\3546\315\275K\307\334\275\3077\025>\243=\014>@\000J=\202L\304\275\226T\014\275\277m\343\275@K\200\275t(\374\275\3561\217=V\017\034\275\360\306\257\274\3500\271=\260\017J\2754\267\305\275t\342\022\275\307;\006\276\300\302\333\275x\004\364\275\200T\235\273\246\213\336= \275\030\275\200\032\206;\032\265\365=\010\'E=\303\267\023>\244rz\275\333\331\004>@\270n;e]\245\275\262\344\266\275P\377c<\3726\326\275\240[f<~\022\237=\210|\361<A\351\022>.\225\037\276\340\",\274\260\017\371\274 \304\004\274\276\237\210=\300q\244;\360\266U\274\210p\226=\234\0239=\354\373==\275*\021\276`\\N\274\313\342\376\275\350\nt=\3302\320\274*F\300=(\321\350<\"\323\004\276\254\214\001=\0029\254=,7\320\275\036$\234=\000\373\223<vG/\275X2\356\274Pt\212<\025j\"\276\237\351\013>sl\r\276\320!\336<\314\200H=_\204\035\276\016)\361=Z_\361=Z\202\203=D)]\275\020\016}=`\245\345\274\214\265\026=\376\336\030\276\300d\016\274\366n\361=y\036\017>0W\267\274\346\363\362=0\334B\275fy\352=\236\026 \276\264\337\362\275\030J\214\274\270\234\003=\340\277\274\273<p#=\330\002\024=i\313\000>\264\343\024\275\310a\250=J\343\240=7%\021>\264\226J=I\230\037>V\037\352=\202m\026\275\021\271\000\276\024\033\016=0\232I\275\206Z\373=\330 \251\274\324@\260=\324\005\232=\313[\020>\270\321\244<\300>;=\255\272\006>\264b\000\275\000a\342<X\315\200\275\016@\362\275q\217\324\275\206\014\222=Fv\340=*[\325\275\244\225~=`\201\261\275\234\363\221=\200\327\230\272\330UI=\334x\030=P\321o<\260_\271\275>\232\213=\233\003\026>\000\371[:~0\213=AA\031\276\000\000\2019\257=\030\276\332\203\351=\334\025R=H\224\213<\252A\031\276hT\222\274\250e\034=\341\"\">\233\353\351\275\222H\022\276\353\226\261\275{P\036>\352 \020\275\n\r\373=\2225!\275\"\014k\275`\273\235<O\341\033>\034\235\021\276\376\020\215=\010\'\311\275\000\241+;Z\322\344\275F\215\301=&?\004\276\000\313\':#B\017\276]\314\020\276@#\367<\020\364\340\275)\310\033>\340\261\007\274h\354\334<\030\177\206<\333\331!\2760\324p\2757\346\034>\215\205\032><\000\216=p3\003=\n\273w\275D\373}\275l#\037=\\U\310\275\362\344\242=\000\033\004<\320\222H=,\202\372\275\246/)\2750\337\343<\2264\356=\017\342\271\275\211\212\032>\354\204\007\276\300\266\252<\200\"{\273\3555\023>@\\\260\273\212\260\340=m\364\025>\026\265\323=\343\337\002>&od\275\211k\017\276B\320\353=\370\371\350<\240P\023<Jb\224\275T\371\034\276\375\033\026>o\224\034>u\377\036>\232\352\356\275\020\036\256=b\026\202=Y\317\t>\332m\355=\036\027\223\275Zh\266=\316\273\237\275\216;\227\275\264\335\031\276;\004\007>T\\\\\275\326\"W\275\234\237>=\234\006\371\275\024\026\322\275\270\322\326\274\013\033\013\276\350\025\315\275+\355\013\276\303\273\">\350\320j=\300N\265\273\020\032\236\274 K\341\274P\245\214=\350Q\022=\257x\224\275\324\"\035\276\352B\354=x;\271=\221\016\340\275\332P\326\275\374\257\017=\002\226\373\275\264%\370\275\311P\220\275\272\t\314\275 \267f\275 \347\224\275 Z2\274\232\013\363\275\030\311Y=R;\377\275j\303\021\276\222\n\313\275b\337\350\275\250\333\205\275\321\035\275\275]O\252\275\306\t\346=8\032\200<@\367$\273<\306\267\275J\300\315=B\r\033\276s\256\016>9\362\247\275\\_I\275\242\257\345=\370\244\000=\000P\364<\352\010\332=\222\260H\275\310\231\026\276@\353W\273\310K\207<\263\361\026\276\364\023S=\0102\002\275\002?\232=\260\242\242<\320P9\274V\177\017\275EG\371\275\216\210\222\275]\312\013>\3006\013<\245\202\025>\256\313\362= \224\214\273\000\240\351:\270\352\371\275{X\">\330}\345<M\220\001>\217\370\303\275\254b\r=\364\222:=\200\n\024\276\010\342\371\274\223\360\306\2758\346u=\006\355\340\275L\371\264=B\231\342=&b\372=\243-\204\275ER\346\275S\265\034>\014\3019=\366\234\274=\340,\257;\200\030x\274\360_t<\262\014\336=\265\"\232\275\340}\223<\005\345\024>\274\232[\275\230\037\033\275\374\335\207=\270\2008=\340\362\006\275?\007\014>\202I_\275@$\377;\004\021v=0EH\274\316\326\363\275b\313\272=\252\305\354=\251\312\000>\377\337\305\275\200\214i<vw\037\275\010\330\325\274P\205#=\200\347\265\273\362h\033\275\350-\177=\'\262\020\276\272\206-\275\254\026z\275HA\325<|\302\017=\362j\221==\365\373\275\0356\006>\010g\023\276\346\335\333=2\240\355=\342)\376\275\032\322)\275\320\264!\274\205\331\272\275`\353.=\367\214\004>\264\201\332\275\006\255\231=\306\231\372=\320\361\342\274\224\356<\275\330\377\242\274N\315\367=\240t\260\274\352\027\331=vm8\275\010\206\003\276\177(\r>6\212\236=\022\214\036\276\220{]\275\321w\305\275\354\010\007\276 7q<\016}\321\275gy\021>\010\340\003=\000D`<:\017\304=Hh\375<\246\002\361=\300\n9\273\351U\t>iB\265\275\260d:=\342\266\350=\330\277\215<\355,\025>vf\364\275\271\022\256\275\220\207\330\274\230\017\244=@87\273\252#\271\275J\276j\2754\322\t=\2456\036\276\014# \276`ix<\314\r8\275\350\341h=\2328\251=\322\306\031\276\237\352\006\276\275|\010>\356E\032\275Ne\273=Y*\n\276\340k\021\276\344V/\275\204\277|=\304))\275\235\016\274\275`\2419= \035\177=\201\356\214\275p\313\254<\300U\241<\275\320\003>\307\367 >\330:\276\274p\315\r\275\346\201G\275\324\306#=\300\301\n=RB\003\276X\213\265=PIs\275\2223N\275@\303\037;\016\023\333=\210\271\350<\234\3632=,\254\354\275\010\020\030\276\215\315\024\276\"\264\376=\222\215\366=\326\260\t\276g\264\">H\334\252\274z-\357=0\034\274\274\366HQ\275\225\355\034\276N3\327=\360\003\006<\013+\006>TN\017=\202z\243=\212\000\267\275\336\324\350=@t3<\330\376R=\335\\\032>\010\014\223\274:\022\334\275\032\021\212=\273|\227\275\214A\022\275cH\241\275\370\354\267\274\356\346\347\275P\343B=\230\274\017\276\213W\031>\365\247\n>(zD\275R_\270\275F\205\030\275H\002d=N\355\313\275~\222\256=pBQ\275\360\207\305<\0002\226:P;V\274\330\353&\275\260-\030\275\020f~\274}\222\017>\340$a<\240f\255\275\n?}\275 h\334;F\210\253=6\352\357=\215\320\n>6\302\224=\340.\302\275`+\267;=A\030>aG\034>\010\331\250=\374f\003=\340\341\367<\340\244\206<\304\256\001=\221\331\205\2750M\311\274\230]T=X&\261\274m\364\035\276\217\033\000>T\037\205\275*\005O\275\245o\373\275@c8<\272\332\367\275\231\204\312\275v\n\222=t\346\203=\314#\214=8\031\340<\260\257\r\275T\335\250\275:}\301\275\200\023\377\275v\213\343=bz\367=<O\224=\240\227\"\276` \352\273\020\014D<\000\330\264;.\327\305=\370\200\377\274\230\260+\275\221F\236\275\211*\"\276\037\253\026\276\340\374\371\275\000P\005\270@V ;\252\\\320=\022\201\037\276\036\333\007\276\240\302\227=W\312\026\276\036\021\276\275\2206\250=\302\020\317=<\035\255=\016\035\343\275\240\024\024\2740\'L=\000!\335;0\307s\274Z\341\027\275\030\263\006\276JM\370=\035%!>\324\030\242=\332\347\264=\232\342\r\276:\313\330=\232w\346\275b\235\355\275\000\352\352<:\311\277=\204\274\027\2752\227\234\275\200R\222<\362\'\252=\000\311\216\274\270P\372<\304\030!\276\032\020<\275B\362\002\276\376\305\334=\266\230\361\275^\220\005\276t\276\226=6\327\344=\240\352\263<\220\262\025\276\002T\306\275\262\207\270\275\363\036\">\200A\363:`\204U\274V9>\275H\215^\275\241\356\351\275U\201\021>\360\327\r<%4\216\275 \254w\275\302\217\303=\236|\360\275\000\204b:\n\331\027\275\225G\236\275RT\321=\014^\027=\341\022\r\276\300_\226;\034\354\213=3\260\007\276\371\264\002>tk\241=\200Lo\273\350+^=x\336\304<\360\273\227=h\223Z=`U\217;\330\350\025=w\'\006>\264\244?=\363\350\005>\366)~\275\032t<\275SH\001>QU\013>\300\234\006= \\\240=H\362)=\340\237\361\273@3\263<\030\237\332\275\205Z\017><\317\214=\361\350\n>\314w\326\275\3601\201=\332e\351\275\274\232w=\001}\037>\200\367\242=r\014\212\275\236? \276>\213\347=P\317t<n#\344\275\200\215\331\273w1\014>\000\263\022:\264\321\003=Vqh\275\022\265\032\276S\361\003\276\3429\\\2753(\t>\ts\031>\333t\260\275ps\240\275\014\177L=\200\321\343\272\275\326\030>\313\352\014>\350N\221<\000r\373\272\276\'k\275@\023\312;\2735\233\275\230\220o=h\241\365\275\360o\007=\2624\262\275\350`\027\275\2224\363=\\\030\251\275\377&\035>\352n\020\2755\006\035\276\327X\025>\250\203\267<4@9\275\360\3252\274\020=\031<\200\343\000\276\276I\222=\020\007\242\275\212\352\227=M\342\242\275\303c\032\276\236\233\363\275\032o\305=\273\201\300\275\210\324\314\274p\207b=\320{\205=\2740h=\222/\335=\036\252\202=\231\\\n>\026q\310=c\277\366\2756\227\337\275\216W\307=\315\227\036>\013\205\022>r%\020\276\032\216\272=\203\026\021\276^^\360=\000\345\265\274\200\337e<\004\306d=\033z\017>\000K\341\275\227H\">\311p\t\2767\222\024>P\253$\274\327\213\261\275\010\312\373<^\337\220=\350\206V\275\266\250\247\275\016\\\231\275:\177\345=\020W=\274mv\014>\260\304.<\t\254\020>\274\300l\275f\217\372\275v\211\233=5\242\010>\016\000/\275*\002\302\275\340r\016\276\232\220\370=\006\322\247=\220w\213< /\352<\234`\031\275|a\377\275\306\343\311=\210J\375\275\264\346b=;\233\023\276\330g\360<v\254\332\275\210\334\317\274\352.\245\2753\344\016>hJ\253\274\224\250\320\275\"\003\032\276\326\227\303=D E=\"\257\317=\312n\001\276\006\240_\275\362\306\210=\330\321\345\274\020_B<0l[\275\227L\023\276\317-\t>`\216C\274\200\343\352\275\245\010\013\276`\312d\274\350\301\237=\201\235\037\276\256A&\275\330\361\245\275 \313\357\273\354/\025=:s\371=\365\005\026>\322\225a\275h=\025\275\350\273\211<\224\312\235=^\330\310\275\361~\237\275F\337L\275\322#\327=2\264\335=\000\360\32580go=k\362!>\016\265\356=\310\274\340<\356\351\316=\364d\314\275y\374\273\275\000\030\244:\340\324\341\273\000\236\376<\\\340U\275\311s\000>\300\3338\274\300\'*=\326\256\310=\320\177\213=0\n\242=\310\365\002=\300?\026<V\227N\275\222\340\310=t\3373=<\321)=IH\016>$\211\021\276\324\006^\275\263\231\222\275f\226\255\275\262\302\334=\362vw\275\362\002\320\275\004\234\027\275\323!\013>\243q\036>v\030\300=rj\005\276\353n\027>\354i\270\275\0000\266=\246R\227=F\313\260\275\374\217\377\275g\364\020\276j\026\020\275l\004\213=\320\255\373<\202\255\261=\004\002\340\275\330{\246\274\024\275\255=\230-\023\276\260`3=\005D\020>^\240\330=Zx\201=\no\224=\245\272\001>\342\322\310=@\265(\273\t\006\000>N\271\374\275F\203\026\276kg\006>\332\361\001\276\3228\257\275\361]\023\27600\024\275\000VN\272\205\335\337\275\206\035{\275L\276\032=`V\001\275\210\031\006\275\000&l=\320 \362<0\376A=BLs\275`\274s\274G\261\035>\241\004\003>T\220\034=\033)\016>\000\365\030\274\226\310\025\275|Q\263\275\240B\201=H\024\311<\346\353\335\275\240\350i<\207~\022>\336\224\341=\334\264\235=\350\032\000\275\025r\031\276T\256\244=\263*\251\275y\302\024\276\330[\254<rK\377\275bW\206=\344\317\030=\200P\213<\352\323\030\276\000\251\022\272@!\354;\250\022-\275\373%\034>\272\275V\275P\r\334\275\350\213\217=\235\306\007\276\326w\312=\010,\227\274h\323\313\275\016\272\222=\356.\356=P\226\325\275=\035\">F\257]\275\006\225a\275`@\026<\270\023\035=\220o\304<dGW=\270\372\003=\030\020\322\275\225\n\034>\007\226\023>\320\300\217<\352\276\370=\202_s\275 \364d\275V\300E\275]\312\010>\2609:\275\005\346\014\276G_\031\276\332\223\276=\262\322)\275Be,\275\354\241\001\2752\240\317=\230\357\010\275|\336\\=\021w\202\275\2048)=\242\312\365=NY\217=m\"\341\275\373\245\025>\230\017\002\276\004\243==\224\373q=X0\321\275G\323\255\275\n\010\357=\216\203\031\276#\312\217\275\226L\237=\001\003\267\275\246\217\377\275\215\267\220\275\214Z\356\275{\256\276\275\016Fs\275\276x\323=\206\240\263=W\250\034\276\346<L\275r\021\271\275V&\315\275\372\034\372=\20092<\357f\024>\240\357\331<\236w\336\275{:\024\276Tx)=\220i\235=\344\250n\275\020\3607\274\260/\027<\216P`\275\337\335\035\276b\361\237\2750\210\240\2740X\240=~\320J\275`\234\233\273\342\350\367\275#1\004>\264\037\032\2766\003\335=5I\023>\205O\326\275\023\377\027\276\200\nX<\234\242g\275\2260\274=\376c\277=\210\t\354\274\000\277\243:\302\213\330=\256\032\322=bo\221=\357\300\013>-\030\204\275\"=\337\275\320p\003\275.\236\303=\nzL\275`\377\201;\010\023\261\275\230A\264<\250\324P\275\000\250\374\270\000\306|<\262\"\000\276\260\363\002<\000\332k\274@F3<\010\000\256=\300\361\024\275`\341\"\276$^j=(\253\265\274\221\360\035>v\271\230=0\212\213<\370r\320\274\277\\\020>$\027!=\276ku\275=\215\r>`-\356;p3~=$\374?=2R\335=\320\301\321<\010m\343\274j{\234=\200\0032;(\373\203<S.\003>\023\203\031>\256\202\373\2758\n\305\274\324\224\376\275\214\013\013=\254\n\214=P\343\350<A\271\000\276\203\247\373\275c\000\311\275\242t\354=8\313\354\275\000\273\337:\232\030\357=\312\254\306= \027\016\276S\213\027>{\247\017\276\312\252\n\276=\310\n>>\230\212=\370\237\201\274\371\200\003>\332\262\256=T\360\035=\362\307\036\276K\177\024>\036\000\257\2752\032\007\276\316k\365\275\000\3453:\300\372\000;h\343\352<\321\242\006>\3300\304\275\366p\302=\364(\024=\344\014\244=\340\207\356\274\220<C\274S\322\000\276\240\002\306;\346\020\325\275:\306\276\275\000(2\274\310\n\013\275\250\005\221\275\220\r\022\275\006\275\314\275-\213\245\275\'\340\332\275I\350\007\276\232C\207=\366d\254=\260\212\321\274\250\367\327<:\313s\2754\364\026\276f+\035\276L\rp=f\353\270=\377\320\273\275R\255\017\275\212G\322=\305b\027>N\340\341\275\220\024\225\274\322Y\314=\005\245\024>7V\224\275\030\235\230<d\231\303\275\320\\.\274\036\206C\275\272\307\355\275F\305\360=\334{<\275\210\255\243\274M\206\264\275\375l\031>\266\343\312=k2\006>~\001?\275[U\202\275`\203\025<\276\214\352=\266\260\304=`]\224=\314\301\347\275\346NB\275h\256\367\274`\002\367;j\346\261\275\264z\231=\366\261\364\275\277\337\333\275\242g\315\275\020\211\235=\000\235\226\275`\315\025\274\206\264\247=r:\346=\346r\226=D[>\275\261\026\031\276\332\030\202\275<\263\014\276\270\'\262\274\267\347\021>0\020$<]V\037>~7\205\275\334D\236=\354\221\025\276(\023\367\275\313\275\036\276\342\0356\275\000\3656\275\320\3055=@bO<\372\315\315=\244\254\036=\032\236?\275L\365\223=\326\320\312=.6\346=\200X\241=XLp=2y!\275\300l0<\254U\030\276\300\362\373\275$j\235=\220\014}=\200\367H=@d\027;>\210\240\275-H\027>\000b\313\2719{\000>\360\303a<\222\216o\2752\344\266=f\307\373=\200y\273<\252[\230=\031\261\">\210\374x=\310\354\205<\342a\026\276\3406\034\275l\003\234\275\245S\r>\000\343\210;\320\317\223\274\\\377\342\275\300\026\373;\371z\026\2766+M\275\330\264`=\230p\351<\204\370i\275\310\006\351\275.V\361=k*\014\276*^\346=\026\240\205=\375\364\016>\236kY\2757\\\035\276:\t\343=\000\036\236;5 \217\275Q$\376\275l\004\262=\020>M\2752\337\367=\340B\016\274\330\005O=\262w\376=v\"\033\275\246\005\316\275\266\256\242=\010%c\275(C\202\275H=\224\274\2200 <a\250\003>0\357\237\274\000\353g<\256\260\363\275\016\303\236=~\026a\275\356\364t\275n\034\352=H{\210=\240\207?=\346\270\204\275\376\014\211=(y\376\274\217\326\024>\003\376\027\276\024\344\346\275\325M\002>\222\222\311=t\022z=\300H\274\274@\331Y\273\236\357\331\275:/\350=\350\303\323<\010\217\310<v,y\275\222S[\275z#\272=w\225\033>p\004\316\274B\210\224=\t\256\020\276&\237H\275-\362\037>\370\335\203\274\237n\032>\206\344\364=\220g\220<z\025\222\275\"\253\017\275+L\006\276`\031\004\274\020i_\274\264\331\341\275\214\276\264\275Fs\376=pue=\320U\354<Q\372\013>\200\370\177=\321>\022\276\233-\032\2760z\376\274\177\245\031>\0103\264<\370\231 =1w\033>\372F\007\276h\372\207=\020\206\025\274\000z\223;`\375\376\274*L\354=\270!?=\201\232\022\2760\347\r\274(\253\243=Mf\006>\376\201\306=N\021\343=e\347\n>\334I\327\275G\320\004\276V\256\024\276\204\026\312\275\220\010\030\274\231\033\010\276\367E\026>{9\236\2753}\033\276\262\333\366=x\363\274\274\320\320\256\274\300pe\275\346\r\320=\200\374\366<\2772\007>R\373\310=&\007\320=T[\\=,\017\021\276S\375\226\275\020I\227=\024G\n\275\216\t\373\275\326`\320=\300\316V;\270\223\326<\002\246\335=hB\324\274\370qk=tLH\275\265\323\031\276\226\362a\275\206\271\353=\016\034\002\276\240/\020<\2421\233=S\032\274\275\000R\343;\224/\207\275\312\\\213=\237\035\r>\266\2340\275\2245==\226\003*\2751k\006> \216[\274\000L\332\272\204\351(=\363y >8\336\332<\234=K=\030\024\244=n\272\237=\000F\r;\354M\016\275\240\221\372\274^\261\350=Q\274\221\275\267?\237\275\030\305\226<K\324\001>W\307\000>B\021\304=\365\307\014\276\007.\016>\305\003\">hz\375\2755\252\017>\216\354\331=\240\343\365\273\336\010\314=\230~\030\276\360\005:\275\200\027!\276d\0178=l\2128=\234\017e\275\226\355\336=\010\231A\275\371O\002>\360h\244\275\3249\204\275\330\377\031\275\363\253\346\275J\230\343\275\235\271!>4\246\214=\220\217\363<\300.\343<Y\305\021>\010\323\255\274\222\314\376=X\305\003\275\020\203\274\275I\343 >\034\355\247=\277\000\262\275\000\231g:0\320\266=\202fT\275\370a\235\274!D\002\276|V\225\275\334\272\351\275\\:\000=\002&\341=~\301\274\275\020\2363=$\002n\275(J\003\276\311\353\r>\304H.=i\303\002\276\200\\3\275\320\225@\274\002J\374=\270\325\325\2758\301\030=\353]\032>\370\372\256=d\177\205=\202\200\275\275\006\005\312=\312\310\311=(\254\233\274\244N\347\275\260\210\232\274\315\235\000>\030\312C\275\250)\037\275\340\2428=@\353B\273\240\271\303\274\340\305\366\273\370f\377<:S\306=\0142\004\275\272\036\276=\222\363\327=\210\371\007=\214\327\325\275\344\326\375\275\200,\242\272d\224\t\275\350\326\365\275jC \276\332\230\305\275\347\275\013\276\300t\256<\326!\020\276\031\304!>`\243\271;\034\177N=p(\360\274+:\005\2768\272\237\274\240\243>=\362\t\003\276`\214\374\275\246\315\251\275\230\340\341\274\2575\005\276i=\">\037\351\n>\326\346\377=\000\262R\272\201|\226\275\326\r\222=\232\026\024\276\300\312\003;p\373\267=x\355\203<\344=g=Z1\367\275p\372\366\274l\031&\275\216\004+\275j\273\203=\324\243\205\275\374R\003=a(\303\275\250i\244=\205\347\003\276\352\250\350=y\260\226\275\200\205\365;\322\216\345=a\215\377\275\372\253\216=7\211\271\275L\375n\275\352\023\240=!d\017>\312\277\372\275$\223\\\2753i\032>\020dB=x\221\\=2$\341=\376?\372=8\374;=t@\000=\360b\035\276\344\351s=\212\334\344\275x\016\307\274\222\232\005\2769\363\024>\341\202\002>\022\370\272=\244H\303\275\302\312\363=\302\255\373=Z\366\246=\020<@\274\004\206&\275VL\303=\352(\"\276\260\366\177\274\330\006\370<\355\267\t\276\360\004\305\275]v\006>\200\206.=\332\310\010\276\306F\256\2754\252K=\334\253l=\362K\235\275\274\300\270\275@\266|<6\374\322\275\266\207G\275\\Kx\275\205\325\037>\370\236\247=@6\267<Z\266\031\276P\313\030<#Q\235\275&\200\252=4\246\032\276\000j[<\251\233!>\200K\262\274q!\256\275\202\017\t\276@\274q\275\'\370\027>\010\332\031\276p\346\257<\360\240\002<\200\347\276:\202\206\201\275&\031\000\276~H\366\275\030\"\354<\210\317\260=N}\277\275\315\304\230\275\334Zd=>6\246=\010\222\343\274\211s\205\275\244{\014\275\344\264t=+\356\002>I\342\202\275\214\210\022=\003y\252\275aS!\276\237\035\254\275\374\207,=\010\217j=\246\220\310\275 \r\200\273\237i\002>\r\362\037>s\007\002>\000\320v=Bn\247\275\340\241\036\274\234!W=J\257\252=RB\346\275\000\270x\273\242\267\030\276I\017\000>6H\020\276D\222*=\001\265\036>\242\036\321=~\313\365=\t\207\002\276m\022\342\275T\315\204=\273\304\231\275\004Y\264=s\274\003>;\010\366\2752\002\301=\314\354\230=\360\2312\274@(w<\ns1\275.f\344=\240\177\253\273\267D\343\275\216\332\327\275\030\306\270\274\352\030\364\275\352\214\316=\000\261\371\275\360\241\216<|\242\352\275\315\001\231\275\02428=\2562 \2761\214\r>\374\013!\276\317t\322\275#;\307\275\244\010\340\275H\341\317\2748\201\240\275\000\302\n\273\365\036\231\275\207n\023>\374\334N=\000jB:t\035\020=N\264\335=0\022\246\274T\302t=\216N\377=\232\217P\275\030\267\021\276l\337 =\2362\001\276\250\256_=R\256\360=T\025\200=N\373\r\275\270\020\371<\027\237\r>\273\307\014\276\3068\317=\030a\323\274h\r\354\274\000\027\000;?r\001>\367\275\023>\265\341\024>\345/\201\275:|\007\276\263\274\013\276F\370/\275\2602\005\274`5\210\275@]\027;\252,\007\276`\251L\275\002l.\275\2169\255=.e\373\275\334e\350\275P\203\373\275\\\215u=\356\276\353=\240y\217\275_J\016>\236\t\317=\326V\"\275H\010&\275\225\212\022>~\323\304=\235\335\264\275X.\206\274\337\273\013>\210\306\027\276\300U-\273\250\277\312\274\210\017\350<\242\r\266=\002\204\013\276\260\247\250\274\203\036\322\275\010.\030\276\000\024\000\276\211\007\255\275\212E\030\276`$r\274\200\005Y\275\242\331A\275\250\003\n=(\323x\275\000\265j\273\000JY\274v\237\373=\343\242\026>\036E\n\276T\210\007\275$\337e=d\255\034\276\000\260\313:\347\231\035\276\206[\013\276\310\271\301\274\036\354\313=b\317\375=\356\"\340\275\375\201\014>\304\357\207=\360\004\213<\311\343\023\2764\203\001=\262\010\340=\232\377O\275\223\207\200\275R\347d\275\302\306\311\275\302\311o\275\006\222\234=\226f\356=*\255\365=p\214\345\275=\271\031>\270(C\275\350\322\336\275\340\226,<\003\307\236\275\224~\244\275\314g?=\220\374j<|\356\257\275he\266<\002\235\332\275 \3205=\317\373\016>-\250\027>\014\312\013\276\325\246\004>{\215\037\276,K\266=\260W\313<\313\246\036>\260\325u<\271\244 \276T\347\376\275\000\n\221\274n\376\350\275\256\n\034\275L\211\236=\350l\201\274*\361\037\276Y\257\">\220^\264=j\252\376=\261(\027\276(\033\204=P\336\254\274\027~\003>0\246\211<\336d\340=\002\322\275=s3\247\275\205Z\010>\300\355\017\274V\365\323=l\357\232=V6\325=8\001\204\274X\254(=2\251\300=hy\"\275\256\202\\\275\3269~\275\240\333\256\274\252\324\375=.\321\365=\200D\302<\211c\007>Vz\306\275v\356\214\275c$\023>\272\031n\275\262\276\372=\214@\021\275P\366t=\212\372N\275\252H\370=\270\313\245=\276p\341= \014\233=\342\342\377\275\202~\364\275`]\324\274\200\315\356\274\350z\360\275\000^\362\274\'\027\324\275\262\037S\275\216\263\251=\351\320\023>\212+\376=\270\311\023=\310ih=\250c\200=\014!W=G\373\n>\000\334\2139@|)<\n\377\324\275\035=\014>\030\205c\2754\243)=\006\237\037\276F\021\301=R\307\247=@\211\264<V\333\347=,\321(=\304,\000\275\0100\221<\370\n\257<\240Pr<\200pI\275\335T\255\275h\\\355\275\300\217M\274v:f\275\360\340\003\275,\244A\275\341\232\034>Dm}=\003\267\237\2758\014\266=\026\310\023\275`i\202;<\037\313\275bX~\275fUv\275\300g\320\274\005\310\025\276\214\366\023\275\320\313\317\2750\252\265=\226\365)\275`\003\216<X\340\337\274 \314\027\274\332E\271\2750C\026=\243V\035>\360\302\302\274\356\203\352=w\271\014>\376\307\210=\270[\323\275\340T\333\273~\020\016\276\000\224\'\271t3;\275\000\025\217\273l$\001=x\347\033\276\276i\235=\010\205\254<\360!\325<\200H`<:\003\"\276\000~\030=\365\202\003>\315\260\025>\200\005\022\274\256\335\230\275P\2728\274\000\245\234=\341\266\025>\276\001\270\275\034\325\021=X\232\242<\336\331\215=\020\325\000\2758.\307\274\350\330\200<\236\023{\275\260!\206<\352\022\257\275f\242\254\275\000\214\212<\355k\000>\262s\215=F\346\224\275\320;\007<\320\313\241<\313\250\010>\217\310\030>\000\300\003\270\246\231\376=@\243\221<fsP\275\332\024\355=\302M\345=\202\377t\275P\256\337\274\340\272\302\273\024aV\275`\265\370;\016.\202\275\036\345\232=\350\t\247\274\250`L=<(\024=B\334\307\275\372V\301=`\323\274\273$!&\275:\312\257=\340\363e<L\262\010\275\2116\376\275\371!\355\275H5\230\275\200-\233=\274\345\'=\320\306\204\274(\372\207\274B\266\322=l\332\353\275\241{\025>Vj\241=\200\r\231<\337\207\021>\002D\363=j\247b\275\201. \276\017\244\003>n\t\277=\272g\246\275hP\316<+1\r>J\232}\275\360\246\014<\032ja\275\326\016\323=\323\322\016>\000\300\302\270\356\021\366=TM-=e\376\016\276A<\036\276\307\215\">\272\327\354\275Z\355\302\275\310\253b=\200\n\366\272\200D\026=\220w\323\275\322\276\367\275:\350\n\276\242\3728\275\246\263Q\275\310\261\374<%\010\235\275\224gH=\212\001\360=\214J\000\275\013d\t>\246\264\302=\240\237\316\273N\234\214=\216%\351=Bl\347=bE\372=\321\006\214\275\230\310\243=\036\330\203=\240\022\344\273\331\t\020>\250*\377<\322X\300\275\235\371\026>\320m\260=PG\274<\200P\302\272\3268)\275\'\372\264\275\346\317\271=\202M\373=\235\324\265\275\016\361\335=\376l\304=\000z\263=\260n\242= n>=\310,\277\274\367\371\013>Am\303\275\330\221\236=@\372\221=\354\223W=l\010\016=\330\0224=L\311>=\205\037\007>\316\266\256=lYg=R0S\275\300w\025\276Z\005\205=\242\005\225=\0109\347<\274oP\275W\213\226\275b\335\205=\250\014\252\274\n\242\020\276g\347\247\275\351>\030>\220\312\'\275\272C\326=\244\352\025=\355\017\243\275\260o\206\275\220r9\274\016\314\366=<<\241\275\367V\352\275z\365\346\275P\210R<\374tn=F\022\210=\000\326\356<8\217\215<@sR;\276\365\350=\312\364\021\276\333\035\004\2764\231\201\275^5$\275\021\205\000>5\312\216\275\304\306)=\\\202\371\275\314\334\025\276\204>u=xY\036=\022B\003\276\341\014\023>\365\037\007>\246\310\311=\216%\322\275+\245\036\276\214\316\324\275>\211\256=0\021\'<\200i\362\272\270\276|=\340\001\220\274\322\274\342=\353\334\233\275\316\"\337=\000\000\274\272Y\270\020>\230\220\246=\335\340\021>\307\305\014>\340\024\241=`A(<\000uY\272\346`\257=\362\222\344=\366\031\327=d;\013\275\010\265\227< 9\233\273\340K\240\274\"\001\310=\317\232\204\275\354\271\005\276\216\365*\275`\035\251=l0l=X\235\234\275>\347\312=>\263\345=\204\262\016\275\360V\221\274\"\256\345=\320\210)\274\020#\277\274\017J\274\275\000\262\322<\022\373\214=(\024\t=8s\240\275o\016\037>\206\230\313=d\255*=W\356 \276\000\317\024\276\301\261\017\276d\224i\275\200 \215\272Z\212o\275\262C\312=/y\035\276\254h\241=\306~\312=\230\304\331\275=\254\006>\200\304\235;\022\3734\2751\023\265\275)C\331\275H.\221<\256\367\320=\260\267\212\275\320}\216\274\240Y\306<\350\301\216<\300\036\244=\242\334\t\276H@\251\274\223L\036\276&\222\343=\321\\\004><\017\026\276\022b\261=\323G\010>\277#\334\275H\217\265=W\303\035>\230Q\024\276\321\252\022>j\337\301=\316\252\230=`\235\"\276\346\035\357\275\371\004\002>\260\312V=HC\251=N\300\320\275\340\342\314\275\257i\016>\000B\367;k1\206\275K\245\366\275!\310\225\275\\\2427=\224B\021\275\352X`\275\200\2770\274D\333p=\224\234:\275\214;==\000@\027\276\200\202n=v\177\352\275\204!+=;\353\215\275\200\335/\273\024\233\324\275\370r\252<j\271\371\275R\377\225\275p\355\256<\3704q=\374g\246\275\027\361\026>\200\317\347;H\'\234=@\256~\273\347\220\013>\340h\025=\2660\205=(\010\371< f\270\273\336y\350=j\312\017\276\000\210\361:\266\351\376\275z\206\225\275\257a\002>\0334\017>\250q\365<\270\316\263\274\276\306\t\276\357\\\"\276\312~\025\276Z\306\273=\026\355\315=\200\312\264\275\350/\030=X A=\177`\r\2760\221\367\274\312\333B\275\330;J\275\260\365\350\2740a\023=h\220\235=\004\277\326\275$%\346\275\235?\021>\260i-\275\200\343\311;\002\304\307=\000\326%\273\207\263\313\275\314@\030\276hN\013\276\000L\366\273\316\204\026\276v\364\356=\372XO\275\270.;=YT\006>\252\212H\275P\256\327\274V3\207\275\200\354e;]Q\220\275j\233\366=\346#\023\276\267\222\002>Z\325\275\275\240\230P\275\350y\313\275\020g5<\305\007\004\276\354)\263=\233\343\366\275 \016\026\274\256\355\260\275\253\340\013\276\254cK\2753\203\017>\356\255\340=\211\257\214\275\360\304D=\251\227\033>\300y\377\273\300\025\333\274\300\377\005\273\237\n\232\275\014\031\031\275\316E\314=\000\312}<\362c\355=3,\n>1i\032>\321h\007> \025\214\273\224\2748\275\200p_;\242\320\224\275\0007d\272\306Z\357\275p\366c\274\361\373\032\276t\240\025\276\246\371~\275\030\221\001=\202@\031\276\000\252o;\255Z\006\276\240\267\213\273\023\247\035>\302\311{\275\260\371\335\274p\235\257=\262uD\275\374/B=\200\332\025\273\202c\334\275(\234\200=6f\004\276\034c0=\341\307\r>\260\2431\275\001\325\020>\340\227\300\273$\037\"\276\326\277\371=\360\303\271<\366j\232=\000<=:\002x\267=\217\244\014>k\374\016>,\240\217=\236\343`\275\220t\010\275\0345X\275\214\254\313\275\344\206T\275h\204\332\274 I\301<b$\316=n\213\367\275\310\243Y=\216\375\334=\365\350\261\275\360\266\032=vT\344=\200f\031\273Dj\024\276\360\250V\274\034M\024=\"_\242=p\313\347\274\246\353\343=\210g\275<2\215\353=\030\023\036\275\336q\254=6c\244=k*\">\374\352\177=\347|\236\275\000\327D\272 v\004\274\364n\001\275\030\013\254\274M\016\265\275 \262\036=z\256\340=\n\000\036\275\036\\\317\275\247!\034\276\262\315\017\276\354\370\016\275\245\352\362\275\330\272\033=d?\256=\357]\014>hn\277\275\206y\312=\336\227\273=\351\376\002>\200\3549;w\305\022>.]\355\275Zp\020\275\343\275\020>T\t\226\275g[\037\276\225{\356\275\250x\260=\006\300\327=\314+\000\276\032\313\220=vCg\275\262\210|\275\000\361K;5P\016\276\234\330\010\2752\237\013\276Pu\210\274u\353\031>\220P\214=\202\213\022\276\036W\355\275\"b\201\275\001\365\033>\370u\201\274\000\372Z\272\"Q\272=\005\203\033\276}\240\361\275I\273\210\275\340\357!<\020\374\013\274\300\302L=\230\244\356\274\220Rf=\324\370e=f\037\375=L0\223\275r(\356\275\307\033\210\275\272\335\223=&\027\351=tl\370\275\254&\252=\016\326\273=\034\250\254=:\226\375=xT\277\274>\251\336\275b\236\300=\'5\">\240.\271<h\3476=\200\352\211\273\370\030\031=\236\363B\275:\004\306=\020\320E\274\245\340\024\276\016u\356=#\260\033\276\002\246\376=1Z\216\275\206=\211= \226\222\273R\t\274\275\031*\274\275\324\003\225\275\240k\257<e/\347\275\273&\030>\014\331\205=\270\247F\275\"&\324=\357\201\004>\231\010\r>\300\271K=]M\">0\036_=\310\027\321\275|O\225\275\310\007\364<\016~\265=\372*\253=\315E\000>&\354\035\275\232\366\320\275\303K\332\275\210\222\031\27692\324\275\272\361\330=DZ\373\275\360m\262=\"s\350=\311\240\355\275p\034%\275\0006\363\272\317\310\237\275\360\237\235<\330\344\017\275(\262u=\213-\306\275\222*\\\275bz\324=1\323\350\275\350kD=%\021\205\275\311\313\330\275s\366\014\2767\177\027>\014\036\220\275\314-\243=\"I\311=R\354\201\275\"\256\307\275\375i\004\276*\016\277=\\\221\017=\216\033\233\275\322\223\330=\242\006\354\275\240\257d\274\275\025\034\276\274\352w=\206\330\266\275\345\004\"\276\262\031\353=\242\"\217\275\340\357#=(\222\322\274O\026\362\275\300\000\010<^\212+\275U\312\273\275B;\340\275\020\205\210\274\360\r\302\274j\331\031\275\212!\315=\372i\001\276\020?\307\274\360)`\274k\206\311\275\334\210\005=n\274\301=\240\203}\274\275\332\234\275\374\333p=L\235\r\276\002\266\252=]\022\014\276\375\246\">(^\226<\260RK\275\253\001\014>\275.\026\276\375o\021>\325\363\014\2764O\254\275\037\351\037>\036\272\374\275\n4\202=`1|<0Or<\025)\237\275\314\245w=\254\265*\275\036\2237\275\000\222\230\273(\307\313<\210\201\262<\217\237\026\276\352 \357=\246\212\244=\n\235\013\276v\252\351=(B\177\275\341\264\023>\\d\001\276\2215\013\276B\312\375=}V\033>M\321\266\275\"\026\222\275\370-!=\206\377\225=8\254\034=\366\357\234\275#\266\272\275\007\333\036\276\371\216\270\275\240\014\326<\256v\365\275-\347\256\275\346\266\306\275:\343#\275@\364\322\2748\206M\275\260&$\2750\264<= \'\341\273\300]\271\273\036\251Z\275\022\217\217=N\225\232=0t\001<\252\r\341\275\232\311\024\276\277\240\023>\2734\"\276\000\323\253;\251\026\026>>x\367=\0201\021\276\024O&=\305,\000>\276.\365=\"H\377=\224n\007=x\363\346\275\306R\222\275\021\247\027>\224;\237=\n\356\320=V\271\202=\017l\002>8\005\276\274P\325a=\027\347\033\276\034\263\231\275z\324\367=\204~7=\030T\320<\347C\263\275\224\373\036\2768G\214<\233\204\027>(E;=\320\233\005\276\336\204\262\275\341\371\021>\332\221\313\275\330\031\367\275\336\256\211=\342\020\345\275\344/\201=\010\325N\275\214m8=\030\345`=$\377\326\275z\177G\275P6\265<\260\227\374\274\026\213\303= \230\307;\252<w\275\036\241\325=\nL\363=x\177\244=\3771\253\275~c\340=\000h\360\273\262e\246\275X\344\263\274,\354l\275$(\000=\372\372\333=\300U\027<)Z\277\27547\025\275\211\333\003\276\230)\006\275\264Z\266=\252\364S\275\232\277\377\275\200ZB<Po\351\274j\373J\275\034V\006=[k\251\275\035\367\036>\022\360Q\275pO\200\274\013i\025>\212\252\033\276\260jb<ks\000>\342< \276\010O\207\274\356-\307=\037\311\016>\361\241\014\276\340\301\255=x\327\217\274\222\320\226=\354\276O\275.\322\354=\024l\240\275X\212\222=\237\310\001\276X\030\240=\362\230\306=\024+_\275\347\321\210\2754l\227\275\366G\375=r^+\275\231\366\007>\261\367\003>\320\210\335<\0300\207<\204\261\340\275!U\020>a<\022\276DT\224=2\006\377=`\336x\275\275\232 >8s\261=\000\313F=\000fY=\242z\353=A\357\030\276\351>\236\275`\177s\275\034;~\275\021\212\020\276\000a\354\273\034E|\275\260\034}\274\347\200\026>t\373\376\275\340P\213=W\355\221\275,\027\234=\332\000\376=H\237\377<\220\3664<\330\357\236=l\3218\275`\031\"\274SK\006>g%\006>e\350\t>\366\215z\275pa\037<83\346\2744G\017=\375=!\276\256U\360=\370l#\275p\261\334\275\307\227\334\275K\232\300\275\020$\256=\000\313\241\273\320\021\034\274\234\227\010=:\316\306=5\222\n>\\\232\213=\000\\\036\271\300\335\236\274`\376\212;P\376\n\276\205\274\004>u\331\035\2760\333S<\245;\310\275fx\206=\334\361\000\275xO1=\340@b\274\342\025\330\275p\206y=\256\324\024\276\322\365\325\275\212Q\325=\2277\205\275\350\350\210<\235\025 >H\332\001\275*\316\372\275\034-\357\275\231\235\261\275l\271a=\377\220\022\276\020(\n<\027\303\000>\274\263\345\275B\266\315=\366\310\036\276(\177\365\275\364eM=\006\227\277=\270\301\271\275\330\262\321\274.\373\207=&>\247\275\354>v=\356\272\241\275\337-\371\275\217\343\313\275\036\276\001\276\214W\n\275\363m\n>\226\337\304=\033\221\366\275\244\361[=\'Q\024><c4\275\004\271\037=\356\342\222=\371\376\247\275\360\257U\274\020O\374<`\206`=9\306\001\276&\225\201\275:\266\357=\211\003\300\275\177\254\026>\340b\016\276B\031k\275\230\352G\275\370p\351\275\303z\033>\034\336\200\2758\223g=hp_\275p\207\035=\370\273\'\275J\270\222\275\000D\271;`\021\361<\211\202\017>R\256\323\275\234h\010\276\360Wu=&q;\275@\304j=D\325m=8\022-\275vR9\275\252\004\001\276\322o\341=\024\252,=\014\242\233=\010\311\250<\036\241\347\275\271\327\030\276\276\371\027\276\230\302\255=\230\005\216\274$\323s=\214\237\001\276\254\355\376\275L\376n=\032\365j\275l\203D\275\020\236\346\274[\001\275\275\330\031\267<\244\035&\275\207\252\002> R{\274\373W\030>\3068\346\275@i\026=2\031\323=\356V+\275\245\230\024>P\027E=n\205\010\276\340#\300\275\2564\033\275Xrq\275b\331\247\275\000\3704\272\362A\314=\270/\257\274 \236\226\274\272\252\314=\361\251\005\276\340\014\232<0\267\240< \253\203\274\202.\227\2752\305\362\275Dh\223=\245\305\200\275\270\331\023=\310\234\316\274hf(=(\265\233=\366\364\231\275\244\207\031\276(+P\275l\275\211=\213\321\016>@\000\"\276\340\244\206\274\226B\224=\351\003\325\275\000\212@<f\022\242=\200I\262;\200\020\304<\362l\352\275%\261\006>\020\320\211=\200\313H<\240p\354\274\262d\222=\234S\216=\002D\262=\310\374\204=\023\345\t>\260\037\226<G\270\t>\3224\322=~`\237=\317\253\037>\025\207\017>\354\311\344\275\326\357\253=\246\272\337=j\233\207=k\236\357\2750?\323\274\336\225\246\275\272\344\353=\\B\036\276\0204\247=l\257\031\276fi\225=J\377\016\275?\"\023>\245\274\014>#N\014>\"\007\210\275\317/\024>\264\332\t\276\246\321\230=\336\370\024\276\260K\204=z\002\006\2760\345\365<^\263\\\2751\277\002\276\346\267\322=4\007\240\275v\212\354\275\274\221\006=<\337X=@\324:;\200}\312;\375%\002\276\362!\222\275\355R\200\275\233\267\002>\331\213\021>`\351\202;`\243\245\274\\2L\275K\006\200\275\302\345\201\275\254\250>\275d\311\370\275\307\276\006>\340\231\371\274\232\224\210\275\342\335\236=\362J\211=\270\241\005\276\300\235\235=N\341\252=$)\035\276\336\013\014\276_c\016>\002\277\347=\200C\255;6\321J\275\324\373\014\2768.\255=\252\250\330\275\246G\030\276k8\035>\306y\235=\340:V<\210\241\256<\252\255\313=\000\250\r=\"\005\302=\226+\346=\344v!\276\340\033h<$\200p\275\024\243\344\2758~\353<\377~\027>\374\303\232=\240\325#=\366\367\376=H\374s=\360\003\201=\214d\r\275\324\342U=Z\031\005\276>\234\026\275(\032\005\276\220Io\274\311T\017>\020\331\r\274^\030\355\275\344\347K=\341\304\026\276\016a\366=\271u\001>\034V\264\275\266\307\336\275>\354\306=\345\354\003>X=\254=a\250\343\275p!\226<\036y4\275\340.\353\273`\314\232\274\005\340\022>;\222\252\275\311\342\034\276\270,.=\350\322\337<\t\233\033>\236\370\373\275\252\035\035\275VR)\275l\317G=\020\361\305\275\340\200G<\277\357\213\275\350\253\246=()\207=\202\331\355=\313\254\r>\250\356\320<\362\277\034\275\270\333\375<\262\207\037\276\006\347\237=\272O\202=\245{\276\275D1\034\276t\320Y=\357\023\221\275Qp\t\276\005\177\377\2754%\001\276$\257\216=\330\244\341\274E\333\013>\326\374\020\276<\2430=o\371\013>\2749>=\254\303\275\275\372q\310=\206\336\357=@\023\003;\000\314\261=\030\260\274<\274#\'=\251\345\236\275;8\010\276P\330\036\275\214\r\211\2752\236\273=\340\265I\274 {\336\274\014q5=z\345\271=\232\223\250\275\343\267\010\276\246\347\351=\353\300\023>@]l\275\200\347\350\275*\013V\275P\270\001\275J\304\342\275B\030\022\275@0\205=\370\016\253<\243U\024>\224|!\275\274\320\036\276\022\027\370=\225O\254\275\320p\367\274>\235\336=h\326\224< \303\267<}~\023>\210\033\213\274\224u\020\276\245\177\310\275\210\271\266= \237-\274Xg\351\275 G\325;\361K\016\276\\\005}\275\212\206\023\275K@\036\276\230\365g=\331\334\036>X\370\250\274\220S\304\274\275\341\027\276S\264\001\276%\220\010>\356\203\254=s|\250\275g\261 \276\360\006/=\376\017\004\276\354\247\257\275\020\244X<\007\372\005>\322=\312=c\030\031>\250u\213<\316\010\210=\200r7=\314Z\t=\336\252\337=(\214B\275\234\000\214\275\200\354\002\273\315\341\003\276\036\354\362=``\035\275\320\263\225\274\032!\346=\371$\314\275,\321\t\275\272\205_\275B\016\335=\020\2325\275\230r\333\274V\314\220\275\306\222\347=\316J\320=\340q\356\273"
      }
    }
  }
}
node {
  name: "LSTM1/recurrent_kernel"
  op: "Const"
  attr {
    key: "dtype"
    value {
      type: DT_FLOAT
    }
  }
  attr {
    key: "value"
    value {
      tensor {
        dtype: DT_FLOAT
        tensor_shape {
          dim {
            size: 50
          }
          dim {
            size: 200
          }
        }
