node {
  name: "LSTM1/Variable"
  op: "Const"
  attr {
    key: "dtype"
    value {
      type: DT_FLOAT
    }
  }
  attr {
    key: "value"
    value {
      tensor {
        dtype: DT_FLOAT
        tensor_shape {
          dim {
            size: 1
          }
          dim {
            size: 50
          }
        }
        tensor_content: "\000\000\000\000\000\000\000\000\000\000\000\000\000\000\000\000\000\000\000\000\000\000\000\000\000\000\000\000\000\000\000\000\000\000\000\000\000\000\000\000\000\000\000\000\000\000\000\000\000\000\000\000\000\000\000\000\000\000\000\000\000\000\000\000\000\000\000\000\000\000\000\000\000\000\000\000\000\000\000\000\000\000\000\000\000\000\000\000\000\000\000\000\000\000\000\000\000\000\000\000\000\000\000\000\000\000\000\000\000\000\000\000\000\000\000\000\000\000\000\000\000\000\000\000\000\000\000\000\000\000\000\000\000\000\000\000\000\000\000\000\000\000\000\000\000\000\000\000\000\000\000\000\000\000\000\000\000\000\000\000\000\000\000\000\000\000\000\000\000\000\000\000\000\000\000\000\000\000\000\000\000\000\000\000\000\000\000\000\000\000\000\000\000\000\000\000\000\000\000\000"
      }
    }
  }
}
node {
  name: "LSTM1/Variable_1"
  op: "Const"
  attr {
    key: "dtype"
    value {
      type: DT_FLOAT
    }
  }
  attr {
    key: "value"
    value {
      tensor {
        dtype: DT_FLOAT
        tensor_shape {
          dim {
            size: 1
          }
          dim {
            size: 50
          }
        }
        tensor_content: "\000\000\000\000\000\000\000\000\000\000\000\000\000\000\000\000\000\000\000\000\000\000\000\000\000\000\000\000\000\000\000\000\000\000\000\000\000\000\000\000\000\000\000\000\000\000\000\000\000\000\000\000\000\000\000\000\000\000\000\000\000\000\000\000\000\000\000\000\000\000\000\000\000\000\000\000\000\000\000\000\000\000\000\000\000\000\000\000\000\000\000\000\000\000\000\000\000\000\000\000\000\000\000\000\000\000\000\000\000\000\000\000\000\000\000\000\000\000\000\000\000\000\000\000\000\000\000\000\000\000\000\000\000\000\000\000\000\000\000\000\000\000\000\000\000\000\000\000\000\000\000\000\000\000\000\000\000\000\000\000\000\000\000\000\000\000\000\000\000\000\000\000\000\000\000\000\000\000\000\000\000\000\000\000\000\000\000\000\000\000\000\000\000\000\000\000\000\000\000\000"
      }
    }
  }
}
node {
  name: "LSTM1/kernel"
  op: "Const"
  attr {
    key: "dtype"
    value {
      type: DT_FLOAT
    }
  }
  attr {
    key: "value"
    value {
      tensor {
        dtype: DT_FLOAT
        tensor_shape {
          dim {
            size: 37
          }
          dim {
            size: 200
          }
        }
        tensor_content: "\\\343H\276\\\343H\276\\\343H\276\\\343H\276\\\343H\276\\\343H\276\\\343H\276\\\343H\276\\\343H\276\\\343H\276\\\343H\276\\\343H\276\\\343H\276\\\343H\276\\\343H\276\\\343H\276\\\343H\276\\\343H\276\\\343H\276\\\343H\276\\\343H\276\\\343H\276\\\343H\276\\\343H\276\\\343H\276\\\343H\276\\\343H\276\\\343H\276\\\343H\276\\\343H\276\\\343H\276\\\343H\276\\\343H\276\\\343H\276\\\343H\276\\\343H\276\\\343H\276\\\343H\276\\\343H\276\\\343H\276\\\343H\276\\\343H\276\\\343H\276\\\343H\276\\\343H\276\\\343H\276\\\343H\276\\\343H\276\\\343H\276\\\343H\276\\\343H\276\\\343H\276\\\343H\276\\\343H\276\\\343H\276\\\343H\276\\\343H\276\\\343H\276\\\343H\276\\\343H\276\\\343H\276\\\343H\276\\\343H\276\\\343H\276\\\343H\276\\\343H\276\\\343H\276\\\343H\276\\\343H\276\\\343H\276\\\343H\276\\\343H\276\\\343H\276\\\343H\276\\\343H\276\\\343H\276\\\343H\276\\\343H\276\\\343H\276\\\343H\276\\\343H\276\\\343H\276\\\343H\276\\\343H\276\\\343H\276\\\343H\276\\\343H\276\\\343H\276\\\343H\276\\\343H\276\\\343H\276\\\343H\276\\\343H\276\\\343H\276\\\343H\276\\\343H\276\\\343H\276\\\343H\276\\\343H\276\\\343H\276\\\343H\276\\\343H\276\\\343H\276\\\343H\276\\\343H\276\\\343H\276\\\343H\276\\\343H\276\\\343H\276\\\343H\276\\\343H\276\\\343H\276\\\343H\276\\\343H\276\\\343H\276\\\343H\276\\\343H\276\\\343H\276\\\343H\276\\\343H\276\\\343H\276\\\343H\276\\\343H\276\\\343H\276\\\343H\276\\\343H\276\\\343H\276\\\343H\276\\\343H\276\\\343H\276\\\343H\276\\\343H\276\\\343H\276\\\343H\276\\\343H\276\\\343H\276\\\343H\276\\\343H\276\\\343H\276\\\343H\276\\\343H\276\\\343H\276\\\343H\276\\\343H\276\\\343H\276\\\343H\276\\\343H\276\\\343H\276\\\343H\276\\\343H\276\\\343H\276\\\343H\276\\\343H\276\\\343H\276\\\343H\276\\\343H\276\\\343H\276\\\343H\276\\\343H\276\\\343H\276\\\343H\276\\\343H\276\\\343H\276\\\343H\276\\\343H\276\\\343H\276\\\343H\276\\\343H\276\\\343H\276\\\343H\276\\\343H\276\\\343H\276\\\343H\276\\\343H\276\\\343H\276\\\343H\276\\\343H\276\\\343H\276\\\343H\276\\\343H\276\\\343H\276\\\343H\276\\\343H\276\\\343H\276\\\343H\276\\\343H\276\\\343H\276\\\343H\276\\\343H\276\\\343H\276\\\343H\276\\\343H\276\\\343H\276\\\343H\276\\\343H\276\\\343H\276\\\343H\276\\\343H\276\\\343H\276\\\343H\276n\204\017\277n\204\017\277n\204\017\277n\204\017\277n\204\017\277n\204\017\277n\204\017\277n\204\017\277n\204\017\277n\204\017\277n\204\017\277n\204\017\277n\204\017\277n\204\017\277n\204\017\277n\204\017\277n\204\017\277n\204\017\277n\204\017\277n\204\017\277n\204\017\277n\204\017\277n\204\017\277n\204\017\277n\204\017\277n\204\017\277n\204\017\277n\204\017\277n\204\017\277n\204\017\277n\204\017\277n\204\017\277n\204\017\277n\204\017\277n\204\017\277n\204\017\277n\204\017\277n\204\017\277n\204\017\277n\204\017\277n\204\017\277n\204\017\277n\204\017\277n\204\017\277n\204\017\277n\204\017\277n\204\017\277n\204\017\277n\204\017\277n\204\017\277n\204\017\277n\204\017\277n\204\017\277n\204\017\277n\204\017\277n\204\017\277n\204\017\277n\204\017\277n\204\017\277n\204\017\277n\204\017\277n\204\017\277n\204\017\277n\204\017\277n\204\017\277n\204\017\277n\204\017\277n\204\017\277n\204\017\277n\204\017\277n\204\017\277n\204\017\277n\204\017\277n\204\017\277n\204\017\277n\204\017\277n\204\017\277n\204\017\277n\204\017\277n\204\017\277n\204\017\277n\204\017\277n\204\017\277n\204\017\277n\204\017\277n\204\017\277n\204\017\277n\204\017\277n\204\017\277n\204\017\277n\204\017\277n\204\017\277n\204\017\277n\204\017\277n\204\017\277n\204\017\277n\204\017\277n\204\017\277n\204\017\277n\204\017\277n\204\017\277n\204\017\277n\204\017\277n\204\017\277n\204\017\277n\204\017\277n\204\017\277n\204\017\277n\204\017\277n\204\017\277n\204\017\277n\204\017\277n\204\017\277n\204\017\277n\204\017\277n\204\017\277n\204\017\277n\204\017\277n\204\017\277n\204\017\277n\204\017\277n\204\017\277n\204\017\277n\204\017\277n\204\017\277n\204\017\277n\204\017\277n\204\017\277n\204\017\277n\204\017\277n\204\017\277n\204\017\277n\204\017\277n\204\017\277n\204\017\277n\204\017\277n\204\017\277n\204\017\277n\204\017\277n\204\017\277n\204\017\277n\204\017\277n\204\017\277n\204\017\277n\204\017\277n\204\017\277n\204\017\277n\204\017\277n\204\017\277n\204\017\277n\204\017\277n\204\017\277n\204\017\277n\204\017\277n\204\017\277n\204\017\277n\204\017\277n\204\017\277n\204\017\277n\204\017\277n\204\017\277n\204\017\277n\204\017\277n\204\017\277n\204\017\277n\204\017\277n\204\017\277n\204\017\277n\204\017\277n\204\017\277n\204\017\277n\204\017\277n\204\017\277n\204\017\277n\204\017\277n\204\017\277n\204\017\277n\204\017\277n\204\017\277n\204\017\277n\204\017\277n\204\017\277n\204\017\277n\204\017\277n\204\017\277n\204\017\277n\204\017\277n\204\017\277n\204\017\277n\204\017\277n\204\017\277n\204\017\277n\204\017\277n\204\017\277n\204\017\277n\204\017\277n\204\017\277n\204\017\277n\204\017\277n\204\017\277\220\0052?\220\0052?\220\0052?\220\0052?\220\0052?\220\0052?\220\0052?\220\0052?\220\0052?\220\0052?\220\0052?\220\0052?\220\0052?\220\0052?\220\0052?\220\0052?\220\0052?\220\0052?\220\0052?\220\0052?\220\0052?\220\0052?\220\0052?\220\0052?\220\0052?\220\0052?\220\0052?\220\0052?\220\0052?\220\0052?\220\0052?\220\0052?\220\0052?\220\0052?\220\0052?\220\0052?\220\0052?\220\0052?\220\0052?\220\0052?\220\0052?\220\0052?\220\0052?\220\0052?\220\0052?\220\0052?\220\0052?\220\0052?\220\0052?\220\0052?\220\0052?\220\0052?\220\0052?\220\0052?\220\0052?\220\0052?\220\0052?\220\0052?\220\0052?\220\0052?\220\0052?\220\0052?\220\0052?\220\0052?\220\0052?\220\0052?\220\0052?\220\0052?\220\0052?\220\0052?\220\0052?\220\0052?\220\0052?\220\0052?\220\0052?\220\0052?\220\0052?\220\0052?\220\0052?\220\0052?\220\0052?\220\0052?\220\0052?\220\0052?\220\0052?\220\0052?\220\0052?\220\0052?\220\0052?\220\0052?\220\0052?\220\0052?\220\0052?\220\0052?\220\0052?\220\0052?\220\0052?\220\0052?\220\0052?\220\0052?\220\0052?\220\0052?\220\0052?\220\0052?\220\0052?\220\0052?\220\0052?\220\0052?\220\0052?\220\0052?\220\0052?\220\0052?\220\0052?\220\0052?\220\0052?\220\0052?\220\0052?\220\0052?\220\0052?\220\0052?\220\0052?\220\0052?\220\0052?\220\0052?\220\0052?\220\0052?\220\0052?\220\0052?\220\0052?\220\0052?\220\0052?\220\0052?\220\0052?\220\0052?\220\0052?\220\0052?\220\0052?\220\0052?\220\0052?\220\0052?\220\0052?\220\0052?\220\0052?\220\0052?\220\0052?\220\0052?\220\0052?\220\0052?\220\0052?\220\0052?\220\0052?\220\0052?\220\0052?\220\0052?\220\0052?\220\0052?\220\0052?\220\0052?\220\0052?\220\0052?\220\0052?\220\0052?\220\0052?\220\0052?\220\0052?\220\0052?\220\0052?\220\0052?\220\0052?\220\0052?\220\0052?\220\0052?\220\0052?\220\0052?\220\0052?\220\0052?\220\0052?\220\0052?\220\0052?\220\0052?\220\0052?\220\0052?\220\0052?\220\0052?\220\0052?\220\0052?\220\0052?\220\0052?\220\0052?\220\0052?\220\0052?\220\0052?\220\0052?\220\0052?\220\0052?\220\0052?\220\0052?\220\0052?\220\0052?\220\0052?\365\342\270\275\365\342\270\275\365\342\270\275\365\342\270\275\365\342\270\275\365\342\270\275\365\342\270\275\365\342\270\275\365\342\270\275\365\342\270\275\365\342\270\275\365\342\270\275\365\342\270\275\365\342\270\275\365\342\270\275\365\342\270\275\365\342\270\275\365\342\270\275\365\342\270\275\365\342\270\275\365\342\270\275\365\342\270\275\365\342\270\275\365\342\270\275\365\342\270\275\365\342\270\275\365\342\270\275\365\342\270\275\365\342\270\275\365\342\270\275\365\342\270\275\365\342\270\275\365\342\270\275\365\342\270\275\365\342\270\275\365\342\270\275\365\342\270\275\365\342\270\275\365\342\270\275\365\342\270\275\365\342\270\275\365\342\270\275\365\342\270\275\365\342\270\275\365\342\270\275\365\342\270\275\365\342\270\275\365\342\270\275\365\342\270\275\365\342\270\275\365\342\270\275\365\342\270\275\365\342\270\275\365\342\270\275\365\342\270\275\365\342\270\275\365\342\270\275\365\342\270\275\365\342\270\275\365\342\270\275\365\342\270\275\365\342\270\275\365\342\270\275\365\342\270\275\365\342\270\275\365\342\270\275\365\342\270\275\365\342\270\275\365\342\270\275\365\342\270\275\365\342\270\275\365\342\270\275\365\342\270\275\365\342\270\275\365\342\270\275\365\342\270\275\365\342\270\275\365\342\270\275\365\342\270\275\365\342\270\275\365\342\270\275\365\342\270\275\365\342\270\275\365\342\270\275\365\342\270\275\365\342\270\275\365\342\270\275\365\342\270\275\365\342\270\275\365\342\270\275\365\342\270\275\365\342\270\275\365\342\270\275\365\342\270\275\365\342\270\275\365\342\270\275\365\342\270\275\365\342\270\275\365\342\270\275\365\342\270\275\365\342\270\275\365\342\270\275\365\342\270\275\365\342\270\275\365\342\270\275\365\342\270\275\365\342\270\275\365\342\270\275\365\342\270\275\365\342\270\275\365\342\270\275\365\342\270\275\365\342\270\275\365\342\270\275\365\342\270\275\365\342\270\275\365\342\270\275\365\342\270\275\365\342\270\275\365\342\270\275\365\342\270\275\365\342\270\275\365\342\270\275\365\342\270\275\365\342\270\275\365\342\270\275\365\342\270\275\365\342\270\275\365\342\270\275\365\342\270\275\365\342\270\275\365\342\270\275\365\342\270\275\365\342\270\275\365\342\270\275\365\342\270\275\365\342\270\275\365\342\270\275\365\342\270\275\365\342\270\275\365\342\270\275\365\342\270\275\365\342\270\275\365\342\270\275\365\342\270\275\365\342\270\275\365\342\270\275\365\342\270\275\365\342\270\275\365\342\270\275\365\342\270\275\365\342\270\275\365\342\270\275\365\342\270\275\365\342\270\275\365\342\270\275\365\342\270\275\365\342\270\275\365\342\270\275\365\342\270\275\365\342\270\275\365\342\270\275\365\342\270\275\365\342\270\275\365\342\270\275\365\342\270\275\365\342\270\275\365\342\270\275\365\342\270\275\365\342\270\275\365\342\270\275\365\342\270\275\365\342\270\275\365\342\270\275\365\342\270\275\365\342\270\275\365\342\270\275\365\342\270\275\365\342\270\275\365\342\270\275\365\342\270\275\365\342\270\275\365\342\270\275\365\342\270\275\365\342\270\275\365\342\270\275\365\342\270\275\365\342\270\275\365\342\270\275\365\342\270\275\365\342\270\275\365\342\270\275\365\342\270\275\365\342\270\275\365\342\270\275\365\342\270\275\365\342\270\275\365\342\270\275\365\342\270\275\365\342\270\2753+q\2773+q\2773+q\2773+q\2773+q\2773+q\2773+q\2773+q\2773+q\2773+q\2773+q\2773+q\2773+q\2773+q\2773+q\2773+q\2773+q\2773+q\2773+q\2773+q\2773+q\2773+q\2773+q\2773+q\2773+q\2773+q\2773+q\2773+q\2773+q\2773+q\2773+q\2773+q\2773+q\2773+q\2773+q\2773+q\2773+q\2773+q\2773+q\2773+q\2773+q\2773+q\2773+q\2773+q\2773+q\2773+q\2773+q\2773+q\2773+q\2773+q\2773+q\2773+q\2773+q\2773+q\2773+q\2773+q\2773+q\2773+q\2773+q\2773+q\2773+q\2773+q\2773+q\2773+q\2773+q\2773+q\2773+q\2773+q\2773+q\2773+q\2773+q\2773+q\2773+q\2773+q\2773+q\2773+q\2773+q\2773+q\2773+q\2773+q\2773+q\2773+q\2773+q\2773+q\2773+q\2773+q\2773+q\2773+q\2773+q\2773+q\2773+q\2773+q\2773+q\2773+q\2773+q\2773+q\2773+q\2773+q\2773+q\2773+q\2773+q\2773+q\2773+q\2773+q\2773+q\2773+q\2773+q\2773+q\2773+q\2773+q\2773+q\2773+q\2773+q\2773+q\2773+q\2773+q\2773+q\2773+q\2773+q\2773+q\2773+q\2773+q\2773+q\2773+q\2773+q\2773+q\2773+q\2773+q\2773+q\2773+q\2773+q\2773+q\2773+q\2773+q\2773+q\2773+q\2773+q\2773+q\2773+q\2773+q\2773+q\2773+q\2773+q\2773+q\2773+q\2773+q\2773+q\2773+q\2773+q\2773+q\2773+q\2773+q\2773+q\2773+q\2773+q\2773+q\2773+q\2773+q\2773+q\2773+q\2773+q\2773+q\2773+q\2773+q\2773+q\2773+q\2773+q\2773+q\2773+q\2773+q\2773+q\2773+q\2773+q\2773+q\2773+q\2773+q\2773+q\2773+q\2773+q\2773+q\2773+q\2773+q\2773+q\2773+q\2773+q\2773+q\2773+q\2773+q\2773+q\2773+q\2773+q\2773+q\2773+q\2773+q\2773+q\2773+q\2773+q\2773+q\2773+q\2773+q\277\347*1\277\347*1\277\347*1\277\347*1\277\347*1\277\347*1\277\347*1\277\347*1\277\347*1\277\347*1\277\347*1\277\347*1\277\347*1\277\347*1\277\347*1\277\347*1\277\347*1\277\347*1\277\347*1\277\347*1\277\347*1\277\347*1\277\347*1\277\347*1\277\347*1\277\347*1\277\347*1\277\347*1\277\347*1\277\347*1\277\347*1\277\347*1\277\347*1\277\347*1\277\347*1\277\347*1\277\347*1\277\347*1\277\347*1\277\347*1\277\347*1\277\347*1\277\347*1\277\347*1\277\347*1\277\347*1\277\347*1\277\347*1\277\347*1\277\347*1\277\347*1\277\347*1\277\347*1\277\347*1\277\347*1\277\347*1\277\347*1\277\347*1\277\347*1\277\347*1\277\347*1\277\347*1\277\347*1\277\347*1\277\347*1\277\347*1\277\347*1\277\347*1\277\347*1\277\347*1\277\347*1\277\347*1\277\347*1\277\347*1\277\347*1\277\347*1\277\347*1\277\347*1\277\347*1\277\347*1\277\347*1\277\347*1\277\347*1\277\347*1\277\347*1\277\347*1\277\347*1\277\347*1\277\347*1\277\347*1\277\347*1\277\347*1\277\347*1\277\347*1\277\347*1\277\347*1\277\347*1\277\347*1\277\347*1\277\347*1\277\347*1\277\347*1\277\347*1\277\347*1\277\347*1\277\347*1\277\347*1\277\347*1\277\347*1\277\347*1\277\347*1\277\347*1\277\347*1\277\347*1\277\347*1\277\347*1\277\347*1\277\347*1\277\347*1\277\347*1\277\347*1\277\347*1\277\347*1\277\347*1\277\347*1\277\347*1\277\347*1\277\347*1\277\347*1\277\347*1\277\347*1\277\347*1\277\347*1\277\347*1\277\347*1\277\347*1\277\347*1\277\347*1\277\347*1\277\347*1\277\347*1\277\347*1\277\347*1\277\347*1\277\347*1\277\347*1\277\347*1\277\347*1\277\347*1\277\347*1\277\347*1\277\347*1\277\347*1\277\347*1\277\347*1\277\347*1\277\347*1\277\347*1\277\347*1\277\347*1\277\347*1\277\347*1\277\347*1\277\347*1\277\347*1\277\347*1\277\347*1\277\347*1\277\347*1\277\347*1\277\347*1\277\347*1\277\347*1\277\347*1\277\347*1\277\347*1\277\347*1\277\347*1\277\347*1\277\347*1\277\347*1\277\347*1\277\347*1\277\347*1\277\347*1\277\347*1\277\347*1\277\347*1\277\347*1\277\347*1\277\347*1\277\347*1\277\347*1\277\347*1\277\347*1\277\347*1\277\347*1\277\347*1\277\347*1\277\347*1\277\022:o>\022:o>\022:o>\022:o>\022:o>\022:o>\022:o>\022:o>\022:o>\022:o>\022:o>\022:o>\022:o>\022:o>\022:o>\022:o>\022:o>\022:o>\022:o>\022:o>\022:o>\022:o>\022:o>\022:o>\022:o>\022:o>\022:o>\022:o>\022:o>\022:o>\022:o>\022:o>\022:o>\022:o>\022:o>\022:o>\022:o>\022:o>\022:o>\022:o>\022:o>\022:o>\022:o>\022:o>\022:o>\022:o>\022:o>\022:o>\022:o>\022:o>\022:o>\022:o>\022:o>\022:o>\022:o>\022:o>\022:o>\022:o>\022:o>\022:o>\022:o>\022:o>\022:o>\022:o>\022:o>\022:o>\022:o>\022:o>\022:o>\022:o>\022:o>\022:o>\022:o>\022:o>\022:o>\022:o>\022:o>\022:o>\022:o>\022:o>\022:o>\022:o>\022:o>\022:o>\022:o>\022:o>\022:o>\022:o>\022:o>\022:o>\022:o>\022:o>\022:o>\022:o>\022:o>\022:o>\022:o>\022:o>\022:o>\022:o>\022:o>\022:o>\022:o>\022:o>\022:o>\022:o>\022:o>\022:o>\022:o>\022:o>\022:o>\022:o>\022:o>\022:o>\022:o>\022:o>\022:o>\022:o>\022:o>\022:o>\022:o>\022:o>\022:o>\022:o>\022:o>\022:o>\022:o>\022:o>\022:o>\022:o>\022:o>\022:o>\022:o>\022:o>\022:o>\022:o>\022:o>\022:o>\022:o>\022:o>\022:o>\022:o>\022:o>\022:o>\022:o>\022:o>\022:o>\022:o>\022:o>\022:o>\022:o>\022:o>\022:o>\022:o>\022:o>\022:o>\022:o>\022:o>\022:o>\022:o>\022:o>\022:o>\022:o>\022:o>\022:o>\022:o>\022:o>\022:o>\022:o>\022:o>\022:o>\022:o>\022:o>\022:o>\022:o>\022:o>\022:o>\022:o>\022:o>\022:o>\022:o>\022:o>\022:o>\022:o>\022:o>\022:o>\022:o>\022:o>\022:o>\022:o>\022:o>\022:o>\022:o>\022:o>\022:o>\022:o>\022:o>\022:o>\022:o>\022:o>\227C\005\277\227C\005\277\227C\005\277\227C\005\277\227C\005\277\227C\005\277\227C\005\277\227C\005\277\227C\005\277\227C\005\277\227C\005\277\227C\005\277\227C\005\277\227C\005\277\227C\005\277\227C\005\277\227C\005\277\227C\005\277\227C\005\277\227C\005\277\227C\005\277\227C\005\277\227C\005\277\227C\005\277\227C\005\277\227C\005\277\227C\005\277\227C\005\277\227C\005\277\227C\005\277\227C\005\277\227C\005\277\227C\005\277\227C\005\277\227C\005\277\227C\005\277\227C\005\277\227C\005\277\227C\005\277\227C\005\277\227C\005\277\227C\005\277\227C\005\277\227C\005\277\227C\005\277\227C\005\277\227C\005\277\227C\005\277\227C\005\277\227C\005\277\227C\005\277\227C\005\277\227C\005\277\227C\005\277\227C\005\277\227C\005\277\227C\005\277\227C\005\277\227C\005\277\227C\005\277\227C\005\277\227C\005\277\227C\005\277\227C\005\277\227C\005\277\227C\005\277\227C\005\277\227C\005\277\227C\005\277\227C\005\277\227C\005\277\227C\005\277\227C\005\277\227C\005\277\227C\005\277\227C\005\277\227C\005\277\227C\005\277\227C\005\277\227C\005\277\227C\005\277\227C\005\277\227C\005\277\227C\005\277\227C\005\277\227C\005\277\227C\005\277\227C\005\277\227C\005\277\227C\005\277\227C\005\277\227C\005\277\227C\005\277\227C\005\277\227C\005\277\227C\005\277\227C\005\277\227C\005\277\227C\005\277\227C\005\277\227C\005\277\227C\005\277\227C\005\277\227C\005\277\227C\005\277\227C\005\277\227C\005\277\227C\005\277\227C\005\277\227C\005\277\227C\005\277\227C\005\277\227C\005\277\227C\005\277\227C\005\277\227C\005\277\227C\005\277\227C\005\277\227C\005\277\227C\005\277\227C\005\277\227C\005\277\227C\005\277\227C\005\277\227C\005\277\227C\005\277\227C\005\277\227C\005\277\227C\005\277\227C\005\277\227C\005\277\227C\005\277\227C\005\277\227C\005\277\227C\005\277\227C\005\277\227C\005\277\227C\005\277\227C\005\277\227C\005\277\227C\005\277\227C\005\277\227C\005\277\227C\005\277\227C\005\277\227C\005\277\227C\005\277\227C\005\277\227C\005\277\227C\005\277\227C\005\277\227C\005\277\227C\005\277\227C\005\277\227C\005\277\227C\005\277\227C\005\277\227C\005\277\227C\005\277\227C\005\277\227C\005\277\227C\005\277\227C\005\277\227C\005\277\227C\005\277\227C\005\277\227C\005\277\227C\005\277\227C\005\277\227C\005\277\227C\005\277\227C\005\277\227C\005\277\227C\005\277\227C\005\277\227C\005\277\227C\005\277\227C\005\277\227C\005\277\227C\005\277\227C\005\277\227C\005\277\227C\005\277\227C\005\277\227C\005\277\227C\005\277\227C\005\277\227C\005\277\227C\005\277\227C\005\277\227C\005\277\227C\005\277\227C\005\277\227C\005\277\227C\005\277\227C\005\277\227C\005\277\227C\005\277\227C\005\277\227C\005\277\025:\323\276\025:\323\276\025:\323\276\025:\323\276\025:\323\276\025:\323\276\025:\323\276\025:\323\276\025:\323\276\025:\323\276\025:\323\276\025:\323\276\025:\323\276\025:\323\276\025:\323\276\025:\323\276\025:\323\276\025:\323\276\025:\323\276\025:\323\276\025:\323\276\025:\323\276\025:\323\276\025:\323\276\025:\323\276\025:\323\276\025:\323\276\025:\323\276\025:\323\276\025:\323\276\025:\323\276\025:\323\276\025:\323\276\025:\323\276\025:\323\276\025:\323\276\025:\323\276\025:\323\276\025:\323\276\025:\323\276\025:\323\276\025:\323\276\025:\323\276\025:\323\276\025:\323\276\025:\323\276\025:\323\276\025:\323\276\025:\323\276\025:\323\276\025:\323\276\025:\323\276\025:\323\276\025:\323\276\025:\323\276\025:\323\276\025:\323\276\025:\323\276\025:\323\276\025:\323\276\025:\323\276\025:\323\276\025:\323\276\025:\323\276\025:\323\276\025:\323\276\025:\323\276\025:\323\276\025:\323\276\025:\323\276\025:\323\276\025:\323\276\025:\323\276\025:\323\276\025:\323\276\025:\323\276\025:\323\276\025:\323\276\025:\323\276\025:\323\276\025:\323\276\025:\323\276\025:\323\276\025:\323\276\025:\323\276\025:\323\276\025:\323\276\025:\323\276\025:\323\276\025:\323\276\025:\323\276\025:\323\276\025:\323\276\025:\323\276\025:\323\276\025:\323\276\025:\323\276\025:\323\276\025:\323\276\025:\323\276\025:\323\276\025:\323\276\025:\323\276\025:\323\276\025:\323\276\025:\323\276\025:\323\276\025:\323\276\025:\323\276\025:\323\276\025:\323\276\025:\323\276\025:\323\276\025:\323\276\025:\323\276\025:\323\276\025:\323\276\025:\323\276\025:\323\276\025:\323\276\025:\323\276\025:\323\276\025:\323\276\025:\323\276\025:\323\276\025:\323\276\025:\323\276\025:\323\276\025:\323\276\025:\323\276\025:\323\276\025:\323\276\025:\323\276\025:\323\276\025:\323\276\025:\323\276\025:\323\276\025:\323\276\025:\323\276\025:\323\276\025:\323\276\025:\323\276\025:\323\276\025:\323\276\025:\323\276\025:\323\276\025:\323\276\025:\323\276\025:\323\276\025:\323\276\025:\323\276\025:\323\276\025:\323\276\025:\323\276\025:\323\276\025:\323\276\025:\323\276\025:\323\276\025:\323\276\025:\323\276\025:\323\276\025:\323\276\025:\323\276\025:\323\276\025:\323\276\025:\323\276\025:\323\276\025:\323\276\025:\323\276\025:\323\276\025:\323\276\025:\323\276\025:\323\276\025:\323\276\025:\323\276\025:\323\276\025:\323\276\025:\323\276\025:\323\276\025:\323\276\025:\323\276\025:\323\276\025:\323\276\025:\323\276\025:\323\276\025:\323\276\025:\323\276\025:\323\276\025:\323\276\025:\323\276\025:\323\276\025:\323\276\025:\323\276\025:\323\276\025:\323\276\025:\323\276\025:\323\276\025:\323\276\025:\323\276\025:\323\276n\311d\277n\311d\277n\311d\277n\311d\277n\311d\277n\311d\277n\311d\277n\311d\277n\311d\277n\311d\277n\311d\277n\311d\277n\311d\277n\311d\277n\311d\277n\311d\277n\311d\277n\311d\277n\311d\277n\311d\277n\311d\277n\311d\277n\311d\277n\311d\277n\311d\277n\311d\277n\311d\277n\311d\277n\311d\277n\311d\277n\311d\277n\311d\277n\311d\277n\311d\277n\311d\277n\311d\277n\311d\277n\311d\277n\311d\277n\311d\277n\311d\277n\311d\277n\311d\277n\311d\277n\311d\277n\311d\277n\311d\277n\311d\277n\311d\277n\311d\277n\311d\277n\311d\277n\311d\277n\311d\277n\311d\277n\311d\277n\311d\277n\311d\277n\311d\277n\311d\277n\311d\277n\311d\277n\311d\277n\311d\277n\311d\277n\311d\277n\311d\277n\311d\277n\311d\277n\311d\277n\311d\277n\311d\277n\311d\277n\311d\277n\311d\277n\311d\277n\311d\277n\311d\277n\311d\277n\311d\277n\311d\277n\311d\277n\311d\277n\311d\277n\311d\277n\311d\277n\311d\277n\311d\277n\311d\277n\311d\277n\311d\277n\311d\277n\311d\277n\311d\277n\311d\277n\311d\277n\311d\277n\311d\277n\311d\277n\311d\277n\311d\277n\311d\277n\311d\277n\311d\277n\311d\277n\311d\277n\311d\277n\311d\277n\311d\277n\311d\277n\311d\277n\311d\277n\311d\277n\311d\277n\311d\277n\311d\277n\311d\277n\311d\277n\311d\277n\311d\277n\311d\277n\311d\277n\311d\277n\311d\277n\311d\277n\311d\277n\311d\277n\311d\277n\311d\277n\311d\277n\311d\277n\311d\277n\311d\277n\311d\277n\311d\277n\311d\277n\311d\277n\311d\277n\311d\277n\311d\277n\311d\277n\311d\277n\311d\277n\311d\277n\311d\277n\311d\277n\311d\277n\311d\277n\311d\277n\311d\277n\311d\277n\311d\277n\311d\277n\311d\277n\311d\277n\311d\277n\311d\277n\311d\277n\311d\277n\311d\277n\311d\277n\311d\277n\311d\277n\311d\277n\311d\277n\311d\277n\311d\277n\311d\277n\311d\277n\311d\277n\311d\277n\311d\277n\311d\277n\311d\277n\311d\277n\311d\277n\311d\277n\311d\277n\311d\277n\311d\277n\311d\277n\311d\277n\311d\277n\311d\277n\311d\277n\311d\277n\311d\277n\311d\277n\311d\277n\311d\277n\311d\277n\311d\277n\311d\277n\311d\277n\311d\277n\311d\277n\311d\277n\311d\277n\311d\277n\311d\277\200\221\010=\200\221\010=\200\221\010=\200\221\010=\200\221\010=\200\221\010=\200\221\010=\200\221\010=\200\221\010=\200\221\010=\200\221\010=\200\221\010=\200\221\010=\200\221\010=\200\221\010=\200\221\010=\200\221\010=\200\221\010=\200\221\010=\200\221\010=\200\221\010=\200\221\010=\200\221\010=\200\221\010=\200\221\010=\200\221\010=\200\221\010=\200\221\010=\200\221\010=\200\221\010=\200\221\010=\200\221\010=\200\221\010=\200\221\010=\200\221\010=\200\221\010=\200\221\010=\200\221\010=\200\221\010=\200\221\010=\200\221\010=\200\221\010=\200\221\010=\200\221\010=\200\221\010=\200\221\010=\200\221\010=\200\221\010=\200\221\010=\200\221\010=\200\221\010=\200\221\010=\200\221\010=\200\221\010=\200\221\010=\200\221\010=\200\221\010=\200\221\010=\200\221\010=\200\221\010=\200\221\010=\200\221\010=\200\221\010=\200\221\010=\200\221\010=\200\221\010=\200\221\010=\200\221\010=\200\221\010=\200\221\010=\200\221\010=\200\221\010=\200\221\010=\200\221\010=\200\221\010=\200\221\010=\200\221\010=\200\221\010=\200\221\010=\200\221\010=\200\221\010=\200\221\010=\200\221\010=\200\221\010=\200\221\010=\200\221\010=\200\221\010=\200\221\010=\200\221\010=\200\221\010=\200\221\010=\200\221\010=\200\221\010=\200\221\010=\200\221\010=\200\221\010=\200\221\010=\200\221\010=\200\221\010=\200\221\010=\200\221\010=\200\221\010=\200\221\010=\200\221\010=\200\221\010=\200\221\010=\200\221\010=\200\221\010=\200\221\010=\200\221\010=\200\221\010=\200\221\010=\200\221\010=\200\221\010=\200\221\010=\200\221\010=\200\221\010=\200\221\010=\200\221\010=\200\221\010=\200\221\010=\200\221\010=\200\221\010=\200\221\010=\200\221\010=\200\221\010=\200\221\010=\200\221\010=\200\221\010=\200\221\010=\200\221\010=\200\221\010=\200\221\010=\200\221\010=\200\221\010=\200\221\010=\200\221\010=\200\221\010=\200\221\010=\200\221\010=\200\221\010=\200\221\010=\200\221\010=\200\221\010=\200\221\010=\200\221\010=\200\221\010=\200\221\010=\200\221\010=\200\221\010=\200\221\010=\200\221\010=\200\221\010=\200\221\010=\200\221\010=\200\221\010=\200\221\010=\200\221\010=\200\221\010=\200\221\010=\200\221\010=\200\221\010=\200\221\010=\200\221\010=\200\221\010=\200\221\010=\200\221\010=\200\221\010=\200\221\010=\200\221\010=\200\221\010=\200\221\010=\200\221\010=\200\221\010=\200\221\010=\200\221\010=\200\221\010=\200\221\010=\200\221\010=\200\221\010=\200\221\010=\200\221\010=\200\221\010=\200\221\010=\200\221\010=\200\221\010=\200\221\010=\200\221\010=\200\221\010=\200\221\010=\200\221\010=\200\221\010=\200\221\010=\200\221\010=\200\221\010=\200\221\010=\200\221\010=\200\221\010=\200\221\010=\200\221\010=7\370Z\2777\370Z\2777\370Z\2777\370Z\2777\370Z\2777\370Z\2777\370Z\2777\370Z\2777\370Z\2777\370Z\2777\370Z\2777\370Z\2777\370Z\2777\370Z\2777\370Z\2777\370Z\2777\370Z\2777\370Z\2777\370Z\2777\370Z\2777\370Z\2777\370Z\2777\370Z\2777\370Z\2777\370Z\2777\370Z\2777\370Z\2777\370Z\2777\370Z\2777\370Z\2777\370Z\2777\370Z\2777\370Z\2777\370Z\2777\370Z\2777\370Z\2777\370Z\2777\370Z\2777\370Z\2777\370Z\2777\370Z\2777\370Z\2777\370Z\2777\370Z\2777\370Z\2777\370Z\2777\370Z\2777\370Z\2777\370Z\2777\370Z\2777\370Z\2777\370Z\2777\370Z\2777\370Z\2777\370Z\2777\370Z\2777\370Z\2777\370Z\2777\370Z\2777\370Z\2777\370Z\2777\370Z\2777\370Z\2777\370Z\2777\370Z\2777\370Z\2777\370Z\2777\370Z\2777\370Z\2777\370Z\2777\370Z\2777\370Z\2777\370Z\2777\370Z\2777\370Z\2777\370Z\2777\370Z\2777\370Z\2777\370Z\2777\370Z\2777\370Z\2777\370Z\2777\370Z\2777\370Z\2777\370Z\2777\370Z\2777\370Z\2777\370Z\2777\370Z\2777\370Z\2777\370Z\2777\370Z\2777\370Z\2777\370Z\2777\370Z\2777\370Z\2777\370Z\2777\370Z\2777\370Z\2777\370Z\2777\370Z\2777\370Z\2777\370Z\2777\370Z\2777\370Z\2777\370Z\2777\370Z\2777\370Z\2777\370Z\2777\370Z\2777\370Z\2777\370Z\2777\370Z\2777\370Z\2777\370Z\2777\370Z\2777\370Z\2777\370Z\2777\370Z\2777\370Z\2777\370Z\2777\370Z\2777\370Z\2777\370Z\2777\370Z\2777\370Z\2777\370Z\2777\370Z\2777\370Z\2777\370Z\2777\370Z\2777\370Z\2777\370Z\2777\370Z\2777\370Z\2777\370Z\2777\370Z\2777\370Z\2777\370Z\2777\370Z\2777\370Z\2777\370Z\2777\370Z\2777\370Z\2777\370Z\2777\370Z\2777\370Z\2777\370Z\2777\370Z\2777\370Z\2777\370Z\2777\370Z\2777\370Z\2777\370Z\2777\370Z\2777\370Z\2777\370Z\2777\370Z\2777\370Z\2777\370Z\2777\370Z\2777\370Z\2777\370Z\2777\370Z\2777\370Z\2777\370Z\2777\370Z\2777\370Z\2777\370Z\2777\370Z\2777\370Z\2777\370Z\2777\370Z\2777\370Z\2777\370Z\2777\370Z\2777\370Z\2777\370Z\2777\370Z\2777\370Z\2777\370Z\2777\370Z\2777\370Z\2777\370Z\2777\370Z\2777\370Z\2777\370Z\2777\370Z\2777\370Z\2777\370Z\2777\370Z\2777\370Z\2777\370Z\2777\370Z\2777\370Z\2777\370Z\2777\370Z\2777\370Z\2777\370Z\2777\370Z\277\204TD>\204TD>\204TD>\204TD>\204TD>\204TD>\204TD>\204TD>\204TD>\204TD>\204TD>\204TD>\204TD>\204TD>\204TD>\204TD>\204TD>\204TD>\204TD>\204TD>\204TD>\204TD>\204TD>\204TD>\204TD>\204TD>\204TD>\204TD>\204TD>\204TD>\204TD>\204TD>\204TD>\204TD>\204TD>\204TD>\204TD>\204TD>\204TD>\204TD>\204TD>\204TD>\204TD>\204TD>\204TD>\204TD>\204TD>\204TD>\204TD>\204TD>\204TD>\204TD>\204TD>\204TD>\204TD>\204TD>\204TD>\204TD>\204TD>\204TD>\204TD>\204TD>\204TD>\204TD>\204TD>\204TD>\204TD>\204TD>\204TD>\204TD>\204TD>\204TD>\204TD>\204TD>\204TD>\204TD>\204TD>\204TD>\204TD>\204TD>\204TD>\204TD>\204TD>\204TD>\204TD>\204TD>\204TD>\204TD>\204TD>\204TD>\204TD>\204TD>\204TD>\204TD>\204TD>\204TD>\204TD>\204TD>\204TD>\204TD>\204TD>\204TD>\204TD>\204TD>\204TD>\204TD>\204TD>\204TD>\204TD>\204TD>\204TD>\204TD>\204TD>\204TD>\204TD>\204TD>\204TD>\204TD>\204TD>\204TD>\204TD>\204TD>\204TD>\204TD>\204TD>\204TD>\204TD>\204TD>\204TD>\204TD>\204TD>\204TD>\204TD>\204TD>\204TD>\204TD>\204TD>\204TD>\204TD>\204TD>\204TD>\204TD>\204TD>\204TD>\204TD>\204TD>\204TD>\204TD>\204TD>\204TD>\204TD>\204TD>\204TD>\204TD>\204TD>\204TD>\204TD>\204TD>\204TD>\204TD>\204TD>\204TD>\204TD>\204TD>\204TD>\204TD>\204TD>\204TD>\204TD>\204TD>\204TD>\204TD>\204TD>\204TD>\204TD>\204TD>\204TD>\204TD>\204TD>\204TD>\204TD>\204TD>\204TD>\204TD>\204TD>\204TD>\204TD>\204TD>\204TD>\204TD>\204TD>\204TD>\204TD>\204TD>\204TD>\204TD>\204TD>\204TD>\204TD>\204TD>\035}0?\035}0?\035}0?\035}0?\035}0?\035}0?\035}0?\035}0?\035}0?\035}0?\035}0?\035}0?\035}0?\035}0?\035}0?\035}0?\035}0?\035}0?\035}0?\035}0?\035}0?\035}0?\035}0?\035}0?\035}0?\035}0?\035}0?\035}0?\035}0?\035}0?\035}0?\035}0?\035}0?\035}0?\035}0?\035}0?\035}0?\035}0?\035}0?\035}0?\035}0?\035}0?\035}0?\035}0?\035}0?\035}0?\035}0?\035}0?\035}0?\035}0?\035}0?\035}0?\035}0?\035}0?\035}0?\035}0?\035}0?\035}0?\035}0?\035}0?\035}0?\035}0?\035}0?\035}0?\035}0?\035}0?\035}0?\035}0?\035}0?\035}0?\035}0?\035}0?\035}0?\035}0?\035}0?\035}0?\035}0?\035}0?\035}0?\035}0?\035}0?\035}0?\035}0?\035}0?\035}0?\035}0?\035}0?\035}0?\035}0?\035}0?\035}0?\035}0?\035}0?\035}0?\035}0?\035}0?\035}0?\035}0?\035}0?\035}0?\035}0?\035}0?\035}0?\035}0?\035}0?\035}0?\035}0?\035}0?\035}0?\035}0?\035}0?\035}0?\035}0?\035}0?\035}0?\035}0?\035}0?\035}0?\035}0?\035}0?\035}0?\035}0?\035}0?\035}0?\035}0?\035}0?\035}0?\035}0?\035}0?\035}0?\035}0?\035}0?\035}0?\035}0?\035}0?\035}0?\035}0?\035}0?\035}0?\035}0?\035}0?\035}0?\035}0?\035}0?\035}0?\035}0?\035}0?\035}0?\035}0?\035}0?\035}0?\035}0?\035}0?\035}0?\035}0?\035}0?\035}0?\035}0?\035}0?\035}0?\035}0?\035}0?\035}0?\035}0?\035}0?\035}0?\035}0?\035}0?\035}0?\035}0?\035}0?\035}0?\035}0?\035}0?\035}0?\035}0?\035}0?\035}0?\035}0?\035}0?\035}0?\035}0?\035}0?\035}0?\035}0?\035}0?\035}0?\035}0?\035}0?\035}0?\035}0?\035}0?\035}0?\035}0?\035}0?\035}0?\035}0?\035}0?\035}0?\035}0?N\263\373\275N\263\373\275N\263\373\275N\263\373\275N\263\373\275N\263\373\275N\263\373\275N\263\373\275N\263\373\275N\263\373\275N\263\373\275N\263\373\275N\263\373\275N\263\373\275N\263\373\275N\263\373\275N\263\373\275N\263\373\275N\263\373\275N\263\373\275N\263\373\275N\263\373\275N\263\373\275N\263\373\275N\263\373\275N\263\373\275N\263\373\275N\263\373\275N\263\373\275N\263\373\275N\263\373\275N\263\373\275N\263\373\275N\263\373\275N\263\373\275N\263\373\275N\263\373\275N\263\373\275N\263\373\275N\263\373\275N\263\373\275N\263\373\275N\263\373\275N\263\373\275N\263\373\275N\263\373\275N\263\373\275N\263\373\275N\263\373\275N\263\373\275N\263\373\275N\263\373\275N\263\373\275N\263\373\275N\263\373\275N\263\373\275N\263\373\275N\263\373\275N\263\373\275N\263\373\275N\263\373\275N\263\373\275N\263\373\275N\263\373\275N\263\373\275N\263\373\275N\263\373\275N\263\373\275N\263\373\275N\263\373\275N\263\373\275N\263\373\275N\263\373\275N\263\373\275N\263\373\275N\263\373\275N\263\373\275N\263\373\275N\263\373\275N\263\373\275N\263\373\275N\263\373\275N\263\373\275N\263\373\275N\263\373\275N\263\373\275N\263\373\275N\263\373\275N\263\373\275N\263\373\275N\263\373\275N\263\373\275N\263\373\275N\263\373\275N\263\373\275N\263\373\275N\263\373\275N\263\373\275N\263\373\275N\263\373\275N\263\373\275N\263\373\275N\263\373\275N\263\373\275N\263\373\275N\263\373\275N\263\373\275N\263\373\275N\263\373\275N\263\373\275N\263\373\275N\263\373\275N\263\373\275N\263\373\275N\263\373\275N\263\373\275N\263\373\275N\263\373\275N\263\373\275N\263\373\275N\263\373\275N\263\373\275N\263\373\275N\263\373\275N\263\373\275N\263\373\275N\263\373\275N\263\373\275N\263\373\275N\263\373\275N\263\373\275N\263\373\275N\263\373\275N\263\373\275N\263\373\275N\263\373\275N\263\373\275N\263\373\275N\263\373\275N\263\373\275N\263\373\275N\263\373\275N\263\373\275N\263\373\275N\263\373\275N\263\373\275N\263\373\275N\263\373\275N\263\373\275N\263\373\275N\263\373\275N\263\373\275N\263\373\275N\263\373\275N\263\373\275N\263\373\275N\263\373\275N\263\373\275N\263\373\275N\263\373\275N\263\373\275N\263\373\275N\263\373\275N\263\373\275N\263\373\275N\263\373\275N\263\373\275N\263\373\275N\263\373\275N\263\373\275N\263\373\275N\263\373\275N\263\373\275N\263\373\275N\263\373\275N\263\373\275N\263\373\275N\263\373\275N\263\373\275N\263\373\275N\263\373\275N\263\373\275N\263\373\275N\263\373\275N\263\373\275N\263\373\275N\263\373\275N\263\373\275N\263\373\275N\263\373\275N\263\373\275N\263\373\275N\263\373\275N\263\373\275N\263\373\275N\263\373\275N\263\373\275N\263\373\275N\263\373\275N\263\373\275T\274\004\277T\274\004\277T\274\004\277T\274\004\277T\274\004\277T\274\004\277T\274\004\277T\274\004\277T\274\004\277T\274\004\277T\274\004\277T\274\004\277T\274\004\277T\274\004\277T\274\004\277T\274\004\277T\274\004\277T\274\004\277T\274\004\277T\274\004\277T\274\004\277T\274\004\277T\274\004\277T\274\004\277T\274\004\277T\274\004\277T\274\004\277T\274\004\277T\274\004\277T\274\004\277T\274\004\277T\274\004\277T\274\004\277T\274\004\277T\274\004\277T\274\004\277T\274\004\277T\274\004\277T\274\004\277T\274\004\277T\274\004\277T\274\004\277T\274\004\277T\274\004\277T\274\004\277T\274\004\277T\274\004\277T\274\004\277T\274\004\277T\274\004\277T\274\004\277T\274\004\277T\274\004\277T\274\004\277T\274\004\277T\274\004\277T\274\004\277T\274\004\277T\274\004\277T\274\004\277T\274\004\277T\274\004\277T\274\004\277T\274\004\277T\274\004\277T\274\004\277T\274\004\277T\274\004\277T\274\004\277T\274\004\277T\274\004\277T\274\004\277T\274\004\277T\274\004\277T\274\004\277T\274\004\277T\274\004\277T\274\004\277T\274\004\277T\274\004\277T\274\004\277T\274\004\277T\274\004\277T\274\004\277T\274\004\277T\274\004\277T\274\004\277T\274\004\277T\274\004\277T\274\004\277T\274\004\277T\274\004\277T\274\004\277T\274\004\277T\274\004\277T\274\004\277T\274\004\277T\274\004\277T\274\004\277T\274\004\277T\274\004\277T\274\004\277T\274\004\277T\274\004\277T\274\004\277T\274\004\277T\274\004\277T\274\004\277T\274\004\277T\274\004\277T\274\004\277T\274\004\277T\274\004\277T\274\004\277T\274\004\277T\274\004\277T\274\004\277T\274\004\277T\274\004\277T\274\004\277T\274\004\277T\274\004\277T\274\004\277T\274\004\277T\274\004\277T\274\004\277T\274\004\277T\274\004\277T\274\004\277T\274\004\277T\274\004\277T\274\004\277T\274\004\277T\274\004\277T\274\004\277T\274\004\277T\274\004\277T\274\004\277T\274\004\277T\274\004\277T\274\004\277T\274\004\277T\274\004\277T\274\004\277T\274\004\277T\274\004\277T\274\004\277T\274\004\277T\274\004\277T\274\004\277T\274\004\277T\274\004\277T\274\004\277T\274\004\277T\274\004\277T\274\004\277T\274\004\277T\274\004\277T\274\004\277T\274\004\277T\274\004\277T\274\004\277T\274\004\277T\274\004\277T\274\004\277T\274\004\277T\274\004\277T\274\004\277T\274\004\277T\274\004\277T\274\004\277T\274\004\277T\274\004\277T\274\004\277T\274\004\277T\274\004\277T\274\004\277T\274\004\277T\274\004\277T\274\004\277T\274\004\277T\274\004\277T\274\004\277T\274\004\277T\274\004\277T\274\004\277T\274\004\277T\274\004\277T\274\004\277T\274\004\277T\274\004\277T\274\004\277T\274\004\277T\274\004\277T\274\004\277T\274\004\277T\274\004\277T\274\004\277T\274\004\277T\274\004\277\303\021\310\275\303\021\310\275\303\021\310\275\303\021\310\275\303\021\310\275\303\021\310\275\303\021\310\275\303\021\310\275\303\021\310\275\303\021\310\275\303\021\310\275\303\021\310\275\303\021\310\275\303\021\310\275\303\021\310\275\303\021\310\275\303\021\310\275\303\021\310\275\303\021\310\275\303\021\310\275\303\021\310\275\303\021\310\275\303\021\310\275\303\021\310\275\303\021\310\275\303\021\310\275\303\021\310\275\303\021\310\275\303\021\310\275\303\021\310\275\303\021\310\275\303\021\310\275\303\021\310\275\303\021\310\275\303\021\310\275\303\021\310\275\303\021\310\275\303\021\310\275\303\021\310\275\303\021\310\275\303\021\310\275\303\021\310\275\303\021\310\275\303\021\310\275\303\021\310\275\303\021\310\275\303\021\310\275\303\021\310\275\303\021\310\275\303\021\310\275\303\021\310\275\303\021\310\275\303\021\310\275\303\021\310\275\303\021\310\275\303\021\310\275\303\021\310\275\303\021\310\275\303\021\310\275\303\021\310\275\303\021\310\275\303\021\310\275\303\021\310\275\303\021\310\275\303\021\310\275\303\021\310\275\303\021\310\275\303\021\310\275\303\021\310\275\303\021\310\275\303\021\310\275\303\021\310\275\303\021\310\275\303\021\310\275\303\021\310\275\303\021\310\275\303\021\310\275\303\021\310\275\303\021\310\275\303\021\310\275\303\021\310\275\303\021\310\275\303\021\310\275\303\021\310\275\303\021\310\275\303\021\310\275\303\021\310\275\303\021\310\275\303\021\310\275\303\021\310\275\303\021\310\275\303\021\310\275\303\021\310\275\303\021\310\275\303\021\310\275\303\021\310\275\303\021\310\275\303\021\310\275\303\021\310\275\303\021\310\275\303\021\310\275\303\021\310\275\303\021\310\275\303\021\310\275\303\021\310\275\303\021\310\275\303\021\310\275\303\021\310\275\303\021\310\275\303\021\310\275\303\021\310\275\303\021\310\275\303\021\310\275\303\021\310\275\303\021\310\275\303\021\310\275\303\021\310\275\303\021\310\275\303\021\310\275\303\021\310\275\303\021\310\275\303\021\310\275\303\021\310\275\303\021\310\275\303\021\310\275\303\021\310\275\303\021\310\275\303\021\310\275\303\021\310\275\303\021\310\275\303\021\310\275\303\021\310\275\303\021\310\275\303\021\310\275\303\021\310\275\303\021\310\275\303\021\310\275\303\021\310\275\303\021\310\275\303\021\310\275\303\021\310\275\303\021\310\275\303\021\310\275\303\021\310\275\303\021\310\275\303\021\310\275\303\021\310\275\303\021\310\275\303\021\310\275\303\021\310\275\303\021\310\275\303\021\310\275\303\021\310\275\303\021\310\275\303\021\310\275\303\021\310\275\303\021\310\275\303\021\310\275\303\021\310\275\303\021\310\275\303\021\310\275\303\021\310\275\303\021\310\275\303\021\310\275\303\021\310\275\303\021\310\275\303\021\310\275\303\021\310\275\303\021\310\275\303\021\310\275\303\021\310\275\303\021\310\275\303\021\310\275\303\021\310\275\303\021\310\275\303\021\310\275\303\021\310\275\303\021\310\275\303\021\310\275\303\021\310\275\303\021\310\275\303\021\310\275\303\021\310\275\303\021\310\275\303\021\310\275\303\021\310\275\303\021\310\275\303\021\310\275\303\021\310\275\303\021\310\275\303\021\310\275\303\021\310\275\303\021\310\275\303\021\310\275\303\021\310\275\303\021\310\275\303\021\310\275\303\021\310\275\303\021\310\275\303\021\310\275\022\341z\277\022\341z\277\022\341z\277\022\341z\277\022\341z\277\022\341z\277\022\341z\277\022\341z\277\022\341z\277\022\341z\277\022\341z\277\022\341z\277\022\341z\277\022\341z\277\022\341z\277\022\341z\277\022\341z\277\022\341z\277\022\341z\277\022\341z\277\022\341z\277\022\341z\277\022\341z\277\022\341z\277\022\341z\277\022\341z\277\022\341z\277\022\341z\277\022\341z\277\022\341z\277\022\341z\277\022\341z\277\022\341z\277\022\341z\277\022\341z\277\022\341z\277\022\341z\277\022\341z\277\022\341z\277\022\341z\277\022\341z\277\022\341z\277\022\341z\277\022\341z\277\022\341z\277\022\341z\277\022\341z\277\022\341z\277\022\341z\277\022\341z\277\022\341z\277\022\341z\277\022\341z\277\022\341z\277\022\341z\277\022\341z\277\022\341z\277\022\341z\277\022\341z\277\022\341z\277\022\341z\277\022\341z\277\022\341z\277\022\341z\277\022\341z\277\022\341z\277\022\341z\277\022\341z\277\022\341z\277\022\341z\277\022\341z\277\022\341z\277\022\341z\277\022\341z\277\022\341z\277\022\341z\277\022\341z\277\022\341z\277\022\341z\277\022\341z\277\022\341z\277\022\341z\277\022\341z\277\022\341z\277\022\341z\277\022\341z\277\022\341z\277\022\341z\277\022\341z\277\022\341z\277\022\341z\277\022\341z\277\022\341z\277\022\341z\277\022\341z\277\022\341z\277\022\341z\277\022\341z\277\022\341z\277\022\341z\277\022\341z\277\022\341z\277\022\341z\277\022\341z\277\022\341z\277\022\341z\277\022\341z\277\022\341z\277\022\341z\277\022\341z\277\022\341z\277\022\341z\277\022\341z\277\022\341z\277\022\341z\277\022\341z\277\022\341z\277\022\341z\277\022\341z\277\022\341z\277\022\341z\277\022\341z\277\022\341z\277\022\341z\277\022\341z\277\022\341z\277\022\341z\277\022\341z\277\022\341z\277\022\341z\277\022\341z\277\022\341z\277\022\341z\277\022\341z\277\022\341z\277\022\341z\277\022\341z\277\022\341z\277\022\341z\277\022\341z\277\022\341z\277\022\341z\277\022\341z\277\022\341z\277\022\341z\277\022\341z\277\022\341z\277\022\341z\277\022\341z\277\022\341z\277\022\341z\277\022\341z\277\022\341z\277\022\341z\277\022\341z\277\022\341z\277\022\341z\277\022\341z\277\022\341z\277\022\341z\277\022\341z\277\022\341z\277\022\341z\277\022\341z\277\022\341z\277\022\341z\277\022\341z\277\022\341z\277\022\341z\277\022\341z\277\022\341z\277\022\341z\277\022\341z\277\022\341z\277\022\341z\277\022\341z\277\022\341z\277\022\341z\277\022\341z\277\022\341z\277\022\341z\277\022\341z\277\022\341z\277\022\341z\277\022\341z\277\022\341z\277\022\341z\277\022\341z\277\022\341z\277\022\341z\277\022\341z\277\022\341z\277\022\341z\277\022\341z\277\022\341z\277\022\341z\277\022\341z\277\022\341z\277\022\341z\277\022\341z\2773\302\177?3\302\177?3\302\177?3\302\177?3\302\177?3\302\177?3\302\177?3\302\177?3\302\177?3\302\177?3\302\177?3\302\177?3\302\177?3\302\177?3\302\177?3\302\177?3\302\177?3\302\177?3\302\177?3\302\177?3\302\177?3\302\177?3\302\177?3\302\177?3\302\177?3\302\177?3\302\177?3\302\177?3\302\177?3\302\177?3\302\177?3\302\177?3\302\177?3\302\177?3\302\177?3\302\177?3\302\177?3\302\177?3\302\177?3\302\177?3\302\177?3\302\177?3\302\177?3\302\177?3\302\177?3\302\177?3\302\177?3\302\177?3\302\177?3\302\177?3\302\177?3\302\177?3\302\177?3\302\177?3\302\177?3\302\177?3\302\177?3\302\177?3\302\177?3\302\177?3\302\177?3\302\177?3\302\177?3\302\177?3\302\177?3\302\177?3\302\177?3\302\177?3\302\177?3\302\177?3\302\177?3\302\177?3\302\177?3\302\177?3\302\177?3\302\177?3\302\177?3\302\177?3\302\177?3\302\177?3\302\177?3\302\177?3\302\177?3\302\177?3\302\177?3\302\177?3\302\177?3\302\177?3\302\177?3\302\177?3\302\177?3\302\177?3\302\177?3\302\177?3\302\177?3\302\177?3\302\177?3\302\177?3\302\177?3\302\177?3\302\177?3\302\177?3\302\177?3\302\177?3\302\177?3\302\177?3\302\177?3\302\177?3\302\177?3\302\177?3\302\177?3\302\177?3\302\177?3\302\177?3\302\177?3\302\177?3\302\177?3\302\177?3\302\177?3\302\177?3\302\177?3\302\177?3\302\177?3\302\177?3\302\177?3\302\177?3\302\177?3\302\177?3\302\177?3\302\177?3\302\177?3\302\177?3\302\177?3\302\177?3\302\177?3\302\177?3\302\177?3\302\177?3\302\177?3\302\177?3\302\177?3\302\177?3\302\177?3\302\177?3\302\177?3\302\177?3\302\177?3\302\177?3\302\177?3\302\177?3\302\177?3\302\177?3\302\177?3\302\177?3\302\177?3\302\177?3\302\177?3\302\177?3\302\177?3\302\177?3\302\177?3\302\177?3\302\177?3\302\177?3\302\177?3\302\177?3\302\177?3\302\177?3\302\177?3\302\177?3\302\177?3\302\177?3\302\177?3\302\177?3\302\177?3\302\177?3\302\177?3\302\177?3\302\177?3\302\177?3\302\177?3\302\177?3\302\177?3\302\177?3\302\177?3\302\177?3\302\177?3\302\177?3\302\177?3\302\177?3\302\177?3\302\177?3\302\177?3\302\177?3\302\177?3\302\177?3\302\177?3\302\177?3\302\177?3\302\177?\262\373h\277\262\373h\277\262\373h\277\262\373h\277\262\373h\277\262\373h\277\262\373h\277\262\373h\277\262\373h\277\262\373h\277\262\373h\277\262\373h\277\262\373h\277\262\373h\277\262\373h\277\262\373h\277\262\373h\277\262\373h\277\262\373h\277\262\373h\277\262\373h\277\262\373h\277\262\373h\277\262\373h\277\262\373h\277\262\373h\277\262\373h\277\262\373h\277\262\373h\277\262\373h\277\262\373h\277\262\373h\277\262\373h\277\262\373h\277\262\373h\277\262\373h\277\262\373h\277\262\373h\277\262\373h\277\262\373h\277\262\373h\277\262\373h\277\262\373h\277\262\373h\277\262\373h\277\262\373h\277\262\373h\277\262\373h\277\262\373h\277\262\373h\277\262\373h\277\262\373h\277\262\373h\277\262\373h\277\262\373h\277\262\373h\277\262\373h\277\262\373h\277\262\373h\277\262\373h\277\262\373h\277\262\373h\277\262\373h\277\262\373h\277\262\373h\277\262\373h\277\262\373h\277\262\373h\277\262\373h\277\262\373h\277\262\373h\277\262\373h\277\262\373h\277\262\373h\277\262\373h\277\262\373h\277\262\373h\277\262\373h\277\262\373h\277\262\373h\277\262\373h\277\262\373h\277\262\373h\277\262\373h\277\262\373h\277\262\373h\277\262\373h\277\262\373h\277\262\373h\277\262\373h\277\262\373h\277\262\373h\277\262\373h\277\262\373h\277\262\373h\277\262\373h\277\262\373h\277\262\373h\277\262\373h\277\262\373h\277\262\373h\277\262\373h\277\262\373h\277\262\373h\277\262\373h\277\262\373h\277\262\373h\277\262\373h\277\262\373h\277\262\373h\277\262\373h\277\262\373h\277\262\373h\277\262\373h\277\262\373h\277\262\373h\277\262\373h\277\262\373h\277\262\373h\277\262\373h\277\262\373h\277\262\373h\277\262\373h\277\262\373h\277\262\373h\277\262\373h\277\262\373h\277\262\373h\277\262\373h\277\262\373h\277\262\373h\277\262\373h\277\262\373h\277\262\373h\277\262\373h\277\262\373h\277\262\373h\277\262\373h\277\262\373h\277\262\373h\277\262\373h\277\262\373h\277\262\373h\277\262\373h\277\262\373h\277\262\373h\277\262\373h\277\262\373h\277\262\373h\277\262\373h\277\262\373h\277\262\373h\277\262\373h\277\262\373h\277\262\373h\277\262\373h\277\262\373h\277\262\373h\277\262\373h\277\262\373h\277\262\373h\277\262\373h\277\262\373h\277\262\373h\277\262\373h\277\262\373h\277\262\373h\277\262\373h\277\262\373h\277\262\373h\277\262\373h\277\262\373h\277\262\373h\277\262\373h\277\262\373h\277\262\373h\277\262\373h\277\262\373h\277\262\373h\277\262\373h\277\262\373h\277\262\373h\277\262\373h\277\262\373h\277\262\373h\277\262\373h\277\262\373h\277\262\373h\277\262\373h\277\262\373h\277\262\373h\277\262\373h\277\262\373h\277\262\373h\277\262\373h\277\262\373h\277\262\373h\277\262\373h\277\262\373h\277\262\373h\277\260k\252\276\260k\252\276\260k\252\276\260k\252\276\260k\252\276\260k\252\276\260k\252\276\260k\252\276\260k\252\276\260k\252\276\260k\252\276\260k\252\276\260k\252\276\260k\252\276\260k\252\276\260k\252\276\260k\252\276\260k\252\276\260k\252\276\260k\252\276\260k\252\276\260k\252\276\260k\252\276\260k\252\276\260k\252\276\260k\252\276\260k\252\276\260k\252\276\260k\252\276\260k\252\276\260k\252\276\260k\252\276\260k\252\276\260k\252\276\260k\252\276\260k\252\276\260k\252\276\260k\252\276\260k\252\276\260k\252\276\260k\252\276\260k\252\276\260k\252\276\260k\252\276\260k\252\276\260k\252\276\260k\252\276\260k\252\276\260k\252\276\260k\252\276\260k\252\276\260k\252\276\260k\252\276\260k\252\276\260k\252\276\260k\252\276\260k\252\276\260k\252\276\260k\252\276\260k\252\276\260k\252\276\260k\252\276\260k\252\276\260k\252\276\260k\252\276\260k\252\276\260k\252\276\260k\252\276\260k\252\276\260k\252\276\260k\252\276\260k\252\276\260k\252\276\260k\252\276\260k\252\276\260k\252\276\260k\252\276\260k\252\276\260k\252\276\260k\252\276\260k\252\276\260k\252\276\260k\252\276\260k\252\276\260k\252\276\260k\252\276\260k\252\276\260k\252\276\260k\252\276\260k\252\276\260k\252\276\260k\252\276\260k\252\276\260k\252\276\260k\252\276\260k\252\276\260k\252\276\260k\252\276\260k\252\276\260k\252\276\260k\252\276\260k\252\276\260k\252\276\260k\252\276\260k\252\276\260k\252\276\260k\252\276\260k\252\276\260k\252\276\260k\252\276\260k\252\276\260k\252\276\260k\252\276\260k\252\276\260k\252\276\260k\252\276\260k\252\276\260k\252\276\260k\252\276\260k\252\276\260k\252\276\260k\252\276\260k\252\276\260k\252\276\260k\252\276\260k\252\276\260k\252\276\260k\252\276\260k\252\276\260k\252\276\260k\252\276\260k\252\276\260k\252\276\260k\252\276\260k\252\276\260k\252\276\260k\252\276\260k\252\276\260k\252\276\260k\252\276\260k\252\276\260k\252\276\260k\252\276\260k\252\276\260k\252\276\260k\252\276\260k\252\276\260k\252\276\260k\252\276\260k\252\276\260k\252\276\260k\252\276\260k\252\276\260k\252\276\260k\252\276\260k\252\276\260k\252\276\260k\252\276\260k\252\276\260k\252\276\260k\252\276\260k\252\276\260k\252\276\260k\252\276\260k\252\276\260k\252\276\260k\252\276\260k\252\276\260k\252\276\260k\252\276\260k\252\276\260k\252\276\260k\252\276\260k\252\276\260k\252\276\260k\252\276\260k\252\276\260k\252\276\260k\252\276\260k\252\276\260k\252\276\260k\252\276\260k\252\276\260k\252\276\260k\252\276\260k\252\276\260k\252\276\260k\252\276\260k\252\276\260k\252\276\260k\252\276\260k\252\276\260k\252\276\260k\252\276\260k\252\276\260k\252\276\260k\252\276\260k\252\276\260k\252\276\260k\252\276\326=q?\326=q?\326=q?\326=q?\326=q?\326=q?\326=q?\326=q?\326=q?\326=q?\326=q?\326=q?\326=q?\326=q?\326=q?\326=q?\326=q?\326=q?\326=q?\326=q?\326=q?\326=q?\326=q?\326=q?\326=q?\326=q?\326=q?\326=q?\326=q?\326=q?\326=q?\326=q?\326=q?\326=q?\326=q?\326=q?\326=q?\326=q?\326=q?\326=q?\326=q?\326=q?\326=q?\326=q?\326=q?\326=q?\326=q?\326=q?\326=q?\326=q?\326=q?\326=q?\326=q?\326=q?\326=q?\326=q?\326=q?\326=q?\326=q?\326=q?\326=q?\326=q?\326=q?\326=q?\326=q?\326=q?\326=q?\326=q?\326=q?\326=q?\326=q?\326=q?\326=q?\326=q?\326=q?\326=q?\326=q?\326=q?\326=q?\326=q?\326=q?\326=q?\326=q?\326=q?\326=q?\326=q?\326=q?\326=q?\326=q?\326=q?\326=q?\326=q?\326=q?\326=q?\326=q?\326=q?\326=q?\326=q?\326=q?\326=q?\326=q?\326=q?\326=q?\326=q?\326=q?\326=q?\326=q?\326=q?\326=q?\326=q?\326=q?\326=q?\326=q?\326=q?\326=q?\326=q?\326=q?\326=q?\326=q?\326=q?\326=q?\326=q?\326=q?\326=q?\326=q?\326=q?\326=q?\326=q?\326=q?\326=q?\326=q?\326=q?\326=q?\326=q?\326=q?\326=q?\326=q?\326=q?\326=q?\326=q?\326=q?\326=q?\326=q?\326=q?\326=q?\326=q?\326=q?\326=q?\326=q?\326=q?\326=q?\326=q?\326=q?\326=q?\326=q?\326=q?\326=q?\326=q?\326=q?\326=q?\326=q?\326=q?\326=q?\326=q?\326=q?\326=q?\326=q?\326=q?\326=q?\326=q?\326=q?\326=q?\326=q?\326=q?\326=q?\326=q?\326=q?\326=q?\326=q?\326=q?\326=q?\326=q?\326=q?\326=q?\326=q?\326=q?\326=q?\326=q?\326=q?\326=q?\326=q?\326=q?\326=q?\326=q?\326=q?\326=q?\326=q?\326=q?\326=q?\326=q?!\307C\277!\307C\277!\307C\277!\307C\277!\307C\277!\307C\277!\307C\277!\307C\277!\307C\277!\307C\277!\307C\277!\307C\277!\307C\277!\307C\277!\307C\277!\307C\277!\307C\277!\307C\277!\307C\277!\307C\277!\307C\277!\307C\277!\307C\277!\307C\277!\307C\277!\307C\277!\307C\277!\307C\277!\307C\277!\307C\277!\307C\277!\307C\277!\307C\277!\307C\277!\307C\277!\307C\277!\307C\277!\307C\277!\307C\277!\307C\277!\307C\277!\307C\277!\307C\277!\307C\277!\307C\277!\307C\277!\307C\277!\307C\277!\307C\277!\307C\277!\307C\277!\307C\277!\307C\277!\307C\277!\307C\277!\307C\277!\307C\277!\307C\277!\307C\277!\307C\277!\307C\277!\307C\277!\307C\277!\307C\277!\307C\277!\307C\277!\307C\277!\307C\277!\307C\277!\307C\277!\307C\277!\307C\277!\307C\277!\307C\277!\307C\277!\307C\277!\307C\277!\307C\277!\307C\277!\307C\277!\307C\277!\307C\277!\307C\277!\307C\277!\307C\277!\307C\277!\307C\277!\307C\277!\307C\277!\307C\277!\307C\277!\307C\277!\307C\277!\307C\277!\307C\277!\307C\277!\307C\277!\307C\277!\307C\277!\307C\277!\307C\277!\307C\277!\307C\277!\307C\277!\307C\277!\307C\277!\307C\277!\307C\277!\307C\277!\307C\277!\307C\277!\307C\277!\307C\277!\307C\277!\307C\277!\307C\277!\307C\277!\307C\277!\307C\277!\307C\277!\307C\277!\307C\277!\307C\277!\307C\277!\307C\277!\307C\277!\307C\277!\307C\277!\307C\277!\307C\277!\307C\277!\307C\277!\307C\277!\307C\277!\307C\277!\307C\277!\307C\277!\307C\277!\307C\277!\307C\277!\307C\277!\307C\277!\307C\277!\307C\277!\307C\277!\307C\277!\307C\277!\307C\277!\307C\277!\307C\277!\307C\277!\307C\277!\307C\277!\307C\277!\307C\277!\307C\277!\307C\277!\307C\277!\307C\277!\307C\277!\307C\277!\307C\277!\307C\277!\307C\277!\307C\277!\307C\277!\307C\277!\307C\277!\307C\277!\307C\277!\307C\277!\307C\277!\307C\277!\307C\277!\307C\277!\307C\277!\307C\277!\307C\277!\307C\277!\307C\277!\307C\277!\307C\277!\307C\277!\307C\277!\307C\277!\307C\277!\307C\277!\307C\277!\307C\277!\307C\277!\307C\277!\307C\277!\307C\277!\307C\277!\307C\277!\307C\277!\307C\277!\307C\277!\307C\277!\307C\277B}\030?B}\030?B}\030?B}\030?B}\030?B}\030?B}\030?B}\030?B}\030?B}\030?B}\030?B}\030?B}\030?B}\030?B}\030?B}\030?B}\030?B}\030?B}\030?B}\030?B}\030?B}\030?B}\030?B}\030?B}\030?B}\030?B}\030?B}\030?B}\030?B}\030?B}\030?B}\030?B}\030?B}\030?B}\030?B}\030?B}\030?B}\030?B}\030?B}\030?B}\030?B}\030?B}\030?B}\030?B}\030?B}\030?B}\030?B}\030?B}\030?B}\030?B}\030?B}\030?B}\030?B}\030?B}\030?B}\030?B}\030?B}\030?B}\030?B}\030?B}\030?B}\030?B}\030?B}\030?B}\030?B}\030?B}\030?B}\030?B}\030?B}\030?B}\030?B}\030?B}\030?B}\030?B}\030?B}\030?B}\030?B}\030?B}\030?B}\030?B}\030?B}\030?B}\030?B}\030?B}\030?B}\030?B}\030?B}\030?B}\030?B}\030?B}\030?B}\030?B}\030?B}\030?B}\030?B}\030?B}\030?B}\030?B}\030?B}\030?B}\030?B}\030?B}\030?B}\030?B}\030?B}\030?B}\030?B}\030?B}\030?B}\030?B}\030?B}\030?B}\030?B}\030?B}\030?B}\030?B}\030?B}\030?B}\030?B}\030?B}\030?B}\030?B}\030?B}\030?B}\030?B}\030?B}\030?B}\030?B}\030?B}\030?B}\030?B}\030?B}\030?B}\030?B}\030?B}\030?B}\030?B}\030?B}\030?B}\030?B}\030?B}\030?B}\030?B}\030?B}\030?B}\030?B}\030?B}\030?B}\030?B}\030?B}\030?B}\030?B}\030?B}\030?B}\030?B}\030?B}\030?B}\030?B}\030?B}\030?B}\030?B}\030?B}\030?B}\030?B}\030?B}\030?B}\030?B}\030?B}\030?B}\030?B}\030?B}\030?B}\030?B}\030?B}\030?B}\030?B}\030?B}\030?B}\030?B}\030?B}\030?B}\030?B}\030?B}\030?B}\030?B}\030?B}\030?B}\030?B}\030?B}\030?B}\030?B}\030?B}\030?B}\030?B}\030?B}\030?B}\030?B}\030?B}\030?B}\030?\210\341Z?\210\341Z?\210\341Z?\210\341Z?\210\341Z?\210\341Z?\210\341Z?\210\341Z?\210\341Z?\210\341Z?\210\341Z?\210\341Z?\210\341Z?\210\341Z?\210\341Z?\210\341Z?\210\341Z?\210\341Z?\210\341Z?\210\341Z?\210\341Z?\210\341Z?\210\341Z?\210\341Z?\210\341Z?\210\341Z?\210\341Z?\210\341Z?\210\341Z?\210\341Z?\210\341Z?\210\341Z?\210\341Z?\210\341Z?\210\341Z?\210\341Z?\210\341Z?\210\341Z?\210\341Z?\210\341Z?\210\341Z?\210\341Z?\210\341Z?\210\341Z?\210\341Z?\210\341Z?\210\341Z?\210\341Z?\210\341Z?\210\341Z?\210\341Z?\210\341Z?\210\341Z?\210\341Z?\210\341Z?\210\341Z?\210\341Z?\210\341Z?\210\341Z?\210\341Z?\210\341Z?\210\341Z?\210\341Z?\210\341Z?\210\341Z?\210\341Z?\210\341Z?\210\341Z?\210\341Z?\210\341Z?\210\341Z?\210\341Z?\210\341Z?\210\341Z?\210\341Z?\210\341Z?\210\341Z?\210\341Z?\210\341Z?\210\341Z?\210\341Z?\210\341Z?\210\341Z?\210\341Z?\210\341Z?\210\341Z?\210\341Z?\210\341Z?\210\341Z?\210\341Z?\210\341Z?\210\341Z?\210\341Z?\210\341Z?\210\341Z?\210\341Z?\210\341Z?\210\341Z?\210\341Z?\210\341Z?\210\341Z?\210\341Z?\210\341Z?\210\341Z?\210\341Z?\210\341Z?\210\341Z?\210\341Z?\210\341Z?\210\341Z?\210\341Z?\210\341Z?\210\341Z?\210\341Z?\210\341Z?\210\341Z?\210\341Z?\210\341Z?\210\341Z?\210\341Z?\210\341Z?\210\341Z?\210\341Z?\210\341Z?\210\341Z?\210\341Z?\210\341Z?\210\341Z?\210\341Z?\210\341Z?\210\341Z?\210\341Z?\210\341Z?\210\341Z?\210\341Z?\210\341Z?\210\341Z?\210\341Z?\210\341Z?\210\341Z?\210\341Z?\210\341Z?\210\341Z?\210\341Z?\210\341Z?\210\341Z?\210\341Z?\210\341Z?\210\341Z?\210\341Z?\210\341Z?\210\341Z?\210\341Z?\210\341Z?\210\341Z?\210\341Z?\210\341Z?\210\341Z?\210\341Z?\210\341Z?\210\341Z?\210\341Z?\210\341Z?\210\341Z?\210\341Z?\210\341Z?\210\341Z?\210\341Z?\210\341Z?\210\341Z?\210\341Z?\210\341Z?\210\341Z?\210\341Z?\210\341Z?\210\341Z?\210\341Z?\210\341Z?\210\341Z?\210\341Z?\210\341Z?\210\341Z?\210\341Z?\210\341Z?\210\341Z?\210\341Z?\210\341Z?\210\341Z?\210\341Z?\210\341Z?\210\341Z?\210\341Z?\210\341Z?\210\341Z?\210\341Z?\210\341Z?\210\341Z?\210\341Z?\210\341Z?\210\341Z?\001\010\002\276\001\010\002\276\001\010\002\276\001\010\002\276\001\010\002\276\001\010\002\276\001\010\002\276\001\010\002\276\001\010\002\276\001\010\002\276\001\010\002\276\001\010\002\276\001\010\002\276\001\010\002\276\001\010\002\276\001\010\002\276\001\010\002\276\001\010\002\276\001\010\002\276\001\010\002\276\001\010\002\276\001\010\002\276\001\010\002\276\001\010\002\276\001\010\002\276\001\010\002\276\001\010\002\276\001\010\002\276\001\010\002\276\001\010\002\276\001\010\002\276\001\010\002\276\001\010\002\276\001\010\002\276\001\010\002\276\001\010\002\276\001\010\002\276\001\010\002\276\001\010\002\276\001\010\002\276\001\010\002\276\001\010\002\276\001\010\002\276\001\010\002\276\001\010\002\276\001\010\002\276\001\010\002\276\001\010\002\276\001\010\002\276\001\010\002\276\001\010\002\276\001\010\002\276\001\010\002\276\001\010\002\276\001\010\002\276\001\010\002\276\001\010\002\276\001\010\002\276\001\010\002\276\001\010\002\276\001\010\002\276\001\010\002\276\001\010\002\276\001\010\002\276\001\010\002\276\001\010\002\276\001\010\002\276\001\010\002\276\001\010\002\276\001\010\002\276\001\010\002\276\001\010\002\276\001\010\002\276\001\010\002\276\001\010\002\276\001\010\002\276\001\010\002\276\001\010\002\276\001\010\002\276\001\010\002\276\001\010\002\276\001\010\002\276\001\010\002\276\001\010\002\276\001\010\002\276\001\010\002\276\001\010\002\276\001\010\002\276\001\010\002\276\001\010\002\276\001\010\002\276\001\010\002\276\001\010\002\276\001\010\002\276\001\010\002\276\001\010\002\276\001\010\002\276\001\010\002\276\001\010\002\276\001\010\002\276\001\010\002\276\001\010\002\276\001\010\002\276\001\010\002\276\001\010\002\276\001\010\002\276\001\010\002\276\001\010\002\276\001\010\002\276\001\010\002\276\001\010\002\276\001\010\002\276\001\010\002\276\001\010\002\276\001\010\002\276\001\010\002\276\001\010\002\276\001\010\002\276\001\010\002\276\001\010\002\276\001\010\002\276\001\010\002\276\001\010\002\276\001\010\002\276\001\010\002\276\001\010\002\276\001\010\002\276\001\010\002\276\001\010\002\276\001\010\002\276\001\010\002\276\001\010\002\276\001\010\002\276\001\010\002\276\001\010\002\276\001\010\002\276\001\010\002\276\001\010\002\276\001\010\002\276\001\010\002\276\001\010\002\276\001\010\002\276\001\010\002\276\001\010\002\276\001\010\002\276\001\010\002\276\001\010\002\276\001\010\002\276\001\010\002\276\001\010\002\276\001\010\002\276\001\010\002\276\001\010\002\276\001\010\002\276\001\010\002\276\001\010\002\276\001\010\002\276\001\010\002\276\001\010\002\276\001\010\002\276\001\010\002\276\001\010\002\276\001\010\002\276\001\010\002\276\001\010\002\276\001\010\002\276\001\010\002\276\001\010\002\276\001\010\002\276\001\010\002\276\001\010\002\276\001\010\002\276\001\010\002\276\001\010\002\276\001\010\002\276\001\010\002\276\001\010\002\276\001\010\002\276\001\010\002\276\001\010\002\276\001\010\002\276\001\010\002\276\001\010\002\276\001\010\002\276\001\010\002\276\001\010\002\276\001\010\002\276\001\010\002\276\001\010\002\276\001\010\002\276\001\010\002\276\001\010\002\276\001\010\002\276\001\010\002\276\001\010\002\276\001\010\002\276\001\010\002\276\001\010\002\276\001\010\002\276\001\010\002\276lC\231>lC\231>lC\231>lC\231>lC\231>lC\231>lC\231>lC\231>lC\231>lC\231>lC\231>lC\231>lC\231>lC\231>lC\231>lC\231>lC\231>lC\231>lC\231>lC\231>lC\231>lC\231>lC\231>lC\231>lC\231>lC\231>lC\231>lC\231>lC\231>lC\231>lC\231>lC\231>lC\231>lC\231>lC\231>lC\231>lC\231>lC\231>lC\231>lC\231>lC\231>lC\231>lC\231>lC\231>lC\231>lC\231>lC\231>lC\231>lC\231>lC\231>lC\231>lC\231>lC\231>lC\231>lC\231>lC\231>lC\231>lC\231>lC\231>lC\231>lC\231>lC\231>lC\231>lC\231>lC\231>lC\231>lC\231>lC\231>lC\231>lC\231>lC\231>lC\231>lC\231>lC\231>lC\231>lC\231>lC\231>lC\231>lC\231>lC\231>lC\231>lC\231>lC\231>lC\231>lC\231>lC\231>lC\231>lC\231>lC\231>lC\231>lC\231>lC\231>lC\231>lC\231>lC\231>lC\231>lC\231>lC\231>lC\231>lC\231>lC\231>lC\231>lC\231>lC\231>lC\231>lC\231>lC\231>lC\231>lC\231>lC\231>lC\231>lC\231>lC\231>lC\231>lC\231>lC\231>lC\231>lC\231>lC\231>lC\231>lC\231>lC\231>lC\231>lC\231>lC\231>lC\231>lC\231>lC\231>lC\231>lC\231>lC\231>lC\231>lC\231>lC\231>lC\231>lC\231>lC\231>lC\231>lC\231>lC\231>lC\231>lC\231>lC\231>lC\231>lC\231>lC\231>lC\231>lC\231>lC\231>lC\231>lC\231>lC\231>lC\231>lC\231>lC\231>lC\231>lC\231>lC\231>lC\231>lC\231>lC\231>lC\231>lC\231>lC\231>lC\231>lC\231>lC\231>lC\231>lC\231>lC\231>lC\231>lC\231>lC\231>lC\231>lC\231>lC\231>lC\231>lC\231>lC\231>lC\231>lC\231>lC\231>lC\231>lC\231>lC\231>lC\231>lC\231>lC\231>lC\231>lC\231>lC\231>lC\231>lC\231>lC\231>lC\231>lC\231>lC\231>lC\231>lC\231>lC\231>\331lw>\331lw>\331lw>\331lw>\331lw>\331lw>\331lw>\331lw>\331lw>\331lw>\331lw>\331lw>\331lw>\331lw>\331lw>\331lw>\331lw>\331lw>\331lw>\331lw>\331lw>\331lw>\331lw>\331lw>\331lw>\331lw>\331lw>\331lw>\331lw>\331lw>\331lw>\331lw>\331lw>\331lw>\331lw>\331lw>\331lw>\331lw>\331lw>\331lw>\331lw>\331lw>\331lw>\331lw>\331lw>\331lw>\331lw>\331lw>\331lw>\331lw>\331lw>\331lw>\331lw>\331lw>\331lw>\331lw>\331lw>\331lw>\331lw>\331lw>\331lw>\331lw>\331lw>\331lw>\331lw>\331lw>\331lw>\331lw>\331lw>\331lw>\331lw>\331lw>\331lw>\331lw>\331lw>\331lw>\331lw>\331lw>\331lw>\331lw>\331lw>\331lw>\331lw>\331lw>\331lw>\331lw>\331lw>\331lw>\331lw>\331lw>\331lw>\331lw>\331lw>\331lw>\331lw>\331lw>\331lw>\331lw>\331lw>\331lw>\331lw>\331lw>\331lw>\331lw>\331lw>\331lw>\331lw>\331lw>\331lw>\331lw>\331lw>\331lw>\331lw>\331lw>\331lw>\331lw>\331lw>\331lw>\331lw>\331lw>\331lw>\331lw>\331lw>\331lw>\331lw>\331lw>\331lw>\331lw>\331lw>\331lw>\331lw>\331lw>\331lw>\331lw>\331lw>\331lw>\331lw>\331lw>\331lw>\331lw>\331lw>\331lw>\331lw>\331lw>\331lw>\331lw>\331lw>\331lw>\331lw>\331lw>\331lw>\331lw>\331lw>\331lw>\331lw>\331lw>\331lw>\331lw>\331lw>\331lw>\331lw>\331lw>\331lw>\331lw>\331lw>\331lw>\331lw>\331lw>\331lw>\331lw>\331lw>\331lw>\331lw>\331lw>\331lw>\331lw>\331lw>\331lw>\331lw>\331lw>\331lw>\331lw>\331lw>\331lw>\331lw>\331lw>\331lw>\331lw>\331lw>\331lw>\331lw>\331lw>\331lw>\331lw>\331lw>\331lw>\331lw>\331lw>\331lw>\331lw>9\033\303>9\033\303>9\033\303>9\033\303>9\033\303>9\033\303>9\033\303>9\033\303>9\033\303>9\033\303>9\033\303>9\033\303>9\033\303>9\033\303>9\033\303>9\033\303>9\033\303>9\033\303>9\033\303>9\033\303>9\033\303>9\033\303>9\033\303>9\033\303>9\033\303>9\033\303>9\033\303>9\033\303>9\033\303>9\033\303>9\033\303>9\033\303>9\033\303>9\033\303>9\033\303>9\033\303>9\033\303>9\033\303>9\033\303>9\033\303>9\033\303>9\033\303>9\033\303>9\033\303>9\033\303>9\033\303>9\033\303>9\033\303>9\033\303>9\033\303>9\033\303>9\033\303>9\033\303>9\033\303>9\033\303>9\033\303>9\033\303>9\033\303>9\033\303>9\033\303>9\033\303>9\033\303>9\033\303>9\033\303>9\033\303>9\033\303>9\033\303>9\033\303>9\033\303>9\033\303>9\033\303>9\033\303>9\033\303>9\033\303>9\033\303>9\033\303>9\033\303>9\033\303>9\033\303>9\033\303>9\033\303>9\033\303>9\033\303>9\033\303>9\033\303>9\033\303>9\033\303>9\033\303>9\033\303>9\033\303>9\033\303>9\033\303>9\033\303>9\033\303>9\033\303>9\033\303>9\033\303>9\033\303>9\033\303>9\033\303>9\033\303>9\033\303>9\033\303>9\033\303>9\033\303>9\033\303>9\033\303>9\033\303>9\033\303>9\033\303>9\033\303>9\033\303>9\033\303>9\033\303>9\033\303>9\033\303>9\033\303>9\033\303>9\033\303>9\033\303>9\033\303>9\033\303>9\033\303>9\033\303>9\033\303>9\033\303>9\033\303>9\033\303>9\033\303>9\033\303>9\033\303>9\033\303>9\033\303>9\033\303>9\033\303>9\033\303>9\033\303>9\033\303>9\033\303>9\033\303>9\033\303>9\033\303>9\033\303>9\033\303>9\033\303>9\033\303>9\033\303>9\033\303>9\033\303>9\033\303>9\033\303>9\033\303>9\033\303>9\033\303>9\033\303>9\033\303>9\033\303>9\033\303>9\033\303>9\033\303>9\033\303>9\033\303>9\033\303>9\033\303>9\033\303>9\033\303>9\033\303>9\033\303>9\033\303>9\033\303>9\033\303>9\033\303>9\033\303>9\033\303>9\033\303>9\033\303>9\033\303>9\033\303>9\033\303>9\033\303>9\033\303>9\033\303>9\033\303>9\033\303>9\033\303>9\033\303>9\033\303>9\033\303>9\033\303>9\033\303>9\033\303>9\033\303>9\033\303>9\033\303>9\033\303>9\033\303>9\033\303>9\033\303>9\033\303>9\033\303>q\304\250\275q\304\250\275q\304\250\275q\304\250\275q\304\250\275q\304\250\275q\304\250\275q\304\250\275q\304\250\275q\304\250\275q\304\250\275q\304\250\275q\304\250\275q\304\250\275q\304\250\275q\304\250\275q\304\250\275q\304\250\275q\304\250\275q\304\250\275q\304\250\275q\304\250\275q\304\250\275q\304\250\275q\304\250\275q\304\250\275q\304\250\275q\304\250\275q\304\250\275q\304\250\275q\304\250\275q\304\250\275q\304\250\275q\304\250\275q\304\250\275q\304\250\275q\304\250\275q\304\250\275q\304\250\275q\304\250\275q\304\250\275q\304\250\275q\304\250\275q\304\250\275q\304\250\275q\304\250\275q\304\250\275q\304\250\275q\304\250\275q\304\250\275q\304\250\275q\304\250\275q\304\250\275q\304\250\275q\304\250\275q\304\250\275q\304\250\275q\304\250\275q\304\250\275q\304\250\275q\304\250\275q\304\250\275q\304\250\275q\304\250\275q\304\250\275q\304\250\275q\304\250\275q\304\250\275q\304\250\275q\304\250\275q\304\250\275q\304\250\275q\304\250\275q\304\250\275q\304\250\275q\304\250\275q\304\250\275q\304\250\275q\304\250\275q\304\250\275q\304\250\275q\304\250\275q\304\250\275q\304\250\275q\304\250\275q\304\250\275q\304\250\275q\304\250\275q\304\250\275q\304\250\275q\304\250\275q\304\250\275q\304\250\275q\304\250\275q\304\250\275q\304\250\275q\304\250\275q\304\250\275q\304\250\275q\304\250\275q\304\250\275q\304\250\275q\304\250\275q\304\250\275q\304\250\275q\304\250\275q\304\250\275q\304\250\275q\304\250\275q\304\250\275q\304\250\275q\304\250\275q\304\250\275q\304\250\275q\304\250\275q\304\250\275q\304\250\275q\304\250\275q\304\250\275q\304\250\275q\304\250\275q\304\250\275q\304\250\275q\304\250\275q\304\250\275q\304\250\275q\304\250\275q\304\250\275q\304\250\275q\304\250\275q\304\250\275q\304\250\275q\304\250\275q\304\250\275q\304\250\275q\304\250\275q\304\250\275q\304\250\275q\304\250\275q\304\250\275q\304\250\275q\304\250\275q\304\250\275q\304\250\275q\304\250\275q\304\250\275q\304\250\275q\304\250\275q\304\250\275q\304\250\275q\304\250\275q\304\250\275q\304\250\275q\304\250\275q\304\250\275q\304\250\275q\304\250\275q\304\250\275q\304\250\275q\304\250\275q\304\250\275q\304\250\275q\304\250\275q\304\250\275q\304\250\275q\304\250\275q\304\250\275q\304\250\275q\304\250\275q\304\250\275q\304\250\275q\304\250\275q\304\250\275q\304\250\275q\304\250\275q\304\250\275q\304\250\275q\304\250\275q\304\250\275q\304\250\275q\304\250\275q\304\250\275q\304\250\275q\304\250\275q\304\250\275q\304\250\275q\304\250\275q\304\250\275q\304\250\275q\304\250\275q\304\250\275q\304\250\275q\304\250\275q\304\250\275q\304\250\275q\304\250\275q\304\250\275q\304\250\275q\304\250\275q\304\250\275\267>\177\276\267>\177\276\267>\177\276\267>\177\276\267>\177\276\267>\177\276\267>\177\276\267>\177\276\267>\177\276\267>\177\276\267>\177\276\267>\177\276\267>\177\276\267>\177\276\267>\177\276\267>\177\276\267>\177\276\267>\177\276\267>\177\276\267>\177\276\267>\177\276\267>\177\276\267>\177\276\267>\177\276\267>\177\276\267>\177\276\267>\177\276\267>\177\276\267>\177\276\267>\177\276\267>\177\276\267>\177\276\267>\177\276\267>\177\276\267>\177\276\267>\177\276\267>\177\276\267>\177\276\267>\177\276\267>\177\276\267>\177\276\267>\177\276\267>\177\276\267>\177\276\267>\177\276\267>\177\276\267>\177\276\267>\177\276\267>\177\276\267>\177\276\267>\177\276\267>\177\276\267>\177\276\267>\177\276\267>\177\276\267>\177\276\267>\177\276\267>\177\276\267>\177\276\267>\177\276\267>\177\276\267>\177\276\267>\177\276\267>\177\276\267>\177\276\267>\177\276\267>\177\276\267>\177\276\267>\177\276\267>\177\276\267>\177\276\267>\177\276\267>\177\276\267>\177\276\267>\177\276\267>\177\276\267>\177\276\267>\177\276\267>\177\276\267>\177\276\267>\177\276\267>\177\276\267>\177\276\267>\177\276\267>\177\276\267>\177\276\267>\177\276\267>\177\276\267>\177\276\267>\177\276\267>\177\276\267>\177\276\267>\177\276\267>\177\276\267>\177\276\267>\177\276\267>\177\276\267>\177\276\267>\177\276\267>\177\276\267>\177\276\267>\177\276\267>\177\276\267>\177\276\267>\177\276\267>\177\276\267>\177\276\267>\177\276\267>\177\276\267>\177\276\267>\177\276\267>\177\276\267>\177\276\267>\177\276\267>\177\276\267>\177\276\267>\177\276\267>\177\276\267>\177\276\267>\177\276\267>\177\276\267>\177\276\267>\177\276\267>\177\276\267>\177\276\267>\177\276\267>\177\276\267>\177\276\267>\177\276\267>\177\276\267>\177\276\267>\177\276\267>\177\276\267>\177\276\267>\177\276\267>\177\276\267>\177\276\267>\177\276\267>\177\276\267>\177\276\267>\177\276\267>\177\276\267>\177\276\267>\177\276\267>\177\276\267>\177\276\267>\177\276\267>\177\276\267>\177\276\267>\177\276\267>\177\276\267>\177\276\267>\177\276\267>\177\276\267>\177\276\267>\177\276\267>\177\276\267>\177\276\267>\177\276\267>\177\276\267>\177\276\267>\177\276\267>\177\276\267>\177\276\267>\177\276\267>\177\276\267>\177\276\267>\177\276\267>\177\276\267>\177\276\267>\177\276\267>\177\276\267>\177\276\267>\177\276\267>\177\276\267>\177\276\267>\177\276\267>\177\276\267>\177\276\267>\177\276\267>\177\276\267>\177\276\267>\177\276\267>\177\276\267>\177\276\267>\177\276\267>\177\276\267>\177\276\267>\177\276\267>\177\276\267>\177\276\267>\177\276\267>\177\276\267>\177\276\267>\177\276\267>\177\276\267>\177\276\267>\177\276\267>\177\276\267>\177\276\265\311\263>\265\311\263>\265\311\263>\265\311\263>\265\311\263>\265\311\263>\265\311\263>\265\311\263>\265\311\263>\265\311\263>\265\311\263>\265\311\263>\265\311\263>\265\311\263>\265\311\263>\265\311\263>\265\311\263>\265\311\263>\265\311\263>\265\311\263>\265\311\263>\265\311\263>\265\311\263>\265\311\263>\265\311\263>\265\311\263>\265\311\263>\265\311\263>\265\311\263>\265\311\263>\265\311\263>\265\311\263>\265\311\263>\265\311\263>\265\311\263>\265\311\263>\265\311\263>\265\311\263>\265\311\263>\265\311\263>\265\311\263>\265\311\263>\265\311\263>\265\311\263>\265\311\263>\265\311\263>\265\311\263>\265\311\263>\265\311\263>\265\311\263>\265\311\263>\265\311\263>\265\311\263>\265\311\263>\265\311\263>\265\311\263>\265\311\263>\265\311\263>\265\311\263>\265\311\263>\265\311\263>\265\311\263>\265\311\263>\265\311\263>\265\311\263>\265\311\263>\265\311\263>\265\311\263>\265\311\263>\265\311\263>\265\311\263>\265\311\263>\265\311\263>\265\311\263>\265\311\263>\265\311\263>\265\311\263>\265\311\263>\265\311\263>\265\311\263>\265\311\263>\265\311\263>\265\311\263>\265\311\263>\265\311\263>\265\311\263>\265\311\263>\265\311\263>\265\311\263>\265\311\263>\265\311\263>\265\311\263>\265\311\263>\265\311\263>\265\311\263>\265\311\263>\265\311\263>\265\311\263>\265\311\263>\265\311\263>\265\311\263>\265\311\263>\265\311\263>\265\311\263>\265\311\263>\265\311\263>\265\311\263>\265\311\263>\265\311\263>\265\311\263>\265\311\263>\265\311\263>\265\311\263>\265\311\263>\265\311\263>\265\311\263>\265\311\263>\265\311\263>\265\311\263>\265\311\263>\265\311\263>\265\311\263>\265\311\263>\265\311\263>\265\311\263>\265\311\263>\265\311\263>\265\311\263>\265\311\263>\265\311\263>\265\311\263>\265\311\263>\265\311\263>\265\311\263>\265\311\263>\265\311\263>\265\311\263>\265\311\263>\265\311\263>\265\311\263>\265\311\263>\265\311\263>\265\311\263>\265\311\263>\265\311\263>\265\311\263>\265\311\263>\265\311\263>\265\311\263>\265\311\263>\265\311\263>\265\311\263>\265\311\263>\265\311\263>\265\311\263>\265\311\263>\265\311\263>\265\311\263>\265\311\263>\265\311\263>\265\311\263>\265\311\263>\265\311\263>\265\311\263>\265\311\263>\265\311\263>\265\311\263>\265\311\263>\265\311\263>\265\311\263>\265\311\263>\265\311\263>\265\311\263>\265\311\263>\265\311\263>\265\311\263>\265\311\263>\265\311\263>\265\311\263>\265\311\263>\265\311\263>\265\311\263>\265\311\263>\265\311\263>\265\311\263>\265\311\263>\265\311\263>\265\311\263>\265\311\263>\265\311\263>\265\311\263>\265\311\263>\265\311\263>\265\311\263>\265\311\263>\265\311\263>\265\311\263>\265\311\263>\265\311\263>\265\311\263>\203F\t\276\203F\t\276\203F\t\276\203F\t\276\203F\t\276\203F\t\276\203F\t\276\203F\t\276\203F\t\276\203F\t\276\203F\t\276\203F\t\276\203F\t\276\203F\t\276\203F\t\276\203F\t\276\203F\t\276\203F\t\276\203F\t\276\203F\t\276\203F\t\276\203F\t\276\203F\t\276\203F\t\276\203F\t\276\203F\t\276\203F\t\276\203F\t\276\203F\t\276\203F\t\276\203F\t\276\203F\t\276\203F\t\276\203F\t\276\203F\t\276\203F\t\276\203F\t\276\203F\t\276\203F\t\276\203F\t\276\203F\t\276\203F\t\276\203F\t\276\203F\t\276\203F\t\276\203F\t\276\203F\t\276\203F\t\276\203F\t\276\203F\t\276\203F\t\276\203F\t\276\203F\t\276\203F\t\276\203F\t\276\203F\t\276\203F\t\276\203F\t\276\203F\t\276\203F\t\276\203F\t\276\203F\t\276\203F\t\276\203F\t\276\203F\t\276\203F\t\276\203F\t\276\203F\t\276\203F\t\276\203F\t\276\203F\t\276\203F\t\276\203F\t\276\203F\t\276\203F\t\276\203F\t\276\203F\t\276\203F\t\276\203F\t\276\203F\t\276\203F\t\276\203F\t\276\203F\t\276\203F\t\276\203F\t\276\203F\t\276\203F\t\276\203F\t\276\203F\t\276\203F\t\276\203F\t\276\203F\t\276\203F\t\276\203F\t\276\203F\t\276\203F\t\276\203F\t\276\203F\t\276\203F\t\276\203F\t\276\203F\t\276\203F\t\276\203F\t\276\203F\t\276\203F\t\276\203F\t\276\203F\t\276\203F\t\276\203F\t\276\203F\t\276\203F\t\276\203F\t\276\203F\t\276\203F\t\276\203F\t\276\203F\t\276\203F\t\276\203F\t\276\203F\t\276\203F\t\276\203F\t\276\203F\t\276\203F\t\276\203F\t\276\203F\t\276\203F\t\276\203F\t\276\203F\t\276\203F\t\276\203F\t\276\203F\t\276\203F\t\276\203F\t\276\203F\t\276\203F\t\276\203F\t\276\203F\t\276\203F\t\276\203F\t\276\203F\t\276\203F\t\276\203F\t\276\203F\t\276\203F\t\276\203F\t\276\203F\t\276\203F\t\276\203F\t\276\203F\t\276\203F\t\276\203F\t\276\203F\t\276\203F\t\276\203F\t\276\203F\t\276\203F\t\276\203F\t\276\203F\t\276\203F\t\276\203F\t\276\203F\t\276\203F\t\276\203F\t\276\203F\t\276\203F\t\276\203F\t\276\203F\t\276\203F\t\276\203F\t\276\203F\t\276\203F\t\276\203F\t\276\203F\t\276\203F\t\276\203F\t\276\203F\t\276\203F\t\276\203F\t\276\203F\t\276\203F\t\276\203F\t\276\203F\t\276\203F\t\276\203F\t\276\203F\t\276\203F\t\276\203F\t\276\203F\t\276\203F\t\276\203F\t\276\203F\t\276\203F\t\276\203F\t\276\203F\t\276\203F\t\276\203F\t\276\203F\t\276\203F\t\276\203F\t\276\203F\t\276~\014v\277~\014v\277~\014v\277~\014v\277~\014v\277~\014v\277~\014v\277~\014v\277~\014v\277~\014v\277~\014v\277~\014v\277~\014v\277~\014v\277~\014v\277~\014v\277~\014v\277~\014v\277~\014v\277~\014v\277~\014v\277~\014v\277~\014v\277~\014v\277~\014v\277~\014v\277~\014v\277~\014v\277~\014v\277~\014v\277~\014v\277~\014v\277~\014v\277~\014v\277~\014v\277~\014v\277~\014v\277~\014v\277~\014v\277~\014v\277~\014v\277~\014v\277~\014v\277~\014v\277~\014v\277~\014v\277~\014v\277~\014v\277~\014v\277~\014v\277~\014v\277~\014v\277~\014v\277~\014v\277~\014v\277~\014v\277~\014v\277~\014v\277~\014v\277~\014v\277~\014v\277~\014v\277~\014v\277~\014v\277~\014v\277~\014v\277~\014v\277~\014v\277~\014v\277~\014v\277~\014v\277~\014v\277~\014v\277~\014v\277~\014v\277~\014v\277~\014v\277~\014v\277~\014v\277~\014v\277~\014v\277~\014v\277~\014v\277~\014v\277~\014v\277~\014v\277~\014v\277~\014v\277~\014v\277~\014v\277~\014v\277~\014v\277~\014v\277~\014v\277~\014v\277~\014v\277~\014v\277~\014v\277~\014v\277~\014v\277~\014v\277~\014v\277~\014v\277~\014v\277~\014v\277~\014v\277~\014v\277~\014v\277~\014v\277~\014v\277~\014v\277~\014v\277~\014v\277~\014v\277~\014v\277~\014v\277~\014v\277~\014v\277~\014v\277~\014v\277~\014v\277~\014v\277~\014v\277~\014v\277~\014v\277~\014v\277~\014v\277~\014v\277~\014v\277~\014v\277~\014v\277~\014v\277~\014v\277~\014v\277~\014v\277~\014v\277~\014v\277~\014v\277~\014v\277~\014v\277~\014v\277~\014v\277~\014v\277~\014v\277~\014v\277~\014v\277~\014v\277~\014v\277~\014v\277~\014v\277~\014v\277~\014v\277~\014v\277~\014v\277~\014v\277~\014v\277~\014v\277~\014v\277~\014v\277~\014v\277~\014v\277~\014v\277~\014v\277~\014v\277~\014v\277~\014v\277~\014v\277~\014v\277~\014v\277~\014v\277~\014v\277~\014v\277~\014v\277~\014v\277~\014v\277~\014v\277~\014v\277~\014v\277~\014v\277~\014v\277~\014v\277~\014v\277~\014v\277~\014v\277~\014v\277~\014v\277~\014v\277~\014v\277~\014v\277~\014v\277~\014v\277~\014v\277~\014v\277~\014v\277~\014v\277~\014v\277~\014v\277~\014v\277~\014v\277~\014v\277\000\001\225>\000\001\225>\000\001\225>\000\001\225>\000\001\225>\000\001\225>\000\001\225>\000\001\225>\000\001\225>\000\001\225>\000\001\225>\000\001\225>\000\001\225>\000\001\225>\000\001\225>\000\001\225>\000\001\225>\000\001\225>\000\001\225>\000\001\225>\000\001\225>\000\001\225>\000\001\225>\000\001\225>\000\001\225>\000\001\225>\000\001\225>\000\001\225>\000\001\225>\000\001\225>\000\001\225>\000\001\225>\000\001\225>\000\001\225>\000\001\225>\000\001\225>\000\001\225>\000\001\225>\000\001\225>\000\001\225>\000\001\225>\000\001\225>\000\001\225>\000\001\225>\000\001\225>\000\001\225>\000\001\225>\000\001\225>\000\001\225>\000\001\225>\000\001\225>\000\001\225>\000\001\225>\000\001\225>\000\001\225>\000\001\225>\000\001\225>\000\001\225>\000\001\225>\000\001\225>\000\001\225>\000\001\225>\000\001\225>\000\001\225>\000\001\225>\000\001\225>\000\001\225>\000\001\225>\000\001\225>\000\001\225>\000\001\225>\000\001\225>\000\001\225>\000\001\225>\000\001\225>\000\001\225>\000\001\225>\000\001\225>\000\001\225>\000\001\225>\000\001\225>\000\001\225>\000\001\225>\000\001\225>\000\001\225>\000\001\225>\000\001\225>\000\001\225>\000\001\225>\000\001\225>\000\001\225>\000\001\225>\000\001\225>\000\001\225>\000\001\225>\000\001\225>\000\001\225>\000\001\225>\000\001\225>\000\001\225>\000\001\225>\000\001\225>\000\001\225>\000\001\225>\000\001\225>\000\001\225>\000\001\225>\000\001\225>\000\001\225>\000\001\225>\000\001\225>\000\001\225>\000\001\225>\000\001\225>\000\001\225>\000\001\225>\000\001\225>\000\001\225>\000\001\225>\000\001\225>\000\001\225>\000\001\225>\000\001\225>\000\001\225>\000\001\225>\000\001\225>\000\001\225>\000\001\225>\000\001\225>\000\001\225>\000\001\225>\000\001\225>\000\001\225>\000\001\225>\000\001\225>\000\001\225>\000\001\225>\000\001\225>\000\001\225>\000\001\225>\000\001\225>\000\001\225>\000\001\225>\000\001\225>\000\001\225>\000\001\225>\000\001\225>\000\001\225>\000\001\225>\000\001\225>\000\001\225>\000\001\225>\000\001\225>\000\001\225>\000\001\225>\000\001\225>\000\001\225>\000\001\225>\000\001\225>\000\001\225>\000\001\225>\000\001\225>\000\001\225>\000\001\225>\000\001\225>\000\001\225>\000\001\225>\000\001\225>\000\001\225>\000\001\225>\000\001\225>\000\001\225>\000\001\225>\000\001\225>\000\001\225>\000\001\225>\000\001\225>\000\001\225>\000\001\225>\000\001\225>\000\001\225>\000\001\225>\000\001\225>\000\001\225>\000\001\225>\000\001\225>\000\001\225>\000\001\225>\000\001\225>\000\001\225>\000\001\225>\000\001\225>\000\001\225>\000\001\225>\000\001\225>\000\001\225>\000\001\225>\000\001\225>\000\001\225>\000\001\225>\204A\r>\204A\r>\204A\r>\204A\r>\204A\r>\204A\r>\204A\r>\204A\r>\204A\r>\204A\r>\204A\r>\204A\r>\204A\r>\204A\r>\204A\r>\204A\r>\204A\r>\204A\r>\204A\r>\204A\r>\204A\r>\204A\r>\204A\r>\204A\r>\204A\r>\204A\r>\204A\r>\204A\r>\204A\r>\204A\r>\204A\r>\204A\r>\204A\r>\204A\r>\204A\r>\204A\r>\204A\r>\204A\r>\204A\r>\204A\r>\204A\r>\204A\r>\204A\r>\204A\r>\204A\r>\204A\r>\204A\r>\204A\r>\204A\r>\204A\r>\204A\r>\204A\r>\204A\r>\204A\r>\204A\r>\204A\r>\204A\r>\204A\r>\204A\r>\204A\r>\204A\r>\204A\r>\204A\r>\204A\r>\204A\r>\204A\r>\204A\r>\204A\r>\204A\r>\204A\r>\204A\r>\204A\r>\204A\r>\204A\r>\204A\r>\204A\r>\204A\r>\204A\r>\204A\r>\204A\r>\204A\r>\204A\r>\204A\r>\204A\r>\204A\r>\204A\r>\204A\r>\204A\r>\204A\r>\204A\r>\204A\r>\204A\r>\204A\r>\204A\r>\204A\r>\204A\r>\204A\r>\204A\r>\204A\r>\204A\r>\204A\r>\204A\r>\204A\r>\204A\r>\204A\r>\204A\r>\204A\r>\204A\r>\204A\r>\204A\r>\204A\r>\204A\r>\204A\r>\204A\r>\204A\r>\204A\r>\204A\r>\204A\r>\204A\r>\204A\r>\204A\r>\204A\r>\204A\r>\204A\r>\204A\r>\204A\r>\204A\r>\204A\r>\204A\r>\204A\r>\204A\r>\204A\r>\204A\r>\204A\r>\204A\r>\204A\r>\204A\r>\204A\r>\204A\r>\204A\r>\204A\r>\204A\r>\204A\r>\204A\r>\204A\r>\204A\r>\204A\r>\204A\r>\204A\r>\204A\r>\204A\r>\204A\r>\204A\r>\204A\r>\204A\r>\204A\r>\204A\r>\204A\r>\204A\r>\204A\r>\204A\r>\204A\r>\204A\r>\204A\r>\204A\r>\204A\r>\204A\r>\204A\r>\204A\r>\204A\r>\204A\r>\204A\r>\204A\r>\204A\r>\204A\r>\204A\r>\204A\r>\204A\r>\204A\r>\204A\r>\204A\r>\204A\r>\204A\r>\204A\r>\204A\r>\204A\r>\204A\r>\204A\r>\204A\r>\204A\r>\204A\r>\204A\r>\204A\r>\204A\r>\204A\r>\204A\r>\204A\r>\204A\r>\204A\r>\204A\r>\034\254b=\034\254b=\034\254b=\034\254b=\034\254b=\034\254b=\034\254b=\034\254b=\034\254b=\034\254b=\034\254b=\034\254b=\034\254b=\034\254b=\034\254b=\034\254b=\034\254b=\034\254b=\034\254b=\034\254b=\034\254b=\034\254b=\034\254b=\034\254b=\034\254b=\034\254b=\034\254b=\034\254b=\034\254b=\034\254b=\034\254b=\034\254b=\034\254b=\034\254b=\034\254b=\034\254b=\034\254b=\034\254b=\034\254b=\034\254b=\034\254b=\034\254b=\034\254b=\034\254b=\034\254b=\034\254b=\034\254b=\034\254b=\034\254b=\034\254b=\034\254b=\034\254b=\034\254b=\034\254b=\034\254b=\034\254b=\034\254b=\034\254b=\034\254b=\034\254b=\034\254b=\034\254b=\034\254b=\034\254b=\034\254b=\034\254b=\034\254b=\034\254b=\034\254b=\034\254b=\034\254b=\034\254b=\034\254b=\034\254b=\034\254b=\034\254b=\034\254b=\034\254b=\034\254b=\034\254b=\034\254b=\034\254b=\034\254b=\034\254b=\034\254b=\034\254b=\034\254b=\034\254b=\034\254b=\034\254b=\034\254b=\034\254b=\034\254b=\034\254b=\034\254b=\034\254b=\034\254b=\034\254b=\034\254b=\034\254b=\034\254b=\034\254b=\034\254b=\034\254b=\034\254b=\034\254b=\034\254b=\034\254b=\034\254b=\034\254b=\034\254b=\034\254b=\034\254b=\034\254b=\034\254b=\034\254b=\034\254b=\034\254b=\034\254b=\034\254b=\034\254b=\034\254b=\034\254b=\034\254b=\034\254b=\034\254b=\034\254b=\034\254b=\034\254b=\034\254b=\034\254b=\034\254b=\034\254b=\034\254b=\034\254b=\034\254b=\034\254b=\034\254b=\034\254b=\034\254b=\034\254b=\034\254b=\034\254b=\034\254b=\034\254b=\034\254b=\034\254b=\034\254b=\034\254b=\034\254b=\034\254b=\034\254b=\034\254b=\034\254b=\034\254b=\034\254b=\034\254b=\034\254b=\034\254b=\034\254b=\034\254b=\034\254b=\034\254b=\034\254b=\034\254b=\034\254b=\034\254b=\034\254b=\034\254b=\034\254b=\034\254b=\034\254b=\034\254b=\034\254b=\034\254b=\034\254b=\034\254b=\034\254b=\034\254b=\034\254b=\034\254b=\034\254b=\034\254b=\034\254b=\034\254b=\034\254b=\034\254b=\034\254b=\034\254b=\034\254b=\034\254b=\034\254b=\034\254b=\034\254b=\034\254b=\034\254b=\034\254b=\034\254b=\034\254b=\034\254b="
      }
    }
  }
}
node {
  name: "LSTM1/recurrent_kernel"
  op: "Const"
  attr {
    key: "dtype"
    value {
      type: DT_FLOAT
    }
  }
  attr {
    key: "value"
    value {
      tensor {
        dtype: DT_FLOAT
        tensor_shape {
          dim {
            size: 50
          }
          dim {
            size: 200
          }
        }
